<pad>	0
<unk>	0
<s>	0
</s>	0
<0x00>	0
<0x01>	0
<0x02>	0
<0x03>	0
<0x04>	0
<0x05>	0
<0x06>	0
<0x07>	0
<0x08>	0
<0x09>	0
<0x0A>	0
<0x0B>	0
<0x0C>	0
<0x0D>	0
<0x0E>	0
<0x0F>	0
<0x10>	0
<0x11>	0
<0x12>	0
<0x13>	0
<0x14>	0
<0x15>	0
<0x16>	0
<0x17>	0
<0x18>	0
<0x19>	0
<0x1A>	0
<0x1B>	0
<0x1C>	0
<0x1D>	0
<0x1E>	0
<0x1F>	0
<0x20>	0
<0x21>	0
<0x22>	0
<0x23>	0
<0x24>	0
<0x25>	0
<0x26>	0
<0x27>	0
<0x28>	0
<0x29>	0
<0x2A>	0
<0x2B>	0
<0x2C>	0
<0x2D>	0
<0x2E>	0
<0x2F>	0
<0x30>	0
<0x31>	0
<0x32>	0
<0x33>	0
<0x34>	0
<0x35>	0
<0x36>	0
<0x37>	0
<0x38>	0
<0x39>	0
<0x3A>	0
<0x3B>	0
<0x3C>	0
<0x3D>	0
<0x3E>	0
<0x3F>	0
<0x40>	0
<0x41>	0
<0x42>	0
<0x43>	0
<0x44>	0
<0x45>	0
<0x46>	0
<0x47>	0
<0x48>	0
<0x49>	0
<0x4A>	0
<0x4B>	0
<0x4C>	0
<0x4D>	0
<0x4E>	0
<0x4F>	0
<0x50>	0
<0x51>	0
<0x52>	0
<0x53>	0
<0x54>	0
<0x55>	0
<0x56>	0
<0x57>	0
<0x58>	0
<0x59>	0
<0x5A>	0
<0x5B>	0
<0x5C>	0
<0x5D>	0
<0x5E>	0
<0x5F>	0
<0x60>	0
<0x61>	0
<0x62>	0
<0x63>	0
<0x64>	0
<0x65>	0
<0x66>	0
<0x67>	0
<0x68>	0
<0x69>	0
<0x6A>	0
<0x6B>	0
<0x6C>	0
<0x6D>	0
<0x6E>	0
<0x6F>	0
<0x70>	0
<0x71>	0
<0x72>	0
<0x73>	0
<0x74>	0
<0x75>	0
<0x76>	0
<0x77>	0
<0x78>	0
<0x79>	0
<0x7A>	0
<0x7B>	0
<0x7C>	0
<0x7D>	0
<0x7E>	0
<0x7F>	0
<0x80>	0
<0x81>	0
<0x82>	0
<0x83>	0
<0x84>	0
<0x85>	0
<0x86>	0
<0x87>	0
<0x88>	0
<0x89>	0
<0x8A>	0
<0x8B>	0
<0x8C>	0
<0x8D>	0
<0x8E>	0
<0x8F>	0
<0x90>	0
<0x91>	0
<0x92>	0
<0x93>	0
<0x94>	0
<0x95>	0
<0x96>	0
<0x97>	0
<0x98>	0
<0x99>	0
<0x9A>	0
<0x9B>	0
<0x9C>	0
<0x9D>	0
<0x9E>	0
<0x9F>	0
<0xA0>	0
<0xA1>	0
<0xA2>	0
<0xA3>	0
<0xA4>	0
<0xA5>	0
<0xA6>	0
<0xA7>	0
<0xA8>	0
<0xA9>	0
<0xAA>	0
<0xAB>	0
<0xAC>	0
<0xAD>	0
<0xAE>	0
<0xAF>	0
<0xB0>	0
<0xB1>	0
<0xB2>	0
<0xB3>	0
<0xB4>	0
<0xB5>	0
<0xB6>	0
<0xB7>	0
<0xB8>	0
<0xB9>	0
<0xBA>	0
<0xBB>	0
<0xBC>	0
<0xBD>	0
<0xBE>	0
<0xBF>	0
<0xC0>	0
<0xC1>	0
<0xC2>	0
<0xC3>	0
<0xC4>	0
<0xC5>	0
<0xC6>	0
<0xC7>	0
<0xC8>	0
<0xC9>	0
<0xCA>	0
<0xCB>	0
<0xCC>	0
<0xCD>	0
<0xCE>	0
<0xCF>	0
<0xD0>	0
<0xD1>	0
<0xD2>	0
<0xD3>	0
<0xD4>	0
<0xD5>	0
<0xD6>	0
<0xD7>	0
<0xD8>	0
<0xD9>	0
<0xDA>	0
<0xDB>	0
<0xDC>	0
<0xDD>	0
<0xDE>	0
<0xDF>	0
<0xE0>	0
<0xE1>	0
<0xE2>	0
<0xE3>	0
<0xE4>	0
<0xE5>	0
<0xE6>	0
<0xE7>	0
<0xE8>	0
<0xE9>	0
<0xEA>	0
<0xEB>	0
<0xEC>	0
<0xED>	0
<0xEE>	0
<0xEF>	0
<0xF0>	0
<0xF1>	0
<0xF2>	0
<0xF3>	0
<0xF4>	0
<0xF5>	0
<0xF6>	0
<0xF7>	0
<0xF8>	0
<0xF9>	0
<0xFA>	0
<0xFB>	0
<0xFC>	0
<0xFD>	0
<0xFE>	0
<0xFF>	0
।	-3.17223
को	-3.73878
मा	-3.91488
,	-4.0623
▁छ	-4.29269
ले	-4.33756
▁र	-4.34554
का	-4.36993
लाई	-4.94492
▁पनि	-5.15231
▁छन्	-5.36235
▁भएको	-5.36283
न	-5.39517
▁	-5.53442
बाट	-5.55352
▁लागि	-5.56983
▁गरेको	-5.57781
▁हो	-5.61225
▁गर्न	-5.61627
र	-5.69774
▁भने	-5.72854
ी	-5.78258
▁गर्ने	-5.78691
▁एक	-5.8347
▁थियो	-5.85757
क	-5.87955
▁तथा	-5.88063
▁'	-5.95564
▁यो	-5.97656
ल	-6.00556
-	-6.01085
म	-6.05732
स	-6.09377
ा	-6.11925
े	-6.12666
▁रहेको	-6.1384
▁हुने	-6.17105
▁उनले	-6.21267
▁को	-6.22057
▁नेपाल	-6.24659
▁मा	-6.26334
हरू	-6.27609
▁नै	-6.31153
▁गरेका	-6.31205
▁थिए	-6.31293
.	-6.33369
▁तर	-6.34084
)	-6.37769
▁(	-6.38415
▁हजार	-6.39396
त	-6.40726
▁गरिएको	-6.41951
▁काम	-6.42773
हरु	-6.46401
▁बताए	-6.48853
ि	-6.49502
ै	-6.5126
ु	-6.52092
ता	-6.54844
'	-6.56843
सँग	-6.58185
प	-6.5857
▁गर्दै	-6.58848
▁गरी	-6.60931
▁अ	-6.6329
▁काठमाडौं	-6.63369
ट	-6.63927
▁दिन	-6.65572
▁वा	-6.65666
▁लाख	-6.66787
▁नेपाली	-6.68259
▁भएका	-6.68626
▁१	-6.70877
▁न	-6.71117
▁सय	-6.73086
▁हुन	-6.73847
▁म	-6.75144
▁त	-6.76417
ला	-6.77237
ज	-6.779
▁दुई	-6.79828
▁यस	-6.81327
▁कारण	-6.81607
▁अध्यक्ष	-6.82226
▁आफ्नो	-6.83206
▁छैन	-6.83643
ब	-6.83868
▁भन्ने	-6.83898
▁सबै	-6.85415
▁केही	-6.85673
▁जानकारी	-6.86018
▁वर्ष	-6.86104
▁हुन्	-6.86355
▁अनुसार	-6.88055
▁गरे	-6.89212
▁२	-6.89637
▁धेरै	-6.90112
ँ	-6.91107
▁-	-6.91851
रा	-6.91952
ड	-6.92107
व	-6.93461
▁हुन्छ	-6.9476
▁जना	-6.95287
ह	-6.95424
▁समेत	-6.97323
▁प्रमुख	-6.98521
▁सरकारले	-6.99091
▁करोड	-6.99406
▁रुपैयाँ	-7.00005
▁स	-7.00327
री	-7.01812
पछि	-7.02551
▁विकास	-7.02715
सम्म	-7.02864
ेर	-7.04359
▁अहिले	-7.04698
कै	-7.04818
▁कुनै	-7.05146
द	-7.05166
▁प्रहरी	-7.05255
▁स्थानीय	-7.05269
▁जिल्ला	-7.06758
▁निर्माण	-7.06848
ग	-7.06859
▁प्रदेश	-7.07337
▁कि	-7.08308
ना	-7.08559
▁प	-7.08977
छ	-7.09355
▁कुरा	-7.09387
्ने	-7.10232
▁बढी	-7.10259
▁आएको	-7.10345
▁के	-7.10345
▁भए	-7.10431
▁गरेर	-7.1153
ं	-7.11843
की	-7.12778
▁मात्र	-7.13019
▁नयाँ	-7.1346
▁३	-7.13555
ो	-7.14445
देखि	-7.14449
▁समय	-7.14777
▁रुपमा	-7.14946
▁आ	-7.15739
▁सेवा	-7.15895
▁रहेका	-7.16502
▁?	-7.16712
▁कोरोना	-7.17834
सी	-7.18659
▁१०	-7.18754
▁क	-7.19237
य	-7.19498
▁प्रधानमन्त्री	-7.19609
▁५	-7.19795
▁भन्दै	-7.20104
▁समस्या	-7.20474
्	-7.20714
▁प्रतिशत	-7.21877
▁का	-7.21957
▁उनको	-7.22086
ली	-7.23177
▁सो	-7.23205
▁पहिलो	-7.23786
▁निर्णय	-7.23885
▁घर	-7.25005
▁विभिन्न	-7.25127
▁जनाएको	-7.25478
▁कार्यक्रम	-7.2571
▁आर्थिक	-7.26356
्न	-7.26406
▁दिए	-7.28618
▁उनी	-7.29444
▁तीन	-7.2989
ित	-7.30236
▁रूपमा	-7.30899
▁प्रयोग	-7.3117
▁कार्यालय	-7.31207
▁गते	-7.31558
▁पार्टी	-7.31811
▁उक्त	-7.32129
▁स्वास्थ्य	-7.32392
▁व्यवस्था	-7.32815
▁बि	-7.32929
मै	-7.3301
▁आज	-7.3302
▁अन्य	-7.33412
▁६	-7.33635
▁राष्ट्रिय	-7.3365
▁गर्दा	-7.33682
न्	-7.34327
▁२०	-7.344
▁नेता	-7.34711
▁‘	-7.34833
▁वि	-7.34913
▁कम	-7.35143
▁ब	-7.36042
ेको	-7.36049
▁४	-7.3625
▁"	-7.36736
िक	-7.37238
▁माग	-7.37295
▁सदस्य	-7.38416
▁थप	-7.38726
▁सुरु	-7.39957
ौ	-7.40642
▁सि	-7.41013
▁ग	-7.41062
▁नि	-7.41311
वि	-7.41376
ू	-7.41947
ण	-7.42926
▁सु	-7.43002
▁दिएको	-7.43315
भ	-7.435
िङ	-7.45213
▁अब	-7.45622
▁त्यो	-7.45703
▁दिने	-7.46204
भन्दा	-7.46634
िएको	-7.46799
सहित	-7.47005
▁भन्दा	-7.4706
▁क्षेत्रमा	-7.47181
▁सरकार	-7.47613
▁बैंक	-7.47651
▁भयो	-7.48152
श	-7.48169
्य	-7.48911
ख	-7.50392
▁कार्य	-7.50598
n	-7.50965
▁क्षेत्र	-7.51045
सा	-7.51157
▁आयोजना	-7.51739
▁सार्वजनिक	-7.5186
▁खेल	-7.51938
या	-7.52053
च	-7.52082
▁उत्पादन	-7.524
▁निर्वाचन	-7.53088
▁अवस्था	-7.53617
ाई	-7.55138
▁अर्ब	-7.55469
▁आवश्यक	-7.56466
▁प्र	-7.56698
▁योजना	-7.56775
–	-7.56818
▁वटा	-7.56893
▁सहयोग	-7.56939
▁गत	-7.57169
ाइ	-7.57266
स्	-7.57332
▁महिला	-7.5825
नी	-7.58552
उ	-7.59228
वा	-7.5945
▁अघि	-7.59935
ने	-7.60814
▁देखि	-7.61253
▁मृत्यु	-7.62017
इ	-7.62047
▁जारी	-7.62294
िन	-7.62571
▁डा	-7.62647
▁मन	-7.6267
▁हामी	-7.6268
▁ए	-7.62836
▁ह	-7.6288
▁प्राप्त	-7.62983
▁सडक	-7.63781
पा	-7.64354
▁मात्रै	-7.64517
▁नेकपा	-7.64847
▁इ	-7.64899
हरुले	-7.65389
▁सञ्चालन	-7.65692
▁भनेर	-7.66222
▁मन्त्री	-7.66415
▁एउटा	-7.66488
ई	-7.66798
▁७	-7.66937
▁ल	-7.66939
२	-7.67381
▁रकम	-7.68197
▁लगानी	-7.68393
हरुको	-7.68515
▁सन्	-7.68694
▁आएका	-7.68698
हरूको	-7.68718
▁पर्ने	-7.69035
ः	-7.69065
माथि	-7.6932
▁चार	-7.69515
▁उ	-7.69621
▁पाँच	-7.69833
समेत	-7.69868
▁पटक	-7.70941
▁वडा	-7.71618
राज	-7.72275
▁१२	-7.72584
▁पूर्व	-7.72725
▁१५	-7.72858
५	-7.73082
▁८	-7.73721
▁उल्लेख	-7.73766
▁ठूलो	-7.7384
▁गर्नु	-7.74278
▁उद्योग	-7.74392
▁बनाउन	-7.74853
सँगै	-7.75507
▁खर्च	-7.75605
▁बताएका	-7.75625
▁साथ	-7.7567
ाउने	-7.75935
१	-7.76712
ाउन	-7.77213
लो	-7.77809
▁छलफल	-7.78003
▁यस्तो	-7.78056
▁१९	-7.78057
▁भइरहेको	-7.78306
▁दोस्रो	-7.7917
तर्फ	-7.7926
▁११	-7.79261
▁क्रममा	-7.79398
▁राष्ट्र	-7.79731
३	-7.79906
बहादुर	-7.79928
▁हाल	-7.80584
ध	-7.8078
ए	-7.80905
फ	-7.81056
▁मूल्य	-7.81198
▁अवस्थामा	-7.81295
▁साथै	-7.81301
▁विषयमा	-7.8163
▁सा	-7.81716
हरूले	-7.81749
▁राम्रो	-7.81987
▁९	-7.82128
’	-7.82246
स्थित	-7.82505
▁पुगेको	-7.82605
रो	-7.82728
जा	-7.82903
्या	-7.83047
▁बजेट	-7.83176
बीच	-7.8337
जी	-7.83461
▁मत	-7.83554
▁द	-7.83693
ेका	-7.83983
▁व्यवस्थापन	-7.84256
▁अर्को	-7.84298
/	-7.85078
▁प्रहरीले	-7.85106
▁नाम	-7.85211
०	-7.85234
▁नेपालमा	-7.85296
अनुसार	-7.85387
▁परेको	-7.85905
▁लागेको	-7.86208
▁बजार	-7.86416
▁नगरपालिका	-7.86491
▁पछि	-7.86594
▁हुनेछ	-7.86944
▁ज	-7.87417
▁ले	-7.87773
▁हुँदा	-7.87857
ति	-7.87926
▁राजनीतिक	-7.88102
यो	-7.88106
▁भ	-7.88118
▁गोल	-7.88293
थ	-7.89003
६	-7.89063
प्र	-7.89315
▁सम्पन्न	-7.89407
▁सक्ने	-7.89511
▁बा	-7.89866
्दै	-7.89873
▁सामाजिक	-7.89913
▁देखिएको	-7.89923
▁सुरक्षा	-7.90079
ङ	-7.90251
▁यी	-7.90274
ीय	-7.90892
▁भएपछि	-7.91025
▁यसको	-7.91569
▁जुन	-7.92149
▁बैठक	-7.92665
▁बन्द	-7.92675
▁संक्रमण	-7.928
▁आउने	-7.92815
डी	-7.92835
िने	-7.92875
▁गर्नुपर्ने	-7.9313
▁कार्यक्रममा	-7.93229
▁विश्व	-7.93281
▁केन्द्र	-7.93334
▁ख	-7.93413
▁उपचार	-7.93545
▁अनुसन्धान	-7.93586
टी	-7.93648
▁ती	-7.93999
▁दिएका	-7.94027
▁समयमा	-7.94086
ौं	-7.94109
▁५०	-7.94549
ष्ट	-7.94584
दा	-7.94586
▁बेला	-7.946
▁बाहिर	-7.94611
▁उच्च	-7.94789
पी	-7.94809
▁भनाइ	-7.95034
बारे	-7.95043
▁सक्छ	-7.9521
▁व	-7.95234
▁होइन	-7.95442
▁गएको	-7.95463
▁यस्तै	-7.9547
▁अधिकारी	-7.95583
▁नेपालको	-7.95597
▁प्रति	-7.95626
▁सबैभन्दा	-7.957
हरुलाई	-7.96031
▁अगाडि	-7.96385
र्	-7.96595
लि	-7.96776
▁राष्ट्रपति	-7.96902
्दा	-7.9724
▁जीवन	-7.97503
▁जाने	-7.97647
▁पक्राउ	-7.97746
▁तयारी	-7.98026
▁रु	-7.98349
▁२५	-7.98358
▁काठमाडौँ	-7.98361
,'	-7.98607
▁शिक्षा	-7.98619
▁बनाउने	-7.98876
▁माओवादी	-7.9889
?	-7.99328
▁त्यस्तै	-7.99725
▁भएर	-7.99797
0	-7.99911
▁विशेष	-7.99992
▁केन्द्रीय	-8.00193
हा	-8.00587
▁संख्या	-8.00624
"	-8.00772
पुर	-8.00791
▁भएकाले	-8.00989
अ	-8.0102
▁लिन	-8.01021
▁नीति	-8.01134
▁देश	-8.01258
▁जान	-8.01367
▁कर	-8.0156
▁अस्पताल	-8.01669
▁तयार	-8.0198
डा	-8.02024
▁पछिल्लो	-8.02161
▁हाम्रो	-8.02285
४	-8.02484
▁च	-8.02522
भित्र	-8.02577
्स	-8.0267
जन	-8.02679
▁कृषि	-8.02826
▁कम्पनी	-8.02888
हि	-8.02917
▁बस	-8.03442
सि	-8.03876
▁त्यहाँ	-8.03935
▁नागरिक	-8.04396
बि	-8.04457
▁गीत	-8.04506
नि	-8.04655
मध्ये	-8.04841
▁सम्झौता	-8.04861
▁१३	-8.04929
▁मुख्य	-8.0502
▁प्रदान	-8.05065
▁घोषणा	-8.05235
▁सुन	-8.05262
▁समिति	-8.05267
▁एमाले	-8.05659
स्ट	-8.0573
▁प्रस्ताव	-8.0577
ङ्ग	-8.05875
रे	-8.05941
▁बैंकले	-8.05985
▁हुँदै	-8.06063
▁गाउँपालिका	-8.06204
▁कारोबार	-8.06483
▁१४	-8.06489
▁पा	-8.06681
▁गरि	-8.06734
▁स्थानमा	-8.06771
▁पानी	-8.06811
▁सांसद	-8.06897
▁त्यस	-8.07125
▁पैसा	-8.07591
▁भारत	-8.07907
▁विषय	-8.07943
मी	-8.07973
टा	-8.08446
झ	-8.08602
▁भारतीय	-8.08635
▁ना	-8.08668
▁हामीले	-8.09061
▁बढेको	-8.09083
८	-8.09544
▁उपलब्ध	-8.09552
म्	-8.09778
▁अध्ययन	-8.09831
▁विद्यालय	-8.09949
ियो	-8.09994
प्रति	-8.10003
▁कांग्रेस	-8.10331
रु	-8.10602
▁जो	-8.10644
▁जन	-8.10985
▁३०	-8.11187
▁जोड	-8.11315
रि	-8.11425
ती	-8.1225
▁खेलमा	-8.12262
▁टोली	-8.12272
९	-8.1231
▁नम्बर	-8.12331
▁दुवै	-8.12675
िएका	-8.13239
ंग	-8.13285
िया	-8.13471
्यो	-8.13564
▁सकिन्छ	-8.13933
▁वर्षको	-8.13965
ठ	-8.14456
▁आग्रह	-8.14579
▁सेयर	-8.14618
▁करिब	-8.1487
▁परीक्षण	-8.14969
▁आगामी	-8.15246
▁यसअघि	-8.15347
▁सम्म	-8.15387
▁लामो	-8.15589
1	-8.15643
▁तपाईं	-8.15664
▁सरकारको	-8.15685
▁१६	-8.1621
▁कु	-8.16339
ाउ	-8.16351
▁सं	-8.16558
▁सरकारी	-8.16786
▁संविधान	-8.16854
▁नभएको	-8.17127
▁उम्मेदवार	-8.17383
▁शर्मा	-8.17603
▁गरिने	-8.1772
▁कसरी	-8.17725
▁दल	-8.17753
▁१८	-8.18114
मार्फत	-8.18119
▁आधारमा	-8.18181
▁जित	-8.18253
▁:	-8.18508
▁सहभागी	-8.18563
प्रसाद	-8.18719
बी	-8.18891
ओ	-8.19163
▁निर्देशन	-8.19163
▁सूचना	-8.19224
▁संस्था	-8.19493
▁बिहान	-8.19544
▁यहाँ	-8.19592
▁परेका	-8.19748
▁नगर	-8.20294
▁सभा	-8.20363
सु	-8.20483
▁अन्तिम	-8.20671
▁सहमति	-8.20718
▁पत्रकार	-8.20795
बा	-8.2083
▁अन्तर्राष्ट्रिय	-8.2109
▁लिएर	-8.21201
▁फिल्म	-8.21242
▁श्रेष्ठ	-8.21448
के	-8.21467
ण्ड	-8.21613
लगायत	-8.21649
▁वितरण	-8.21671
▁निकै	-8.21692
▁गर्दछ	-8.21794
▁दर्ता	-8.2193
▁युवा	-8.22024
▁घटना	-8.22038
▁कम्पनीले	-8.22042
▁उनलाई	-8.22186
ौँ	-8.22461
▁सफल	-8.2251
▁बाँकी	-8.22825
▁भित्र	-8.22961
▁परिवर्तन	-8.23201
▁लि	-8.23217
आ	-8.23539
▁गाउँ	-8.2366
▁श	-8.23914
▁त्यसपछि	-8.24202
▁खेलाडी	-8.24299
कार	-8.24314
▁पूरा	-8.24409
▁प्रक्रिया	-8.24658
▁बनेको	-8.24724
▁स्थापना	-8.24811
्र	-8.25016
न्ड	-8.2503
▁मु	-8.25204
७	-8.25256
▁सचिव	-8.25275
▁आफू	-8.25903
▁२४	-8.25949
▁आरोप	-8.26002
▁किन	-8.26392
▁फ	-8.26499
▁डि	-8.26501
▁गर्छ	-8.26725
▁\	-8.26843
गा	-8.26978
ान	-8.27655
▁यही	-8.27857
स्त	-8.27874
▁गरिरहेको	-8.28216
ाएको	-8.28652
▁अधिकार	-8.28671
▁अझै	-8.28763
▁सोमबार	-8.29024
▁ओ	-8.2912
हरूलाई	-8.29153
▁रोग	-8.29256
ृ	-8.29443
▁आइ	-8.29675
▁एवं	-8.2984
▁आइतबार	-8.30003
▁होला	-8.30375
▁पर्यटन	-8.30491
▁समाज	-8.30516
▁नेपालले	-8.30608
र्स	-8.30707
▁समूह	-8.30778
▁पूर्ण	-8.30804
▁दाबी	-8.30923
▁कुल	-8.31126
▁जग्गा	-8.31255
खा	-8.31465
▁राम	-8.31589
▁त्यसैले	-8.31623
से	-8.31784
▁देखिन्छ	-8.31977
▁मेरो	-8.32234
▁जनाको	-8.32358
▁उहाँले	-8.32372
▁१७	-8.32519
▁व्यक्ति	-8.32539
▁महिना	-8.32557
▁बारेमा	-8.32623
▁प्रश्न	-8.32632
▁थापा	-8.32746
▁तह	-8.32768
▁चीन	-8.32793
▁कर्मचारी	-8.32829
हरुमा	-8.33058
▁पाउने	-8.33097
▁चलचित्र	-8.3314
▁ओली	-8.33157
ल्	-8.33347
गत	-8.33396
कुमार	-8.33482
▁मुद्दा	-8.33546
▁मैले	-8.33585
▁पद	-8.33638
क्स	-8.33738
▁विश्वास	-8.33771
▁नेतृत्व	-8.33873
ही	-8.34167
▁उनका	-8.3418
▁त्यसको	-8.34271
▁बुधबार	-8.3432
▁अर्थ	-8.34395
▁बजारमा	-8.34406
▁सात	-8.34608
▁सुविधा	-8.34859
▁सुधार	-8.34878
▁जनता	-8.34969
▁शाखा	-8.35193
▁सोही	-8.35211
▁दैनिक	-8.35266
▁प्रवेश	-8.3531
▁खरिद	-8.35341
हरूमा	-8.35371
▁बिक्री	-8.35492
▁जि	-8.35703
▁पक्ष	-8.35913
▁हरेक	-8.35914
▁अधिकृत	-8.35942
▁कायम	-8.36007
▁पु	-8.36169
▁ऐन	-8.36297
▁यसले	-8.36366
▁बे	-8.36382
ेन	-8.36559
▁सामान्य	-8.36607
▁विद्यार्थी	-8.37
▁स्थान	-8.37037
▁प्रयास	-8.37072
▁शुक्रबार	-8.37204
▁उप	-8.37224
▁से	-8.37534
▁आफ्ना	-8.37754
न्त	-8.37799
▁ओलीले	-8.38211
▁लक्ष्य	-8.38233
एस	-8.38419
▁भाग	-8.38556
द्ध	-8.38605
▁व्यवसायी	-8.3873
▁अनि	-8.39122
ाएर	-8.39188
▁हुनु	-8.39241
▁ध्यान	-8.39392
▁क्लब	-8.3968
कु	-8.39798
न्स	-8.40336
▁राज्य	-8.40384
▁अमेरिकी	-8.40478
▁पि	-8.40525
▁बजे	-8.40541
▁अभियान	-8.40553
ष	-8.40758
▁वर्षीय	-8.40829
▁लिएको	-8.41017
▁हा	-8.41318
▁बैठकमा	-8.41435
शा	-8.41718
▁निकाय	-8.41749
िय	-8.41817
▁गठन	-8.41881
▁वित्तीय	-8.42048
िए	-8.42217
▁पोखरा	-8.4269
▁वृद्धि	-8.4273
2	-8.4289
जि	-8.43031
▁सहज	-8.43044
▁कार्यान्वयन	-8.43073
▁क्षमता	-8.43154
▁गरेपछि	-8.43157
▁मन्त्रालय	-8.43466
▁निजी	-8.43665
▁ला	-8.43676
▁आउन	-8.43695
▁अंक	-8.43863
▁नहुने	-8.44024
▁सम्बन्ध	-8.44075
▁सामग्री	-8.44086
▁प्रदर्शन	-8.44101
▁२१	-8.44147
▁मुलुक	-8.44186
s	-8.44198
▁भूमिका	-8.44414
▁छैनन्	-8.44629
▁विवाद	-8.44828
▁नं	-8.44955
▁मंगलबार	-8.45077
▁प्रविधि	-8.4512
▁बैंकको	-8.45143
▁घ	-8.45247
e	-8.45454
▁बताउँछन्	-8.45608
▁’	-8.45662
▁व्यापार	-8.45718
▁पुरुष	-8.45762
▁उठ	-8.45777
मन्त्री	-8.4587
तिर	-8.45919
▁ट	-8.46035
▁बर्ष	-8.4607
▁मन्त्रालयले	-8.46169
▁संक्रमित	-8.46195
पत्र	-8.46206
▁भवन	-8.46384
▁हात	-8.46411
▁तेस्रो	-8.46521
▁महा	-8.46659
▁यसलाई	-8.46735
▁सभापति	-8.4703
्छ	-8.47113
▁४०	-8.47211
▁समाधान	-8.47321
त्र	-8.47401
▁त्यही	-8.47463
▁जे	-8.47756
▁प्रतिनिधि	-8.47991
▁विस्तार	-8.47992
विरुद्ध	-8.48143
▁ध	-8.48198
▁कर्जा	-8.48253
नन्	-8.48397
▁पर्छ	-8.48445
▁व्यवसाय	-8.48542
▁पहिले	-8.48942
▁गर	-8.48977
▁ऋण	-8.49
▁सम्भावना	-8.49062
▁लगायत	-8.49127
▁जन्म	-8.49165
▁२२	-8.4933
▁निर्देशक	-8.49349
▁संघ	-8.49424
▁बस्ने	-8.49787
▁अफ	-8.49869
डि	-8.4998
▁सकिने	-8.50058
▁जस्तो	-8.50182
▁सवारी	-8.50268
▁कानुन	-8.50309
▁बीमा	-8.50607
▁गठबन्धन	-8.50657
▁रन	-8.50702
▁कति	-8.50736
पनि	-8.50897
्नु	-8.50944
▁सीमा	-8.51056
▁लग	-8.51196
ुपर्छ	-8.51241
▁संयुक्त	-8.51441
ेल	-8.51459
▁आन्दोलन	-8.51806
▁बताउनुभयो	-8.51819
▁कम्पनीको	-8.51867
▁स्रोत	-8.51872
राम	-8.52023
रण	-8.52132
▁चितवन	-8.52228
▁केपी	-8.52246
▁गरिरहेका	-8.52301
o	-8.5262
▁समाचार	-8.52694
▁व्यक्त	-8.5281
▁बनाएको	-8.5301
▁मि	-8.5304
▁आफ्नै	-8.5314
▁गो	-8.53178
▁कोभिड	-8.53314
्यु	-8.53525
▁प्रवक्ता	-8.53526
▁बैठकले	-8.53619
ुपर्ने	-8.5369
▁चि	-8.53768
▁थ	-8.53918
मि	-8.53948
▁दक्षिण	-8.54195
▁हुँदैन	-8.54479
▁शनिबार	-8.54574
▁प्रणाली	-8.54713
▁उपाध्यक्ष	-8.54945
▁या	-8.54965
▁बल	-8.55241
छन्	-8.55352
▁छौं	-8.55372
र्क	-8.55484
▁थाहा	-8.55577
भर	-8.55719
▁बिहीबार	-8.55746
▁सहित	-8.55793
▁जिल्लामा	-8.56031
▁साता	-8.56032
▁टिम	-8.56088
▁प्रेम	-8.56136
▁वन	-8.56198
▁असार	-8.56228
सन	-8.56277
▁ठाउँमा	-8.56382
▁होटल	-8.56405
त्	-8.56485
▁बो	-8.56506
▁यदि	-8.56513
▁लिने	-8.56537
▁विदेशी	-8.56538
▁प्रस्तुत	-8.56661
▁संग	-8.56818
▁रहने	-8.56973
▁पर	-8.57307
▁फेरि	-8.57336
▁बिरामी	-8.57369
▁भर	-8.57467
▁फरक	-8.57584
पि	-8.57679
▁छुट	-8.57695
▁शुरु	-8.57803
▁खोप	-8.57827
▁अहिलेसम्म	-8.57828
▁पर्यटक	-8.57923
गो	-8.58521
▁लिग	-8.58577
▁मलाई	-8.58588
पर	-8.58624
▁राख्न	-8.58917
▁पौडेल	-8.5927
नु	-8.59293
▁सम्बन्धित	-8.59851
ेज	-8.59974
▁मे	-8.60002
▁शेयर	-8.6018
▁प्रभाव	-8.60568
▁खा	-8.60829
▁२३	-8.61216
▁सकेको	-8.6137
दि	-8.61425
▁भेट	-8.61524
▁पुनः	-8.61639
▁ल्याउन	-8.61653
▁वातावरण	-8.61786
▁अभाव	-8.61842
▁बन्न	-8.61854
▁गराउन	-8.61865
नो	-8.61965
▁समितिले	-8.62033
▁छु	-8.62134
चा	-8.62165
▁जेठ	-8.62263
▁पत्र	-8.62474
▁रोजगारी	-8.62604
▁परिवार	-8.6263
टर	-8.62657
सम्बन्धी	-8.62782
▁सर्वोच्च	-8.62782
▁भ्रमण	-8.62822
▁चुनाव	-8.62841
▁बसेको	-8.62934
▁खान	-8.63014
ाउँदै	-8.63093
▁विरोध	-8.63161
▁दर	-8.63387
▁दि	-8.63442
▁आयात	-8.63495
▁ड	-8.63651
▁राजधानी	-8.63758
▁अन्तर्गत	-8.63763
क्ष	-8.63786
▁बाटो	-8.63877
▁हत्या	-8.6396
▁अरु	-8.64002
▁जिम्मेवारी	-8.64105
मु	-8.64133
िरहेका	-8.64225
िरहेको	-8.64259
▁माथि	-8.64458
▁लगायतका	-8.64614
ुवा	-8.64791
▁थालेको	-8.64832
▁२८	-8.64841
गर	-8.64972
▁जस्तै	-8.64972
▁यात्रा	-8.65053
▁विवरण	-8.65301
न्ट	-8.65414
▁गाडी	-8.65473
▁अस्पतालमा	-8.65524
▁गर्छन्	-8.65876
▁लेख	-8.65883
▁ठाउँ	-8.65973
▁गा	-8.66037
▁भई	-8.66127
▁२७	-8.66182
▁सी	-8.66313
पु	-8.66368
कर	-8.66449
▁बाट	-8.66488
▁बन	-8.66494
▁लाग्ने	-8.66522
▁गराउने	-8.66541
▁शक्ति	-8.66542
▁भाइरस	-8.66607
▁दु	-8.66836
▁संरक्षण	-8.66846
▁यस्ता	-8.66912
▁२६	-8.67016
▁जसले	-8.67227
▁आन्तरिक	-8.67294
▁नियन्त्रण	-8.67451
▁पार	-8.67489
▁जोखिम	-8.67664
▁तत्काल	-8.67674
▁विधेयक	-8.67757
▁राज	-8.67762
▁मान्छे	-8.67793
▁डे	-8.67833
त्त	-8.67871
हो	-8.6796
▁आदेश	-8.6811
दर	-8.68118
m	-8.68144
▁भा	-8.68153
▁पुष्टि	-8.68215
▁घाइते	-8.68229
▁अमेरिका	-8.68689
ार	-8.68699
▁मो	-8.68858
िज	-8.68942
▁सुझाव	-8.68953
▁दशमलव	-8.68974
▁संकलन	-8.6901
▁चैत	-8.69067
a	-8.69081
▁सम	-8.69121
्छन्	-8.69197
▁पुग्ने	-8.69268
▁कार्यकारी	-8.69356
▁दाहाल	-8.69442
▁फिर्ता	-8.69541
▁चु	-8.69695
▁सम्मान	-8.69721
मो	-8.69729
▁भनेको	-8.69785
▁आमा	-8.69812
्व	-8.69871
▁गम्भीर	-8.69926
▁संघीय	-8.70128
▁जस्ता	-8.7015
▁उत्तर	-8.70191
▁०	-8.70234
▁नेपालका	-8.70489
▁भइसकेको	-8.70501
▁थिइन्	-8.70507
था	-8.70541
▁प्रतिवेदन	-8.70603
▁पराजित	-8.70779
▁प्रशासन	-8.70796
▁चल	-8.70894
ञ्ज	-8.7108
▁सक	-8.71107
▁प्रतिनिधिसभा	-8.71137
▁विकेट	-8.71141
▁क्रिकेट	-8.71267
▁औं	-8.71299
▁आवश्यकता	-8.71614
द्वारा	-8.71645
जु	-8.71682
▁अवसर	-8.7171
▁सहकारी	-8.71739
▁पुल	-8.71859
▁य	-8.71981
्रो	-8.71997
▁श्रेष्ठले	-8.72077
▁क्षति	-8.72221
▁ज्यान	-8.72251
▁सर	-8.72281
▁स्पष्ट	-8.72334
▁मुख्यमन्त्री	-8.72346
▁६०	-8.72366
▁राख्ने	-8.72366
▁मन्दिर	-8.72406
▁आठ	-8.72409
▁क्षेत्रको	-8.72555
▁स्व	-8.72578
▁रो	-8.72635
▁गरिन्छ	-8.72675
▁प्रा	-8.72797
ल्ड	-8.72808
▁संगठन	-8.72826
▁प्रभावित	-8.72855
ङ्	-8.73149
▁पूर्वाधार	-8.73326
▁फुटबल	-8.73458
▁जब	-8.73507
घ	-8.73537
▁हुन्छन्	-8.73543
आई	-8.73788
▁कोष	-8.73798
हु	-8.73933
वादी	-8.73964
▁क्या	-8.73981
▁बताइएको	-8.74188
▁समाजवादी	-8.74321
१९	-8.74327
▁कारबाही	-8.74433
दी	-8.74514
▁उनीहरु	-8.74543
▁संसद	-8.74554
▁गुनासो	-8.74599
ंक	-8.74609
▁कतिपय	-8.74667
▁परि	-8.74766
नाथ	-8.74792
▁पो	-8.74815
▁रोक	-8.74871
▁संरचना	-8.74909
▁सत्ता	-8.74949
▁रा	-8.74959
▁प्रत्येक	-8.74964
▁मान	-8.74974
▁भाषा	-8.75043
▁घरमा	-8.75087
▁उडान	-8.75095
▁सम्बोधन	-8.75127
ेश	-8.75128
▁सह	-8.75157
▁ई	-8.75414
▁अप	-8.75528
भा	-8.75583
▁नाममा	-8.75816
ीकरण	-8.75823
▁राखिएको	-8.75897
▁निर्वाचित	-8.76003
▁असर	-8.76195
मे	-8.76449
\	-8.7646
▁यसरी	-8.76471
िन्	-8.76488
▁अन्त्य	-8.76513
▁यसै	-8.76605
▁एकता	-8.7665
▁पुगेका	-8.76662
▁जा	-8.76792
▁यातायात	-8.76854
▁आम	-8.771
▁संशोधन	-8.77108
▁डलर	-8.77123
▁बु	-8.77132
▁वस्तु	-8.77209
▁थिएन	-8.77258
वाद	-8.77382
▁आधार	-8.77526
▁साउन	-8.77559
सो	-8.77565
▁नसकेको	-8.77632
▁देउवा	-8.7768
▁समुदाय	-8.77725
पूर्ण	-8.77789
लु	-8.78043
मान	-8.78134
चार	-8.78432
i	-8.78474
र्ट	-8.78539
▁उत्कृष्ट	-8.78665
▁साधन	-8.78668
▁२९	-8.78819
र्ड	-8.78822
▁समन्वय	-8.78838
▁सिर्जना	-8.78987
▁गु	-8.791
आर	-8.79227
▁पाएको	-8.79227
▁गर्नुपर्छ	-8.79291
▁बनाएर	-8.79462
▁हालसम्म	-8.79482
▁भुक्तानी	-8.79529
▁वर्षमा	-8.79569
▁बोल	-8.79601
दिन	-8.79736
एको	-8.79747
▁बढ	-8.79812
टे	-8.79881
▁सिफारिस	-8.79952
▁भन्न	-8.80065
ेन्द्र	-8.80134
▁महत्वपूर्ण	-8.80176
▁कमिटी	-8.80427
▁मतदान	-8.80491
▁सम्पूर्ण	-8.80503
▁आयोगले	-8.80522
¥	-8.8059
▁पे	-8.8063
ढ	-8.80672
िट	-8.80835
▁ल्याएको	-8.80876
▁वैशाख	-8.81023
▁,	-8.81033
▁राति	-8.81081
▁कलेज	-8.81204
▁आफूले	-8.81297
▁अनुमान	-8.8136
▁मानव	-8.81454
ेड	-8.81803
▁वर्षा	-8.81815
▁बाल	-8.81836
▁छोरा	-8.81887
▁ता	-8.81893
▁निर्वाचनमा	-8.82139
िम	-8.82162
▁३५	-8.82247
▁राखेर	-8.82392
ाएका	-8.82422
▁विचार	-8.82467
▁हुनुपर्ने	-8.82816
▁एन	-8.82984
▁विभाग	-8.83162
▁बढाउन	-8.83206
▁धर्म	-8.83299
▁फागुन	-8.83364
भि	-8.83366
्रा	-8.83406
▁चर्चा	-8.83522
▁लकडाउन	-8.83583
▁महानगरपालिका	-8.83621
▁आयोग	-8.83688
▁वे	-8.83895
२०	-8.83921
▁हि	-8.84087
िल	-8.84097
वे	-8.84154
▁समितिको	-8.84228
अन्तर्गत	-8.84253
▁यसमा	-8.84373
▁थापाले	-8.8443
▁माघ	-8.84492
ेपछि	-8.84519
▁तर्फबाट	-8.84519
धि	-8.84622
▁पुन	-8.84748
टो	-8.84794
स्क	-8.84859
▁अवधिमा	-8.84907
जे	-8.84991
▁पुस	-8.85014
सं	-8.85033
▁गरेकी	-8.85064
बे	-8.85209
▁दिइएको	-8.85323
▁देशको	-8.85477
म्प	-8.85592
िस	-8.86006
▁मध्ये	-8.86007
▁वरिष्ठ	-8.86149
▁कर्णाली	-8.86216
▁खबर	-8.86235
वर	-8.86328
▁शुल्क	-8.86382
▁भिडियो	-8.86463
▁लागू	-8.8647
कि	-8.86541
▁मध्य	-8.86758
▁यु	-8.86798
▁फि	-8.86987
▁न्याय	-8.87008
▁यादव	-8.87257
▁अनुमति	-8.8727
कर्ता	-8.87315
▁आफूलाई	-8.87403
▁अदालत	-8.87484
▁जम्मा	-8.87696
▁गुरुङ	-8.87744
▁हेर्न	-8.87749
यर	-8.8804
▁बोर्ड	-8.88146
▁वाणिज्य	-8.88259
▁राखेको	-8.88586
▁साह	-8.88628
▁पक्षमा	-8.88681
▁पीडित	-8.88699
▁प्रचण्ड	-8.88706
▁नौ	-8.88765
▁सेना	-8.88828
▁महाधिवेशन	-8.88866
▁अवसरमा	-8.88918
▁क्षेत्रका	-8.88977
▁अधिकांश	-8.8904
▁फोन	-8.89051
▁भारतको	-8.89127
▁जनताको	-8.89309
▁पौडेलले	-8.89318
्ला	-8.89326
▁आई	-8.89326
▁पार्टीको	-8.89433
▁!	-8.89628
▁कार्यकर्ता	-8.89812
वी	-8.89832
▁शिक्षक	-8.89908
ास	-8.90025
▁भइ	-8.90046
▁पार्टीका	-8.90185
▁भदौ	-8.90242
▁मिटर	-8.90317
▁अनुभव	-8.90372
▁सञ्चालनमा	-8.90412
ुहोस्	-8.90419
▁केहि	-8.9065
कोट	-8.90702
▁संयोजक	-8.9072
न्द	-8.90735
र्न	-8.90886
हर	-8.90946
▁घण्टा	-8.90966
डे	-8.90983
बु	-8.91012
▁उपत्यका	-8.91036
p	-8.91052
▁प्रतिस्पर्धा	-8.91106
▁समितिका	-8.91134
ाय	-8.91164
t	-8.91187
▁बन्ने	-8.9128
▁सानो	-8.91375
▁अर्थतन्त्र	-8.91512
▁बताउँदै	-8.91643
▁कथा	-8.91691
▁छिन्	-8.9177
▁नियम	-8.91883
शि	-8.91917
ाल	-8.91958
▁बालबालिका	-8.92037
लाल	-8.92065
▁ने	-8.92076
▁अव	-8.922
▁आम्दानी	-8.92241
▁घट	-8.92253
▁विवाह	-8.92271
▁उपभोक्ता	-8.92376
▁चिनियाँ	-8.92394
लगायतका	-8.92411
▁पाउन	-8.92485
▁नियमित	-8.9249
▁कुन	-8.92602
ाइएको	-8.92783
▁एस	-8.92834
▁विमानस्थल	-8.92838
▁नदी	-8.92889
▁स्	-8.92935
टि	-8.93215
▁सिंह	-8.93265
▁सञ्चालक	-8.93289
d	-8.93345
▁कस्तो	-8.9338
▁अनु	-8.93426
▁झ	-8.93428
ेन्ट	-8.93495
▁सोच	-8.93602
्वा	-8.93657
ेट	-8.93676
िएर	-8.93695
ीले	-8.93721
धा	-8.93756
▁प्रतियोगिता	-8.9376
▁राजनीति	-8.9377
▁पाए	-8.93777
▁अघिल्लो	-8.93815
▁बुझ	-8.93998
▁भूकम्प	-8.94028
▁सामान	-8.94106
▁दिनमा	-8.94108
▁यति	-8.94122
▁अनुगमन	-8.94146
▁पहिचान	-8.94183
ष्	-8.94291
▁जल	-8.94344
▁ठूला	-8.94374
ुल	-8.94513
▁असोज	-8.94565
भी	-8.94604
▁राहत	-8.94672
▁परियोजना	-8.94827
▁प्रकाशित	-8.94828
▁संसद्	-8.94859
लाइ	-8.94957
▁देशमा	-8.94985
▁“	-8.94987
▁परीक्षा	-8.95024
▁संसदीय	-8.95056
▁आए	-8.95095
▁टोलीले	-8.95249
▁कक्षा	-8.95279
▁प्रदेशसभा	-8.95326
▁तामाङ	-8.95412
▁मार्फत	-8.95536
▁पारित	-8.95639
▁शब्द	-8.95753
कारी	-8.9585
▁मल	-8.95885
▁खाना	-8.95903
▁पहल	-8.96046
▁किसान	-8.96079
▁जवाफ	-8.96145
▁भनिएको	-8.9622
बाटै	-8.96222
▁चरणमा	-8.96264
ेसन	-8.963
▁गृह	-8.96444
▁प्राविधिक	-8.96444
▁आर	-8.96559
▁लगाउन	-8.96719
▁शान्ति	-8.96815
▁विद्युत्	-8.96894
▁३१	-8.96895
▁छोरी	-8.9701
गु	-8.97074
▁खेती	-8.97085
हार	-8.97197
▁उनीहरुले	-8.97248
िका	-8.97284
▁टु	-8.97419
▁लोक	-8.97423
▁मानिस	-8.97482
▁सरकारलाई	-8.9757
▁देशभर	-8.97596
देश	-8.97615
▁धान	-8.97621
▁प्रकाश	-8.97625
▁सुरक्षित	-8.97756
▁आक्रमण	-8.97775
▁विगत	-8.97776
▁तिमी	-8.97848
5	-8.97898
▁राई	-8.97941
▁संस्कृति	-8.97963
▁प्रतिशतले	-8.97975
▁सक्रिय	-8.97992
म्ब	-8.98008
▁राजा	-8.98057
▁हरि	-8.98063
ेश्वर	-8.98193
एम	-8.98254
दे	-8.98256
▁७०	-8.98271
▁मन्त्रालयका	-8.98296
र्ज	-8.98356
▁मह	-8.98393
▁प्रभावकारी	-8.98443
▁औषधि	-8.98452
▁शिव	-8.98501
▁दुर्घटना	-8.98507
▁हु	-8.98523
▁खेलकुद	-8.98528
▁गरिएका	-8.98584
▁बनेका	-8.98656
▁विराटनगर	-8.98788
▁मिल	-8.99008
▁अन्तर	-8.99048
▁तत्कालीन	-8.99055
ाँ	-8.99256
▁मौसम	-8.99267
▁भू	-8.9929
▁पदार्थ	-8.99328
क्	-8.9933
▁सम्मेलन	-8.99517
▁योगदान	-8.99707
▁रू	-8.99734
▁भन्छन्	-8.99752
▁कार्यालयले	-8.99836
▁बढ्ने	-8.99906
▁विकल्प	-8.99956
▁इतिहास	-9.00003
▁साँझ	-9.00004
ुभएको	-9.00018
▁कलाकार	-9.00079
▁उमेर	-9.0011
u	-9.00282
▁पुरस्कार	-9.00285
▁दिँदै	-9.0045
▁अनुदान	-9.00527
▁अवधि	-9.00689
श्	-9.00746
ल्ट	-9.00893
▁३२	-9.00908
▁आयोजित	-9.00915
▁भौतिक	-9.0093
▁त्यसलाई	-9.00962
;	-9.01057
▁कृष्ण	-9.01086
▁समावेश	-9.011
▁स्थायी	-9.01145
▁नजिक	-9.01201
▁श्रम	-9.01222
▁संलग्न	-9.01247
▁खुला	-9.01384
पो	-9.01463
▁लाग्छ	-9.01543
ीको	-9.01589
ाउँछ	-9.01706
▁ल्याउने	-9.01783
दार	-9.01954
ाले	-9.01958
▁रि	-9.01959
▁८०	-9.01987
▁धन	-9.02008
▁पश्चिम	-9.02031
▁तपाईंको	-9.02055
▁सम्बन्धी	-9.02056
▁सहकार्य	-9.0214
▁दिवस	-9.02143
▁धारणा	-9.02203
ानी	-9.02303
▁विश्वविद्यालय	-9.02384
▁बढ्दै	-9.02451
िता	-9.02467
▁दा	-9.02482
नै	-9.02569
▁बच्चा	-9.02573
▁लगाउने	-9.02672
▁एकै	-9.02707
ुभयो	-9.02709
▁यात्रु	-9.0296
िन्छ	-9.0302
▁यसका	-9.0305
▁पदाधिकारी	-9.0315
▁नसक्ने	-9.03361
ाउँदा	-9.03404
▁आदि	-9.03408
▁स्वतन्त्र	-9.03427
▁जति	-9.03565
▁चिकित्सक	-9.03592
▁बस्न	-9.03623
ेस	-9.03638
▁नियन्त्रणमा	-9.03655
▁सहभागिता	-9.03768
▁वार्षिक	-9.03833
▁पाएका	-9.03837
▁कमजोर	-9.03909
▁बढ्न	-9.03934
बल	-9.03964
▁नगद	-9.04061
▁मापदण्ड	-9.04096
▁ब्या	-9.04204
▁उनीहरू	-9.04231
▁मेयर	-9.0425
▁देशका	-9.04258
▁विरुद्ध	-9.04352
▁अधिकारीले	-9.04369
▁गएका	-9.04418
▁छनोट	-9.04494
▁मिनेटमा	-9.04498
g	-9.04562
▁मंसिर	-9.04573
मात्र	-9.049
यु	-9.04901
▁स्थिति	-9.04924
▁राजस्व	-9.04962
▁साल	-9.05068
▁सचिवालय	-9.05082
▁निरन्तर	-9.05105
▁कांग्रेसका	-9.05146
▁कार्की	-9.05146
▁गर्नुहोस्	-9.05168
▁सम्पर्क	-9.05246
▁विदेश	-9.05395
▁भण्डारी	-9.05468
▁गर्यो	-9.05557
दै	-9.05851
▁कित्ता	-9.05906
धन	-9.05959
▁बीच	-9.06112
▁पेश	-9.06125
:	-9.0613
▁केसी	-9.06152
▁अपराध	-9.06245
न्छ	-9.06296
▁चा	-9.06372
▁भएपनि	-9.06408
्यू	-9.06453
▁मोबाइल	-9.06482
▁वैदेशिक	-9.06721
▁हेर	-9.06723
र्म	-9.06724
▁पुग्न	-9.06724
र्त	-9.06841
▁पाकिस्तान	-9.06845
▁त्यस्तो	-9.06897
▁सर्वसाधारण	-9.0696
',	-9.07094
(	-9.07328
▁साना	-9.07363
▁गतिविधि	-9.0744
▁प्रत्यक्ष	-9.0758
▁फा	-9.07718
▁पास	-9.07745
▁लाई	-9.07823
▁श्री	-9.07832
▁गर्नुभएको	-9.08085
▁कल	-9.08297
▁नाफा	-9.0832
▁जसमा	-9.08553
▁कानून	-9.08609
▁समान	-9.08646
▁फेला	-9.08891
▁यता	-9.08973
▁अनलाइन	-9.08994
▁अझ	-9.09043
▁गर्नेछ	-9.09104
▁चयन	-9.09114
▁मिति	-9.09121
▁झापा	-9.0914
▁उद्घाटन	-9.0916
▁रहे	-9.092
एन	-9.09418
िर	-9.09466
▁फे	-9.09482
▁स्तर	-9.09629
▁किलोमिटर	-9.09653
▁नियुक्त	-9.0966
▁मूल	-9.09672
▁प्रदेशमा	-9.09681
▁पठाउनु	-9.09709
▁लागी	-9.09718
▁शीर्ष	-9.09764
▁तल	-9.09788
▁त्यसैगरी	-9.09851
▁जापान	-9.09939
▁सभामुख	-9.09971
▁बलियो	-9.10123
्नुपर्ने	-9.10262
▁अर्का	-9.10313
▁विभागले	-9.10359
न्न	-9.1045
▁लिएका	-9.10611
क्क	-9.10668
▁सुन्दर	-9.10697
ल्ला	-9.10728
3	-9.10921
▁४५	-9.11033
▁भि	-9.11071
▁विजयी	-9.11099
▁पुस्तक	-9.11266
मन	-9.11338
▁रिपोर्ट	-9.11403
जना	-9.11467
▁दिनुभयो	-9.11474
▁वार्ता	-9.11564
▁लामा	-9.11588
▁यसैगरी	-9.11772
▁कहिले	-9.11805
▁आँखा	-9.11994
▁काँग्रेस	-9.12066
y	-9.12067
▁आव	-9.12072
▁चुनौती	-9.12131
ङ्क	-9.12139
▁जहाँ	-9.12427
वन	-9.12501
▁चालक	-9.12524
▁व्यवहार	-9.12735
कल	-9.1287
▁चौधरी	-9.12918
▁भारतमा	-9.12965
▁हुनुपर्छ	-9.13069
▁भूमि	-9.13192
बार	-9.13331
▁तुलनामा	-9.13345
जो	-9.13351
▁समर्थन	-9.134
▁तहमा	-9.13443
▁बताइन्	-9.13581
▁वर्ग	-9.13678
संग	-9.13683
▁गण्डकी	-9.13723
▁पार्न	-9.138
▁उहाँ	-9.13824
▁बैंकका	-9.13861
▁तथ्यांक	-9.139
▁हप्ता	-9.13945
▁जनालाई	-9.13956
▁गराएको	-9.14005
▁हट	-9.14042
चन	-9.14095
ाव	-9.14153
▁रे	-9.14158
▁नेतृत्वको	-9.14299
▁त्यसमा	-9.14356
▁टे	-9.14383
ात्मक	-9.14485
▁सम्पत्ति	-9.14494
▁भ्रष्टाचार	-9.14595
▁तालिम	-9.14608
फा	-9.14615
िलो	-9.14663
▁दिउँसो	-9.14707
िंग	-9.14815
▁क्ल	-9.14958
बाहेक	-9.15015
ाए	-9.1503
▁ग्राहक	-9.1504
▁ललितपुर	-9.151
▁लाइन	-9.15112
▁सालमा	-9.1518
▁कुमार	-9.15206
▁लगाएको	-9.1525
▁३३	-9.15279
▁लागेका	-9.15478
▁दलका	-9.15617
▁पहिरो	-9.15732
▁पारेको	-9.15872
▁एकीकृत	-9.15902
▁मार	-9.15917
▁भक्तपुर	-9.15947
▁खोज	-9.16033
न्ज	-9.16049
▁सम्बन्धमा	-9.16063
▁बग	-9.16117
▁शव	-9.16132
▁खर्ब	-9.16144
▁सकारात्मक	-9.16181
▁स्थित	-9.16185
▁उसले	-9.16273
▁जिल्लाको	-9.16343
▁तरकारी	-9.16407
▁महानगर	-9.16559
▁तय	-9.16677
▁उपकरण	-9.16681
▁गति	-9.16714
▁उनीहरुको	-9.16721
▁अरू	-9.16757
▁प्रतिष्ठान	-9.16786
▁ज्ञान	-9.1689
▁विद्युत	-9.16936
▁घटेको	-9.16955
▁भाडा	-9.17073
▁कार	-9.171
▁अर्थमन्त्री	-9.17101
▁शरीर	-9.17134
▁भएन	-9.17208
▁जी	-9.17392
▁पसल	-9.17544
▁विश्वकप	-9.1758
▁दुःख	-9.17607
▁उजुरी	-9.17641
सँगको	-9.1766
▁मतदाता	-9.17693
▁अन	-9.17736
▁स्ट	-9.1774
▁तहको	-9.17859
पटक	-9.17978
▁नव	-9.18093
▁निश्चित	-9.18106
▁स्क	-9.18137
▁विधि	-9.1815
▁अर्थात्	-9.18203
▁अस	-9.18273
▁प्रेस	-9.18283
▁मिनेट	-9.18418
÷	-9.18421
ठा	-9.18472
▁आवेदन	-9.18643
▁ऊर्जा	-9.18692
▁कार्यालयमा	-9.18693
▁विज्ञान	-9.18714
▁खानेपानी	-9.18718
▁गलत	-9.18726
▁हल	-9.18738
▁महिनामा	-9.18894
▁कोइराला	-9.1894
▁बाढी	-9.18947
र्थ	-9.18958
ियन	-9.18968
▁टि	-9.18989
▁हार	-9.19082
▁संकट	-9.191
▁जनाएका	-9.19225
▁बी	-9.19541
▁उपाधि	-9.19592
ोल	-9.19594
▁लुम्बिनी	-9.19619
▁लिए	-9.19691
▁स्प	-9.19697
नगर	-9.1971
▁आशा	-9.19731
▁उनीहरूको	-9.1976
▁उनीहरूले	-9.19884
▁सञ्चार	-9.19914
▁खु	-9.1996
▁हामीलाई	-9.19961
▁संगीत	-9.19987
▁चन्द्र	-9.20042
▁भट्टराई	-9.20064
त्ति	-9.20104
क्र	-9.20117
▁थालेका	-9.20133
▁नहुँदा	-9.20164
▁जिल्लाका	-9.20169
▁खोला	-9.20258
▁नेताहरु	-9.2029
▁निर्धारण	-9.2038
▁भन्सार	-9.20425
ेन्स	-9.20539
▁ति	-9.20559
▁कसैले	-9.20573
ताको	-9.20605
▁प्रवाह	-9.20765
औं	-9.20788
▁आय	-9.2081
▁त्यति	-9.20852
▁हस्ताक्षर	-9.20867
▁टा	-9.21033
▁प्रदेशका	-9.21084
▁प्रहार	-9.21144
▁भनाई	-9.21193
▁दिएर	-9.2132
▁लागत	-9.21356
▁चालु	-9.21356
अघि	-9.21369
▁छौँ	-9.21446
▁तिर	-9.21466
▁बढाउने	-9.21483
▁चिन	-9.21514
▁उपस्थिति	-9.21681
▁शेरबहादुर	-9.21693
▁सहर	-9.21717
▁मन्त्रिपरिषद्	-9.21832
धी	-9.21837
▁तेल	-9.21927
▁पुँजी	-9.2196
▁७५	-9.21964
पे	-9.21967
▁कार्यरत	-9.2201
▁खोजी	-9.22012
▁कोही	-9.22079
▁परे	-9.2213
9	-9.22168
ुन	-9.22303
▁शर्माले	-9.22344
▁नेतृत्वमा	-9.2238
▁परिणाम	-9.22387
▁शहर	-9.22399
▁क्रम	-9.22432
▁अदालतले	-9.22634
▁उदाहरण	-9.22654
▁भर्ना	-9.22675
▁एउटै	-9.22764
▁रूप	-9.22783
▁बराबरको	-9.22788
ुर	-9.22873
शी	-9.22915
▁उम्मेदवारी	-9.22922
▁जु	-9.22992
▁चिन्ता	-9.23051
▁कडा	-9.23153
▁संचालन	-9.23216
▁गि	-9.2323
▁रोक्न	-9.23236
▁महामारी	-9.23241
▁प्राधिकरण	-9.23346
▁निर्यात	-9.23645
▁व्य	-9.23692
▁महासचिव	-9.23779
▁अपेक्षा	-9.23806
▁सर्	-9.23809
▁निस्क	-9.23823
▁स्वीकार	-9.23873
▁९०	-9.23902
▁नागरिकता	-9.23946
पति	-9.24057
▁सूर्य	-9.24146
▁देव	-9.24222
▁कामदार	-9.24233
तो	-9.24299
वास	-9.24337
▁कारणले	-9.2436
यता	-9.24458
त्य	-9.24478
प्	-9.24561
▁पुरानो	-9.24578
त्व	-9.24623
्थे	-9.24727
▁देख	-9.24829
▁लाग्न	-9.24838
▁प्रधान	-9.24842
निक	-9.2487
▁हुनुहुन्छ	-9.24943
▁मान्यता	-9.24971
▁आपूर्ति	-9.24983
▁उद्देश्य	-9.25069
▁बाध्य	-9.25324
▁२००	-9.25367
▁गए	-9.2544
कर्मी	-9.25465
▁आफै	-9.25666
▁अधिवेशन	-9.25759
▁स्थापित	-9.25759
▁पाइन्छ	-9.25767
▁शाह	-9.25784
▁वर्तमान	-9.25872
▁सपना	-9.25911
▁कोरिया	-9.26052
▁डर	-9.26095
▁बाहेक	-9.26229
▁भु	-9.26258
▁गरिसकेको	-9.26314
▁तिन	-9.26319
▁रुप	-9.26388
▁नगर्ने	-9.26427
▁गर्नुभयो	-9.26433
जस्ता	-9.26505
▁–	-9.26568
▁एमालेका	-9.26662
▁पहुँच	-9.26668
घाट	-9.26669
▁दबाब	-9.26681
▁डाक्टर	-9.26716
▁सम्भव	-9.26777
▁आजको	-9.26833
▁फैल	-9.27082
▁दर्शक	-9.27188
k	-9.27266
जस्तो	-9.27273
स्तर	-9.27311
▁हस्तान्तरण	-9.27419
▁राजीनामा	-9.27495
▁माया	-9.27582
▁एल	-9.27652
▁तपाई	-9.27717
▁रहन	-9.2775
व्य	-9.2782
▁सक्छन्	-9.27824
▁नाका	-9.27833
▁चासो	-9.27913
▁मिडिया	-9.28107
▁मेडिकल	-9.28162
▁आयो	-9.28206
▁अभ्यास	-9.28227
▁३६	-9.28262
▁ट्र	-9.28288
▁उद्धार	-9.28346
▁खड्का	-9.2836
▁प्रतिक्रिया	-9.28368
▁तोकिएको	-9.28385
ँदै	-9.28492
▁फैसला	-9.28614
गरी	-9.28628
▁जनाइएको	-9.2867
▁भनी	-9.28691
▁कांग्रेसले	-9.28804
▁पुष्पकमल	-9.28821
▁उपयुक्त	-9.28905
▁पुग	-9.28983
▁महसुस	-9.29003
ल्स	-9.29016
▁प्रतिबद्धता	-9.2905
ेक	-9.2912
स्थल	-9.29206
4	-9.29224
▁अख्तियार	-9.29367
▁शैक्षिक	-9.29367
▁न्यायाधीश	-9.29466
▁वर्षीया	-9.29588
▁फल	-9.29593
▁व्यक्तिगत	-9.29614
▁आयोजक	-9.29633
▁साढे	-9.29667
रिया	-9.29675
्रि	-9.29771
▁पढ	-9.29773
▁यद्यपि	-9.29811
▁दलको	-9.2999
हे	-9.30003
▁युद्ध	-9.30012
▁जनसंख्या	-9.30125
▁शि	-9.30131
▁घरेलु	-9.30139
▁प्या	-9.30155
▁पूजा	-9.30229
▁विजय	-9.3023
च्छ	-9.30332
▁तिनीहरू	-9.30343
▁प्राथमिकता	-9.30399
▁टिकट	-9.30531
▁सामुदायिक	-9.30546
▁जरुरी	-9.30573
▁बसेर	-9.30628
▁खुसी	-9.30631
वार	-9.30637
▁भनिन्	-9.30664
ियर	-9.30693
▁त्यसै	-9.30714
्म	-9.3083
▁फाइदा	-9.30916
▁जाँदा	-9.3114
▁मिस	-9.31225
▁गुणस्तर	-9.31228
▁फोटो	-9.31354
▁पुरा	-9.31364
▁महत्व	-9.31413
▁पोखरेल	-9.31502
क्षा	-9.31519
सिंह	-9.31533
▁विमान	-9.3161
▁बर्	-9.31634
ते	-9.31646
▁बेलायत	-9.31688
▁बनाए	-9.31772
▁नतिजा	-9.3178
ाइड	-9.31788
▁५५	-9.31895
▁सङ्क्रमण	-9.319
जर	-9.31904
▁देखिएका	-9.31941
),	-9.31977
▁सशस्त्र	-9.3198
▁भन्नुभयो	-9.32067
!	-9.32123
▁आफैं	-9.32255
▁पाइएको	-9.32372
▁एम	-9.32442
▁पर्व	-9.32458
▁हासिल	-9.32503
▁राखेका	-9.32566
▁बताएको	-9.32614
▁लाभ	-9.32666
▁साधारण	-9.32672
स्ता	-9.3268
खु	-9.32698
▁रहेछ	-9.32769
▁गएर	-9.32852
ब्र	-9.32897
▁धार्मिक	-9.3292
▁रोजगार	-9.33019
▁रक्षा	-9.33114
मेन्ट	-9.33133
डो	-9.33146
▁बस्ती	-9.33162
▁सही	-9.33165
▁ग्र	-9.33165
▁खो	-9.33177
▁यू	-9.33321
▁चौ	-9.33419
▁सम्	-9.33435
▁चढ	-9.33486
▁भट्ट	-9.33488
▁कहाँ	-9.336
आइ	-9.33635
द्	-9.33658
c	-9.33728
▁महासंघ	-9.33971
पन	-9.3398
रुपमा	-9.34158
▁लगाए	-9.34331
▁चाह	-9.34389
▁गतेसम्म	-9.34461
▁जाँच	-9.34517
▁गौतम	-9.34531
▁सन्देश	-9.34558
▁वर्षदेखि	-9.34618
ग्	-9.34699
▁कात्तिक	-9.34719
▁सक्नुहुन्छ	-9.34732
▁अनुरोध	-9.3475
▁कम्युनिष्ट	-9.34773
▁बिना	-9.34803
▁हेर्दा	-9.34832
फि	-9.34852
▁पुर	-9.34905
▁उपस्थित	-9.35147
▁कप	-9.35159
▁हे	-9.35405
एक	-9.35444
▁चित्र	-9.35487
▁प्रो	-9.35535
▁मोटरसाइकल	-9.35602
▁नेताहरू	-9.35631
▁दशक	-9.35684
▁बैंकिङ	-9.35724
नेपाल	-9.35873
▁कला	-9.36016
हाल	-9.36029
▁सफलता	-9.36085
▁बनाएका	-9.36133
▁बुटवल	-9.36186
▁देउवाले	-9.36371
▁पर्याप्त	-9.36381
▁लगातार	-9.36395
▁प्रतियोगितामा	-9.36727
b	-9.36817
▁३४	-9.36826
▁प्रशिक्षक	-9.37068
▁समृद्धि	-9.37109
▁हिँड	-9.37122
▁स्कुल	-9.37137
▁समग्र	-9.37139
▁पाण्डे	-9.37189
▁सकेन	-9.37232
▁खोल	-9.3738
▁भारतले	-9.374
सभा	-9.37417
▁मेला	-9.37433
एफ	-9.37448
▁पालिका	-9.37536
▁देख्न	-9.37575
▁मानिसहरू	-9.37653
ाउनु	-9.37682
▁जहाज	-9.37689
शील	-9.37698
▁कमी	-9.37703
न्त्र	-9.37938
करण	-9.37956
▁कार्ड	-9.37997
▁केन्द्रका	-9.38062
▁ब्र	-9.38189
▁नेप्से	-9.38221
▁परिषद्	-9.38259
चु	-9.38285
ाङ	-9.38325
,’	-9.38463
▁मुख	-9.38505
हान	-9.38574
▁दाङ	-9.38596
पाल	-9.38673
घर	-9.38708
▁लगानीकर्ता	-9.38745
ल्याण्ड	-9.38803
▁अति	-9.38807
▁सञ्जाल	-9.38813
▁सुदूरपश्चिम	-9.38842
ायो	-9.38982
▁कदम	-9.39065
▁सुरुवात	-9.39183
▁बहस	-9.39238
▁निर्माणको	-9.39263
सहितको	-9.39297
▁विजेता	-9.39359
ेशन	-9.39522
▁पुगेर	-9.39546
▁सिट	-9.39614
▁दश	-9.39659
▁विष्णु	-9.39691
्थ्यो	-9.3975
▁संवैधानिक	-9.3978
▁चौथो	-9.39825
▁गराएका	-9.40014
▁नभए	-9.40062
▁ठ	-9.40114
ामा	-9.40145
▁आधुनिक	-9.40169
▁खाने	-9.4019
▁संसार	-9.40219
ञ्च	-9.40237
▁पार्ने	-9.4026
▁सबैलाई	-9.40355
▁अनिवार्य	-9.40357
००	-9.40391
▁अहिलेको	-9.40559
▁दुबै	-9.4062
▁कार्यालयका	-9.40648
▁सत्य	-9.40675
▁जनामा	-9.40696
▁गरियो	-9.40715
▁बमोजिम	-9.40715
▁आधारित	-9.40761
▁२०७४	-9.4081
तर	-9.40825
▁मार्ग	-9.40833
▁प्राकृतिक	-9.40853
▁खेल्ने	-9.40854
▁सक्दैन	-9.40874
▁क्र	-9.40932
▁सङ्ख्या	-9.40986
▁निर्माणका	-9.41015
▁त्यसका	-9.41069
▁केन्द्रित	-9.41132
इट	-9.41139
न्द्र	-9.41151
▁निक्षेप	-9.41168
▁मल्ल	-9.41208
▁छिटो	-9.41298
▁व्यावसायिक	-9.41327
▁अभि	-9.41388
▁पी	-9.41468
▁तर्क	-9.41534
फे	-9.41557
गी	-9.41572
▁उपचारका	-9.41614
▁शो	-9.41669
▁आएपछि	-9.41713
▁दिनु	-9.41715
स्थ	-9.41827
▁नगरी	-9.41834
▁कस	-9.4187
▁६५	-9.41884
िप	-9.41966
▁बसेका	-9.4199
▁रात	-9.4206
▁सडकमा	-9.42082
▁तपाइँ	-9.42148
▁भोग	-9.4217
▁मोरङ	-9.42284
▁परिचालन	-9.42355
▁लिमिटेड	-9.42362
▁संघका	-9.42378
▁आचार्य	-9.42407
▁भरतपुर	-9.42458
सम्मको	-9.42477
▁फो	-9.42501
▁हिजो	-9.42508
्ट	-9.42521
सार	-9.42699
▁नभई	-9.42777
▁श्रीमती	-9.42791
▁झु	-9.42865
▁नारायण	-9.42869
▁लु	-9.42877
▁राखे	-9.42972
er	-9.42994
▁गतेदेखि	-9.43082
▁डो	-9.43148
▁जनप्रतिनिधि	-9.43294
▁कप्तान	-9.43294
▁अल	-9.43326
▁चुनावी	-9.43399
▁अभिनय	-9.43414
कृत	-9.4345
एल	-9.43492
▁आएर	-9.43566
▁पर्न	-9.43602
▁निवेदन	-9.43789
▁मैदानमा	-9.43804
िँदै	-9.43883
▁बित	-9.44034
▁उनीहरुलाई	-9.44042
▁संस्थाले	-9.44058
▁भण्डारीले	-9.44119
▁औपचारिक	-9.44121
▁कुराकानी	-9.44128
▁प्रतिबन्ध	-9.44171
▁मामिला	-9.44289
न्ध	-9.44294
▁आधा	-9.4436
रहेका	-9.4441
▁सरकारका	-9.44488
▁प्रसारण	-9.44575
▁बुझ्न	-9.44608
▁बढेर	-9.44632
▁प्रचार	-9.44647
बो	-9.44702
▁निवास	-9.44704
▁जान्छ	-9.44722
▁बै	-9.44731
स्व	-9.4475
▁पार्टीले	-9.44757
▁प्रगति	-9.44786
▁निरन्तरता	-9.44876
▁झा	-9.44936
▁सजिलो	-9.44958
▁बहुमत	-9.45048
▁हित	-9.45139
▁व्यक्तिको	-9.45246
ोट	-9.45248
▁गिरी	-9.45301
▁मद्दत	-9.45305
▁खारेज	-9.45322
▁३८	-9.45421
▁शैली	-9.45472
▁स्वागत	-9.45612
▁सहायक	-9.45612
▁साथी	-9.4562
▁लगाएका	-9.45644
▁अदालतमा	-9.457
▁निगम	-9.45713
▁खट	-9.45752
▁बहु	-9.45795
खे	-9.45805
▁ट्राफिक	-9.45857
थी	-9.45918
िटी	-9.45945
▁तथ्य	-9.46021
▁मगर	-9.46031
▁दाहालले	-9.46048
मित	-9.46139
▁त्यसो	-9.46172
▁थाल	-9.46333
▁जनाले	-9.46348
▁शा	-9.46356
▁भट्टराईले	-9.46387
▁ि	-9.46405
▁यौन	-9.46464
▁प्रहरीको	-9.46481
णी	-9.46526
▁सफा	-9.46551
जन्य	-9.46558
▁आवाज	-9.46567
रहेको	-9.46607
▁साझा	-9.46659
▁उचित	-9.46672
▁४२	-9.46723
▁३७	-9.4674
▁कानुनी	-9.46826
▁किलो	-9.46836
▁दिल्ली	-9.46838
▁दावी	-9.46852
युक्त	-9.46871
▁डिजाइन	-9.46938
▁ठेक्का	-9.46955
बर	-9.47185
▁आफन्त	-9.47358
▁केवल	-9.474
वल	-9.47437
ीत	-9.47508
▁भावना	-9.47516
▁भेला	-9.47543
▁मुलुकमा	-9.47602
▁नरहेको	-9.47627
▁मुलुकको	-9.4763
▁निःशुल्क	-9.47686
▁आफूहरु	-9.47688
▁भाइरसको	-9.47714
ोन	-9.4772
▁कारवाही	-9.47733
▁खाता	-9.47739
▁लड	-9.47774
▁कन्	-9.47786
▁कार्यकाल	-9.47799
▁सेट	-9.47817
▁धारा	-9.47829
▁बनाइएको	-9.47857
्रे	-9.47933
▁यादवले	-9.47935
▁सुर्खेत	-9.47984
▁टेक	-9.48001
मू	-9.48011
▁हिंसा	-9.48049
▁अग्रता	-9.48058
ण्ट	-9.48059
▁आँ	-9.48086
▁दिनुपर्ने	-9.48177
▁विनियोजन	-9.48251
▁पहिला	-9.48378
▁दिन्छ	-9.48391
▁एमालेले	-9.48401
▁छाप	-9.48499
▁प्रदेशको	-9.48589
▁जमिन	-9.4867
▁गैर	-9.48703
▁माध्यमबाट	-9.48732
▁”	-9.4874
▁छानबिन	-9.48803
▁बहादुर	-9.48837
▁किनभने	-9.48851
▁अवार्ड	-9.48851
क्का	-9.48871
▁प्रशिक्षण	-9.48962
▁लोकतान्त्रिक	-9.49
▁निधन	-9.49028
▁स्थल	-9.49039
चित	-9.49091
▁फूल	-9.49115
▁गरिन्	-9.49176
▁ब्याज	-9.49371
▁मोदी	-9.49412
धान	-9.49437
प्त	-9.49442
▁बचत	-9.49458
▁इन्	-9.49463
चि	-9.4948
▁तराई	-9.49492
▁पदमा	-9.49509
▁२०७५	-9.49514
देव	-9.49573
भो	-9.49587
h	-9.497
▁महोत्सव	-9.49902
▁छिमेकी	-9.49933
▁बीचमा	-9.49936
▁परिस्थिति	-9.49965
▁लगाएर	-9.49979
▁रंग	-9.49982
शास्त्र	-9.49988
च्च	-9.50074
▁विक	-9.50076
▁उपमहानगरपालिका	-9.50094
▁धनगढी	-9.5012
▁राजमार्ग	-9.50139
▁फु	-9.50218
म्बा	-9.50289
▁जनताले	-9.50336
▁आलोचना	-9.50398
▁थान	-9.50638
▁विभागका	-9.50638
▁चेतावनी	-9.50639
▁चन्द	-9.50675
8	-9.5072
स्थान	-9.50729
▁दो	-9.50747
ोर	-9.50751
▁लघुवित्त	-9.50785
▁सङ्घ	-9.50795
▁आयोजनाको	-9.50826
▁कैलाली	-9.50849
▁संघर्ष	-9.50896
▁हवाई	-9.50963
▁हटाउन	-9.50987
▁काममा	-9.51083
▁हाम्रा	-9.51108
वान	-9.51118
▁संक्रमितको	-9.51148
▁जिम्मा	-9.51272
▁खाद्य	-9.51429
▁लोकप्रिय	-9.51448
बीचको	-9.51537
दान	-9.5155
▁सार	-9.51552
दु	-9.51603
w	-9.51644
▁रेल	-9.5165
▁ड्र	-9.51663
▁की	-9.51758
▁लुक	-9.51783
▁टी	-9.51804
▁मै	-9.51806
▁कालो	-9.51811
▁हेर्ने	-9.51839
शन	-9.51999
िकरण	-9.52006
▁संकेत	-9.52019
▁बंगलादेश	-9.52068
▁प्रावधान	-9.52084
▁पुगे	-9.52105
▁च्या	-9.52129
▁सिजन	-9.52155
▁उहाँको	-9.52163
▁स्थगित	-9.52297
▁भीम	-9.52309
▁आउँछ	-9.52314
न्दा	-9.52334
▁सदरमुकाम	-9.52412
▁दलित	-9.52498
▁विघटन	-9.52511
▁अधिक	-9.52516
▁बन्दै	-9.52541
▁आह्वान	-9.52609
▁टिप्पणी	-9.52641
लिन	-9.52643
▁सैनिक	-9.52658
▁खनाल	-9.52664
▁एवम्	-9.52707
▁जेल	-9.52716
▁था	-9.52747
▁थोरै	-9.5279
िएपछि	-9.52901
▁भ्या	-9.52913
िसकेको	-9.53007
▁बनाइ	-9.53174
ाह	-9.53178
6	-9.53219
▁निम्ति	-9.53236
▁सकिएको	-9.53238
▁प्रकृति	-9.53293
ीमा	-9.53398
▁माधव	-9.53527
▁प्रमाण	-9.53605
▁नगरपालिकाले	-9.53689
▁सम्मेलनमा	-9.53768
▁छन	-9.53783
▁महत्त्वपूर्ण	-9.53788
▁रिट	-9.53788
▁फर्क	-9.53926
ुक	-9.5399
▁फुट	-9.54014
▁त्रिभुवन	-9.54015
ज्ञ	-9.54041
▁त्यस्ता	-9.54056
्याउन	-9.5406
▁बिदा	-9.54065
▁व्या	-9.54076
▁पाइने	-9.54091
▁लागिएको	-9.54186
एका	-9.54201
▁दुख	-9.54231
▁म्याद	-9.54349
िड	-9.54362
दो	-9.54412
भाग	-9.54447
▁पुर्	-9.54556
▁विधान	-9.54606
▁सेन्टर	-9.54609
▁जग	-9.54805
7	-9.54819
▁कविता	-9.54832
▁थाले	-9.54837
भे	-9.54873
▁समूहले	-9.54883
▁ब्ल	-9.54894
▁ह्या	-9.54907
मणि	-9.54979
▁उसको	-9.55003
▁बैङ्क	-9.55016
▁नगरेको	-9.55047
▁भोट	-9.55129
्टि	-9.55238
▁तर्फ	-9.55429
यस	-9.55498
▁क्याम्पस	-9.55544
▁थालेपछि	-9.5555
▁सजाय	-9.55604
▁दर्जन	-9.55629
▁फेसबुक	-9.55645
िच	-9.55664
▁भो	-9.55665
▁३९	-9.5581
▁बुद्ध	-9.55812
▁मन्त्रालयको	-9.55841
▁झण्डै	-9.55849
▁उपयोग	-9.55889
▁दुर्घटनामा	-9.55988
▁देखिए	-9.56042
▁सर्व	-9.56099
छु	-9.56105
्री	-9.56137
चर	-9.56155
▁शासन	-9.56281
▁विज्ञ	-9.56291
काे	-9.56304
देवी	-9.56352
▁म्या	-9.56358
▁बलात्कार	-9.56428
▁बारे	-9.5648
▁लो	-9.56494
▁नियुक्ति	-9.56513
▁राप्रपा	-9.56514
▁अल्	-9.56517
▁नगर्न	-9.5653
घा	-9.56551
स्प	-9.56572
प्ल	-9.56645
त्मक	-9.56672
▁कृषक	-9.56685
▁४८	-9.56714
▁जडान	-9.56737
▁प्राधिकरणले	-9.56744
▁राणा	-9.56771
प्प	-9.56797
▁गाउँमा	-9.56813
▁योग	-9.56931
▁बोल्दै	-9.57035
ष्ठ	-9.57069
▁लक्ष्मी	-9.57086
▁उड	-9.57219
स्ट्र	-9.57236
▁काठमाडौंमा	-9.57261
▁होस्	-9.57263
▁नगरपालिकाका	-9.57285
▁जनशक्ति	-9.57366
▁प्रचण्डले	-9.57368
▁भन	-9.57369
▁सिम	-9.5737
▁आकार	-9.57391
▁सीमित	-9.57391
ँदा	-9.57409
▁वास्तविक	-9.57423
▁चिया	-9.5746
▁पछाडि	-9.57492
▁श्रमिक	-9.57602
▁व्यवस्थित	-9.57665
▁मिलेर	-9.57665
षण	-9.57715
▁जस	-9.57716
▁सके	-9.57783
▁पेस	-9.57793
टन	-9.57858
▁राजदूत	-9.57913
▁घिमिरे	-9.57944
▁व्यापारी	-9.57961
न्या	-9.58001
▁गोरखा	-9.58011
▁४४	-9.58073
सकेपछि	-9.58093
▁पुनर्	-9.58106
▁मानिसहरु	-9.58129
▁गर्	-9.58195
▁गणेश	-9.58266
▁नर	-9.58275
▁कतार	-9.583
लले	-9.58346
▁ताल	-9.5838
▁काठ	-9.58424
▁मानिन्छ	-9.58429
गे	-9.58456
▁कमल	-9.58477
▁लिइ	-9.5848
्याउने	-9.58567
▁सन्दर्भमा	-9.58574
▁लोकतन्त्र	-9.58608
▁इन्टरनेट	-9.58623
▁माध्यम	-9.58641
▁नजिकै	-9.58657
्ती	-9.58658
▁पाल	-9.58678
▁मेगावाट	-9.58692
ुहुन्छ	-9.58699
▁राजेन्द्र	-9.5871
%	-9.58726
▁बराबरी	-9.5896
▁खण्ड	-9.58989
▁लक्षित	-9.59004
▁पठाएको	-9.5904
▁लाल	-9.59085
भार	-9.59088
सकेको	-9.59178
▁गराए	-9.5919
▁बालेन	-9.59198
▁परिसर	-9.59198
▁तपाईंले	-9.59248
सक्ने	-9.59305
ची	-9.59368
▁पर्यटकीय	-9.59405
▁नारा	-9.59477
र्ण	-9.59478
▁निकाल	-9.59501
▁त्यसले	-9.59509
▁५१	-9.59544
▁४३	-9.59682
▁भएकी	-9.59685
▁पत्ता	-9.59782
▁संस्थाको	-9.59789
▁विकासका	-9.59859
▁केन्द्रमा	-9.59892
▁जसको	-9.59938
▁फोहोर	-9.59938
▁पालना	-9.59973
क्रम	-9.60048
▁विद्यालयमा	-9.60055
▁देखाएको	-9.60207
▁भाइ	-9.60225
▁महिनाको	-9.60338
मुक्त	-9.60349
▁एजेन्सी	-9.60394
▁उपरीक्षक	-9.60452
▁पहाडी	-9.60526
▁ब्याजदर	-9.60561
▁पोखरेलले	-9.60605
▁वर्षअघि	-9.60641
चो	-9.60704
ाइज	-9.60751
ar	-9.60819
गढी	-9.60961
▁धु	-9.60965
▁हक	-9.6098
ाइरहेका	-9.60991
▁भनिन्छ	-9.61009
▁समूहको	-9.61074
▁उत्पन्न	-9.61096
▁प्रथम	-9.61205
▁भविष्य	-9.61281
▁जम	-9.61373
▁साहित्य	-9.61394
▁पर्दछ	-9.614
क्त	-9.61416
▁तु	-9.61449
▁आधिकारिक	-9.61452
▁व्यक्तिलाई	-9.61504
सित	-9.61517
▁बढाएको	-9.61578
खोला	-9.61729
▁खेल्न	-9.6174
▁लगभग	-9.61776
▁गुरुङले	-9.61791
▁महिलाको	-9.61828
▁चालू	-9.61864
र्च	-9.61865
▁स्वीकृति	-9.61887
in	-9.61905
योग	-9.61966
▁निकट	-9.6197
वासी	-9.61993
▁खेलको	-9.62027
रत	-9.62028
▁कम्तीमा	-9.62066
भित्रै	-9.62113
▁द्वारा	-9.6215
▁कपडा	-9.62164
▁इन	-9.62181
▁औँ	-9.62182
▁नेपाललाई	-9.62247
▁सिटी	-9.62279
▁ऐतिहासिक	-9.623
▁कट	-9.624
▁स्वदेश	-9.62403
▁माछा	-9.62422
▁साम	-9.62588
▁तहका	-9.62607
▁भोलि	-9.62609
▁समयदेखि	-9.62656
▁देखा	-9.62664
▁पूँजी	-9.62736
▁बिजुली	-9.62736
▁साइ	-9.62758
▁एप	-9.62831
स्टर	-9.62884
▁दिइ	-9.62893
▁शाक्य	-9.62918
र्व	-9.62918
▁चरण	-9.62934
▁चे	-9.62938
कुल	-9.62942
▁गोली	-9.62945
बारी	-9.63002
चे	-9.6303
▁अभिभावक	-9.63083
चल	-9.63099
जस्तै	-9.63103
▁पशु	-9.63164
▁४१	-9.63199
▁बार	-9.632
द्र	-9.63222
बजार	-9.63298
▁रेकर्ड	-9.63466
ोप	-9.63528
गाउँ	-9.63562
क्षेत्र	-9.63567
ट्	-9.63626
िना	-9.63681
▁देखिने	-9.63689
▁प्रयोगकर्ता	-9.63793
▁वडाध्यक्ष	-9.63811
▁चीनको	-9.63889
▁गरिनेछ	-9.63939
रू	-9.63972
▁तलब	-9.63992
▁थिएँ	-9.64051
ताका	-9.64116
▁मानसिक	-9.64141
▁५२	-9.6424
▁घुम	-9.64255
▁एसिया	-9.64288
▁क्षेत्रीय	-9.64376
▁एक्स	-9.64382
ल्यान्ड	-9.64388
▁सुनाए	-9.64444
▁एयर	-9.64516
▁सुनिश्चित	-9.64608
▁गाह्रो	-9.64608
▁कम्पनीका	-9.64694
▁प्रायः	-9.64831
▁बेल	-9.64905
▁हुँ	-9.65034
ढी	-9.65062
धु	-9.65062
▁सम्झ	-9.65071
▁टो	-9.65102
▁सिक	-9.65114
सर	-9.65127
▁नप	-9.65131
▁हिमाल	-9.65182
▁प्रारम्भिक	-9.65194
▁शाही	-9.65211
▁भत्क	-9.65244
ोस्	-9.65369
▁हुन्थ्यो	-9.65378
▁चलाउन	-9.65403
”	-9.65409
▁कार्कीले	-9.65427
▁निर्माता	-9.6543
es	-9.65479
▁तीव्र	-9.65495
▁अतिरिक्त	-9.65501
▁गर्नका	-9.65509
इन	-9.65581
▁नदिने	-9.65591
निया	-9.65626
▁दूध	-9.65633
▁कहिल्यै	-9.65689
▁संस्करण	-9.65745
▁सुपर	-9.65771
ोज	-9.65805
▁अर्थात	-9.65834
▁सांस्कृतिक	-9.65908
र्ने	-9.6594
▁उद्देश्यले	-9.66065
▁२०७६	-9.66113
▁खतरा	-9.66121
▁चरणको	-9.66136
▁एण्ड	-9.66145
िफ	-9.66175
▁सचेत	-9.66184
धार	-9.66255
ध्य	-9.66278
▁माइ	-9.66282
▁कम्युनिस्ट	-9.66346
▁५६	-9.66347
्क	-9.66359
▁समीक्षा	-9.66365
▁उपाय	-9.66405
ार्थ	-9.66418
▁निष्कर्ष	-9.66422
▁न्यूनतम	-9.6652
▁जितेको	-9.66536
▁कठिन	-9.66591
▁वर्षसम्म	-9.66848
▁४६	-9.66909
ाउँछन्	-9.66911
▁प्रकाशन	-9.66999
f	-9.67084
▁बलमा	-9.6709
▁पढ्न	-9.6711
▁सिद्धान्त	-9.67144
▁प्रसाद	-9.67178
यन	-9.67184
l	-9.67189
फ्ट	-9.67225
▁मिल्ने	-9.67366
▁गन्तव्य	-9.6737
▁केसीले	-9.6742
▁कास्की	-9.67428
▁जनाए	-9.67467
ङ्गा	-9.67471
▁प्रकारको	-9.67481
ाइने	-9.67502
▁कोठा	-9.67547
▁गायक	-9.6758
▁प्रकारका	-9.67629
▁अर्	-9.67638
▁डिभिजन	-9.67675
▁ओलीको	-9.67731
ुपरेको	-9.67753
...	-9.67758
▁सामना	-9.67785
▁मधेश	-9.6779
▁सँगै	-9.67802
▁लागे	-9.67825
सल	-9.67851
▁चुनावमा	-9.67895
्ज	-9.67917
▁मनो	-9.67937
▁२०७७	-9.67939
▁नसक्दा	-9.67999
▁मजदुर	-9.68001
▁खस	-9.68016
▁थुप्रै	-9.6802
▁परामर्श	-9.6802
▁रातो	-9.68061
ाइन	-9.68123
रहे	-9.68137
▁हालै	-9.6817
▁परम्परा	-9.68188
al	-9.68225
▁निको	-9.68256
v	-9.68456
▁समयमै	-9.68484
्छु	-9.68604
फो	-9.6863
▁दिनको	-9.68713
▁पक्षले	-9.6872
ंगा	-9.68734
▁पठाउने	-9.68774
▁पाइ	-9.68799
श्व	-9.68896
▁अवरोध	-9.68911
पूर्व	-9.68922
▁डिजिटल	-9.68944
▁बासिन्दा	-9.68964
पानी	-9.68966
▁क्रि	-9.68994
▁बाँके	-9.6908
▁तरिका	-9.6916
▁टन	-9.69174
िँदा	-9.69178
▁सब	-9.692
▁क्यान्सर	-9.69216
▁मास्क	-9.69268
▁चिसो	-9.69284
▁स्टार	-9.69292
▁रणनीति	-9.69316
▁हिसाबले	-9.69343
▁त्रि	-9.69365
कालीन	-9.69369
▁मासु	-9.69421
यू	-9.69661
गन	-9.69757
▁लगाइएको	-9.69853
▁व्यक्तिले	-9.69884
▁ऊ	-9.69908
▁४९	-9.69927
▁लाग्यो	-9.7017
▁दर्शन	-9.70178
▁लेखक	-9.70214
्ति	-9.70271
▁स्वीकृत	-9.70312
▁देखिन	-9.70329
▁दायर	-9.70364
▁बम	-9.70385
▁बस्नेत	-9.70387
▁संस्थागत	-9.70479
▁विष्ट	-9.70502
▁कांग्रेसको	-9.70503
▁कतै	-9.70507
ाइरहेको	-9.70602
▁न्यून	-9.70626
▁गुम	-9.7063
▁तार	-9.70789
मार्ग	-9.70877
▁मिश्र	-9.70911
ाना	-9.70953
▁सेलिब्रिटी	-9.71037
▁मधेस	-9.71068
▁१००	-9.71083
▁गाउँपालिकाका	-9.71084
▁टाढा	-9.71182
▁सुनको	-9.71224
▁दीपक	-9.71264
▁नोट	-9.71328
स्य	-9.71511
हरूसँग	-9.71557
ैं	-9.71566
▁क्षेत्रलाई	-9.71594
▁हर	-9.71709
शु	-9.71764
वाल	-9.71767
▁वैज्ञानिक	-9.7181
▁सरोकारवाला	-9.71834
▁स्वास्थ्यकर्मी	-9.71935
▁जनतालाई	-9.71977
ेक्स	-9.72017
▁सङ्क्रमित	-9.72089
▁सक्षम	-9.7209
▁भइरहेका	-9.72107
▁विभाजन	-9.72109
▁५३	-9.72139
▁संघले	-9.72252
▁बढ्दो	-9.72278
▁खराब	-9.72294
िनी	-9.72307
▁सर्वाधिक	-9.72315
▁कार्यक्रमको	-9.72359
▁सूची	-9.72372
▁एमसीसी	-9.7239
थ्यो	-9.72436
▁सरकारमा	-9.72451
▁रमेश	-9.72579
▁गाई	-9.7269
पक्ष	-9.72774
▁मुक्त	-9.7288
▁ठहर	-9.72883
▁भारतबाट	-9.72912
१०	-9.72936
▁७६	-9.72985
ेकी	-9.73123
विद्	-9.73177
▁लेखा	-9.73194
▁सबैले	-9.73206
▁मञ्च	-9.73214
कुमारी	-9.73233
ग्र	-9.73242
▁इन्स्योरेन्स	-9.73254
▁ध्यानाकर्षण	-9.73254
▁मौका	-9.73269
▁आउट	-9.73274
▁मलेसिया	-9.73276
▁मर्मत	-9.73325
▁चर्चित	-9.73337
▁एकजना	-9.73357
▁सकेका	-9.73452
▁आयोगको	-9.73462
▁पुर्याउने	-9.73486
▁शून्य	-9.73538
▁ढकाल	-9.73581
▁तिर्न	-9.73595
ग्न	-9.73716
▁भनेका	-9.73724
▁दलहरु	-9.73768
▁गाउँपालिकामा	-9.73841
▁सबैको	-9.73961
▁औद्योगिक	-9.74005
▁गाविस	-9.74005
▁उत्	-9.74016
वत	-9.7407
स्ती	-9.7411
▁लैजान	-9.74131
▁प्रवृत्ति	-9.74168
▁पन्त	-9.74174
▁मृतक	-9.74177
▁हुनेछन्	-9.74213
▁४७	-9.74214
जित	-9.74229
इन्	-9.74279
बेला	-9.74289
▁बारा	-9.74322
▁जय	-9.74337
an	-9.74408
▁शेर्पा	-9.74455
▁पुर्याउन	-9.74475
▁रनको	-9.7454
▁ढ	-9.7457
▁घाटा	-9.74611
▁राख	-9.74612
नारायण	-9.74696
▁अलि	-9.74705
गि	-9.74731
▁५४	-9.74733
▁गृहमन्त्री	-9.74766
▁ग्यास	-9.74854
▁विश्वभर	-9.74925
▁गणतन्त्र	-9.7501
▁चाल	-9.75021
्सन	-9.7516
▁खुल	-9.75213
▁परी	-9.75218
▁बढि	-9.75226
on	-9.75228
▁पठाउन	-9.75247
▁कै	-9.75253
हित	-9.75269
▁सदस्यहरु	-9.75367
▁महानगरः	-9.7546
्ड	-9.75477
▁दृश्य	-9.75605
▁विपक्षी	-9.7573
▁खुद	-9.75798
▁कार्यदल	-9.75823
▁साझेदारी	-9.75824
▁सहयोगमा	-9.75832
ैया	-9.75865
▁२०७८	-9.75888
▁रुस	-9.75891
▁निर्	-9.75916
▁न्यु	-9.75927
▁दुरुपयोग	-9.75937
▁खुलेको	-9.75955
▁राज्यको	-9.76002
▁वर्षका	-9.76029
▁लाभांश	-9.76041
साथ	-9.7605
▁खुशी	-9.7608
▁विश्लेषण	-9.76145
▁टोल	-9.76236
त्री	-9.76268
▁भत्ता	-9.76278
▁आगो	-9.76295
▁व्यापक	-9.76333
▁प्रधानन्यायाधीश	-9.76333
दर्श	-9.76398
▁विद्युतीय	-9.7642
▁खण्डमा	-9.76464
▁कैद	-9.76523
▁पारे	-9.76527
▁दे	-9.76624
▁आयोगका	-9.76657
▁छोटो	-9.76691
▁अनुहार	-9.76758
▁यहाँका	-9.76796
डर	-9.76809
▁अन्	-9.76871
▁नगरपालिकाको	-9.76906
टार	-9.76932
▁विगतमा	-9.76978
▁बने	-9.77032
▁सल्लाह	-9.77033
▁सदस्यीय	-9.77068
▁८५	-9.77068
▁समितिमा	-9.77075
▁रुपन्देही	-9.77148
▁मैदान	-9.77159
▁पू	-9.77221
▁नागरिकलाई	-9.77261
▁प्रतिनिधित्व	-9.77267
भरि	-9.77379
▁तपाईंलाई	-9.77419
ट्टा	-9.7748
▁ढंगले	-9.77548
▁ओभरमा	-9.77559
▁बज	-9.77665
▁उनीहरूलाई	-9.77719
▁यसपटक	-9.77726
▁इच्छा	-9.77736
▁असफल	-9.77746
▁संविधानको	-9.7778
दैन	-9.77849
▁अभिव्यक्ति	-9.77907
तः	-9.77907
▁बिमा	-9.77958
▁सहायता	-9.77992
र्ग	-9.77995
ठी	-9.78001
हरुका	-9.78029
थि	-9.78068
▁विदेशमा	-9.78099
▁नो	-9.78108
▁अम	-9.78153
भारत	-9.78274
▁रहेर	-9.78333
▁राख्दै	-9.78338
न्य	-9.78366
▁५८	-9.78388
▁फ्रान्स	-9.78395
▁अमेरिकामा	-9.78413
▁अध्यादेश	-9.78416
▁नपुग	-9.7859
िला	-9.78598
ट्ट	-9.78676
▁७२	-9.78701
मात्रै	-9.78772
▁महाशाखा	-9.78821
▁नभएर	-9.78821
▁स्या	-9.7884
्याएको	-9.78971
म्भ	-9.78979
▁नाटक	-9.78981
▁चोरी	-9.79061
▁डी	-9.79072
▁खाली	-9.79078
▁टेलिभिजन	-9.79099
▁तोकेको	-9.79138
▁दूरी	-9.79141
▁मर्	-9.79249
▁विना	-9.79253
िसकेका	-9.79292
▁रेग्मी	-9.79292
▁रूपैयाँ	-9.79314
▁अगाडी	-9.79314
▁रियल	-9.79334
▁बाध्यता	-9.79354
▁भे	-9.79357
मूलक	-9.79363
▁.	-9.79399
थे	-9.79433
▁लक्षण	-9.79442
▁अलग	-9.79443
▁प्रतियोगिताको	-9.79455
▁जात	-9.79479
▁जसपा	-9.79521
▁हुँदैछ	-9.7955
वर्ष	-9.7964
▁प्रवद्र्धन	-9.79701
▁कुरामा	-9.79702
▁अन्त	-9.7976
▁डेढ	-9.79769
▁फैलिएको	-9.79798
▁पूर्वी	-9.79825
ुङ	-9.79841
▁नियमावली	-9.79859
न्च	-9.79873
▁रुपियाँ	-9.79873
▁जोशी	-9.7989
▁माटो	-9.7993
कन	-9.79998
▁पर्सा	-9.80003
▁राईले	-9.80017
▁पीडा	-9.80077
▁संख्यामा	-9.80087
▁काट	-9.80123
केट	-9.80125
▁अंग	-9.80128
▁जुम्ला	-9.80133
▁जनकपुर	-9.80176
ुस्	-9.8019
▁भै	-9.80202
▁कूल	-9.80212
▁उपप्रमुख	-9.80227
▁नी	-9.8032
▁२०२०	-9.80392
▁गरिसकेका	-9.80444
▁तरिकाले	-9.80444
▁दायित्व	-9.8048
▁ट्या	-9.80487
्दैन	-9.80661
▁तोक	-9.80673
▁६४	-9.80737
▁बालिका	-9.80741
मर	-9.80761
▁विज्ञप्ति	-9.80822
▁पुस्ता	-9.80853
▁मात्रामा	-9.80858
▁रगत	-9.80882
▁पानीको	-9.80962
▁प्रजातन्त्र	-9.8098
▁थालिएको	-9.80996
▁मात्रा	-9.81024
िभ	-9.81088
▁पुनर्निर्माण	-9.81114
▁बस्दै	-9.81117
▁घण्टामा	-9.81127
▁सेवन	-9.8123
ान्तर	-9.81257
स्था	-9.81308
लिङ	-9.8134
▁स्वर्ण	-9.81374
फर	-9.81379
वाह	-9.8138
▁अंकले	-9.81535
क्ति	-9.81547
वाट	-9.81549
▁तथ्याङ्क	-9.81593
सिस	-9.81632
▁माथिल्लो	-9.81651
▁पदक	-9.81656
▁मोर्चा	-9.81703
▁पृथ्वी	-9.81728
▁समेट	-9.81742
▁संसदमा	-9.81755
▁मेसिन	-9.81815
मैत्री	-9.81837
▁जंगल	-9.81846
षा	-9.81865
्द	-9.81925
▁तनाव	-9.81992
▁रोज	-9.81996
▁बाँध	-9.82033
▁धरान	-9.82038
▁गुरु	-9.82069
▁बजेसम्म	-9.82075
याँ	-9.8214
▁समाप्त	-9.82147
रूपमा	-9.82165
▁ल्याइएको	-9.82182
ाप	-9.82222
टु	-9.82294
हामी	-9.82321
ल्ल	-9.82384
▁समाजमा	-9.82448
ड्क	-9.82449
र्प	-9.82498
▁पुलिस	-9.82544
▁खोजेको	-9.82549
▁बेच	-9.82552
▁समूहका	-9.82578
क्सन	-9.82591
▁मकवानपुर	-9.82609
▁नभएका	-9.8267
▁फोरम	-9.82673
मय	-9.8269
▁गर्नेछन्	-9.82709
▁मिलाउन	-9.82722
en	-9.82759
▁गरिए	-9.82778
▁पेट	-9.82798
▁मुद्रा	-9.82942
▁फाइनान्स	-9.82964
▁दफा	-9.8297
▁रहनेछ	-9.82972
▁नगरे	-9.82979
▁जोडिएको	-9.82993
▁सहयोगी	-9.83005
▁होम	-9.83018
▁कञ्चनपुर	-9.83039
ड्	-9.83072
▁७७	-9.83074
▁सुरक्षाकर्मी	-9.83075
▁भएमा	-9.8309
▁काठमाण्डौ	-9.83098
तु	-9.83102
▁चोट	-9.83103
▁आधारभूत	-9.83197
▁रहेकाले	-9.83203
▁कुर	-9.8323
▁खरीद	-9.83269
▁आयोजनामा	-9.8335
▁सत्तारुढ	-9.83388
▁तान	-9.83397
▁सुनसरी	-9.83502
३०	-9.8353
्दछ	-9.8355
त्या	-9.83561
▁सुरू	-9.83643
▁जलविद्युत्	-9.83663
▁परिसूचक	-9.83679
▁कार्यविधि	-9.8368
▁सञ्चालित	-9.83724
▁शुभकामना	-9.83769
▁ओभर	-9.83862
▁टाउको	-9.83886
भाव	-9.8392
कला	-9.83925
▁नामक	-9.83945
▁रोकथाम	-9.83972
▁दौड	-9.83975
▁ल्याइ	-9.84012
▁निर्माणमा	-9.84049
▁मानिसको	-9.84079
▁विषयलाई	-9.84095
र्ष	-9.84148
कार्य	-9.84162
▁ठाकुर	-9.84174
्दी	-9.84183
▁गाउँपालिकाको	-9.84208
▁टाइ	-9.84215
▁गुण	-9.84223
▁खाद्यान्न	-9.84242
सिया	-9.84245
▁कर्म	-9.84278
▁सरकारसँग	-9.84296
▁छनौट	-9.84309
▁खेत	-9.84326
▁अवरुद्ध	-9.84332
▁जोगाउन	-9.84394
▁ल्याएर	-9.84394
▁निर्वाह	-9.84465
▁उद्योगी	-9.8447
▁विज्ञप्तिमा	-9.84473
▁जरिवाना	-9.84513
▁चेक	-9.84536
▁समुह	-9.84549
▁ज्या	-9.84574
▁देखे	-9.84575
▁यसबाट	-9.84581
▁झन्	-9.84596
िक्स	-9.84654
▁५७	-9.84675
▁फिल्ममा	-9.84764
जल	-9.84783
▁पर्वत	-9.8495
▁देवी	-9.85021
▁टेलिकम	-9.85038
▁झर	-9.85049
▁शुरू	-9.8506
▁सधैं	-9.85132
▁अर्जुन	-9.85148
▁छाला	-9.8524
▁चाहिँ	-9.85319
▁नक्सा	-9.85381
भए	-9.85439
▁आनन्द	-9.85532
▁सेनाले	-9.8557
▁सकिन	-9.85588
▁रावल	-9.85612
▁सरुवा	-9.8566
▁सल्लाहकार	-9.85708
▁बागलुङ	-9.85789
▁कार्यान्वयनमा	-9.85849
▁अक्सिजन	-9.85901
▁अदालतको	-9.8597
▁रासस	-9.85998
▁६३	-9.86073
▁सामाग्री	-9.86108
▁भाव	-9.86151
▁युनियन	-9.86154
▁डु	-9.86207
▁बागमती	-9.8634
▁सन्तान	-9.86368
▁भएसँगै	-9.86393
▁पार्क	-9.86493
बद्ध	-9.86509
▁प्रालि	-9.86541
▁परराष्ट्र	-9.86613
▁दिशा	-9.8665
▁मोडल	-9.86694
▁घटनामा	-9.86725
दिने	-9.86744
▁बसोबास	-9.86754
लर	-9.86771
▁मासिक	-9.86786
▁उभ	-9.86912
▁५९	-9.87121
▁लामिछाने	-9.87243
▁द्वन्द्व	-9.87263
▁ठेकेदार	-9.8731
▁चीनले	-9.87339
▁बेलामा	-9.87424
▁बिल	-9.87434
▁परिवारलाई	-9.87453
▁चलन	-9.87478
▁लैजाने	-9.87491
▁एमालेको	-9.87573
▁आउँदा	-9.87596
▁जसरी	-9.87617
▁गणना	-9.87653
▁दोषी	-9.87683
▁खुट्टा	-9.87695
▁अमेरिकाको	-9.87699
▁निकुञ्ज	-9.87706
▁परिवारका	-9.87748
▁चाहे	-9.87803
योग्य	-9.87804
▁S	-9.87826
▁पात्र	-9.87864
सकेका	-9.87874
▁नदिन	-9.87879
▁बार्सिलोना	-9.87916
▁औ	-9.87931
नीय	-9.87958
▁फर्किए	-9.87997
▁स्वतन्त्रता	-9.88028
▁रोकिएको	-9.88031
▁दिनसम्म	-9.88032
▁एड	-9.88075
▁ठीक	-9.88087
▁छलफलमा	-9.88168
निस	-9.88262
▁समायोजन	-9.88315
▁पोस्ट	-9.88336
नाम	-9.88383
▁दूतावास	-9.88409
पात	-9.88436
पर्	-9.88437
ाहा	-9.88446
▁सकिनेछ	-9.88448
चोक	-9.88454
▁केन्द्रले	-9.88459
▁स्थानीयवासी	-9.88477
▁समानुपातिक	-9.88479
५०	-9.8848
▁किनकि	-9.88509
▁मूल्यमा	-9.88534
▁नपाउने	-9.88536
▁आउ	-9.886
▁मित्र	-9.8861
▁खड्काले	-9.88637
▁संस्थापक	-9.88656
▁प्रष्ट	-9.88661
▁विधा	-9.88689
▁वर्षे	-9.88721
▁राना	-9.88766
▁नपाए	-9.88783
▁वीर	-9.88881
▁६२	-9.88929
▁प्रमाणपत्र	-9.88934
▁महेन्द्र	-9.88955
▁आकर्षक	-9.88975
▁तालिका	-9.88999
▁अनेक	-9.89153
▁दरले	-9.89168
िस्ट	-9.89171
्त	-9.89193
७५	-9.8922
▁कम्पनीहरु	-9.89234
▁९९	-9.89242
or	-9.89256
▁टुंगो	-9.89305
▁म्याग्दी	-9.89311
्ल	-9.89326
पाटी	-9.89487
▁लागेर	-9.89494
▁बुढा	-9.8952
▁खोज्न	-9.89527
▁६६	-9.8955
▁९५	-9.89585
चन्द्र	-9.89616
▁धितोपत्र	-9.89625
▁आउँदै	-9.89696
▁विशेषज्ञ	-9.89697
▁ढकालले	-9.89737
▁व्यस्त	-9.89749
▁अवलोकन	-9.89758
▁आर्मी	-9.8985
▁विज्ञापन	-9.89901
▁सभामा	-9.89942
▁एफ	-9.89955
▁गोविन्द	-9.89958
▁तपाईलाई	-9.8997
▁पछिल्ला	-9.89987
,"	-9.89987
▁अवैध	-9.89997
▁स्थिर	-9.90044
▁चौधरीले	-9.90151
▁हुनसक्ने	-9.90182
नेट	-9.90184
▁दोहोर	-9.90272
िङ्ग	-9.90332
▁देखाउन	-9.90418
▁चलाए	-9.90488
ग्राम	-9.9061
ीन	-9.90633
▁विसं	-9.90668
▁संघको	-9.907
▁हावा	-9.90722
▁रिलिज	-9.90741
बापत	-9.90787
▁बोनस	-9.90792
▁आरोपमा	-9.90798
▁क्ष	-9.9081
▁बाबु	-9.9085
▁भुसाल	-9.90861
रिक	-9.90934
उप	-9.91053
वाला	-9.91058
▁प्याकेज	-9.91063
क्षण	-9.91142
▁विक्री	-9.91202
▁कसैलाई	-9.91235
▁आत्म	-9.91239
▁पहिलोपटक	-9.91348
▁मार्	-9.91364
▁तिनीहरूले	-9.91433
▁बेपत्ता	-9.9144
▁इलाका	-9.91478
▁हुनाले	-9.91509
▁सिमेन्ट	-9.91568
▁संवाद	-9.91637
दन	-9.91673
▁भागमा	-9.91678
▁स्वा	-9.91681
▁सङ्कलन	-9.91683
▁कार्यसमिति	-9.91707
▁ढोका	-9.91708
▁तयारीमा	-9.91712
▁पुराना	-9.91728
▁छुट्टै	-9.91793
▁सामान्यतया	-9.91805
▁फ्ल	-9.91819
वटा	-9.91825
हरुसँग	-9.91833
ंस	-9.91849
▁भारतका	-9.91852
र्ति	-9.91853
अप	-9.91891
औँ	-9.91897
पद	-9.91931
एच	-9.91949
▁प्रधानमन्त्रीले	-9.9195
▁सुख	-9.9195
▁६८	-9.92012
▁नेपालगञ्ज	-9.92121
▁पहाड	-9.92132
▁कर्मचारीको	-9.92148
▁युवती	-9.92154
क्षित	-9.9216
▁विशाल	-9.92171
नेछ	-9.92194
▁अभिनेता	-9.92194
▁गाउँपालिकाले	-9.92198
▁चोक	-9.92218
▁आचार्यले	-9.92231
हल	-9.92276
▁उपत्यकामा	-9.9229
▁पाण्डेले	-9.92296
▁अस्पतालका	-9.92315
▁चुक्ता	-9.92331
▁भिड	-9.92335
द्द	-9.92371
▁स्वार्थ	-9.92397
▁दलहरू	-9.92452
▁मण्डल	-9.9246
▁दीर्घकालीन	-9.92491
भु	-9.92527
▁आकर्षण	-9.92561
▁खासै	-9.92566
▁गरिदिन	-9.92605
▁चल्ने	-9.9267
▁अधिकतम	-9.92768
कृष्ण	-9.92855
▁तनहुँ	-9.9288
▁मुद्दामा	-9.92889
▁जानु	-9.92901
▁पछ	-9.92905
मिल	-9.92914
▁क्रमशः	-9.92929
▁एन्ड	-9.93013
▁बरामद	-9.93053
▁उठाउन	-9.93087
्याप	-9.93152
सचिव	-9.93191
▁प्रयोगशाला	-9.93277
ट्र	-9.93279
▁६१	-9.93288
▁रेडियो	-9.93301
ुपर्दछ	-9.93307
▁धन्यवाद	-9.93324
▁ग्रहण	-9.93375
▁क्षेत्रबाट	-9.93434
▁प्रव	-9.93478
रहन	-9.93479
बासी	-9.93496
▁स्वयं	-9.93497
▁ढल	-9.93568
खो	-9.93624
▁अभिनेत्री	-9.93645
ल्फ	-9.93677
▁स्रोतले	-9.93678
▁पठाए	-9.93708
▁नर्स	-9.93773
▁स्वस्थ	-9.93804
▁नगरपालिकामा	-9.93843
▁प्ले	-9.93923
▁सूचीमा	-9.93936
▁समूहमा	-9.93941
▁आफैँ	-9.93991
▁पर्	-9.94003
हीन	-9.94017
▁रामचन्द्र	-9.94018
▁काल	-9.94076
▁नाच	-9.94095
▁जोड्ने	-9.94121
▁७३	-9.94151
द्य	-9.94193
▁बोकेर	-9.94268
▁दरबार	-9.94268
▁आइरहेको	-9.94283
▁कोइरालाले	-9.94356
▁मन्त्रालयमा	-9.9441
▁रोप	-9.94425
▁२०७२	-9.94453
▁टीका	-9.94568
▁दिइने	-9.94569
▁खोल्न	-9.94611
▁नआए	-9.94619
एमाले	-9.94631
▁सरल	-9.94648
▁भइसकेका	-9.94656
७६	-9.94684
▁निर्वाचनको	-9.94733
▁तारा	-9.94767
▁पत्रिका	-9.94798
▁सोध	-9.94819
▁राजनीतिमा	-9.94846
▁मौलिक	-9.94867
▁यतिबेला	-9.94983
मार्फत्	-9.95034
▁एकल	-9.95067
▁रिस	-9.95093
▁लागु	-9.9511
र्जी	-9.95177
▁अपनाउन	-9.95219
▁श्रीलंका	-9.95243
लिया	-9.95283
▁संस्थान	-9.95292
▁निषेधाज्ञा	-9.95294
▁स्वाद	-9.95309
▁चलाउने	-9.95393
▁इलाम	-9.95495
▁राय	-9.95553
▁ठान	-9.95591
▁सजिलै	-9.95647
▁हतियार	-9.95698
▁गण	-9.95706
▁राज्यले	-9.95752
▁संविधानसभा	-9.95774
विरुद्धको	-9.95851
▁निकालेको	-9.95927
▁चाहना	-9.9597
टेल	-9.95989
▁अग्र	-9.95997
▁नागरिकको	-9.96025
▁आउनु	-9.96033
▁वर्षपछि	-9.96033
▁शिक्षण	-9.96112
▁चाप	-9.96126
▁अस्पतालको	-9.96132
▁प्रिमियर	-9.96179
▁लाइफ	-9.9618
▁बालक	-9.96259
▁कर्मचारीलाई	-9.96259
▁प्रोत्साहन	-9.96357
▁प्रदीप	-9.96405
▁आगलागी	-9.96434
ेयर	-9.9652
▁आकाश	-9.96531
▁सुनुवाइ	-9.96536
र्ती	-9.96631
▁ब्याटिङ	-9.96657
▁सिंहले	-9.96696
िनु	-9.96706
▁आइसोलेसन	-9.9674
▁सस्तो	-9.96766
▁भारी	-9.96818
कता	-9.96833
▁जसका	-9.96847
▁सवारीसाधन	-9.96893
▁नक्कली	-9.96945
ान्त	-9.96971
फु	-9.96973
▁पर्दा	-9.96975
▁सगरमाथा	-9.97021
▁भिसा	-9.97037
▁कम्प	-9.97048
यत	-9.97054
▁इन्द्र	-9.97067
▁करीब	-9.97077
▁ठुलो	-9.97201
▁मनाङ	-9.97224
्नुहोस्	-9.9725
▁महर्जन	-9.97304
सन्	-9.97367
▁रेखा	-9.97401
▁ढुवानी	-9.97406
▁जित्न	-9.97408
▁बरु	-9.97505
▁भेटिएको	-9.97507
अहिले	-9.97531
कम	-9.97534
्वे	-9.97536
शो	-9.97556
▁सालको	-9.97582
▁न्यौपाने	-9.97602
क्व	-9.9761
▁हल्का	-9.97617
▁प्राथमिकतामा	-9.97634
▁झन्डै	-9.97639
▁खिच	-9.97648
▁सकिए	-9.97661
▁संघीयता	-9.9767
▁मोहन	-9.97671
▁७८	-9.97715
▁मसान्तसम्म	-9.97721
▁अस्पतालले	-9.97731
▁दायरा	-9.97757
▁त्यतिबेला	-9.9778
▁६७	-9.97862
▁विश्वव्यापी	-9.97871
▁हाफ	-9.979
▁वटै	-9.97932
▁प्रबन्ध	-9.97949
त्ता	-9.97956
▁चिकित्सा	-9.98
▁नम्बरको	-9.98012
्याङ	-9.98052
▁जोडी	-9.98079
▁खत्री	-9.98097
▁७४	-9.98111
▁कक्ष	-9.98156
▁हैन	-9.982
लिक	-9.98243
▁चामल	-9.98289
▁बदल	-9.98377
▁राउत	-9.98403
▁जलविद्युत	-9.98434
▁आकर्षित	-9.98519
▁संस्थाका	-9.9853
▁क्रियाकलाप	-9.98545
▁चौकी	-9.98624
▁भनि	-9.98625
▁प्रतिपक्षी	-9.98675
▁बोर्डले	-9.98816
▁बताउनु	-9.98823
यक	-9.9883
▁साउदी	-9.98858
▁रौतहट	-9.98884
▁पर्यो	-9.98987
▁रहन्छ	-9.99002
▁नकारात्मक	-9.99014
▁ईश्वर	-9.99027
▁कागज	-9.99044
▁गयो	-9.9913
▁महतो	-9.99134
▁भाउ	-9.99159
▁सेतो	-9.99169
▁सत	-9.99204
ंदै	-9.99281
विहीन	-9.99287
▁क्वा	-9.99349
▁पेशा	-9.99353
▁बुझाउन	-9.99369
▁ग्रामीण	-9.99381
▁किसिमको	-9.99383
▁सिनेमा	-9.99408
▁सन्तोष	-9.99459
▁भेटघाट	-9.99471
▁धनुषा	-9.99486
मुनि	-9.99514
▁दलले	-9.9952
▁फिट	-9.99562
ध्या	-9.99591
ग्रह	-9.99621
▁बुझे	-9.99636
▁संस्थाहरु	-9.99654
▁मालिक	-9.99658
▁शिविर	-9.99678
▁पठाइएको	-9.99684
ृत	-9.9972
▁छोड	-9.99732
▁चलिरहेको	-9.99906
▁सक्नेछन्	-9.99934
▁धो	-9.99937
▁बलिउड	-9.99986
▁वै	-9.99999
▁इन्धन	-10.0001
बन्ध	-10.0003
▁गौतमले	-10.0003
▁७१	-10.0009
▁गभर्नर	-10.0014
▁समयसम्म	-10.0019
▁पुग्छ	-10.0035
ed	-10.0035
▁दिएपछि	-10.0036
▁कारागार	-10.0038
re	-10.004
माया	-10.0049
▁सम्पदा	-10.0049
▁किन्न	-10.0049
▁ट्रे	-10.005
▁पर्दैन	-10.005
▁फ्या	-10.0051
▁अध्यक्षतामा	-10.0056
▁रंगशाला	-10.0057
▁जीवनमा	-10.0067
▁साथमा	-10.0067
▁शीर्षक	-10.0069
▁No	-10.007
▁आश	-10.0072
▁यसबारे	-10.0073
▁सदन	-10.0076
▁हेरेर	-10.008
▁आफु	-10.0081
▁ट्रम्प	-10.0087
▁प्रक्रियामा	-10.0089
▁गर्दछन्	-10.0091
▁अस्थायी	-10.0091
▁विश्वका	-10.0093
भू	-10.0102
▁सप्तरी	-10.0102
▁फाइनल	-10.0105
▁विस्तृत	-10.0107
▁युवराज	-10.0112
्ग	-10.0114
▁स्मरण	-10.0115
▁बिग्र	-10.0132
▁बाँड	-10.0137
▁अलपत्र	-10.0141
▁२०७९	-10.0145
▁प्रदर्शनी	-10.0145
▁मार्च	-10.0145
▁६९	-10.0148
▁फस	-10.0151
▁औसत	-10.0156
▁पाउ	-10.0156
▁युक्रेन	-10.0166
जसो	-10.0168
ाउँ	-10.0168
▁दृष्टिकोण	-10.0169
▁आशंका	-10.0172
▁पावर	-10.0178
▁छाडे	-10.0181
क्षक	-10.0181
▁for	-10.0182
▁साँ	-10.0185
टिन	-10.0186
▁थिएनन्	-10.0188
फ्	-10.0192
▁मुटु	-10.0194
▁पञ्च	-10.0198
द्व	-10.02
क्ट	-10.0205
▁निर्धारित	-10.0212
घु	-10.0218
▁रह्यो	-10.0219
▁कटौती	-10.0226
▁८८	-10.0228
▁चाँडै	-10.0228
िश	-10.0236
▁व्यवसायीले	-10.024
र्जा	-10.0241
माओवादी	-10.0241
▁हेटौंडा	-10.0244
▁ज्ञानेन्द्र	-10.0245
चक	-10.0247
▁महासंघका	-10.025
यौं	-10.0251
▁स्वामित्व	-10.0253
▁परम्परागत	-10.0253
▁बिषय	-10.0254
▁उपलब्धि	-10.0256
▁निरीक्षक	-10.0258
कस	-10.0266
▁गुणस्तरीय	-10.0274
▁पाठक	-10.0277
▁जागिर	-10.0281
▁महामन्त्री	-10.0282
▁यसैबीच	-10.0283
▁तिहार	-10.0289
▁जाति	-10.0296
▁दृष्टि	-10.0299
ट्टी	-10.0299
▁ु	-10.03
▁सन्दीप	-10.0306
▁हुदै	-10.031
▁मतगणना	-10.0312
▁सेनाको	-10.0315
▁युरोप	-10.0317
▁नसकिने	-10.0317
▁सेवाग्राही	-10.032
▁)	-10.0326
क्टर	-10.0327
▁अरब	-10.0329
मेल	-10.0333
▁महिलालाई	-10.0333
▁सामूहिक	-10.034
▁अत्यधिक	-10.0342
▁भेट्न	-10.0349
ोस	-10.0352
▁सुशासन	-10.0361
▁पारेर	-10.0365
▁फ्र	-10.0366
▁खालको	-10.0367
▁केन्द्रको	-10.0368
श्य	-10.0368
यी	-10.0368
▁चलेको	-10.0369
▁जाँदै	-10.0373
▁नमुना	-10.0375
घात	-10.0382
▁सीप	-10.0386
्याए	-10.0387
▁अथवा	-10.0389
▁परिवारको	-10.039
▁घो	-10.039
▁महिलाहरु	-10.039
▁बाबुराम	-10.0397
▁भन्नु	-10.0397
r	-10.0402
▁नष्ट	-10.042
▁ट्रक	-10.042
▁बनाई	-10.0422
्लो	-10.0426
गल	-10.0427
▁पढाइ	-10.043
▁बैशाख	-10.0438
दाता	-10.0445
▁सुन्न	-10.045
▁हातमा	-10.0451
▁प्रभु	-10.0453
▁९८	-10.0457
▁गल्ती	-10.0467
▁अतिथि	-10.0467
▁नेताहरुले	-10.0472
क्ता	-10.0472
▁२०१९	-10.0473
हरी	-10.0474
▁बुबा	-10.0476
▁अफगानिस्तान	-10.0477
▁रिजाल	-10.048
▁धनी	-10.0489
▁डोज	-10.049
▁शंकर	-10.0492
▁जिम्मेवार	-10.0493
प्रधानमन्त्री	-10.0494
▁जर्मनी	-10.0495
▁छाड	-10.05
▁बनाउँछ	-10.0504
▁सापकोटा	-10.0505
▁राष्ट्रियसभा	-10.0512
ल्लो	-10.0516
▁सञ्जालमा	-10.0519
म्बर	-10.052
▁बिच	-10.0523
▁अष्ट्रेलिया	-10.053
▁स्वर	-10.0531
▁अत्यावश्यक	-10.0535
▁उच्चस्तरीय	-10.0538
▁अवधारणा	-10.0541
▁नपर्ने	-10.0548
▁ल्याएका	-10.0548
ालय	-10.0565
▁निगमले	-10.0566
▁युग	-10.0567
▁बढिरहेको	-10.0568
▁बोल्न	-10.0568
▁फर्किएका	-10.0568
▁वायु	-10.0571
▁बयान	-10.0572
▁अस्वीकार	-10.0574
▁जोन	-10.0575
सेवा	-10.0581
▁उत्पादक	-10.0583
▁लिखित	-10.0583
▁पशुपति	-10.0586
▁दुर्गा	-10.0587
▁मौद्रिक	-10.0594
▁गर्छु	-10.0604
लगत्तै	-10.0605
▁क्यान	-10.0609
▁हाइ	-10.061
ुपर्यो	-10.0614
▁गएपछि	-10.0614
ra	-10.0619
फल	-10.062
▁घटनाको	-10.0623
▁अफिस	-10.0624
▁८४	-10.0624
▁अभियोग	-10.0626
▁ग्रा	-10.0628
▁नरेन्द्र	-10.0633
▁वीरगञ्ज	-10.0634
▁नायब	-10.0636
▁प्रकार	-10.0639
▁हकमा	-10.0641
▁this	-10.0642
पूर्वक	-10.0644
▁निर	-10.0646
▁कार्	-10.065
▁पाठ	-10.0651
▁कालि	-10.0655
ग्रस्त	-10.0659
▁पुग्यो	-10.0668
▁सर्लाही	-10.0676
▁विष	-10.0677
▁थो	-10.0677
▁८२	-10.0684
▁महानगरीय	-10.0688
▁२०१८	-10.0694
मिक	-10.0695
▁कमजोरी	-10.07
▁मध्यम	-10.0703
▁ते	-10.0703
▁मावि	-10.0706
▁खनालले	-10.071
▁शारीरिक	-10.071
▁देखियो	-10.0713
ँग	-10.0713
्नुपर्छ	-10.0714
▁तल्लो	-10.0714
▁दिइन्	-10.0716
ाउदै	-10.0717
▁उसलाई	-10.0717
ियम	-10.0726
A	-10.0727
▁फिल्मको	-10.0732
ाएपछि	-10.0739
▁सुवेदी	-10.0739
▁८६	-10.0741
at	-10.0747
▁दिल	-10.0747
▁भी	-10.0747
▁मोटर	-10.0748
▁विशेषता	-10.0756
▁अडान	-10.0756
▁दुईवटा	-10.0757
▁घटेर	-10.0759
▁ग्लोबल	-10.0761
राष्ट्र	-10.0766
▁मुल्य	-10.0766
▁किसानले	-10.0769
▁समझदारी	-10.0769
▁नवलपरासी	-10.0772
▁सेमिफाइनल	-10.0772
▁सम्पादन	-10.0778
▁मदन	-10.0779
नियम	-10.078
▁यसो	-10.0783
म्म	-10.0783
▁विद्यमान	-10.0784
डिया	-10.0785
▁पत्रकारिता	-10.0786
▁गर्मी	-10.0786
िा	-10.0787
▁सिन्धुपाल्चोक	-10.0795
▁ऐ	-10.0799
▁सतह	-10.0802
▁मुल	-10.0808
खर	-10.081
▁बराबर	-10.0811
▁लगाइ	-10.0814
▁सकेनन्	-10.0817
▁बजेटमा	-10.0819
▁शाहले	-10.0822
▁बुक	-10.0827
▁जटिल	-10.0838
नेकपा	-10.0848
▁कर्मचारीले	-10.0849
▁आर्जन	-10.0849
▁सूचक	-10.085
▁खुल्ला	-10.0851
▁अनुपात	-10.0857
▁व्यक्तिहरु	-10.0858
▁आवास	-10.0863
▁खपत	-10.0864
▁रहँदा	-10.0871
सिक	-10.0872
▁इरान	-10.0872
▁खास	-10.0877
▁धादिङ	-10.0879
▁आइपुगे	-10.0884
ँड	-10.0887
▁एयरलाइन्स	-10.089
▁योग्य	-10.0893
▁बनाउनु	-10.0894
▁अस्ट्रेलिया	-10.0896
▁८३	-10.0896
लाइन	-10.0906
▁स्टक	-10.0907
N	-10.0912
▁भुटान	-10.0916
▁बचाउन	-10.0923
▁खोजे	-10.0928
▁उपहार	-10.0929
▁२०७३	-10.0929
▁पेट्रोलियम	-10.0931
ro	-10.0933
हामीले	-10.0936
ुअघि	-10.0947
▁कर्मचारीहरु	-10.0949
▁श्र	-10.0949
▁विशिष्ट	-10.0953
▁जोग	-10.0956
▁सन	-10.0964
▁संयन्त्र	-10.0968
प्रकाश	-10.0973
११	-10.0982
▁बृद्धि	-10.0983
श्च	-10.0985
▁कवि	-10.1003
▁किशोर	-10.1003
▁९२	-10.1005
▁found	-10.102
्यौं	-10.1023
▁मोड	-10.1024
▁विकसित	-10.1025
▁हुनसक्छ	-10.1026
▁गरिदिए	-10.1028
▁ग्रुप	-10.1029
▁ओम	-10.1032
▁ads	-10.1035
▁position	-10.1035
▁समुद्र	-10.1044
▁विश्वासको	-10.1045
आफ्नो	-10.1049
▁९६	-10.105
▁दक्ष	-10.106
▁बाटोमा	-10.1065
▁पोखरी	-10.1066
▁बाह्य	-10.1069
▁बाली	-10.1073
▁हाउस	-10.1073
ुभएका	-10.1079
▁सिँचाइ	-10.1079
▁मनोनयन	-10.1085
▁s	-10.1085
▁उद	-10.1088
न्डर	-10.1088
▁७९	-10.1094
▁बराल	-10.1101
▁उत्तम	-10.1103
▁व्यक्तिहरू	-10.1103
▁माल	-10.1106
िब	-10.111
▁आन्दोलनमा	-10.1112
मुखी	-10.1113
▁जसलाई	-10.1116
▁बच	-10.1117
▁तस्बिर	-10.1123
▁अमेरिकाले	-10.1129
▁मूल्यांकन	-10.1132
▁गौरव	-10.1133
▁डुब	-10.1136
▁आसपास	-10.1138
▁अगुवा	-10.1139
▁खडा	-10.1142
▁गोपाल	-10.1146
▁खेलेको	-10.1149
▁दिनेश	-10.1149
▁प्रमाणित	-10.115
▁विविध	-10.1152
▁तपाईले	-10.1158
रहित	-10.1163
▁बजेदेखि	-10.1167
▁हैसियत	-10.1168
दायी	-10.1169
▁विद्या	-10.1172
▁पाल्पा	-10.1177
दुई	-10.1182
▁इन्टर	-10.1182
र्द	-10.1184
ण्डा	-10.1185
▁काठमाडौ	-10.1185
हरा	-10.1192
▁तिनीहरूलाई	-10.1195
▁p	-10.1195
ढा	-10.1199
▁हिस्सा	-10.12
▁नदीमा	-10.1201
▁किरण	-10.1203
▁भैरहवा	-10.1203
▁फर	-10.1204
▁८१	-10.1212
थो	-10.1216
▁नुवाकोट	-10.1221
▁उता	-10.1229
▁/	-10.124
▁खतिवडाले	-10.1243
S	-10.1245
▁मर्जर	-10.1247
यम	-10.1257
कल्प	-10.1259
▁फरार	-10.1259
▁सौ	-10.1262
▁राख्नु	-10.1264
१५	-10.1264
▁ओलीलाई	-10.1265
▁पत्नी	-10.1266
विन	-10.1271
शिल	-10.1274
▁संस्कार	-10.1275
▁साधारणसभा	-10.1277
▁हस्तक्षेप	-10.1278
साई	-10.1279
▁इजलास	-10.1279
▁अभियानमा	-10.1282
▁जित्ने	-10.1282
▁तेज	-10.1283
वेद	-10.1284
▁९३	-10.1286
▁दिनभित्र	-10.1292
▁जितेका	-10.1292
▁प्रयोजन	-10.1293
▁पुष्प	-10.1297
▁पठाइ	-10.1297
टिभ	-10.1309
▁पढेर	-10.1311
▁ब्राजिल	-10.1311
▁लेखेका	-10.1314
▁छोराछोरी	-10.1317
▁फर्म	-10.1317
▁अवस्थित	-10.1325
▁आफूहरू	-10.1326
▁सिरिज	-10.1329
ँच	-10.133
▁कसैको	-10.1338
र्ध	-10.1341
▁सीता	-10.1341
पर्ने	-10.1343
▁महरा	-10.1354
▁सञ्चारमाध्यम	-10.1356
▁त्रैमास	-10.1356
▁निगरानी	-10.1372
is	-10.1374
िदिए	-10.1377
▁हङकङ	-10.1378
▁घटनास्थल	-10.1378
▁क्षेत्री	-10.138
▁गुट	-10.1388
▁चाहने	-10.139
▁सहसचिव	-10.1395
▁विद्यार्थीलाई	-10.1395
ठो	-10.1398
▁राजकुमार	-10.1398
▁लिइएको	-10.1399
▁सांसदहरु	-10.1402
▁नबन	-10.1415
▁काभ्रे	-10.142
▁भन्छ	-10.1422
्याउँदै	-10.1424
▁युनाइटेड	-10.1426
▁क्यापिटल	-10.1429
▁स्पेन	-10.143
्सले	-10.1432
▁प्रशासनले	-10.1434
▁क्षेत्रफल	-10.1435
▁प्रतिवेदनमा	-10.1436
▁विनोद	-10.1438
▁मेट	-10.144
▁चिनी	-10.1444
▁पारेका	-10.1444
▁वास्तवमा	-10.1444
▁कागजात	-10.1445
▁स्थानिय	-10.1445
▁किताब	-10.1455
▁सिल	-10.1458
▁निकास	-10.1461
छौं	-10.1462
▁कम्पनीलाई	-10.1464
बन्दी	-10.1465
▁पराजुली	-10.1469
▁जुट	-10.1469
▁ब्य	-10.1471
▁बुद्धि	-10.1472
▁पेट्रोल	-10.1472
▁गरिब	-10.1474
▁हिमाली	-10.1475
रोग	-10.1478
▁स्टे	-10.1478
र्श	-10.1481
▁स्मार्ट	-10.1481
▁दीप	-10.1487
▁भ्रमणमा	-10.149
▁विपरीत	-10.149
७४	-10.149
पश्चिम	-10.1491
१२	-10.1495
ल्क	-10.1499
▁आबद्ध	-10.1501
▁८७	-10.1502
▁राजपा	-10.1505
▁आपत्ति	-10.1506
चौर	-10.1507
▁९४	-10.1508
▁बिहे	-10.1511
▁धा	-10.1514
▁विहान	-10.1521
ाधिकार	-10.1521
पोखरी	-10.1522
ुहोला	-10.1524
▁९१	-10.1525
▁बर	-10.1526
▁घिमिरेले	-10.1527
▁छेउ	-10.1531
▁सहुलियत	-10.1536
it	-10.1537
ाधि	-10.154
प्ट	-10.1546
▁तत्व	-10.1547
ब्या	-10.1547
▁तौल	-10.1561
▁आत्महत्या	-10.1561
▁स्वदेशी	-10.1561
▁परिषद	-10.1564
▁मिन	-10.1568
ha	-10.1569
▁शक्तिशाली	-10.1573
▁महासंघले	-10.1575
▁नसके	-10.1582
▁म्यान	-10.1584
मूल्य	-10.159
▁C	-10.1593
▁बिन्दु	-10.1596
▁पोखरामा	-10.1598
▁बस्नेतले	-10.1603
▁फुल	-10.1606
▁केजी	-10.161
▁सुक	-10.161
द्वय	-10.1612
▁८९	-10.1613
▁बनाउँदै	-10.1615
▁दिगो	-10.1616
▁A	-10.1616
▁बास	-10.1621
▁सङ्घीय	-10.1621
ाइँ	-10.1622
सिम	-10.1627
▁सम्झना	-10.163
▁बन्यो	-10.163
जय	-10.1638
▁कम्प्युटर	-10.1638
▁खन	-10.1642
▁रुकुम	-10.1649
▁कपाल	-10.165
▁प्रि	-10.1663
बाबु	-10.1663
्याएर	-10.1665
▁कानूनी	-10.1669
▁कल्पना	-10.167
▁सोचे	-10.1676
्ता	-10.1677
ायल	-10.168
▁घन्टा	-10.1682
▁गल	-10.1684
▁तब	-10.1689
▁उद्यमी	-10.169
▁मस्यौदा	-10.1701
▁पात	-10.1704
▁बिरुवा	-10.1704
▁पस	-10.1707
▁चाहिन्छ	-10.1721
मुख	-10.1724
▁गुल्मी	-10.1726
▁जोखिममा	-10.1726
▁रोपनी	-10.1727
▁दिनदेखि	-10.1727
▁हाँस	-10.1729
▁जाग	-10.1735
२५	-10.1737
खण्ड	-10.1737
▁लिटर	-10.1738
▁एसियाली	-10.1744
▁व्याख्या	-10.1752
▁नियमन	-10.1752
‘	-10.1759
▁प्रकट	-10.1761
▁थि	-10.1764
▁आवको	-10.1765
▁हिन्दु	-10.1768
पाइ	-10.1769
सरकार	-10.1775
जात	-10.1781
▁दिलाए	-10.1781
त्रा	-10.1783
▁विद्यार्थीहरु	-10.1786
▁गेट	-10.1789
▁डिसेम्बर	-10.1789
▁गरौं	-10.1796
▁विमानस्थलमा	-10.1802
▁हात्ती	-10.1802
८०	-10.1813
दल	-10.1813
टिङ	-10.1819
बाह	-10.1819
▁मनाउने	-10.1821
लम्ब	-10.183
▁मातहत	-10.1836
▁दशैं	-10.1838
▁छुट्ट	-10.1839
▁खोज्ने	-10.184
▁परा	-10.1841
▁सन्दर्भ	-10.1842
्दो	-10.1843
▁मूर्ति	-10.1846
▁भिन्न	-10.1847
▁विद्रोह	-10.1847
ज्ञा	-10.1849
▁विमल	-10.1855
▁ग्राम	-10.1858
▁भार	-10.1859
टिक	-10.1859
▁सँग	-10.1867
द्वार	-10.187
▁अन्नपूर्ण	-10.1876
▁प्राथमिक	-10.1879
▁आएकी	-10.1887
ेक्ट	-10.189
▁प्रशंसा	-10.1894
▁अर्याल	-10.1898
▁कसले	-10.1908
le	-10.1917
▁भीड	-10.1918
▁सहमत	-10.1919
▁ल्याए	-10.1921
▁उपेन्द्र	-10.1922
▁फलफूल	-10.1922
▁छैन्	-10.1924
▁देवकोटा	-10.1929
▁घरमै	-10.1932
▁कोषमा	-10.1932
ेष	-10.1934
▁प्रणालीमा	-10.194
▁रुख	-10.1944
▁नाग	-10.1944
▁एकीकरण	-10.1946
▁टिप	-10.1949
▁विभागको	-10.1951
▁जुनसुकै	-10.1954
▁भनिए	-10.1957
O	-10.1961
▁लाग	-10.1962
▁स्टोर	-10.1965
ऊ	-10.1973
st	-10.1973
▁अनुमोदन	-10.1977
▁विभेद	-10.1983
त्स	-10.1985
▁त्य	-10.199
▁किनार	-10.1994
▁गराइएको	-10.1999
▁डिग्री	-10.1999
▁मृत	-10.2001
▁हृदय	-10.2003
▁समुदायको	-10.2004
▁महानिर्देशक	-10.2006
▁भेटवार्ता	-10.2032
▁ठगी	-10.2033
▁लहर	-10.2037
▁बिभिन्न	-10.2038
▁कृति	-10.2039
▁पारिश्रमिक	-10.2041
▁वृद्ध	-10.2043
▁स्ट्र	-10.2045
धारण	-10.2055
▁प्रतिस्पर्धी	-10.2061
▁एच	-10.2071
्यौ	-10.2073
▁त्याग	-10.2076
धारा	-10.2077
ट्स	-10.2079
▁भूभाग	-10.208
▁९७	-10.2092
▁चर्को	-10.2096
▁शरीरमा	-10.2096
▁उड्डयन	-10.2097
▁त्रास	-10.2097
▁वेबसाइट	-10.21
िदै	-10.2107
▁फाइनलमा	-10.2113
▁एक्लै	-10.2123
▁एनसेल	-10.2124
▁हल्ला	-10.2131
▁जनसङ्ख्या	-10.2133
▁उचाइ	-10.2133
म्स	-10.2134
▁राजश्व	-10.2142
बाल	-10.2146
▁छाडेर	-10.2147
▁माधवकुमार	-10.2147
▁भगवान	-10.2151
▁उपाध्याय	-10.2155
▁छिट्टै	-10.2155
▁नीतिगत	-10.2161
▁चाँदी	-10.2162
ing	-10.2165
▁खातामा	-10.2167
▁एम्बुलेन्स	-10.2169
▁इन्जिनियर	-10.2172
▁निर्देशिका	-10.2172
सम्	-10.2173
▁ल्या	-10.2179
▁उर्जा	-10.2187
प्स	-10.2188
▁फाल	-10.2192
▁गुमाएका	-10.2194
ख्या	-10.2204
▁कल्याण	-10.2207
▁बताउनुभएको	-10.2211
▁महोत्तरी	-10.2215
भाष	-10.2216
▁भ्रम	-10.2226
▁पल	-10.2227
चना	-10.2228
▁व्यवसायीहरु	-10.2229
▁बैक	-10.223
▁बक्स	-10.2231
▁हकप्रद	-10.2231
▁बुझाइ	-10.2233
▁स्मृति	-10.2238
▁अत्यन्त	-10.2239
▁मेलम्ची	-10.2244
▁महामारीको	-10.2246
▁लगानीकर्ताले	-10.2247
▁प्रतिवद्धता	-10.2248
क्षी	-10.2253
▁आंशिक	-10.2254
▁सम्भावित	-10.2257
▁माध्यमिक	-10.226
▁रोनाल्डो	-10.2261
▁गन	-10.2263
▁ज्योति	-10.2264
▁लेखिएको	-10.2265
▁पोख	-10.2267
▁वर्षभित्र	-10.2272
▁सवै	-10.2278
▁शान्त	-10.2278
▁विपन्न	-10.2278
▁हेक्टर	-10.2278
७९	-10.2281
▁हिड	-10.2284
▁निम्न	-10.2285
ic	-10.2285
▁सुशील	-10.229
महा	-10.2296
▁सशक्त	-10.2296
▁जलवायु	-10.2301
छा	-10.2309
▁चुन	-10.2311
▁दियो	-10.2313
ल्ली	-10.232
▁बोले	-10.2324
▁P	-10.2325
▁शिखर	-10.2332
▁ब्रान्ड	-10.2336
▁वैकल्पिक	-10.2341
▁अधि	-10.2341
▁सू	-10.2341
▁हराएको	-10.2342
▁अरुण	-10.235
▁असन्तुष्टि	-10.2353
बाहिर	-10.2363
ाइन्छ	-10.2367
▁गुमाए	-10.2367
▁फर्के	-10.2373
▁२०१७	-10.2375
▁अटो	-10.2379
▁जनावर	-10.238
▁फर्	-10.2387
▁जनमत	-10.2388
▁उत्साह	-10.2391
▁किशोरी	-10.2396
▁शाहीले	-10.2398
समक्ष	-10.2402
▁श्रीमान	-10.2403
▁भविष्यमा	-10.2403
▁भय	-10.2403
▁लाइसेन्स	-10.2404
▁आजै	-10.241
▁अभिवृद्धि	-10.2425
▁सिंहदरबार	-10.2428
▁समारोह	-10.2432
▁बुझाएको	-10.2434
▁इन्ड	-10.2438
▁स्वरुप	-10.2443
▁जनाउँदै	-10.2453
▁सैन्य	-10.2455
▁जनवरी	-10.2461
▁ओपन	-10.2462
▁प्रादेशिक	-10.2465
बित्तिकै	-10.2467
▁अधिवक्ता	-10.2468
▁शुभ	-10.2473
▁एशिया	-10.2474
▁अनुकूल	-10.2475
▁ग्या	-10.2475
▁पति	-10.2476
▁निर्णायक	-10.2478
▁विप्लव	-10.2478
▁है	-10.2482
▁बताउ	-10.2483
▁संयोजकत्वमा	-10.2485
▁राखी	-10.2485
▁क्रियाशील	-10.2492
▁भिडियोमा	-10.2495
▁मदिरा	-10.2499
▁चाहेको	-10.2501
संगै	-10.2502
▁ओटा	-10.2511
▁दिई	-10.2515
▁खतिवडा	-10.2521
वीर	-10.2524
बमोजिम	-10.2527
▁पोल	-10.2527
▁च्यानल	-10.2532
▁पीसीआर	-10.2536
पोर्ट	-10.2541
▁खाए	-10.2545
▁गुणा	-10.2549
▁सुरेन्द्र	-10.255
▁न्यूनीकरण	-10.2562
▁मानवीय	-10.2566
ंश	-10.2566
याउने	-10.2572
▁अन्तरिम	-10.2572
▁चक्र	-10.2573
▁बच्न	-10.2576
▁विन्दु	-10.2581
▁ट्रम्पले	-10.259
▁पुर्याएको	-10.2595
ौली	-10.2598
▁क्वारेन्टाइनमा	-10.2602
▁परिवारले	-10.2609
▁उमेरमा	-10.2611
▁बौद्ध	-10.2618
▁उदयपुर	-10.262
ाइदिए	-10.2623
▁अर्घाखाँची	-10.2625
र्ना	-10.2625
प्रचण्ड	-10.2627
▁विपद्	-10.2632
▁निकायले	-10.2634
▁कुकुर	-10.2639
▁कुमारी	-10.2641
▁कं	-10.2643
▁गरिबी	-10.265
▁प्राधिकरणका	-10.2652
▁रहँदै	-10.2656
▁सिद्ध	-10.2667
▁जसमध्ये	-10.2669
ज्ज	-10.267
▁न्यू	-10.2673
▁वसन्त	-10.2673
▁व्यापारिक	-10.2675
▁युवाहरु	-10.2679
▁पाटन	-10.268
▁औषधी	-10.2684
▁मुम्बई	-10.2687
▁कुखुरा	-10.2687
▁डाय	-10.2688
▁बुँदे	-10.2694
▁चित्त	-10.2697
▁कोरोनाभाइरस	-10.2697
▁ढिलाइ	-10.2702
क्ल	-10.2708
▁मधेसी	-10.2709
इस	-10.271
▁सक्दछ	-10.271
▁दी	-10.2717
▁व्यवसायिक	-10.2718
▁बताएकी	-10.2718
कृति	-10.2719
▁सिस्टम	-10.2723
▁वु	-10.2724
▁प्रजाति	-10.2728
सू	-10.2735
▁काँ	-10.2735
▁परिचय	-10.2737
▁गोर्खा	-10.2739
▁खि	-10.2739
▁मोडेल	-10.2745
सके	-10.2746
▁क्रान्ति	-10.2748
▁तापक्रम	-10.2753
पास	-10.2754
▁कम्तिमा	-10.2756
▁गे	-10.2759
▁दोलखा	-10.276
C	-10.2762
▁प्रकोप	-10.2764
▁गतिमा	-10.2765
अब	-10.2769
▁निष्कासन	-10.277
▁रुपैयाँसम्म	-10.2774
बाद	-10.2776
▁मन्त्रिपरिषद	-10.2776
▁थारु	-10.2776
▁एकपटक	-10.2781
▁नृत्य	-10.2784
▁खेल्दै	-10.2784
▁थपिएका	-10.2785
ियल	-10.2785
▁दोहोरो	-10.2786
▁पार्टीभित्र	-10.2786
▁भेग	-10.2791
▁M	-10.2793
▁कोषाध्यक्ष	-10.2798
▁काउन्सिल	-10.2805
बास	-10.2809
▁उठाउने	-10.2811
▁वीरगन्ज	-10.2812
▁प्रतिपक्ष	-10.2812
▁उत्रिए	-10.2813
▁अर्यालले	-10.2814
▁पूरै	-10.2815
▁संवेदनशील	-10.2819
▁बाघ	-10.2833
▁जिकिर	-10.2833
▁साइट	-10.2836
९९	-10.284
▁ठक्कर	-10.284
▁हटाउने	-10.2845
▁गर्थे	-10.2847
लय	-10.2849
मेट	-10.2852
निर्	-10.2857
▁सहजीकरण	-10.2857
स्तरीय	-10.2858
▁दिनअघि	-10.286
▁शताब्दी	-10.2861
▁देउ	-10.2866
मिन	-10.2873
▁नभ	-10.2874
▁अनिल	-10.2876
▁पाएपछि	-10.2881
▁दमक	-10.2894
न्डा	-10.2896
▁लड्न	-10.2899
▁विद्यादेवी	-10.29
▁५००	-10.2901
▁कुँवर	-10.2903
▁विस्फोट	-10.2903
▁विश्वकर्मा	-10.2914
▁गर्छौं	-10.2915
▁मनोज	-10.2917
▁स्वच्छ	-10.2918
▁मेरा	-10.2919
खेल	-10.2929
लाग्दो	-10.2931
▁बैतडी	-10.2931
▁निकाल्न	-10.2932
▁बुझाए	-10.294
ाउनुपर्ने	-10.294
▁थु	-10.2941
▁गराउँदै	-10.2942
▁शपथ	-10.2944
▁पोष्ट	-10.2946
▁किसानलाई	-10.2946
ri	-10.2947
▁घुस	-10.2958
▁महाशाखाले	-10.2963
▁मनाउन	-10.2965
▁उहाँहरु	-10.2971
▁सरसफाइ	-10.2974
▁नपाएको	-10.2974
रानी	-10.2975
▁काली	-10.2979
▁देखाए	-10.2979
▁आराम	-10.2981
▁?\	-10.2981
▁तरलता	-10.2991
▁समारोहमा	-10.2998
खी	-10.2998
▁उत्तिकै	-10.2999
▁समृद्ध	-10.2999
▁रसुवा	-10.3005
▁गर्नुहुन्छ	-10.3005
▁राजन	-10.3009
▁जोडेर	-10.3016
▁कब्जा	-10.302
▁बर्दिया	-10.3024
▁रमाइलो	-10.3024
बुल	-10.3027
▁नियन्त्रणका	-10.3028
▁बढेका	-10.3037
▁ढाक	-10.3042
▁प्रबन्धक	-10.3052
▁छाया	-10.3053
▁दान	-10.3055
▁जै	-10.3056
▁दैलेख	-10.306
▁बेड	-10.3062
▁सदस्यता	-10.3064
▁सरकारबाट	-10.3065
▁एकदमै	-10.3067
▁मुलुकका	-10.3067
▁स्कूल	-10.3069
प्रा	-10.3077
▁आक्रोश	-10.3081
▁दिँदा	-10.3099
▁ठोस	-10.31
▁हेम	-10.3105
▁थाल्यो	-10.3106
▁सोधे	-10.3107
▁भरत	-10.3109
▁टिक	-10.3112
स्थापन	-10.3113
न्जा	-10.3113
▁नेटवर्क	-10.3114
▁गर्भ	-10.3116
क्रममा	-10.3122
▁सेल	-10.3123
रहँदा	-10.3125
▁सट्टा	-10.3126
▁प्रशस्त	-10.3128
▁देखेर	-10.3134
▁आदर्श	-10.3134
इल	-10.3135
▁डाइ	-10.3142
▁बुवा	-10.3142
▁चाहन्छ	-10.3143
▁राजेश	-10.3146
▁ग्राहकहरु	-10.3152
श्री	-10.3157
▁क्षतिपूर्ति	-10.3161
▁कच्चा	-10.3164
▁आरोहण	-10.3168
▁परिणत	-10.3175
▁लम्ब	-10.3177
▁संयोजन	-10.3179
▁ऋषि	-10.3182
▁खोल्ने	-10.3192
▁इटहरी	-10.3193
▁प्रसिद्ध	-10.3193
वश	-10.32
िन्छन्	-10.3204
▁हजुर	-10.3204
▁उत्र	-10.3207
न्थ	-10.3208
▁ढिलो	-10.3209
▁प्राप्ति	-10.3213
▁बुधवार	-10.3215
▁साझेदार	-10.3217
▁ज्ञवालीले	-10.3217
▁म्युजिक	-10.3222
▁समर्थक	-10.3222
ेन्सी	-10.3229
▁सघ	-10.3231
▁लिमिटेडले	-10.3235
एनए	-10.3237
▁गठबन्धनका	-10.3241
▁अनावश्यक	-10.3248
▁देखिएपछि	-10.3251
▁चरित्र	-10.3255
▁बिर्स	-10.3257
्रेस	-10.3258
▁करिव	-10.3263
▁झनै	-10.3268
▁सङ्	-10.3269
▁आलु	-10.327
▁सम्मानित	-10.3275
▁यथार्थ	-10.3278
▁बदली	-10.3278
▁ज्ञवाली	-10.3279
▁ज्येष्ठ	-10.3281
गृह	-10.3283
▁सरोकार	-10.3284
▁२०१६	-10.329
▁व्यहोर	-10.3296
ंच	-10.3296
▁सायद	-10.33
▁हजारभन्दा	-10.3305
▁शंका	-10.3315
▁अफर	-10.3315
▁त्रिवि	-10.3315
▁ठिक	-10.3317
▁अन्तराष्ट्रिय	-10.3318
▁अमर	-10.3318
▁पाउनेछन्	-10.3321
▁पर्ख	-10.3321
▁महीना	-10.3325
▁बीउ	-10.3329
▁कोशी	-10.3343
अर्	-10.3351
▁सुरुङ	-10.3352
▁बोट	-10.3356
▁प्रवर्द्धन	-10.3358
▁नमूना	-10.3358
▁दोश्रो	-10.3362
▁राजु	-10.337
▁युवक	-10.3377
▁चाहिने	-10.3383
▁नेत्र	-10.3384
▁मुनाफा	-10.3395
▁अङ्क	-10.3399
▁छोड्न	-10.3399
रुप	-10.3405
▁अप्रिल	-10.3406
▁निर्भर	-10.3413
▁नभएपछि	-10.3414
▁पक्षका	-10.3422
▁विरामी	-10.3425
▁बेलुका	-10.3429
▁सागर	-10.3434
भक्त	-10.3437
▁डाटा	-10.3439
▁परिक्षण	-10.3442
▁लेखेको	-10.3447
वाहक	-10.3447
▁प्रस्तुति	-10.3451
▁च्याम्पियन	-10.3454
▁खसेको	-10.3454
▁परियार	-10.3455
▁लिई	-10.3456
न्ती	-10.3458
▁जनस्वास्थ्य	-10.3463
▁बढुवा	-10.3466
▁प्रतिशतसम्म	-10.347
▁उद्	-10.3485
▁दसैं	-10.3489
▁पाठ्यक्रम	-10.3496
डाँडा	-10.3497
▁क्रस	-10.35
▁शिशु	-10.3505
▁मानिसले	-10.3507
▁महँगो	-10.3514
▁सिद्धार्थ	-10.3515
▁बढ्छ	-10.352
▁महिनादेखि	-10.3522
▁केशव	-10.3522
ँगा	-10.3527
▁थपिएको	-10.3528
▁वकिल	-10.353
पक्षीय	-10.353
▁प्रशासकीय	-10.3531
▁लगत्तै	-10.3537
▁महेश	-10.3538
▁पिउन	-10.3538
▁उस्तै	-10.3544
▁चौका	-10.3548
▁युएई	-10.3548
▁गहिरो	-10.3548
▁तालमेल	-10.3549
▁भिज	-10.355
ेटर	-10.355
फाइ	-10.3551
▁स्याउ	-10.3552
▁सापकोटाले	-10.3562
▁सिरहा	-10.3564
P	-10.3565
▁असुल	-10.3567
▁जनकपुरधाम	-10.3567
▁कोठामा	-10.3568
▁प्ला	-10.3568
▁बेनी	-10.3576
▁श्याम	-10.3577
यौँ	-10.3577
▁मनोरञ्जन	-10.3578
▁सत्र	-10.3583
्की	-10.3589
▁प्रचलन	-10.3594
▁किसिमका	-10.3597
▁देशलाई	-10.3597
▁तोड	-10.3598
्याट	-10.36
▁नायिका	-10.3601
▁बनेर	-10.3602
▁भन्यो	-10.3604
मती	-10.3606
▁ठप्प	-10.3607
▁अफ्रिका	-10.3612
▁कपिलवस्तु	-10.3613
▁सदस्यहरू	-10.3616
▁परेपछि	-10.3619
▁त्यसरी	-10.362
▁फराकिलो	-10.362
रूप	-10.3624
र्फ	-10.3624
▁सिक्न	-10.3624
▁छायांकन	-10.3624
▁आयल	-10.3625
▁राशि	-10.3628
▁उत्पादित	-10.3635
▁थियौं	-10.3643
▁पारिवारिक	-10.3647
▁बट	-10.3648
▁टेस्ट	-10.3652
▁खेलेका	-10.3654
▁अंग्रेजी	-10.3654
▁फ्रि	-10.3657
▁जीव	-10.366
▁लेख्न	-10.3662
▁उनकी	-10.3666
▁बेहोर	-10.3666
▁गरेपनि	-10.367
▁तीनै	-10.3671
▁मान्न	-10.3671
▁दिनुभएको	-10.3678
▁व्यक्तित्व	-10.3681
▁सेप्टेम्बर	-10.3681
▁खरेल	-10.3682
▁कर्ण	-10.3682
▁महिनासम्म	-10.3689
▁जवान	-10.3692
▁नबुझ	-10.3692
▁कारोवार	-10.3692
I	-10.3695
दुर	-10.3695
▁सङ्गठन	-10.37
▁हेड	-10.3709
▁राष्ट्रसंघ	-10.371
ँदो	-10.3724
▁लेखन	-10.3728
हाम्रो	-10.373
▁मसान्त	-10.373
एमसी	-10.373
▁ट्रेड	-10.3731
भूत	-10.3733
▁सुवेदीले	-10.3733
आज	-10.3734
▁हर्	-10.3736
हारी	-10.3744
▁बैंकहरु	-10.3759
ाइएका	-10.3762
▁पक्का	-10.3762
ग्राफ	-10.3764
▁तपाईँ	-10.3768
▁सर्त	-10.3769
▁नैतिक	-10.377
▁पुग्दा	-10.3772
▁जिते	-10.3773
▁केटी	-10.378
▁बालबालिकालाई	-10.3783
▁ब्रेक	-10.3793
▁साविक	-10.3795
▁दास	-10.3799
▁नवीकरण	-10.3801
▁नदिए	-10.3802
पालन	-10.3809
▁निवासी	-10.3811
▁चेतना	-10.3815
▁प्रकरण	-10.3817
▁सधैँ	-10.3817
▁कुशल	-10.3819
सय	-10.3819
▁महान	-10.382
▁नदिएको	-10.3821
▁राती	-10.3822
▁तस्करी	-10.3825
▁सुदृढ	-10.3827
▁अखिल	-10.3839
▁पाइए	-10.3844
▁बेस	-10.3848
▁केन्द्रिय	-10.3849
▁दिनुपर्छ	-10.3849
E	-10.385
ाइयो	-10.3853
▁आफुले	-10.3857
▁T	-10.3858
il	-10.386
▁हिम	-10.3863
▁खालका	-10.3864
▁गिरावट	-10.3866
▁ढुंगा	-10.3868
▁बिकास	-10.387
▁अंश	-10.3882
▁गायिका	-10.3885
▁जात्रा	-10.3886
▁एन्फा	-10.3888
दत्त	-10.3891
▁नदेख	-10.3892
▁ट्वीट	-10.3893
▁हिन्दू	-10.3893
ँडा	-10.3894
ग्ल	-10.3895
क्री	-10.3908
▁एकदम	-10.3911
▁साग	-10.3916
▁चाड	-10.3926
▁निमित्त	-10.3928
▁पैदल	-10.3928
ंगी	-10.3931
रेट	-10.3938
▁गंगा	-10.3939
▁कर्तव्य	-10.394
▁हटाए	-10.3941
▁अपन	-10.3947
क्रिया	-10.3947
▁विक्रम	-10.3954
▁कृ	-10.3956
मिर	-10.396
▁संक्रमणबाट	-10.3961
▁सोच्न	-10.3965
▁कृष्णप्रसाद	-10.3967
▁दुइ	-10.397
▁प्रान्त	-10.3977
▁प्रतिभा	-10.3978
ti	-10.399
▁यहि	-10.3995
▁पश्चात	-10.4001
▁एसपी	-10.4001
▁सार्क	-10.4006
▁पार्दै	-10.4008
▁छोडेर	-10.4013
▁ज्वरो	-10.4014
▁रद्द	-10.4021
ष्ट्र	-10.4022
▁अविश्वास	-10.4022
▁मौन	-10.4024
▁पं	-10.4026
▁जाडो	-10.4027
▁अशोक	-10.4027
▁चरम	-10.4028
▁थपे	-10.4031
V	-10.4034
▁शौचालय	-10.4034
▁उखु	-10.4036
▁पुर्याए	-10.4036
▁नेपालगन्ज	-10.4038
▁विदेशबाट	-10.4042
▁जोशीले	-10.4055
▁साइकल	-10.4056
▁बढाए	-10.4057
▁किस्ता	-10.4064
▁रोल्पा	-10.4066
▁टावर	-10.4071
▁पक्कै	-10.4074
▁जोडिएका	-10.4075
▁मुस्ताङ	-10.4082
▁समात	-10.4084
▁स्वाब	-10.4084
स्त्र	-10.4088
▁क्यामेरा	-10.409
▁बानी	-10.409
▁मिलियन	-10.4092
▁बोहरा	-10.4092
▁गइरहेको	-10.4098
▁राम्रोसँग	-10.41
▁जानकार	-10.4102
▁अनियमितता	-10.4102
▁आउँदो	-10.411
▁खटिएका	-10.4113
▁जगत	-10.4114
▁सामग्रीबारे	-10.4119
▁मेल	-10.412
▁मोह	-10.4124
▁साथीहरु	-10.4126
▁रामबहादुर	-10.4127
▁जातीय	-10.4129
▁चाहन्छु	-10.413
▁ग्राहकले	-10.4143
▁उपन्यास	-10.4145
▁उहाँलाई	-10.415
▁सहरी	-10.4152
▁आतंक	-10.4154
्थ	-10.4154
▁महामारीका	-10.4156
▁भाषण	-10.4161
▁पुगेपछि	-10.4176
▁घर्ती	-10.4177
▁मानिसलाई	-10.4178
विपरीत	-10.4178
▁नभएकाले	-10.418
▁लघु	-10.4181
▁आत्मनिर्भर	-10.4181
▁रिहा	-10.4182
गरि	-10.4187
▁कार्ययोजना	-10.4189
वत्	-10.419
पीडित	-10.4194
संस्था	-10.4198
▁परिचित	-10.4199
ाञ्चल	-10.42
▁त्यसकारण	-10.4203
▁रक्त	-10.4205
▁सवार	-10.4212
भद्र	-10.4214
▁बढेपछि	-10.4216
▁बताइ	-10.4217
▁लमजुङ	-10.4226
▁छानविन	-10.4226
र्भ	-10.4226
स्तु	-10.4231
▁आवद्ध	-10.4232
▁यि	-10.4235
अस	-10.4237
▁अत्यन्तै	-10.424
▁हौं	-10.4242
▁भित्र्याउन	-10.4245
▁उठेको	-10.4245
▁पारिएको	-10.4247
▁सिन्धुली	-10.425
▁नेपाललाइभमा	-10.4254
▁रेमिट्यान्स	-10.4254
▁पश्चिमी	-10.4258
▁बालुवाटार	-10.4264
▁तस्वीर	-10.427
▁गहन	-10.4276
▁मुक्ति	-10.4278
▁राप्ती	-10.4278
▁बसे	-10.428
▁आर्	-10.4281
▁मेट्रिक	-10.4286
६०	-10.4289
▁उत्तरी	-10.4291
▁दरबन्दी	-10.4297
्छौं	-10.4298
▁रत्न	-10.4301
▁शनिवार	-10.4302
▁झरेको	-10.4307
▁टिभी	-10.4307
▁२०१५	-10.4307
▁सृजना	-10.4311
१६	-10.4313
विध	-10.4316
▁पर्नेछ	-10.4327
▁हाराहारीमा	-10.4331
D	-10.4336
▁प्रकरणमा	-10.4341
▁सुवास	-10.4343
ंगे	-10.4345
परि	-10.4348
▁उपभोग	-10.4348
▁सिमाना	-10.4352
▁बेवास्ता	-10.4355
▁जनजाति	-10.436
▁दिएकी	-10.4361
लियन	-10.4363
▁महाकाली	-10.4365
▁नसक	-10.4371
▁बेरोजगार	-10.4372
▁गराई	-10.4378
▁हरियो	-10.4387
▁नोभेम्बर	-10.4388
▁रुपैया	-10.4388
▁पाउँदा	-10.4392
▁परेर	-10.4395
▁काट्न	-10.4397
▁बालुवाटारमा	-10.4399
▁बनाउनुपर्ने	-10.4403
▁प्रशासनिक	-10.4412
▁नमिल्ने	-10.4413
▁ब्यक्ति	-10.4415
▁अपहरण	-10.4425
▁भलिबल	-10.4425
▁सञ्चारकर्मी	-10.4428
▁वरिपरि	-10.4429
▁प्राध्यापक	-10.443
us	-10.4436
▁आयुक्त	-10.4442
▁झार	-10.4443
तापूर्वक	-10.4446
▁पुर्व	-10.4447
x	-10.4454
▁गराइ	-10.4455
▁प्यानल	-10.4457
▁झि	-10.4458
▁टुक्रा	-10.4458
▁घटाउन	-10.446
▁संचालक	-10.446
▁दिलाउन	-10.4461
मति	-10.4467
▁नायक	-10.4469
०००	-10.447
▁चो	-10.4472
ch	-10.4473
▁मार्केट	-10.4474
▁चाडपर्व	-10.4474
▁माने	-10.4475
▁फ्रे	-10.4476
ावली	-10.4479
▁कुट	-10.4487
▁जितेर	-10.4487
▁कमला	-10.4487
▁टुंग	-10.4488
▁बोल्ने	-10.4491
फ्र	-10.4495
▁पवित्र	-10.45
▁ब्राण्ड	-10.4502
▁भोक	-10.4505
▁सर्वसम्मत	-10.4509
▁हिमालयन	-10.4511
▁राम्रा	-10.4512
▁ताप्लेजुङ	-10.4512
▁पिता	-10.4514
र्ता	-10.4519
▁नवीन	-10.4529
▁वृत्त	-10.4532
▁ललित	-10.4553
▁फर्कन	-10.4555
▁कसुर	-10.4561
पूर	-10.4565
▁विस्थापित	-10.457
▁तीनवटा	-10.4573
▁उपमेयर	-10.4574
▁नजर	-10.4576
▁चार्ज	-10.4579
▁प्रतिरोध	-10.4586
▁पुरानै	-10.4586
ुहुनेछ	-10.4587
याउन	-10.459
▁भाग्य	-10.4591
▁रचना	-10.4597
▁स्वर्ग	-10.46
ण्डी	-10.4605
▁महिनाभित्र	-10.4617
▁सवाल	-10.4618
▁प्रारम्भ	-10.463
▁जीत	-10.4634
▁प्रतिशतभन्दा	-10.4641
वटै	-10.4644
▁२०२१	-10.4645
▁लिनु	-10.465
▁नुन	-10.4656
▁घेरा	-10.4664
▁निषेध	-10.4666
▁श्रोत	-10.4668
▁इजरायल	-10.4675
▁वर्	-10.4681
▁कुटपिट	-10.4683
▁परिमार्जन	-10.4683
▁बढाइएको	-10.4686
▁हुम्ला	-10.4687
कोभिड	-10.4692
▁च्याम्पियनसिप	-10.4692
▁मकै	-10.4694
ग्रे	-10.4699
वरण	-10.47
▁लाग्दा	-10.47
▁मरे	-10.47
▁पोलि	-10.4708
▁बढाएर	-10.4717
▁लुगा	-10.4725
▁अग्नि	-10.4726
▁त्यसबेला	-10.4727
▁उल्लेख्य	-10.4734
वती	-10.4738
▁दोब्बर	-10.4738
▁महासङ्घ	-10.4738
▁राखि	-10.4743
▁जुलाई	-10.4746
▁प्रतिफल	-10.4748
▁बत्ती	-10.4751
ुहुन्न	-10.4754
▁उपराष्ट्रपति	-10.4755
▁मेस्सी	-10.4755
▁योसँगै	-10.4756
▁कम्पनीहरू	-10.4757
▁पल्ट	-10.4759
▁हाइड्रो	-10.4759
▁मापन	-10.4763
▁हिसाब	-10.4763
▁२०२२	-10.4764
▁विद्यार्थीहरू	-10.477
निर्देश	-10.4772
▁प्रशोधन	-10.4776
रिस	-10.4781
▁राख्छ	-10.4781
▁पार्किङ	-10.4783
▁देखिँदैन	-10.4785
▁ढुङ्गा	-10.4787
▁डोटी	-10.4787
म्व	-10.4804
▁शल्यक्रिया	-10.4806
▁पाई	-10.481
▁लिनुपर्ने	-10.4813
▁सुनिल	-10.4815
म्मे	-10.4817
▁प्रस्तावित	-10.4823
▁गराएर	-10.4823
७७	-10.4831
▁हेल	-10.4834
▁धार	-10.4836
राख्न	-10.4842
▁रुचि	-10.4842
▁भर्खरै	-10.4843
▁रिक्त	-10.4845
्जि	-10.4846
te	-10.4847
▁अधिकारीहरू	-10.485
१४	-10.4851
▁सुमन	-10.4851
▁भोजपुर	-10.4852
▁लिभरपुल	-10.4862
▁धनकुटा	-10.4866
▁विस्तारै	-10.4868
▁निर्मला	-10.487
▁पोजेटिभ	-10.487
▁चिन्ह	-10.4871
सक्यो	-10.4874
▁भएकै	-10.4874
▁अन्योल	-10.4874
शमशेर	-10.4875
▁क्वारेन्टिन	-10.4875
पश्चात्	-10.4876
▁भण्डारण	-10.4879
▁तोला	-10.488
राष्ट्रिय	-10.4885
▁सर्वेक्षण	-10.4892
▁क्षण	-10.4894
▁पढ्ने	-10.4895
त्यस	-10.4898
▁क्रान्तिकारी	-10.4898
T	-10.49
▁महानिरीक्षक	-10.49
▁भारतसँग	-10.4905
▁तिवारी	-10.4906
▁सिटौला	-10.4909
▁भर्न	-10.4909
▁खुवाउन	-10.4913
▁कडाइ	-10.4914
▁झिक	-10.4921
▁हतार	-10.4923
▁घोषित	-10.4927
▁पाउनु	-10.4929
केन्द्र	-10.4931
▁उत्खनन	-10.4932
ह्र	-10.4934
क्रि	-10.4942
U	-10.4944
नेस	-10.4944
▁सुस्त	-10.4945
▁थुन	-10.4951
▁लामिछानेले	-10.4952
▁नामावली	-10.4952
▁खरिददर	-10.4954
▁लुट	-10.496
▁राज्यमन्त्री	-10.4965
ग्रेस	-10.4967
१३	-10.4973
▁शुक्रवार	-10.4979
▁सम्वन्ध	-10.4983
▁अन्न	-10.4988
▁गर्भवती	-10.4992
▁न्यौपानेले	-10.4997
▁B	-10.4998
शक्ति	-10.4999
▁दुरी	-10.5004
▁तीमध्ये	-10.5007
▁अक्टोबर	-10.5009
▁डिल	-10.5015
▁भैरहेको	-10.5015
▁उल्लंघन	-10.5018
▁तत्कालिन	-10.5021
तन्त्र	-10.5024
▁चिर	-10.5028
▁हेलिकप्टर	-10.5031
▁थ्री	-10.5032
१८	-10.5033
▁रोचक	-10.5033
▁मङ्सिर	-10.5035
▁कूटनीतिक	-10.5038
▁नराम्रो	-10.5039
▁प्रतितोला	-10.5039
▁सहिद	-10.504
दश	-10.5043
▁बारम्बार	-10.5044
ेश्वरी	-10.5047
▁प्रदायक	-10.5048
▁बनाउँदा	-10.5051
श्र	-10.5062
▁हराए	-10.5064
▁आदिवासी	-10.5064
▁मध्यनजर	-10.5066
▁सुने	-10.5068
▁चीज	-10.5071
▁बनायो	-10.5071
▁मीन	-10.5072
▁निवारण	-10.5079
▁घुम्न	-10.5081
बिना	-10.5083
▁तथापि	-10.5086
लोक	-10.5088
▁लाग्दैन	-10.5106
▁बिस्तारै	-10.5107
▁पर्खाल	-10.5107
▁अग्रवाल	-10.5111
▁मानिएको	-10.5118
▁किट	-10.5119
▁अस्तित्व	-10.5123
▁दिदै	-10.5123
▁अभिलेख	-10.5123
▁लगाउँदै	-10.5127
▁प्राय	-10.5129
▁शासक	-10.5133
z	-10.5136
▁धम्की	-10.5137
▁नलाग	-10.5142
▁आकस्मिक	-10.5145
▁हुर्क	-10.515
▁आश्वासन	-10.5154
हरि	-10.5155
▁चरा	-10.5155
▁श्रीमान्	-10.5158
▁सम्बन्धि	-10.516
▁खटिएको	-10.5161
▁झडप	-10.5165
▁बहिनी	-10.5184
▁पटकपटक	-10.5193
▁व्रत	-10.5195
▁लगेर	-10.5196
▁पेनाल्टी	-10.5198
▁खानेकुरा	-10.5207
▁उपयोगी	-10.5212
▁सदुपयोग	-10.5216
▁पद्धति	-10.5216
लुङ	-10.5219
▁नसकेपछि	-10.5221
पथ	-10.523
▁हेरे	-10.5237
७३	-10.5238
▁किनबेच	-10.5238
▁चल्न	-10.5241
▁निर्देशनालय	-10.5242
▁अन्तरक्रिया	-10.5244
▁हिमपात	-10.5252
com	-10.5253
▁बाँच्न	-10.5253
झैं	-10.5254
ाँच	-10.5255
▁डेभलपमेन्ट	-10.5256
ज्ञान	-10.5257
ब्ब	-10.5257
▁निकासी	-10.5258
ासाथ	-10.5262
▁सक्नुहुनेछ	-10.5269
▁पारी	-10.5273
▁देखाउने	-10.5276
▁भौगोलिक	-10.5278
▁स्तरोन्नति	-10.5278
▁बालुवा	-10.5283
▁असल	-10.5287
▁हेर्नुहोस्	-10.5287
▁उपप्रधानमन्त्री	-10.5287
▁बोकेको	-10.5292
▁कमाएको	-10.5295
▁हाइड्रोपावर	-10.5296
▁अतिक्रमण	-10.5301
▁निरीक्षण	-10.5305
▁तारिख	-10.5305
ाईएको	-10.5307
▁सफाइ	-10.5308
▁नेम्वाङ	-10.531
▁क्याम्प	-10.531
M	-10.5311
▁खासगरी	-10.5311
▁देखाउँछ	-10.532
▁त्यसअघि	-10.5321
▁सुत्केरी	-10.5323
▁c	-10.5326
▁राखिएका	-10.533
▁दीर्घ	-10.5336
▁बह	-10.5339
चित्र	-10.534
▁कीर्तिमान	-10.535
▁बाह्र	-10.5353
▁ओलम्पिक	-10.5354
भेट	-10.5357
▁मोहम्मद	-10.5359
▁कुवेत	-10.5364
▁सावित	-10.5365
▁हजारौं	-10.5366
▁प्रस्ट	-10.5368
▁आचारसंहिता	-10.5377
▁इजलासले	-10.538
▁वित्त	-10.5382
▁बैंकहरुले	-10.5383
मिटर	-10.5387
▁सिंगापुर	-10.5391
▁तत्कालै	-10.5395
▁रोड	-10.5398
क्रा	-10.5398
▁बैंकिङ्ग	-10.5403
▁हिउँद	-10.5406
▁m	-10.5408
७०	-10.542
ङ्गो	-10.542
▁काफ्ले	-10.5423
▁फर्कने	-10.5424
▁रहनु	-10.5425
▁रहेकी	-10.5431
▁उत्साहित	-10.5432
▁प्लेट	-10.5436
▁दाइ	-10.5437
▁सहजै	-10.5439
▁सतर्कता	-10.5441
▁करार	-10.5441
▁याद	-10.5442
श्रम	-10.5443
७८	-10.5447
ur	-10.5452
▁सकेसम्म	-10.5456
▁अनुरुप	-10.5461
▁रोक्ने	-10.5462
▁लक्ष्मण	-10.5463
▁सुन्तला	-10.5463
फू	-10.547
▁दस	-10.5473
▁गगन	-10.5474
सेवक	-10.5476
▁टेलिफोन	-10.5477
▁ढिला	-10.5478
▁नभएसम्म	-10.548
▁उन्नत	-10.5483
▁जुत्ता	-10.5488
७२	-10.549
▁पण्डित	-10.5491
▁केरा	-10.5491
वाइ	-10.5491
▁सकिँदैन	-10.5495
षित	-10.5498
▁ब्रोकर	-10.55
भूमि	-10.5506
▁तुलसीपुर	-10.5507
▁गुड	-10.5508
▁२०१४	-10.5511
▁गुठी	-10.5512
▁मुस्लिम	-10.5514
▁शुद्ध	-10.5514
▁दोष	-10.5514
▁उक्ल	-10.5517
▁मेगा	-10.5523
▁प्रचारप्रसार	-10.5523
▁मानिने	-10.5524
▁छोडे	-10.5525
▁विरोधी	-10.5528
▁कार्तिक	-10.5528
▁बसपार्क	-10.5532
ज्यू	-10.5534
ol	-10.5544
▁कसै	-10.5547
▁फर्किन	-10.5548
▁D	-10.5567
▁पढे	-10.5573
▁टस	-10.5576
▁अन्ततः	-10.5579
▁मिच	-10.5581
ीकृत	-10.5582
वृत्त	-10.5583
▁बेलायती	-10.5584
▁हामीसँग	-10.5593
▁जानुपर्ने	-10.5594
विक्रम	-10.5603
▁अनुशासन	-10.5606
▁सन्तुलन	-10.5606
▁सरस्वती	-10.5615
▁पुनःनिर्माण	-10.5616
▁अनुभूति	-10.562
▁तिनै	-10.5623
▁हराउँदै	-10.5624
▁भित्री	-10.5624
▁घिसिङ	-10.5629
▁दुर्	-10.5632
र्ब	-10.5635
गंगा	-10.5635
▁तीज	-10.564
सेल	-10.564
▁कान्तिपुर	-10.5643
▁सूचीकृत	-10.5645
▁जोड्न	-10.5647
▁निष्काशन	-10.5652
८१	-10.5653
▁गराउनु	-10.5656
▁ढाँचा	-10.5657
▁हिउँ	-10.5665
▁ढि	-10.5665
▁नारी	-10.5666
▁सक्रियता	-10.5667
▁निजामती	-10.5671
▁रोशन	-10.5673
▁पृष्ठ	-10.5675
रोध	-10.5678
ेन्ज	-10.568
▁नाकाबन्दी	-10.5686
as	-10.5692
▁फाइल	-10.5694
▁निर्माणाधीन	-10.5699
▁खोटाङ	-10.57
▁सज	-10.5702
▁गोप्य	-10.5703
▁अचम्म	-10.5708
▁आत्मा	-10.5708
▁घोषणापत्र	-10.5711
▁अपिल	-10.5717
▁भन्छिन्	-10.5725
▁पुँजीगत	-10.5727
▁परमेश्वर	-10.5731
ाइदिन	-10.5732
विना	-10.5738
▁धेरैजसो	-10.5744
▁पालन	-10.5744
गढ	-10.5748
▁भेटिएका	-10.5755
▁ठग	-10.5757
▁एकेडेमी	-10.5759
▁खानी	-10.576
क्यान	-10.5762
▁अमृत	-10.5766
पुल	-10.5771
▁सोमवार	-10.5774
ाइसकेको	-10.5774
४०	-10.5775
▁जुटाउन	-10.5777
▁पेसा	-10.5778
▁बाँच	-10.5778
▁विविधता	-10.5782
▁फेरी	-10.5784
▁कालोपत्रे	-10.5788
▁लोभ	-10.5788
▁वाइ	-10.5789
ाऊ	-10.579
वापत	-10.579
िरहने	-10.5801
▁बढे	-10.5803
▁लगिएको	-10.5805
▁हिँड्न	-10.5806
▁पाँचथर	-10.5821
▁निलम्बन	-10.5835
▁आइतवार	-10.5849
अनुरूप	-10.585
४५	-10.5857
▁शहरी	-10.5858
▁नवराज	-10.5858
▁मान्ने	-10.5863
▁साथीहरू	-10.5864
मोहन	-10.5866
▁गाली	-10.5877
▁दूरसञ्चार	-10.5882
▁कँडेल	-10.5883
्याक्ट	-10.5883
▁ढु	-10.5888
▁असन्तुष्ट	-10.5888
▁महतले	-10.5889
▁गुल	-10.5897
▁देशहरू	-10.5898
▁सचेतना	-10.5898
▁स्मार्टफोन	-10.5911
▁दुर्गम	-10.5911
▁देखाएर	-10.5914
▁प्रकृया	-10.5925
▁स्वाभाविक	-10.5925
▁राम्रै	-10.5925
▁युरोपेली	-10.5935
▁शुक्ल	-10.5936
▁अवकाश	-10.594
▁फर्किने	-10.594
रोड	-10.5943
▁क्वारेन्टाइन	-10.5948
▁महत्त्व	-10.5948
▁गई	-10.5948
▁शरणार्थी	-10.5949
जंग	-10.5952
▁रहेछन्	-10.5952
▁आगमन	-10.5954
▁दिदी	-10.5956
▁आइएमई	-10.5959
्युट	-10.5959
्याइ	-10.596
▁नारायणी	-10.5961
▁सुचारु	-10.5963
▁आपत	-10.5967
कहाँ	-10.5973
▁मिल्दैन	-10.5981
▁विभाजित	-10.5983
१७	-10.5985
▁विदा	-10.5988
▁नसकेका	-10.5988
▁डाँडा	-10.5991
▁उप्रेती	-10.5997
▁उकालो	-10.6008
▁वन्यजन्तु	-10.6011
▁लिँदै	-10.6012
पालिका	-10.6015
▁संस्थाहरू	-10.6017
ब्ल	-10.6022
▁गौर	-10.6023
▁दाजु	-10.6029
▁तसर्थ	-10.6031
ास्पद	-10.6033
▁मामला	-10.6033
टेक	-10.6036
▁भईरहेको	-10.6036
▁छात्रा	-10.6037
▁सचेतक	-10.6037
▁गरेसँगै	-10.6038
▁न्यूज	-10.6039
बोध	-10.6041
▁प्रदूषण	-10.6045
▁इटाली	-10.6045
▁चौर	-10.605
▁टर्की	-10.6055
▁कुर्सी	-10.6056
आउट	-10.6059
▁पुर्याइ	-10.6065
▁सौन्दर्य	-10.6069
▁बुढाथोकी	-10.6074
▁देखिन्छन्	-10.6076
▁जर्	-10.6077
▁आफुलाई	-10.6078
ne	-10.6081
▁बढ्यो	-10.6082
▁भेरी	-10.6086
▁समक्ष	-10.6093
▁बोलाएर	-10.6093
W	-10.6094
▁अवतरण	-10.6099
▁हमाल	-10.6104
▁सामेल	-10.6106
▁उद्यम	-10.6112
वेश	-10.6113
▁योग्यता	-10.6125
▁राम्ररी	-10.6128
▁खाडी	-10.6131
▁सुरेश	-10.6132
▁गौरी	-10.6133
▁पुजा	-10.6133
▁पहिर	-10.6138
▁कारखाना	-10.6142
▁विपरित	-10.6142
▁धुन	-10.6143
▁जाजरकोट	-10.6147
▁चर्क	-10.6152
मेरो	-10.6164
▁यम	-10.6164
▁पैदा	-10.6167
▁घाम	-10.617
▁उम्मेद्वार	-10.6172
▁चैत्र	-10.6173
▁घट्न	-10.618
▁तिब्बत	-10.6181
म्यान	-10.6182
▁बल्ल	-10.6182
▁दार्चुला	-10.6186
▁धरौटी	-10.6191
गठन	-10.6196
▁बाजुरा	-10.6196
▁म्याच	-10.6202
▁एकातिर	-10.6202
▁आइरहेका	-10.6209
▁स्पष्टीकरण	-10.6212
▁विशेषगरी	-10.6214
लार्इ	-10.6214
▁गुमाउने	-10.6215
▁घाँटी	-10.6221
▁जाहेरी	-10.6221
▁हमला	-10.6223
▁युरो	-10.6224
▁अध्ययनरत	-10.6242
▁सन्धि	-10.6243
▁बाग	-10.6243
▁जापानी	-10.6245
▁पारस	-10.6262
▁रोहित	-10.6265
▁सिधै	-10.6266
▁महिलाहरू	-10.6272
▁संचार	-10.6274
न्दु	-10.6279
▁एसोसिएसन	-10.628
▁बेच्न	-10.6285
२६	-10.6288
▁बन्छ	-10.6289
▁स्याङ्जा	-10.6295
▁नदेखिए	-10.6308
▁नसक्नु	-10.6308
▁परिमाण	-10.6309
▁पाहुना	-10.631
▁उनकै	-10.631
▁शु	-10.6314
▁बाख्रा	-10.6315
▁धमाधम	-10.6329
▁मिलन	-10.6332
गाड	-10.6333
▁प्रयत्न	-10.6334
▁बीबीसी	-10.6334
▁ख्याल	-10.6336
▁अछाम	-10.635
▁सुत्न	-10.6357
▁मधु	-10.6357
▁कुनैपनि	-10.6363
▁रामेछाप	-10.6364
▁होटेल	-10.6371
▁शर्त	-10.6374
पीएल	-10.6384
▁ओरालो	-10.6389
▁फारम	-10.6392
▁होइनन्	-10.6394
▁उत्सव	-10.6399
▁नसकिएको	-10.6401
▁शेखर	-10.6406
▁एनआरएनए	-10.6419
▁उर्	-10.6421
▁प्याज	-10.6423
▁नाघे	-10.6426
▁रिसोर्ट	-10.6429
▁पथ	-10.6434
▁अभियुक्त	-10.6437
▁मुगु	-10.6444
▁महालेखा	-10.6445
▁अर्जेन्टिना	-10.645
▁ज्याला	-10.645
▁मुआब्जा	-10.6455
▁सुब्बा	-10.6455
▁डिएसपी	-10.646
्रेट	-10.6461
▁सार्न	-10.6464
▁अन्यत्र	-10.6466
▁बाधा	-10.647
▁गोठ	-10.6477
▁पारदर्शी	-10.648
▁आपसी	-10.648
▁सक्छौं	-10.6483
li	-10.6492
२४	-10.6495
▁चिन्तित	-10.6495
▁भोलिपल्ट	-10.6495
▁नपरे	-10.6498
यात्रा	-10.6511
म्बु	-10.6512
▁प्याक	-10.6514
▁इन्जिन	-10.6514
▁दिनभर	-10.6515
पन्थी	-10.6515
▁एजेण्डा	-10.6515
पन्न	-10.6519
▁रोकिए	-10.6523
▁मानवअधिकार	-10.6526
वर्ग	-10.6533
▁हुनुभएको	-10.6537
▁समावेशी	-10.6539
▁सिके	-10.6539
▁घटे	-10.654
▁कायमै	-10.6546
▁मनसुन	-10.6548
▁सलमान	-10.6551
खेती	-10.6557
▁मार्ने	-10.6559
▁जाम	-10.6562
▁युनिट	-10.6566
▁एजेन्ट	-10.6571
वद्ध	-10.6575
▁गैरआवासीय	-10.6576
▁प्रेरणा	-10.6576
▁उपनिर्वाचन	-10.6577
▁ढुंगाना	-10.6582
▁जनमोर्चा	-10.6591
▁खेर	-10.6593
▁धितो	-10.6594
▁सल्यान	-10.6597
▁पाइप	-10.6597
▁बङ्गलादेश	-10.6602
▁खेप	-10.6604
▁दलीय	-10.6611
▁सन्तुष्ट	-10.6612
▁घाँस	-10.6612
▁साहित्यकार	-10.6615
्दिन	-10.6618
▁फेब्रुअरी	-10.6622
▁डिजेल	-10.6622
▁आवतजावत	-10.6627
▁सडकखण्ड	-10.663
▁जिप	-10.6637
▁बस्नु	-10.6639
▁गठित	-10.6639
▁लिम्बु	-10.664
▁निरौला	-10.6643
▁बहाना	-10.6644
▁बालकृष्ण	-10.6646
्चे	-10.6647
▁भन्नेबारे	-10.6651
▁वृ	-10.6651
▁माइक्रो	-10.6653
इन्ट	-10.6664
स्टार	-10.6672
▁आईपीओ	-10.6673
वारी	-10.6687
▁पत्राचार	-10.6689
▁शैल	-10.6695
▁उठ्न	-10.6696
▁जबरा	-10.6701
▁बाँस	-10.6704
▁स्वतः	-10.6708
▁एपीएफ	-10.6715
▁सरोज	-10.6715
बिच	-10.6728
▁स्नातक	-10.673
▁रुट	-10.6735
▁बलिङ	-10.6738
▁रुसी	-10.6739
▁एजेन्डा	-10.6741
▁पूर्वानुमान	-10.6741
▁वाग्मती	-10.6741
अनु	-10.6741
▁सद्भाव	-10.6746
▁इन्चार्ज	-10.6751
▁संस्थापन	-10.6751
▁झल्क	-10.6753
४८	-10.6761
▁मिलेको	-10.6763
▁समाजवाद	-10.6773
un	-10.6774
▁व्यवस्थापक	-10.6776
▁मेची	-10.6777
▁आश्चर्य	-10.6782
▁एक्सचेन्ज	-10.6792
▁संलग्नता	-10.6796
▁हिमालय	-10.6805
▁b	-10.6813
«	-10.6813
▁अर्काे	-10.6814
▁भेन्टिलेटर	-10.6819
्पा	-10.682
▁सक्नु	-10.6824
▁खोज्दा	-10.6824
▁आहार	-10.6835
▁बाह	-10.6837
▁अप्ठ्यारो	-10.6839
▁सेन्ट	-10.6846
▁सच	-10.6848
▁नियत	-10.685
▁रहस्य	-10.685
▁नहुनु	-10.6853
▁ब्रा	-10.6855
▁रुपान्तरण	-10.6855
▁सञ्चित	-10.6855
▁टेवा	-10.6855
▁डोल्पा	-10.686
▁जबकि	-10.686
▁मानन्धर	-10.686
▁बधाई	-10.686
▁तीर्थ	-10.6861
▁घोराही	-10.6866
▁संग्रह	-10.6869
▁लाखौं	-10.6876
▁उज्यालो	-10.6881
िरहेकी	-10.6884
▁डुबान	-10.6886
▁मिर्गौला	-10.6887
▁सुनचाँदी	-10.6887
▁०६	-10.6889
▁सारेको	-10.689
▁कौ	-10.6895
▁दिपक	-10.6895
▁बुँदा	-10.6897
▁काउन्टर	-10.6897
▁लागेपछि	-10.6898
यौ	-10.6905
▁सिलवाल	-10.692
हुने	-10.6923
▁पोर्चुगल	-10.6923
▁बदर	-10.6929
▁किनकी	-10.6933
▁फलाम	-10.6943
▁मन्त्र	-10.6946
▁G	-10.6947
कुण्ड	-10.6949
▁रायमाझी	-10.6955
▁युट्युब	-10.6955
▁कफी	-10.6956
▁केदार	-10.6958
▁यसबाहेक	-10.6959
▁भोज	-10.696
ल्टी	-10.6962
▁नगरप्रमुख	-10.6968
▁नायव	-10.6971
▁बस्तु	-10.6972
▁घरपरिवार	-10.6975
व्यवस्था	-10.6976
▁ताजा	-10.6976
स्वरूप	-10.6981
▁स्वयम्	-10.6987
▁अपनाए	-10.6989
▁चाँडो	-10.6992
▁संघसंस्था	-10.6995
▁सेती	-10.6996
▁महिनाअघि	-10.6998
▁बढ्नु	-10.6998
▁अपमान	-10.7
▁वर्णन	-10.7004
▁च्याम्पियन्स	-10.7008
▁प्लास्टिक	-10.7008
▁बिक्रीदर	-10.701
▁भइन्	-10.7014
▁बोलाएको	-10.7015
▁सुनार	-10.7017
▁पाउँछन्	-10.7028
▁दलाल	-10.7028
▁बनेपछि	-10.7032
▁लोप	-10.7037
▁मेघ	-10.7042
▁दाँत	-10.7046
▁गर्नुपर्नेछ	-10.7047
▁स्पोर्ट	-10.7048
नेपाली	-10.7048
प्रेम	-10.705
▁दुबई	-10.7056
▁विकृति	-10.7061
्यौँ	-10.7061
▁बच्चाहरु	-10.7063
▁नहुन	-10.7065
▁दया	-10.707
▁प्रत्य	-10.7071
▁निष्पक्ष	-10.7072
▁सकियो	-10.7084
▁सकिएपछि	-10.7091
▁फेर्न	-10.7099
▁मूल्याङ्कन	-10.7099
सत्ता	-10.7099
प्या	-10.7107
▁परिचयपत्र	-10.7108
▁फोहर	-10.7108
▁िा	-10.7109
▁दण्ड	-10.7114
▁प्लान्ट	-10.7129
▁दीपेन्द्र	-10.7129
▁पेरिस	-10.7136
▁अनौपचारिक	-10.7137
▁क्यानडा	-10.7138
▁नन्द	-10.714
R	-10.7141
ध्यक्ष	-10.7148
घोष	-10.7156
▁मुद्धा	-10.7158
ग्रा	-10.7164
▁रेस्टुरेन्ट	-10.7164
▁सर्भिस	-10.7164
▁विवेक	-10.7175
काठमाडौं	-10.7179
▁महिनापछि	-10.7185
▁न्यायिक	-10.7186
▁सम्पादक	-10.7196
el	-10.7199
▁उमेश	-10.7201
▁नियामक	-10.7202
▁पुरस्कृत	-10.7202
▁झण्डा	-10.7203
दूत	-10.7206
▁लय	-10.7207
▁एकअर्का	-10.7213
▁सारा	-10.7215
नीति	-10.7219
▁चोर	-10.7222
▁हस्पिटल	-10.7223
▁वृद्धिदर	-10.7224
▁नेशनल	-10.7225
▁महत	-10.7228
▁फार्म	-10.7232
▁स्कोर	-10.7236
▁मेहनत	-10.724
▁जर्मन	-10.7245
▁तुल्य	-10.7254
छिन्	-10.7256
▁अचानक	-10.7256
▁समेटिएको	-10.7276
▁भिडिओ	-10.7278
▁बिर्तामोड	-10.7283
▁तोके	-10.7285
राज्य	-10.7289
▁डडेल्धुरा	-10.7294
▁सफ्टवेयर	-10.7294
▁पञ्चायत	-10.7294
▁ओमान	-10.7302
▁झोला	-10.7303
▁सङ्कट	-10.7306
▁ट्रयाक	-10.7308
▁जीवित	-10.731
om	-10.7311
▁खोज्दै	-10.7313
▁प्रभा	-10.732
▁भव्य	-10.7321
▁पन्छ	-10.7322
▁समापन	-10.7323
▁बुझाउने	-10.7323
▁शेर	-10.733
L	-10.7332
▁सालदेखि	-10.7333
▁भोजन	-10.7333
▁बादल	-10.7334
▁मेन	-10.7335
▁तोकिए	-10.7336
▁शिकार	-10.7338
▁L	-10.7339
▁जनयुद्ध	-10.7341
▁सहभागि	-10.7341
▁भक्तजन	-10.7342
▁निकाल्ने	-10.7344
▁अग्रसर	-10.7345
▁संस्कृत	-10.7347
▁R	-10.7351
▁निधि	-10.7372
▁नबिल	-10.7377
वाङ	-10.7381
परराष्ट्रमन्त्री	-10.7387
▁प्रचलित	-10.7388
▁गुप्ता	-10.7388
▁बानेश्वर	-10.7388
▁गृहकार्य	-10.7391
सबै	-10.7396
▁अग्लो	-10.7397
▁वक्तव्य	-10.7399
▁तुरुन्तै	-10.7404
▁उपसमिति	-10.7404
▁वरपर	-10.741
▁कार्यपालिका	-10.7411
▁वायुसेवा	-10.7422
▁प्रस्थान	-10.7422
▁निस्किए	-10.7425
▁मङ्गलबार	-10.7427
▁सपथ	-10.7433
▁राख्नुपर्ने	-10.7442
▁जलस्रोत	-10.7444
▁उपसभापति	-10.7449
▁निराश	-10.745
चाहिँ	-10.745
▁सिभिल	-10.7455
▁पोषण	-10.7459
▁संभावना	-10.746
▁ऋणपत्र	-10.7463
▁महसुल	-10.7466
▁सोध्न	-10.7467
▁शुरुवात	-10.7472
▁राहदानी	-10.7477
िस्तान	-10.7487
क्रान्ति	-10.7488
▁तातो	-10.7494
▁इन्फ	-10.7495
to	-10.7499
▁वीरेन्द्र	-10.7501
▁गने	-10.7504
▁देवता	-10.7516
▁वेद	-10.7517
▁अनशन	-10.752
▁प्रत्यारोपण	-10.7521
▁गहुँ	-10.7521
▁इन्स	-10.7526
▁१५०	-10.7529
▁श्रेणी	-10.7533
▁प्रतीक	-10.7543
▁गुमाएर	-10.7544
़	-10.7546
▁इमेल	-10.7548
▁मालपोत	-10.7549
▁अक्सर	-10.755
▁ईन्	-10.755
▁अण्डा	-10.7558
▁इस्लाम	-10.7561
▁टाँस	-10.7562
४९	-10.7565
▁सम्बद्ध	-10.757
▁मंगल	-10.7572
▁करिडोर	-10.7572
▁छात्रवृत्ति	-10.7572
▁बोलाइएको	-10.7581
▁हेलिकोप्टर	-10.7583
▁प्रोजेक्ट	-10.7583
▁कृष्णबहादुर	-10.7584
▁नभइ	-10.7593
▁रियाल	-10.7599
▁लगाउनु	-10.7603
▁खाएर	-10.7603
▁नचाह	-10.7605
▁डिस्चार्ज	-10.7606
▁झगडा	-10.7611
▁सक्दैनन्	-10.7614
छैन	-10.7619
▁भुवन	-10.7622
धारी	-10.7626
रहन्छ	-10.7631
▁सावधानी	-10.7634
▁दूर	-10.7638
ॉ	-10.764
ओस्	-10.7644
▁सम्हाले	-10.765
पीएस	-10.765
▁ढुक्क	-10.7653
▁सदा	-10.7657
▁स्तरीय	-10.7661
et	-10.7662
▁एभरेष्ट	-10.7674
▁कार्यसम्पादन	-10.7674
▁बुझ्ने	-10.7674
▁चक्	-10.7683
▁उनै	-10.7684
▁नलग	-10.7685
▁परिकार	-10.7685
▁बिहिबार	-10.7685
▁खुल्न	-10.7685
▁घडी	-10.7688
▁मैनाली	-10.7691
▁वंश	-10.7691
▁फण्ड	-10.7695
▁निवर्तमान	-10.7696
▁नबढ	-10.7697
जीवन	-10.7705
▁गरिँदै	-10.7707
▁नेगेटिभ	-10.7708
▁चेल्सी	-10.7708
▁जनचेतना	-10.7714
▁खाजा	-10.7714
▁राखिने	-10.7717
ऋ	-10.7719
ज्जा	-10.772
▁टोक	-10.772
▁मिल्छ	-10.7729
▁घट्दै	-10.773
▁क्रेडिट	-10.7731
▁ट्विट	-10.7731
▁सर्प	-10.7732
ve	-10.7738
▁कोरियाली	-10.7741
▁साँच्चै	-10.7748
▁मुस्किल	-10.7754
▁रासायनिक	-10.7754
▁तुलना	-10.7764
▁सार्वभौम	-10.7765
▁केटा	-10.777
▁रूख	-10.7772
▁सामु	-10.7774
▁प्रसार	-10.7775
▁भाइरल	-10.7778
▁मर्म	-10.7778
▁विनिमय	-10.7782
ाचार्य	-10.7784
▁मोटो	-10.7789
▁लगेको	-10.7791
▁व्यावसाय	-10.7792
_	-10.7794
▁हेल्थ	-10.7794
▁एनआरएन	-10.7794
▁वार्ड	-10.7796
bout	-10.7805
▁२०७१	-10.7805
▁सभ्यता	-10.7814
▁शोक	-10.7852
▁क्यु	-10.7857
सूची	-10.786
▁आश्रम	-10.7867
▁फर्काउन	-10.7869
▁जनरल	-10.7871
ड्ड	-10.7874
▁स्वरूप	-10.7883
▁प्रमाणीकरण	-10.7886
▁हिट	-10.7896
am	-10.7897
▁मिलाएर	-10.79
▁अञ्चल	-10.7905
▁भेटेर	-10.7907
▁कार्यलय	-10.7914
▁औचित्य	-10.7915
▁समानता	-10.7916
▁मच्च	-10.7917
▁धर्ना	-10.7925
▁ध्रुव	-10.7927
▁पठनपाठन	-10.7927
▁किन्ने	-10.7928
▁अजय	-10.7929
▁ग्रह	-10.7935
स्वरुप	-10.7937
▁प्रतिस्थापन	-10.7939
▁समेटेर	-10.7939
▁श्रद्धा	-10.7939
▁संजाल	-10.7939
▁कटान	-10.7941
▁पिसिआर	-10.7945
▁उनि	-10.7949
▁सुनुवाई	-10.795
ल्भ	-10.7952
▁सेयरधनी	-10.7956
▁प्रज्ञा	-10.7958
▁स्थलगत	-10.7959
▁पम्प	-10.7967
▁अन्यथा	-10.7967
▁स्टेशन	-10.7968
▁अन्तर्वार्ता	-10.7968
▁शहीद	-10.7968
▁तिर्नुपर्ने	-10.7973
▁वो	-10.7974
▁आउँछन्	-10.7979
▁थिइन	-10.798
▁काङ्ग्रेस	-10.798
▁धातु	-10.7987
▁२०७०	-10.7988
▁उपविजेता	-10.7991
ञ्	-10.7992
▁मातृ	-10.7998
▁काण्ड	-10.7999
▁H	-10.7999
▁होलान्	-10.8007
▁नपाइने	-10.8011
युद्ध	-10.8013
▁लन्डन	-10.8015
▁नहर	-10.8017
▁दिमाग	-10.8018
▁ट्याक्सी	-10.8021
▁दिन्छन्	-10.8021
▁बेच्ने	-10.8026
▁बताइन्छ	-10.8031
▁द्रुत	-10.8033
▁प्रक्षेपण	-10.8039
▁नगर्दा	-10.8044
्तु	-10.8044
▁राजनैतिक	-10.8044
▁पृष्ठभूमि	-10.8045
▁विवादित	-10.8045
▁पोशाक	-10.8045
खबर	-10.8046
lo	-10.8054
▁सघाउ	-10.8056
▁घटाउने	-10.8057
त्तो	-10.8059
▁शान्तिपूर्ण	-10.806
म्पा	-10.8066
th	-10.8078
▁गुगल	-10.8078
▁दाल	-10.8079
▁आर्य	-10.8083
▁रणनीतिक	-10.8085
▁हाने	-10.8085
▁दुईजना	-10.8094
गति	-10.81
निर्माण	-10.8103
▁स्कुटर	-10.8104
▁बिश्व	-10.8104
▁ट्रान्सफर	-10.8105
▁अन्तरराष्ट्रिय	-10.8105
▁ब्यवस्था	-10.8109
▁देशहरु	-10.8109
▁हेटौँडा	-10.811
▁फिफा	-10.8111
▁अवलम्बन	-10.8116
▁पक्की	-10.8116
▁जिज्ञासा	-10.8127
▁पाइँदैन	-10.8127
▁वेस्ट	-10.813
▁बाबा	-10.8133
▁प्राचीन	-10.8139
▁अन्तर्	-10.8142
▁चौडा	-10.8144
▁धकेल	-10.8149
▁उहाँहरू	-10.8151
▁२०८०	-10.8152
▁मानेर	-10.8156
▁धुलो	-10.8159
▁अन्याय	-10.8163
▁२०१३	-10.8166
▁सिकाइ	-10.8167
▁खोजिएको	-10.8169
▁फिचर	-10.8175
▁व्यास	-10.8178
▁सम्झन	-10.8182
▁भेटे	-10.8182
▁विभागीय	-10.8184
▁आस्था	-10.8196
▁त्यहि	-10.8199
▁विदेशमन्त्री	-10.8199
▁I	-10.8207
▁देखाउँदै	-10.8207
▁रजत	-10.8208
▁जनगणना	-10.8211
▁सेकेन्ड	-10.8211
▁कार्यतालिका	-10.8211
▁जैविक	-10.8223
फोर्ड	-10.8235
▁हास्य	-10.8236
▁करणी	-10.8238
▁पाउँ	-10.8238
▁कर्मचारीहरू	-10.824
▁नेविसंघ	-10.8241
▁तीव्रता	-10.8243
▁डिल्ली	-10.8246
▁मतपत्र	-10.8247
B	-10.825
▁देशबीच	-10.8252
▁विषादी	-10.8253
▁वैद्य	-10.8254
कालागि	-10.8262
दीप	-10.827
▁व्यावहारिक	-10.8271
सक्दा	-10.8273
▁घट्ने	-10.8282
▁खुल्ने	-10.8283
झैँ	-10.8283
▁इच्छुक	-10.8283
▁प्रेरित	-10.8283
▁धामी	-10.8284
▁मंगलवार	-10.8284
▁विश्वस्त	-10.8289
j	-10.8289
▁जिन्दगी	-10.8289
▁बाक्लो	-10.8289
अध्यक्ष	-10.8298
▁पाँचौं	-10.8303
▁भेटिए	-10.8305
▁शेयरधनी	-10.8314
▁उदय	-10.8314
▁एप्पल	-10.8314
मण्डल	-10.8317
▁पाउनुपर्ने	-10.8318
▁नोक्सानी	-10.8324
▁गरिनु	-10.8324
▁श्रृंखला	-10.8326
▁तिम्रो	-10.8326
▁असहज	-10.8326
▁इन्जिनियरिङ	-10.8327
▁अभियन्ता	-10.8338
▁ब्रि	-10.8338
नयाँ	-10.8339
▁तापनि	-10.8347
▁दुध	-10.8347
▁जबरजस्ती	-10.8368
▁मन्तव्य	-10.8368
▁जेष्ठ	-10.837
▁सिमित	-10.8374
चालक	-10.8379
प्राप्त	-10.8379
▁E	-10.8381
▁अनुप	-10.8382
▁अक्षर	-10.8383
गंज	-10.8385
▁निकालेर	-10.8386
▁कहिलेकाहीँ	-10.8387
ाउँन	-10.8389
▁शेख	-10.8391
पछी	-10.8392
▁मार्क	-10.8394
▁चाहन्छन्	-10.8398
स्कृत	-10.8404
▁यथावत	-10.8404
▁भर्चुअल	-10.8405
▁महादेव	-10.841
▁साफ	-10.8414
▁विषयवस्तु	-10.842
▁घोडा	-10.8425
ावट	-10.8436
▁इन्टरनेशनल	-10.8442
▁मूल्यवृद्धि	-10.845
▁तुलसी	-10.8451
▁किनारा	-10.8451
▁दृढ	-10.846
▁बसन्त	-10.8465
▁प्रधानाध्यापक	-10.8466
▁एमए	-10.847
▁बेइजिङ	-10.8479
▁ब्याट्री	-10.8479
▁आफुहरु	-10.8481
▁K	-10.8483
ाइसकेका	-10.8485
▁गैरसरकारी	-10.8485
▁लम्साल	-10.8485
संघ	-10.8495
▁प्रतिकिलो	-10.8497
ैपर्छ	-10.8497
▁इकाई	-10.8499
▁फर्काए	-10.85
▁हुलाक	-10.8501
▁बेल्जियम	-10.8503
▁आवासीय	-10.8505
▁ठे	-10.8507
सूचि	-10.8507
सक्नु	-10.8507
योजक	-10.8511
▁निराशा	-10.8514
▁भारु	-10.8518
▁हिन्दी	-10.8522
▁विपक्षमा	-10.8522
▁प्लस	-10.8523
▁बिस्तार	-10.8526
▁न्युज	-10.8529
▁हुनुहुन्थ्यो	-10.8536
▁तिर्ने	-10.8537
▁क्लव	-10.8541
्याम्प	-10.8545
▁दिइरहेका	-10.8549
▁नलाग्ने	-10.8552
▁टेबल	-10.8552
▁शिलान्यास	-10.8553
▁बन्दरगाह	-10.8553
▁बन्दाबन्दी	-10.8553
विन्द	-10.8554
‍	-10.8565
▁सैद्धान्तिक	-10.8565
▁उनिहरु	-10.8573
▁वढ	-10.8576
ानुसार	-10.8597
▁लागुऔषध	-10.8603
ठाउँ	-10.8606
▁छाड्ने	-10.8608
▁अलिकति	-10.8609
▁शरद	-10.8611
▁ट्रान्स	-10.8613
▁जनार्दन	-10.8615
▁नेवार	-10.8625
▁स्वभाव	-10.8631
▁३००	-10.8633
▁बताउँछिन्	-10.8635
▁उपमहानगर	-10.8636
्खा	-10.8639
▁साउथ	-10.864
▁ड्राइभ	-10.8641
हुँदै	-10.8649
▁सुरुआत	-10.8655
राखेको	-10.8659
▁डेटा	-10.8663
हाङ	-10.8664
▁भक्त	-10.8665
▁गेम	-10.8667
▁भगवती	-10.8672
विरूद्ध	-10.8672
▁बौद्धिक	-10.8678
▁बझाङ	-10.8678
▁बाँडफाँट	-10.8678
▁उतार	-10.8679
▁निर्मित	-10.868
▁दिइरहेको	-10.8681
▁लोड	-10.8682
पूर्	-10.8684
▁भ्याक्सिन	-10.8684
▁भुमिका	-10.8684
▁तातोपानी	-10.8691
▁भनिने	-10.8695
▁लिम्बू	-10.8697
▁काठमाडाैं	-10.8703
▁चर्च	-10.8706
फिया	-10.8712
▁ट्रि	-10.8712
▁कमिसन	-10.8716
वीच	-10.8719
▁संसारभर	-10.8725
शंकर	-10.8734
▁दशरथ	-10.8735
▁असुली	-10.8737
▁प्रतिद्वन्द्वी	-10.8741
▁गोकर्ण	-10.8741
▁सम्ब	-10.8749
▁पुस्तकालय	-10.875
▁प्रिय	-10.8751
▁ग्राहकहरू	-10.8757
▁कीर्तिपुर	-10.8766
▁न्यानो	-10.8766
▁आर्ट	-10.877
▁कलाकारहरु	-10.8773
▁सधै	-10.8774
▁उपचाररत	-10.8775
▁डोनाल्ड	-10.8779
▁संगठित	-10.878
▁हार्दिक	-10.8792
▁छाती	-10.8803
▁उत्तरदायित्व	-10.8811
▁नहोस्	-10.8811
▁भिटामिन	-10.8817
▁भरिएको	-10.8818
▁खुलासा	-10.8824
▁फस्ट	-10.8837
पल्ट	-10.8839
▁स्थायित्व	-10.8843
▁गुमाउन	-10.8849
▁त्यसमध्ये	-10.885
ाउँदछ	-10.8854
▁उमेदवार	-10.8862
▁प्रजातान्त्रिक	-10.8862
▁ग्रेड	-10.8862
▁वर्गीकरण	-10.8864
▁लेख्ने	-10.8867
▁बिहीवार	-10.8868
वस्तु	-10.8879
▁परिरहेको	-10.888
▁चलखेल	-10.8884
▁दाना	-10.8887
▁आखिर	-10.8888
▁सङ्गीत	-10.8888
▁फैलिन	-10.8893
▁मधुमेह	-10.8894
▁वनस्पति	-10.8894
▁झलनाथ	-10.8894
la	-10.8899
▁बाँस्कोटा	-10.89
▁खुकुलो	-10.89
▁प्रभावशाली	-10.89
▁बाणिज्य	-10.8907
▁२०११	-10.8921
ta	-10.8927
▁यकिन	-10.893
▁भण्डार	-10.8937
गण्डकी	-10.8945
▁गाँजा	-10.8945
▁हदसम्म	-10.8946
▁कुर्	-10.8949
▁हालतमा	-10.8953
सकेकी	-10.8955
▁पायो	-10.8957
▁स्टेट	-10.8958
▁उल्लेखनीय	-10.8958
▁ब्रह्म	-10.8958
▁गम्भिर	-10.8965
▁हुदा	-10.8966
▁चुनौति	-10.8971
▁त्रिपाठी	-10.8971
▁मड्रिड	-10.8971
▁वजन	-10.8978
▁एसिड	-10.8983
▁बरिष्ठ	-10.8991
▁F	-10.9004
गञ्ज	-10.9017
रहनुभएको	-10.9019
▁आपसमा	-10.9023
▁लगानीकर्ताहरु	-10.9026
▁अत्याधुनिक	-10.9036
▁विश्लेषक	-10.9036
▁सुखद	-10.9037
▁थालनी	-10.9039
▁सुचना	-10.9042
he	-10.9043
िरहँदा	-10.9045
▁चेम्बर	-10.9064
▁अनिश्चित	-10.9069
▁खेलाडीहरु	-10.907
रमण	-10.9071
▁पूर्णिमा	-10.9073
▁उपसभामुख	-10.9075
▁चिह्न	-10.9082
सुन्दर	-10.9104
▁बाइक	-10.9106
▁स्थानान्तरण	-10.9108
▁घरदैलो	-10.9108
▁स्मारक	-10.9108
▁किसानहरु	-10.9109
▁जमीन	-10.9109
▁हानि	-10.9116
▁विज्ञहरु	-10.9117
▁छाड्न	-10.9117
▁पाइलट	-10.9128
ac	-10.9134
▁घरधुरी	-10.9135
▁कस्ता	-10.914
▁प्रतिबद्ध	-10.914
प्रदेश	-10.9141
▁फोहरमैला	-10.9141
▁बजेतिर	-10.9141
▁भेष	-10.9144
▁खड्ग	-10.9154
▁मेह	-10.9158
▁उन्मुक्ति	-10.9161
▁अगस्ट	-10.9168
▁सिरिया	-10.9172
▁अर्ध	-10.9176
▁अनुपस्थित	-10.9178
▁इलेक्ट्र	-10.9181
▁भूगोल	-10.9187
▁कठिनाइ	-10.9188
्छिन्	-10.9189
▁घनश्याम	-10.9194
▁ब्यापार	-10.9197
▁माल्दिभ्स	-10.9201
▁उपसचिव	-10.9213
द्धारा	-10.9215
ुहोस	-10.9219
▁वञ्चित	-10.922
▁रवीन्द्र	-10.9221
डब्लु	-10.9234
▁अत्याधिक	-10.924
▁शुभारम्भ	-10.9254
▁रेशम	-10.9261
▁२०१२	-10.9261
रियल	-10.9271
▁चारवटा	-10.9273
▁जङ्गल	-10.9278
▁देख्दा	-10.9279
▁चुरे	-10.9291
▁देखेपछि	-10.9294
▁रोपाइँ	-10.9301
▁टोकियो	-10.9304
ुपर्दा	-10.931
▁हिरो	-10.9311
▁बोलपत्र	-10.9312
▁एमाओवादी	-10.9312
▁स्ट्या	-10.9315
ाउँथे	-10.932
▁नखुल	-10.9323
▁रेमिट	-10.9325
▁योगेश	-10.9325
▁अर्कै	-10.9326
▁मस्तिष्क	-10.9334
▁वातावरणीय	-10.9338
▁धुलिखेल	-10.9341
▁तोडफोड	-10.9341
▁स्नान	-10.9348
▁बताउने	-10.9362
▁प्रतिष्ठा	-10.9362
▁राख्नुहोस्	-10.9377
रासस	-10.9377
▁रेलमार्ग	-10.9384
▁उपायबारे	-10.9387
ठूला	-10.9389
▁देवेन्द्र	-10.9389
प्रमुख	-10.9399
सम्बन्ध	-10.94
▁रुद्र	-10.94
▁आफ्नी	-10.9401
▁नारायणगढ	-10.9402
▁यज्ञ	-10.9406
▁अक्षय	-10.9408
▁काटेर	-10.9409
सक्छ	-10.941
नायक	-10.941
▁सँगसँगै	-10.9412
▁बहाल	-10.9413
▁सास्ती	-10.9415
▁ब्यवसाय	-10.9415
▁गतवर्ष	-10.9418
▁तिमिल्सिना	-10.9422
बादी	-10.9423
▁दायाँ	-10.9425
मन्त्रालय	-10.9427
▁एल्बम	-10.9435
▁संहिता	-10.9449
▁बढ्दा	-10.9451
▁विश्वसनीय	-10.9456
भिडियो	-10.9464
▁२०६४	-10.9469
▁दाजुभाइ	-10.949
▁थपलिया	-10.95
▁ल्याब	-10.9502
▁छुट्टाछुट्टै	-10.9503
ढुंगा	-10.9505
▁बनाइने	-10.9516
▁विराट	-10.9524
▁बीपी	-10.9526
▁बिताए	-10.9526
देखी	-10.9529
▁अन्तरगत	-10.9534
▁तालिबान	-10.9537
▁सिंगो	-10.9538
सुविधा	-10.9539
▁आइसकेको	-10.954
▁नारायणकाजी	-10.9558
▁पाउँछ	-10.9565
▁आठौं	-10.957
▁ट्रफी	-10.9572
▁इन्टरनेसनल	-10.9579
▁जथाभावी	-10.9585
भेद	-10.9591
▁आयुर्वेद	-10.9592
▁तस्विर	-10.9592
and	-10.9593
▁शंकास्पद	-10.9599
▁गर्व	-10.9609
▁सरसफाई	-10.9613
▁स्वभाविक	-10.9614
उनले	-10.9615
▁प्रदर्शनकारी	-10.9617
▁नवौं	-10.962
दिए	-10.9622
▁नवलपुर	-10.9627
बर्ग	-10.9627
▁सुरज	-10.9629
▁पदमार्ग	-10.9638
▁म्यानमार	-10.9642
▁सानै	-10.9643
वंश	-10.9654
लिङ्ग	-10.9659
▁घरजग्गा	-10.9661
▁भरपर्दो	-10.9661
▁हेरफेर	-10.9662
▁गरिनुपर्ने	-10.9662
▁वाग्ले	-10.9662
▁तर्जुमा	-10.9668
▁बनाइएका	-10.9675
▁जुध	-10.9676
▁उही	-10.9681
▁जोगिन	-10.9684
जिल्ला	-10.9686
▁दशैँ	-10.9689
▁परिवेश	-10.9692
▁आक्रामक	-10.9696
▁यसपालि	-10.9701
▁जटिलता	-10.9709
▁गरौँ	-10.9715
▁उपभोग्य	-10.9716
▁सिनियर	-10.9724
▁थाल्छ	-10.973
▁आइपुग्दा	-10.9731
▁चुहावट	-10.9731
▁बन्दुक	-10.9741
▁हेरचाह	-10.9745
▁स्क्रिन	-10.9745
▁ट्र्याक	-10.975
▁गार्ड	-10.9754
▁बृहत्	-10.9756
▁विज्ञप्ती	-10.9759
▁पञ्जा	-10.9762
▁बाइडेन	-10.9766
▁दुख्ने	-10.9772
▁नचल	-10.9776
छाड	-10.9779
▁म्यानचेस्टर	-10.978
▁गोष्ठी	-10.978
▁लडाइँ	-10.9789
▁गैरकानुनी	-10.9794
▁२०६३	-10.9794
▁प्रसंग	-10.9795
▁थुनामा	-10.9797
▁पार्छ	-10.9797
▁जनजीवन	-10.9798
▁बिरोध	-10.9798
▁सातौं	-10.9808
अगाडि	-10.9811
▁अस्थिरता	-10.9812
▁मुलुकभर	-10.9829
▁२०१०	-10.9838
▁नुह	-10.984
▁थन्क	-10.9849
▁गएराति	-10.9851
▁ठाँउ	-10.9858
▁यूएई	-10.9858
▁सहारा	-10.9858
ानन्द	-10.986
▁भेरियन्ट	-10.9865
▁युरोपियन	-10.9867
▁साहित्यिक	-10.9876
▁आदानप्रदान	-10.9879
▁सम्हाल	-10.9885
▁पुनरावलोकन	-10.9886
▁पब्लिक	-10.9886
▁डबल	-10.9886
▁जुवा	-10.9899
▁सञ्जय	-10.99
▁ज्ञापनपत्र	-10.9902
▁साउद	-10.9905
▁राख्दा	-10.9905
▁एकदिवसीय	-10.9907
▁चेकजाँच	-10.9907
▁एकैपटक	-10.9908
▁भेडा	-10.9912
▁रक्तचाप	-10.9914
▁एटिएम	-10.9914
▁शीतल	-10.9915
▁चलायमान	-10.9921
▁तेश्रो	-10.9922
▁कालिकोट	-10.9923
▁नजाने	-10.9929
उहाँ	-10.9939
▁फाउन्डेसन	-10.9943
▁मर्यादा	-10.9943
▁हुँदाहुँदै	-10.9954
▁उपजिल्ला	-10.9967
▁फर्केर	-10.9968
▁फ्लोर	-10.9971
▁दस्तावेज	-10.9971
ad	-10.9971
▁उपदफा	-10.9971
▁अनसन	-10.9977
▁त्रुटि	-10.9979
▁सारिएको	-10.9984
▁खुम्च	-10.9986
▁बढेसँगै	-10.9992
अन्तर	-11
▁प्रजिअ	-11.0007
▁नाइट	-11.0008
▁प्रतिलिटर	-11.0014
▁जन्मदिन	-11.0018
किशोर	-11.0019
सक्नुपर्ने	-11.0026
▁ट्राभल	-11.0029
▁२००७	-11.0035
शुल्क	-11.0036
▁यिनै	-11.0039
▁सिकाउन	-11.0042
▁घाउ	-11.0047
▁उसका	-11.0049
▁संग्रहालय	-11.0051
▁लम्बाइ	-11.0052
▁बिक्रि	-11.0065
▁अन्तरनिकाय	-11.0072
▁प्रिमियम	-11.0072
▁न्यायालय	-11.0083
▁बिशेष	-11.0094
▁रोजगारदाता	-11.0096
▁नियोग	-11.0096
▁पाटो	-11.0099
▁पूर्णरुपमा	-11.01
▁एसएसपी	-11.0101
▁यद्यपी	-11.0101
▁दवाव	-11.0101
▁परिसंघ	-11.0103
▁प्रियंका	-11.0116
फाँट	-11.0121
वस्था	-11.0122
▁दुर्व्यवहार	-11.0123
▁इजाजत	-11.013
▁ब्युरो	-11.013
▁सम्मिलित	-11.0137
लक्ष्मी	-11.0141
▁निशुल्क	-11.0143
▁खुलेर	-11.0149
▁ज्ञापन	-11.015
▁शुक्र	-11.0156
▁युथ	-11.0158
▁छान्न	-11.0166
▁परिकल्पना	-11.0167
▁२०६८	-11.0167
▁चट्याङ	-11.0174
▁एशियाली	-11.0175
▁यथा	-11.0175
ter	-11.0176
▁बुहारी	-11.0177
▁आप्रवासी	-11.0181
▁कन्फ	-11.0197
▁अनुमतिपत्र	-11.0199
▁थिई	-11.0199
▁सानिमा	-11.0205
ैपर्ने	-11.0214
बराबर	-11.0218
▁झो	-11.0219
▁निकाल्दै	-11.0222
▁ठोक्क	-11.0234
▁हेर्दै	-11.0246
▁निर्वा	-11.0247
▁सबभन्दा	-11.0247
▁आतिथ्य	-11.0255
▁ल्याई	-11.0255
▁कोहलपुर	-11.0262
▁मिलाइएको	-11.0265
H	-11.0274
▁समाजसेवी	-11.0277
▁रोजे	-11.028
▁अनुबन्ध	-11.028
▁अध्यापन	-11.0284
▁कपिल	-11.0284
▁बेलुकी	-11.0291
▁बक्यौता	-11.0299
▁प्रजनन	-11.0299
▁साइबर	-11.0311
ul	-11.0312
▁सजावट	-11.0321
▁सिलसिलामा	-11.0328
▁ओगट	-11.0329
▁सभासद	-11.033
▁भाँडा	-11.0332
▁जर्ज	-11.034
▁नरेश	-11.0343
▁खाँचो	-11.0343
▁बताउँछ	-11.0358
▁चाहनुहुन्छ	-11.0358
▁लण्डन	-11.0358
▁गान्धी	-11.0373
▁भगवान्	-11.0376
▁सम्भवतः	-11.0376
▁नआउने	-11.0382
▁जुलुस	-11.0388
पट्टि	-11.0393
▁गराइने	-11.0399
▁भन्नुहुन्छ	-11.0402
▁वीरेन्द्रनगर	-11.0404
▁उदार	-11.0408
बैंक	-11.041
▁प्रर्दशन	-11.041
▁इमान्दार	-11.041
▁निष्क्रिय	-11.0418
▁तिहाइ	-11.0418
▁जडीबुटी	-11.0425
▁रुपैंया	-11.0425
ay	-11.0431
▁हर्ष	-11.0437
ुहुँदैन	-11.044
▁रोक्का	-11.0442
—	-11.0448
▁द्विपक्षीय	-11.0448
▁रक्तदान	-11.0449
▁गोकुल	-11.045
▁ध्वस्त	-11.0455
रहेछ	-11.0462
▁हराउन	-11.0465
▁ठेगाना	-11.047
▁मजबुत	-11.047
▁जीवनशैली	-11.0478
▁छात्र	-11.0481
▁प्रशारण	-11.0493
▁२००८	-11.0503
्लिङ	-11.0504
▁सजग	-11.0512
▁होईन	-11.0526
संवैधानिक	-11.0529
▁तुरुन्त	-11.0531
ुअल	-11.054
▁महाप्रबन्धक	-11.0546
▁कठोर	-11.0546
▁व्यायाम	-11.0546
▁इन्डिया	-11.0547
▁करदाता	-11.0548
▁वैधानिक	-11.0553
▁टुङ्गो	-11.0578
▁ग्यारेन्टी	-11.0591
ation	-11.0591
▁ग्रन्थ	-11.0593
▁पार्ट	-11.0603
▁वित्तिय	-11.0604
कण्ठ	-11.0607
▁नम्वर	-11.0607
▁वर्ल्ड	-11.061
▁कालापानी	-11.0614
▁पक्षधर	-11.0614
▁मञ्जु	-11.0622
▁ट्रेडिङ	-11.0629
ia	-11.063
▁इन्डियन	-11.0632
▁झ्याल	-11.0633
▁सच्याउन	-11.0635
▁पुनःस्थापना	-11.0637
▁थियौँ	-11.0638
▁इन्च	-11.064
▁खेम	-11.065
▁छाता	-11.0652
▁अबस्था	-11.0658
▁अनुवाद	-11.0658
पार्टी	-11.0659
▁पद्म	-11.0662
▁पढाई	-11.0662
▁कमाण्ड	-11.0663
▁अविजित	-11.0668
▁अनुप्रयोग	-11.0675
▁स्वरोजगार	-11.0675
▁देखाइएको	-11.0676
▁वाक्य	-11.0676
▁मिलान	-11.0684
▁भ्रष्ट	-11.0691
▁निमार्ण	-11.0691
hi	-11.0692
▁मुक्तिनाथ	-11.0694
▁ड्या	-11.0694
▁दसैँ	-11.0699
▁क्लिनिक	-11.0699
▁चाइना	-11.0699
▁फौज	-11.0702
ध्वज	-11.0703
▁धमला	-11.0704
संरचना	-11.0705
▁महालक्ष्मी	-11.0708
▁मतलब	-11.0715
▁गराउनुपर्ने	-11.0719
▁राजविराज	-11.0722
▁अध्यागमन	-11.0729
▁सोसाइटी	-11.0729
▁बर्खास्त	-11.0729
ठ्ठा	-11.0729
▁जुटेको	-11.0731
यहाँ	-11.0734
▁शृंखला	-11.0737
▁आवागमन	-11.0745
▁मनोबल	-11.075
▁टेलि	-11.075
▁गहिर	-11.0751
▁बहिष्कार	-11.0753
▁रेडक्रस	-11.0753
एकीकृत	-11.0753
▁वार्षिकोत्सव	-11.0769
▁प्रिन्ट	-11.0775
▁मजदूर	-11.0776
▁तुलनात्मक	-11.0777
▁महन्थ	-11.0779
▁सौर्य	-11.0784
▁उचाई	-11.0784
▁बनेपा	-11.0787
व्यवसाय	-11.0791
▁बढाउनुपर्ने	-11.0798
▁रूपान्तरण	-11.0799
▁भान्सा	-11.0799
▁बोकेका	-11.08
▁महाअभियोग	-11.0807
▁सम्भाव्यता	-11.0807
▁उठाउँदै	-11.0807
▁हाजिर	-11.081
▁मेक्सिको	-11.0822
▁कैलाश	-11.0822
▁झेल	-11.083
▁साक्षरता	-11.083
▁म्यानेजर	-11.083
▁ब्यक्त	-11.0837
▁तापमान	-11.0838
▁आयकर	-11.0838
▁रत्ननगर	-11.084
▁लायक	-11.0846
▁अपाङ्गता	-11.0846
▁मेलमिलाप	-11.0846
▁आर्सनल	-11.0846
▁सुटिङ	-11.0859
▁बिक्रेता	-11.0861
▁ब्याट्सम्यान	-11.0861
अनुरुप	-11.0862
▁यसकारण	-11.0863
▁गायन	-11.0863
▁यात्री	-11.0869
ड़	-11.0874
F	-11.0885
▁उसै	-11.0886
▁ठकुरी	-11.0893
▁चोलेन्द्र	-11.0893
▁घातक	-11.0895
▁अनौठो	-11.0908
▁पूर्वअध्यक्ष	-11.0914
▁रोयल	-11.0915
▁उपकुलपति	-11.0916
▁जुटेका	-11.0927
▁प्यालेस	-11.0928
▁कालीगण्डकी	-11.094
▁प्रतिकूल	-11.0948
▁पोख्रेल	-11.0948
▁निर्देशित	-11.0948
▁लाग्दै	-11.0949
▁स्पेनिस	-11.096
▁गुरुयोजना	-11.0964
▁दुर्लभ	-11.0964
▁अवश्य	-11.0968
▁शतक	-11.0968
▁स्त्री	-11.0969
अगावै	-11.0972
▁असहमति	-11.0979
▁भुइँ	-11.0979
▁सर्किट	-11.098
▁एकाएक	-11.098
▁उपधारा	-11.0985
▁व्यवस्थापिका	-11.1004
▁छिरे	-11.1006
▁महेन्द्रनगर	-11.1007
▁निकटतम	-11.1008
▁एसियन	-11.1013
▁मिश्रण	-11.1019
▁मनिष	-11.1027
▁लिँदा	-11.1035
▁बानियाँ	-11.1035
▁चुरोट	-11.1035
▁छैटौं	-11.1043
▁सूत्र	-11.1046
▁त्यसयता	-11.1047
▁आफनो	-11.1051
▁असम्भव	-11.1059
▁प्रतिकित्ता	-11.1059
बोर्ड	-11.106
▁सार्थक	-11.1067
▁गाँउपालिका	-11.1067
▁खतरनाक	-11.1075
पश्चात	-11.1076
▁स्पेस	-11.1078
▁बचाउ	-11.1081
▁पार्टनर	-11.1084
▁बेरुजु	-11.1091
▁लडाकु	-11.1091
▁गोल्डकप	-11.1107
▁घटनाक्रम	-11.1113
▁ग्याँस	-11.1114
▁सङ्ग्रह	-11.1116
▁पशुपालन	-11.1116
▁शोषण	-11.1119
▁स्तम्भ	-11.1123
▁अडियो	-11.1123
▁पार्वती	-11.1131
▁र्याली	-11.1133
▁कृत्रिम	-11.1139
▁पुगिसकेको	-11.1152
▁नपाउँदा	-11.1153
▁सिलिन्डर	-11.1155
▁ठुला	-11.1156
०७७	-11.1159
▁भित्ता	-11.1167
▁चहलपहल	-11.1171
▁सिफारिश	-11.1171
▁एनआईसी	-11.1179
▁स्वास्थ	-11.1184
▁आलम	-11.1184
परिषद	-11.1189
▁राजतन्त्र	-11.1191
▁शत्रु	-11.1204
▁स्टाइल	-11.1204
▁अलमल	-11.1211
▁टाटा	-11.1211
▁सोलुखुम्बु	-11.122
▁नमाने	-11.1222
▁रेष्टुरेन्ट	-11.1228
▁पौष	-11.1234
▁ताकि	-11.1239
▁नलिए	-11.1249
▁प्रतिसेयर	-11.1252
▁मिथिला	-11.1253
▁राहुल	-11.1253
▁सोधपुछ	-11.126
ोन्मुख	-11.1261
▁समर्पित	-11.1277
▁उद्दार	-11.1279
▁अधिग्रहण	-11.1285
▁रिमाल	-11.1297
▁इंग्ल्यान्ड	-11.1301
▁बताउनुहुन्छ	-11.1301
▁साम्राज्य	-11.1309
▁डटकम	-11.1309
▁प्रार्थना	-11.1309
▁अपराह्न	-11.1318
▁कार्यसूची	-11.1325
▁दुर्भाग्य	-11.1326
▁हावाहुरी	-11.1326
▁नियाल	-11.1332
▁२०२३	-11.1334
▁मुख्यालय	-11.1335
▁औषध	-11.134
▁नोक्सान	-11.1344
▁ऋतु	-11.1367
▁कन्टेनर	-11.1367
▁लोडसेडिङ	-11.1367
▁खुलाउन	-11.1368
▁उन्मुख	-11.1375
▁पसिना	-11.1377
▁थाइल्याण्ड	-11.1383
▁हानिकारक	-11.1383
▁उचाल	-11.1387
▁उल्टो	-11.1391
▁वर्ण	-11.1395
▁इराक	-11.1403
▁तालीम	-11.1414
▁चार्टर्ड	-11.1416
▁झन्झट	-11.1425
▁हिंड	-11.1425
▁मैत्रीपूर्ण	-11.1433
▁लोकसेवा	-11.1437
▁बार्षिक	-11.1441
▁एयरपोर्ट	-11.1443
▁भैसकेको	-11.1444
▁वामदेव	-11.1458
▁अर्थमन्त्रालय	-11.1477
▁जुट्न	-11.1479
▁नेतृ	-11.1482
▁तेक्वान्दो	-11.1483
▁प्रलोभन	-11.1483
एजेन्सी	-11.1485
▁रेटिङ	-11.1505
▁डीएसपी	-11.1516
▁सुकुम्बासी	-11.1516
क्चर	-11.1518
इरहने	-11.152
▁गाँउ	-11.1524
▁असामान्य	-11.1524
▁प्लेटफर्म	-11.1524
▁सौराहा	-11.1524
सञ्चार	-11.1527
▁मिलाए	-11.1532
▁चट्टान	-11.1533
▁मुहान	-11.154
तपाईं	-11.1544
▁ठोक	-11.1546
च्यु	-11.1547
▁स्टेसन	-11.1547
▁शिल्प	-11.1552
ग्लो	-11.1552
▁लीला	-11.1554
▁प्राइम	-11.1566
▁गुफा	-11.1569
▁आविष्कार	-11.1575
▁अद्यावधिक	-11.1591
▁यातना	-11.1592
ir	-11.1604
▁जनआन्दोलन	-11.1608
पिएल	-11.162
▁सत्तारूढ	-11.1634
▁दिदीबहिनी	-11.1634
▁अर्डर	-11.1637
▁गर्यौं	-11.1642
िंदा	-11.1644
▁आँधी	-11.1664
▁भेदभाव	-11.1667
▁पदयात्रा	-11.1671
▁गच्छदार	-11.1684
▁शम्भु	-11.1684
▁उब्ज	-11.1684
▁एटीएम	-11.1692
▁प्रतिष्ठित	-11.1693
▁फ्रेन्च	-11.1694
▁इमानदार	-11.171
▁भरोसा	-11.171
▁बोतल	-11.1711
▁लिपुलेक	-11.1718
▁संखुवासभा	-11.1718
▁भैरव	-11.1719
▁झुण्ड	-11.1726
▁कर्पोरेट	-11.1727
▁उदेश्य	-11.1727
▁चिनिन्छ	-11.1728
▁षड्यन्त्र	-11.1735
▁पेन्सन	-11.1736
▁टाइम्स	-11.1737
▁टेक्नोलोजी	-11.1744
▁शोभा	-11.1748
▁डाउनलोड	-11.1753
▁टर्	-11.176
▁पालामा	-11.1764
▁इकाइ	-11.1772
०७८	-11.1776
▁अपरिहार्य	-11.1778
▁सांगीतिक	-11.1778
▁न्यायपालिका	-11.1781
▁देशैभर	-11.1781
▁अन्सारी	-11.1787
▁पलायन	-11.1787
▁टेन्डर	-11.179
▁वयस्क	-11.1796
▁शिर्ष	-11.1799
▁ओझा	-11.1804
▁पचास	-11.1813
▁मिलेमतो	-11.183
▁विक्रेता	-11.183
▁ब्यानर	-11.1837
▁सक्दिन	-11.1841
▁निर्मल	-11.1858
co	-11.1861
▁संज्ञा	-11.1861
▁हौसला	-11.1864
▁प्रतीक्षा	-11.1864
▁स्नातकोत्तर	-11.1873
▁यतिखेर	-11.189
▁लाइभ	-11.1899
्थिन्	-11.1901
▁मध्यरात	-11.1907
▁बाँडफाँड	-11.1908
▁चितुवा	-11.1908
▁बहाव	-11.1911
▁विवेकशील	-11.1918
▁आईसीसी	-11.1951
▁आसन्न	-11.196
कोरोना	-11.1961
परिवार	-11.1968
▁सन्तुलित	-11.1969
▁ढङ्गले	-11.1969
▁बज्राचार्य	-11.1977
▁क्यामरा	-11.1995
▁पशुपतिनाथ	-11.2009
▁म्याग्	-11.201
▁देशव्यापी	-11.2021
▁न्युयोर्क	-11.2021
▁हिसाव	-11.2021
▁सुख्खा	-11.2022
▁लाग्थ्यो	-11.2023
▁सङ्घर्ष	-11.2024
▁उद्धृत	-11.203
▁संरक्षक	-11.2039
विकास	-11.2043
▁उत्तीर्ण	-11.2048
▁होमस्टे	-11.2056
▁पाइपलाइन	-11.2057
ांै	-11.2061
▁खानपान	-11.2064
धेरै	-11.2064
▁पुटिन	-11.2064
▁अभिकर्ता	-11.2065
▁स्वचालित	-11.2065
▁फ्रान्सेली	-11.2065
▁एकजुट	-11.2074
▁आमाबाबु	-11.2079
▁बिताउन	-11.2086
▁बर्सेनि	-11.2092
▁अन्तरिक्ष	-11.2092
▁ट्रेलर	-11.2103
▁एपिएफ	-11.2109
ुपरे	-11.211
▁थारू	-11.2113
आफ्ना	-11.2114
▁छुट्याइएको	-11.2127
▁गोदावरी	-11.2136
▁पासपोर्ट	-11.2139
▁कार्बन	-11.2146
▁चिन्तन	-11.2154
▁कोटेश्वर	-11.2154
▁सन्धिखर्क	-11.2163
▁पृथ्वीनारायण	-11.2174
▁साबित	-11.2175
G	-11.2177
▁बिद्यालय	-11.2181
▁पोर्टल	-11.2181
▁आवेदक	-11.2194
▁निर्विरोध	-11.2207
▁मौज्दात	-11.2207
▁बंगाल	-11.221
▁साप्ताहिक	-11.2216
▁अनलाईन	-11.2228
▁जागरण	-11.224
▁आपराधिक	-11.2243
▁लागूऔषध	-11.2243
▁डेंगु	-11.2243
▁प्रतिव्यक्ति	-11.2252
▁स्थगन	-11.2252
▁फरवार्ड	-11.2261
▁महिनावारी	-11.2266
▁साबुन	-11.2279
▁आकांक्षी	-11.2288
▁उजागर	-11.2288
अधिकार	-11.2293
▁क्लियर	-11.2295
▁शतप्रतिशत	-11.2297
▁ओर्ल	-11.2304
▁त्रिवेणी	-11.2306
▁प्रमोद	-11.2306
▁नवनियुक्त	-11.2315
▁डेब्यु	-11.2315
▁रचनात्मक	-11.2326
▁च्यालेन्ज	-11.2334
▁प्रशासक	-11.2339
▁भइसक्यो	-11.2345
▁बताउदै	-11.2355
▁नवनिर्वाचित	-11.2361
▁गुज्र	-11.2361
▁महंगो	-11.237
▁मोवाइल	-11.237
▁अज्ञात	-11.237
▁धरहरा	-11.2379
▁निर्जीवन	-11.238
ुहुन्थ्यो	-11.2386
▁वामपन्थी	-11.2388
▁कोलकाता	-11.2388
▁प्रतिनिधिमण्डल	-11.24
▁भानुभक्त	-11.2406
▁मेशिन	-11.2416
▁माहोल	-11.2416
▁धक्का	-11.2418
▁आरोही	-11.2425
▁समसामयिक	-11.2443
▁चक्रपथ	-11.2444
▁उदास	-11.2445
▁आत्मविश्वास	-11.2452
▁अब्दुल	-11.2452
▁पराजय	-11.2453
▁छोरो	-11.2465
▁किरात	-11.2469
▁इन्भेष्टमेन्ट	-11.247
▁तिहाई	-11.247
▁सक्नुपर्छ	-11.2494
▁उपप्रधान	-11.2496
▁ट्याक्टर	-11.25
▁ह्वात्तै	-11.2507
ार्इ	-11.2508
▁स्विकार	-11.251
क्शन	-11.2511
▁मझौला	-11.2516
▁तैपनि	-11.2517
▁गिरफ्तार	-11.2526
▁सिक्किम	-11.2535
▁ल्याउँदा	-11.2535
▁ल्याउँछ	-11.2538
विरोधी	-11.2542
▁लाभान्वित	-11.2544
▁जफत	-11.2544
▁शारदा	-11.2581
ुभएन	-11.2584
ट्वान्टी	-11.259
▁अर्पण	-11.2591
▁सर्भे	-11.2591
▁सक्दो	-11.2595
▁इँटा	-11.2609
▁भुक्तान	-11.2612
▁जीर्ण	-11.2615
▁ढाल	-11.2615
▁छिर्न	-11.2622
▁धैर्य	-11.2628
▁राजवंशी	-11.2628
▁सङ्केत	-11.2628
▁अदुवा	-11.2628
▁आशिष	-11.2631
▁भर्खर	-11.2632
▁सनराइज	-11.2637
▁बाल्यकाल	-11.2638
▁खनिज	-11.2652
▁दुग्ध	-11.2656
▁उत्थान	-11.2656
▁हरायो	-11.266
▁अग्रिम	-11.2671
▁अपडेट	-11.2675
▁लापरबाही	-11.2684
▁गैँडा	-11.2684
▁बास्कोटा	-11.2693
▁असुरक्षित	-11.2703
▁जगेडा	-11.2703
▁भत्काउन	-11.2721
▁गोल्छा	-11.2722
▁ठूलै	-11.2731
▁निजगढ	-11.2731
▁उभिन	-11.2733
▁अप्ठेरो	-11.274
▁गोदाम	-11.2743
▁श्रीकृष्ण	-11.2745
▁बेचबिखन	-11.2759
▁सुरुङमार्ग	-11.2761
स्वास्थ्य	-11.2764
▁यूरोप	-11.2785
▁शुद्धीकरण	-11.2791
▁तिब्र	-11.2804
▁म्यानपावर	-11.2807
▁सातदोबाटो	-11.2816
▁साँचो	-11.2819
द्घ	-11.282
▁कहीँ	-11.2835
▁कञ्चन	-11.2842
▁आईएमई	-11.2845
▁अपरान्ह	-11.2854
▁कुटनीतिक	-11.2855
▁अविरल	-11.2864
▁सम्पुर्ण	-11.2873
▁समयावधि	-11.2873
▁ठाडो	-11.2873
पहिले	-11.2888
नागरिक	-11.2893
▁तिथि	-11.2907
▁अमेरिकन	-11.2912
▁निद्रा	-11.2912
▁उज्ज्वल	-11.2921
▁फर्निचर	-11.2921
▁मृगौला	-11.2921
वृद्धि	-11.2925
राजनीतिक	-11.2931
▁सुझाए	-11.2932
▁मनोनित	-11.2941
▁भियतनाम	-11.295
▁ब्यूरो	-11.295
▁अर्धशतक	-11.296
▁सीईओ	-11.2969
▁कन्ट्र	-11.2984
▁भद्रपुर	-11.2986
▁पौड्याल	-11.2989
▁चापागाई	-11.2998
▁कालोबजारी	-11.2998
▁दिइसकेको	-11.3005
▁प्रवन्ध	-11.3011
▁नमिले	-11.3024
▁सोझै	-11.3031
▁मिहिनेत	-11.3037
▁बहुमुखी	-11.304
▁सर्वदलीय	-11.3047
▁साथसाथै	-11.3047
▁भवानी	-11.3047
▁राजिनामा	-11.3047
▁माउन्ट	-11.3057
▁परिक्रमा	-11.3057
▁पुष्टी	-11.3058
▁अफ्रिकी	-11.3067
▁चौतारी	-11.3067
▁तस्कर	-11.3082
▁अब्बल	-11.3086
▁आगजनी	-11.3106
▁नियन्त्रक	-11.3106
▁फाइबर	-11.3106
▁द्वितीय	-11.3115
▁बोहोरा	-11.3115
▁पर्यावरण	-11.3125
▁बाँदर	-11.3125
▁जहिले	-11.3126
▁दाबेदार	-11.3135
▁अहमद	-11.3135
▁परिभाषा	-11.3145
▁चौतर्फी	-11.3145
▁सेल्सियस	-11.3155
▁चाहानुहुन्छ	-11.3164
▁तेह्रथुम	-11.3164
▁औंल्याए	-11.3165
▁ब्यवस्थापन	-11.3166
रहन्छन्	-11.3174
▁भीडभाड	-11.3174
डब्ल्यू	-11.3174
▁फुर्सद	-11.3174
▁हाराहारी	-11.3195
▁जयन्ती	-11.3196
शान्ति	-11.3199
▁माइतीघर	-11.3204
▁इलेक्ट्रोनिक	-11.3204
हँु	-11.3208
▁दुनियाँ	-11.3214
▁म्याड्रिड	-11.3224
▁गोलरक्षक	-11.3224
▁जबर्जस्ती	-11.3234
▁सर्वोत्कृष्ट	-11.3234
▁भुजेल	-11.3234
▁इन्डोनेसिया	-11.3254
▁न्यूयोर्क	-11.3263
▁तोड्न	-11.3264
▁चेपाङ	-11.3264
▁कर्पोरेसन	-11.3273
▁ह्वाइट	-11.3293
▁दम्पती	-11.3293
▁नाराबाजी	-11.3293
▁अव्यवस्थित	-11.3303
▁कमरेड	-11.3304
▁बदल्न	-11.3308
▁ताइवान	-11.3313
▁चतुर	-11.3317
माधव	-11.332
▁प्रोत्साहित	-11.3323
▁माछापुच्छ्रे	-11.3323
▁फिलिपिन्स	-11.3333
▁खाँण	-11.3333
▁नउठ	-11.3334
▁प्रख्यात	-11.3343
▁सुक्खा	-11.3344
▁ब्ल्याक	-11.3354
▁महाभियोग	-11.3363
▁युनिभर्सिटी	-11.3364
पहिलो	-11.3365
▁ठमेल	-11.3367
▁कैयौं	-11.3386
▁पुतली	-11.3394
▁अङ्ग्रेजी	-11.3404
▁रसायन	-11.3414
▁कन्ट्रोल	-11.3415
▁चम्क	-11.3416
▁उल्लङ्घन	-11.3424
▁तालाबन्दी	-11.3424
▁प्रतियोगी	-11.3424
▁सम्हाल्न	-11.3425
▁खेलकूद	-11.3444
▁फौजदारी	-11.3444
▁निमन्त्रणा	-11.3454
▁पत्थर	-11.3454
▁प्रशान्त	-11.346
▁विष्फोट	-11.3464
▁निम्तो	-11.3464
▁प्रदिप	-11.3475
स्रोत	-11.348
▁गोपनीयता	-11.3495
▁अलावा	-11.3506
▁नबोल	-11.3512
▁निवेदक	-11.3515
▁आत्मसात	-11.3518
▁ओसारपसार	-11.3525
▁रिपब्लिक	-11.3525
▁आश्रित	-11.3525
▁कटुवाल	-11.3526
▁साक्षात्कार	-11.3536
▁कमिटि	-11.3536
औ	-11.3546
▁शेरचन	-11.3548
▁हिम्मत	-11.3556
▁आइसोलेशन	-11.3566
▁कन्स्ट्रक्सन	-11.3566
▁केहीबेर	-11.3578
▁शिवाकोटी	-11.3587
▁लिम्पियाधुरा	-11.3597
▁घाईते	-11.3597
▁कार्यशाला	-11.3608
▁बद्री	-11.3608
▁जायज	-11.3614
▁निम्त्याउन	-11.3618
▁खगेन्द्र	-11.3618
▁अनमोल	-11.3618
▁छापावाल	-11.363
▁श्रीलङ्का	-11.3638
▁सोमपाल	-11.3639
▁हैरान	-11.3639
▁औजार	-11.3649
▁निक्कै	-11.3659
▁क्यासिनो	-11.3669
▁पौडी	-11.367
ेंट	-11.3678
▁दबाव	-11.368
▁अपार्टमेन्ट	-11.369
▁विचाराधीन	-11.369
▁वैचारिक	-11.369
संसद	-11.3691
▁अग्रणी	-11.3693
▁सँधै	-11.3701
सुरक्षा	-11.3703
▁अरेबिया	-11.3721
▁ओखलढुंगा	-11.3721
▁मस्जिद	-11.3721
▁बोगटी	-11.3721
▁पूर्वराजा	-11.3722
▁बालविवाह	-11.3732
मन्दिर	-11.3734
▁नेटवर्थ	-11.3742
▁स्वायत्त	-11.3742
▁अस्वस्थ	-11.3742
▁खप्तड	-11.3742
K	-11.3797
“	-11.4574
ञ	-11.8367
ऐ	-11.8997
