<pad>	0
<unk>	0
<s>	0
</s>	0
???	-3.17284
,	-3.38134
??????	-3.90672
??????	-4.43658
??????	-4.47157
.	-4.73221
?????????	-4.76524
??????	-5.03207
??????	-5.07791
?????????	-5.0919
????????????	-5.1092
?????????	-5.15099
???(	-5.18836
???	-5.23615
)	-5.26988
?????????	-5.27167
????????????	-5.34377
-	-5.37605
??????	-5.39531
????????????????????????	-5.40054
???????????????	-5.42394
??????????????????	-5.49156
??????	-5.60909
???????????????	-5.62802
????????????	-5.64135
??????????????????	-5.71428
?????????	-5.73891
????????????	-5.77514
?????????	-5.8021
???????????????????????????	-5.82267
??????????????????	-5.92184
????????????	-5.93546
?????????????????????	-5.94765
?????????	-6.06303
?????????????????????	-6.08916
%	-6.10477
?????????	-6.10877
???????????????	-6.11386
??????????????????????????????	-6.13759
????????????	-6.21093
?????????	-6.21679
?????????????????????	-6.28448
????????????	-6.29418
???-	-6.30026
??????????????????	-6.31779
???????????????	-6.33695
:	-6.36255
?????????????????????	-6.36818
??????????????????	-6.37208
????????????????????????	-6.37289
?????????	-6.3751
???????????????	-6.39446
???	-6.3988
??????????????????	-6.4259
?????????????????????	-6.45102
??????????????????	-6.45652
???????????????	-6.45943
?????????	-6.46751
???????????????	-6.47263
???????????????	-6.47449
??????????????????	-6.48224
??????????????????	-6.4982
?????????	-6.50015
????????????????????????	-6.51443
"	-6.55509
??????????????????	-6.56032
??????????????????	-6.58295
?????????????????????	-6.59327
??????	-6.59752
??????????????????	-6.63872
???????????????????????????	-6.63889
????????????	-6.65525
?????????	-6.65885
????????????	-6.67863
???	-6.69659
'	-6.70438
????????????	-6.70571
?????????????????????	-6.70958
%,	-6.71837
???????????????	-6.73036
?????????????????????	-6.73402
??????????????????	-6.73635
???????????????	-6.73919
??????????????????	-6.746
???????????????	-6.74658
????????????????????????	-6.76289
??????????????????	-6.76565
?????????	-6.77252
????????????	-6.78002
??????????????????????????????	-6.78756
???"	-6.79427
???	-6.80492
???????????????	-6.81919
????????????	-6.8379
???????????????????????????	-6.83809
???????????????	-6.8504
?????????????????????	-6.85776
???????????????	-6.87345
?????????	-6.8902
???'	-6.89776
????????????	-6.8979
?????????????????????	-6.90608
??????	-6.90664
??????????????????	-6.91066
??????????????????	-6.91186
??????	-6.91284
???	-6.91536
????????????	-6.92974
?????????????????????	-6.93875
???????????????	-6.94864
????????????????????????	-6.95722
???	-6.96167
?????????????????????	-6.96565
????????????	-6.98233
???	-6.99022
???????????????	-6.99548
??????????????????	-7.00642
???????????????	-7.01086
?????????????????????	-7.03419
???????????????	-7.05461
???????????????	-7.0691
??????????????????	-7.07305
??????????????????	-7.08989
??????????????????	-7.1032
??????????????????????????????	-7.10791
????????????	-7.10794
???????????????????????????	-7.12437
???????????????	-7.12453
????????????	-7.1337
???????????????	-7.14773
??????	-7.15805
??????????????????	-7.17771
???????????????	-7.17821
??????????????????	-7.18301
?????????????????????	-7.20123
?????????	-7.20233
???????????????????????????	-7.20487
????????????	-7.21056
????????????????????????	-7.2137
????????????	-7.21978
???????????????	-7.23448
????????????	-7.23512
????????????	-7.23604
??????????????????	-7.23803
?????????	-7.23923
???????????????	-7.24536
???	-7.25636
???????????????	-7.25889
?????????????????????	-7.26499
???????????????????????????	-7.27271
????????????	-7.2832
???	-7.28705
??????	-7.28896
?????????	-7.30322
???????????????	-7.31367
???????????????	-7.31406
???	-7.31829
??????????????????????????????	-7.32624
?????????????????????	-7.34305
???????????????	-7.34477
??????????????????	-7.34787
??????	-7.34796
????????????????????????	-7.36808
??????????????????	-7.39025
?????????	-7.39282
????????????	-7.4019
??????	-7.40312
),	-7.40745
????????????????????????	-7.41196
????????????????????????	-7.41301
???????????????	-7.41327
??????????????????	-7.41339
????????????	-7.43315
???????????????	-7.43659
??????????????????	-7.43998
/	-7.44276
???????????????	-7.44297
????????????????????????	-7.44375
?????????	-7.44465
???	-7.45348
???????????????????????????	-7.45424
????????????????????????	-7.45465
???	-7.46318
??????????????????	-7.47756
?????????????????????	-7.4814
???	-7.48148
?????????????????????	-7.48374
??????????????????????????????	-7.48717
???????????????	-7.49444
????????????	-7.49616
??????????????????	-7.49822
??????	-7.49996
???????????????	-7.504
????????????	-7.51303
???????????????	-7.51658
????????????????????????	-7.5201
??????	-7.52424
??????????????????	-7.52443
???????????????????????????	-7.52474
????????????????????????	-7.53202
??????	-7.53569
????????????	-7.53701
(	-7.54382
???????????????	-7.5488
????????????????????????	-7.55548
???????????????	-7.55576
???????????????	-7.55932
????????????????????????	-7.56204
??????	-7.56721
???	-7.57177
??????????????????	-7.57553
??????	-7.58799
????????????	-7.58993
?????????????????????	-7.59199
:-	-7.59935
?????????????????????	-7.59936
?????????	-7.60715
?????????	-7.61014
??????????????????	-7.61026
????????????????????????	-7.61369
???????????????????????????	-7.61592
?????????	-7.61953
???????????????	-7.62575
????????????????????????	-7.62826
???????????????	-7.63268
???????????????	-7.63972
??????	-7.65028
??????????????????	-7.65107
??????????????????	-7.66087
????????????????????????	-7.66139
??????	-7.66338
???	-7.66415
????????????????????????	-7.66745
???????????????????????????????????????	-7.66798
?????????????????????	-7.66814
??????	-7.67233
???????????????	-7.67627
???	-7.67687
??????????????????????????????	-7.68063
??????	-7.68452
?????????	-7.69044
???????????????	-7.69793
??????????????????	-7.70052
???????????????	-7.70759
?????????????????????	-7.71001
???????????????????????????	-7.71309
????????????????????????	-7.71373
???????????????	-7.71951
???	-7.7207
?????????	-7.72652
???????????????	-7.727
????????????	-7.72968
??????????????????	-7.73044
??????????????????	-7.73046
?????????????????????	-7.73123
???????????????????????????	-7.73414
?????????????????????	-7.73724
?????????????????????	-7.73757
????????????	-7.73907
????????????	-7.74729
??????	-7.74806
??????????????????	-7.75387
???????????????	-7.75698
????????????????????????	-7.76288
???????????????????????????	-7.76492
??????	-7.76734
???	-7.7692
???????????????	-7.77319
?????????????????????	-7.77621
???????????????	-7.77722
?????????????????????	-7.7779
???????????????????????????	-7.77804
???	-7.77838
?????????????????????	-7.79171
????????????	-7.79276
?????????	-7.79294
???	-7.79447
?????????????????????	-7.79478
???????????????	-7.7981
??????????????????	-7.79839
????????????	-7.80265
???????????????	-7.80731
??????????????????	-7.81262
??????????????????	-7.81305
?????????	-7.82047
????????????????????????	-7.82304
????????????	-7.82494
??????????????????	-7.83014
???????????????	-7.83109
?????????	-7.83404
????????????	-7.84033
???????????????	-7.84285
??????????????????	-7.84577
???????????????	-7.8466
????????????????????????	-7.84737
??????????????????	-7.85061
??????????????????	-7.85724
????????????????????????	-7.8638
??????????????????	-7.87264
?????????????????????	-7.87285
?????????????????????	-7.87363
???????????????	-7.87398
???	-7.88588
????????????????????????	-7.88698
??????????????????	-7.89358
????????????	-7.89569
;	-7.8997
?????????	-7.89978
?????????????????????	-7.90091
???	-7.91116
???????????????????????????	-7.92085
??????????????????????????????	-7.92696
???????????????????????????	-7.92872
??????????????????????????????	-7.9303
???????????????????????????	-7.93163
????????????????????????	-7.93885
???????????????	-7.94946
?????????????????????	-7.94948
?????????????????????	-7.94987
???????????????	-7.95041
???:	-7.95156
????????????	-7.95742
????????????	-7.95932
???????????????	-7.96127
??????	-7.96151
????????????????????????	-7.96339
?????????	-7.96353
?????????????????????????????????	-7.96531
????????????????????????	-7.96782
?????????	-7.96993
????????????????????????	-7.9708
?????????	-7.97118
??????????????????????????????????????????	-7.97151
?????????????????????	-7.97191
??????????????????	-7.97956
???????????????????????????	-7.98059
?????????	-7.9813
???????????????	-7.98133
?????????	-7.98271
???????????????????????????	-7.98842
??????????????????	-7.99278
???????????????	-7.99916
???????????????	-7.99949
s	-8.00129
???????????????	-8.0024
???????????????	-8.00388
???????????????????????????	-8.00702
???	-8.00885
?????????????????????	-8.00987
??????????????????	-8.011
???????????????	-8.02096
??????	-8.0267
???????????????	-8.03163
?????????	-8.03892
??????	-8.0391
??????????????????	-8.04168
???????????????	-8.04227
?????????	-8.04262
???????????????	-8.04263
?????????????????????	-8.04502
?????????????????????????????????	-8.04517
???????????????????????????	-8.04829
????????????	-8.05039
??????????????????	-8.05197
?????????????????????	-8.06372
??????????????????????????????	-8.06434
????????????????????????	-8.06855
???????????????	-8.07813
????????????????????????	-8.0866
????????????	-8.08885
???????????????	-8.0943
????????????????????????	-8.09448
??????	-8.09702
???????????????	-8.09794
?????????????????????	-8.09796
?????????????????????	-8.09811
?????????????????????	-8.10535
???????????????????????????	-8.10877
???????????????	-8.11198
????????????	-8.11234
????????????????????????	-8.1133
????????????????????????	-8.11563
??????	-8.12048
???????????????????????????	-8.12099
??????????????????	-8.12105
??????	-8.1238
?????????	-8.12425
???????????????	-8.12464
???????????????	-8.12538
?????????	-8.12996
??????????????????	-8.13274
????????????????????????	-8.13278
??????????????????	-8.13618
????????????	-8.13674
???????????????	-8.13826
???????????????	-8.14238
??????????????????	-8.14289
?????????????????????	-8.14327
????????????????????????	-8.14378
?????????	-8.14521
???	-8.14666
???????????????????????????	-8.15152
??????????????????	-8.15378
??????	-8.15451
?????????????????????	-8.15465
??????	-8.15548
???????????????	-8.15704
?????????	-8.15721
?????????	-8.15926
????????????????????????	-8.15947
????????????????????????	-8.16409
???	-8.16634
???????????????	-8.1688
????????????????????????	-8.16909
?????????????????????	-8.16936
????????????????????????	-8.16941
??????????????????????????????	-8.16974
?????????	-8.17238
????????????????????????	-8.17271
????????????????????????	-8.17472
?????????????????????	-8.17491
??????	-8.1768
???????????????	-8.1813
?????????????????????	-8.18165
?????????????????????	-8.18438
????????????	-8.18609
?????????	-8.18748
???????????????	-8.19039
????????????????????????	-8.1938
??????	-8.19398
?????????????????????????????????	-8.19459
??????	-8.19591
?????????	-8.19803
????????????????????????	-8.19966
????????????????????????	-8.20149
?????????	-8.21436
???	-8.21595
???????????????	-8.21942
??????????????????	-8.21943
????????????	-8.21987
???????????????????????????	-8.22157
???????????????????????????	-8.23128
???	-8.23168
??????????????????????????????	-8.23223
????????????????????????	-8.23227
??????	-8.23593
???????????????	-8.24331
????????????	-8.24417
?????????	-8.24518
????????????	-8.24747
????????????????????????	-8.24817
????????????	-8.25632
?????????	-8.26046
??????	-8.26657
?????????	-8.2673
??????	-8.26835
???????????????????????????	-8.26969
????????????????????????????????????????????????	-8.27223
??????????????????	-8.27242
???	-8.27243
?????????????????????	-8.27243
??????????????????	-8.2725
?????????????????????????????????	-8.27268
??????????????????	-8.27663
??????????????????	-8.2866
??????????????????	-8.29607
??????????????????	-8.29646
???	-8.29698
???????????????	-8.29742
????????????	-8.29784
????????????	-8.29841
????????????	-8.30048
?????????????????????	-8.30262
?????????	-8.30541
????????????????????????	-8.30613
??????	-8.30892
?????????????????????	-8.31262
???????????????	-8.31393
?????????????????????	-8.31406
????????????????????????	-8.31609
???	-8.31715
??????	-8.31862
?????????	-8.32327
????????????????????????	-8.32849
????????????????????????	-8.32875
?????????????????????	-8.3296
????????????	-8.33201
?????????	-8.33401
???of	-8.34273
??????????????????	-8.34282
??????????????????	-8.34331
??????????????????	-8.35369
?????????????????????	-8.3549
????????????	-8.35695
?????????????????????	-8.35734
?????????	-8.35857
?????????????????????	-8.35881
???=	-8.35949
??????????????????	-8.36013
????????????	-8.36728
??????????????????	-8.36939
?????????????????????	-8.36987
???????????????????????????	-8.37245
????????????????????????	-8.37246
?????????????????????	-8.3726
?????????	-8.37367
???????????????	-8.37379
???????????????	-8.37381
??????????????????	-8.3752
??????????????????	-8.37571
?????????????????????????????????	-8.37755
??????????????????	-8.38064
???????????????	-8.38508
?????????????????????	-8.3852
??????????????????	-8.38598
???????????????	-8.38686
?????????????????????	-8.38749
????????????	-8.38796
?????????	-8.39065
??????????????????	-8.39273
?????????????????????	-8.39702
?????????	-8.39736
???????????????????????????	-8.40228
???????????????	-8.40257
????????????????????????	-8.40292
?????????????????????	-8.40542
?????????????????????	-8.40709
??????????????????	-8.4072
????????????	-8.40972
?????????????????????????????????	-8.41133
??????	-8.41148
???????????????	-8.41317
?????????	-8.41378
????????????	-8.41776
?????????????????????	-8.41819
????????????????????????	-8.41846
?????????????????????	-8.41848
????????????????????????	-8.41853
????????????????????????	-8.41858
???????????????	-8.41883
???	-8.42011
??????????????????????????????	-8.42187
??????????????????????????????	-8.42393
??????????????????	-8.42712
?????????????????????	-8.43436
??????????????????????????????	-8.43443
??????	-8.43553
?????????????????????	-8.43588
????????????????????????	-8.43877
???????????????	-8.44402
??????????????????????????????	-8.44486
?????????????????????	-8.44572
????????????????????????	-8.44914
???????????????????????????	-8.4505
?????????????????????	-8.45053
??????????????????	-8.45548
???????????????	-8.45709
?????????????????????	-8.46191
????????????????????????	-8.46219
?????????????????????	-8.46692
??????????????????????????????	-8.46693
????????????????????????	-8.46798
?????????????????????	-8.46961
?????????	-8.47484
???????????????	-8.47623
???????????????	-8.47951
?????????	-8.48073
??????????????????	-8.48375
??????????????????	-8.48378
????????????????????????	-8.48379
????????????????????????	-8.48384
????????????????????????	-8.48441
?????????	-8.48712
???????????????????????????	-8.48911
???	-8.4923
??????????????????	-8.49263
????????????????????????	-8.49276
????????????	-8.49443
??????????????????	-8.49451
?????????????????????	-8.49462
?????????	-8.49549
???????????????	-8.49601
????????????????????????	-8.49602
???????????????	-8.4966
??????	-8.4972
??????????????????	-8.49876
?????????????????????	-8.49975
??????????????????	-8.50093
???????????????	-8.50308
??????????????????	-8.50323
????????????????????????	-8.50531
???????????????????????????	-8.50578
????????????	-8.51143
????????????	-8.51324
??????????????????????????????	-8.51329
???????????????	-8.51346
?????????????????????	-8.51438
?????????????????????	-8.51556
??????????????????	-8.51955
?????????????????????	-8.52002
???	-8.52014
??????	-8.52132
?????????	-8.52141
??????????????????	-8.52326
???	-8.52354
??????	-8.52826
???????????????????????????	-8.53541
???????????????	-8.53709
?????????????????????	-8.53798
?????????	-8.54205
???	-8.54531
????????????	-8.54758
???	-8.54933
??????	-8.55136
???????????????????????????	-8.55263
???????????????	-8.55305
???????????????????????????	-8.55318
??????????????????	-8.55329
?????????????????????	-8.55334
??????????????????????????????	-8.55335
????????????????????????	-8.55509
???????????????	-8.55922
????????????????????????	-8.56132
?????????	-8.56255
???????????????????????????	-8.56487
????????????????????????	-8.57146
???????????????	-8.57189
????????????	-8.57396
?????????	-8.57625
????????????????????????	-8.57688
?????????????????????????????????	-8.57755
???????????????	-8.5809
???????????????????????????	-8.58203
???	-8.58446
???????????????	-8.58525
???????????????	-8.58641
??????	-8.58656
??????????????????	-8.58668
??????????????????	-8.58769
?????????????????????	-8.58804
???????????????	-8.58948
??????????????????	-8.59014
????????????	-8.59035
???????????????	-8.59205
????????????????????????	-8.59335
???????????????	-8.59346
???????????????????????????	-8.59476
??????????????????	-8.59525
??????????????????	-8.59592
???	-8.59887
????????????????????????	-8.60194
????????????	-8.60407
??????????????????	-8.60476
?????????	-8.6053
???????????????	-8.60593
?????????????????????	-8.60713
??????????????????	-8.60739
?????????????????????	-8.60822
??????????????????	-8.60876
???????????????	-8.60887
????????????	-8.60906
???	-8.61012
?????????	-8.61163
??????????????????????????????	-8.61248
???????????????????????????	-8.61283
???????????????	-8.61355
???????????????	-8.61419
?????????????????????	-8.6157
??????	-8.61625
???????????????	-8.61943
??????	-8.62168
????????????????????????	-8.6242
?????????????????????	-8.62522
?????????	-8.62658
?????????????????????	-8.62724
???????????????	-8.62795
????????????????????????	-8.63042
????????????	-8.6374
???????????????????????????	-8.63925
?????????????????????	-8.6413
????????????????????????	-8.64133
??????????????????	-8.64264
??????	-8.64497
?????????????????????????????????	-8.6476
???????????????????????????	-8.64761
????????????????????????	-8.64804
??????????????????	-8.64851
??????	-8.64864
???????????????????????????	-8.65327
?????????????????????	-8.6534
?????????????????????????????????	-8.6562
?????????????????????	-8.65702
?????????????????????	-8.65833
??????????????????	-8.66026
????????????????????????	-8.66402
?????????????????????	-8.66754
?????????	-8.66781
????????????????????????	-8.66796
????????????	-8.66837
???????????????	-8.66892
?????????????????????	-8.66947
????????????????????????	-8.66968
?????????	-8.66974
??????????????????	-8.6736
??????????????????????????????	-8.67415
???the	-8.67517
?????????	-8.67712
???	-8.68098
???????????????	-8.6812
???????????????	-8.68225
?????????	-8.68352
???????????????????????????	-8.68484
???????????????????????????	-8.68686
???????????????	-8.68724
??????????????????	-8.68812
?????????????????????	-8.68866
??????	-8.68882
????????????	-8.69457
??????????????????	-8.69591
??????	-8.69773
?????????????????????	-8.70032
???????????????????????????	-8.70301
???????????????	-8.70571
?????????????????????	-8.70659
??????????????????	-8.70702
??????????????????????????????	-8.70751
????????????????????????	-8.70881
?????????	-8.70887
???????????????????????????	-8.70894
????????????????????????????????????	-8.70909
??????????????????	-8.70983
??????	-8.71021
???	-8.71044
?????????????????????	-8.71311
???????????????	-8.71578
????????????????????????	-8.71728
?????????????????????	-8.71876
?????????????????????	-8.72069
???????????????	-8.72077
?????????????????????	-8.72095
?????????????????????	-8.7212
??????????????????	-8.72238
???????????????	-8.72312
????????????????????????	-8.72326
??????	-8.72469
?????????	-8.72583
?????????????????????	-8.72925
??????????????????	-8.72928
????????????	-8.72952
????????????????????????	-8.73005
???????????????	-8.73021
?????????????????????	-8.73075
?????????	-8.73287
??????	-8.73763
?????????	-8.74024
????????????????????????	-8.74567
?????????????????????	-8.74699
%),	-8.74843
?????????	-8.74911
??????????????????	-8.74967
???????????????	-8.74984
??????????????????????????????????????????	-8.75088
???????????????????????????	-8.75179
????????????????????????	-8.75179
??????????????????	-8.75183
?????????????????????	-8.75186
??????????????????	-8.75235
?????????	-8.76037
?????????????????????	-8.76071
???????????????	-8.76205
???????????????	-8.76257
????????????	-8.76375
???????????????	-8.7641
???????????????????????????	-8.76454
??????	-8.7651
?	-8.76803
?????????????????????????????????	-8.76826
????????????	-8.7718
?????????????????????	-8.77194
?????????????????????	-8.77396
???????????????	-8.77406
???????????????????????????	-8.77409
????????????????????????	-8.77591
???????????????	-8.77644
?????????????????????	-8.77693
???????????????	-8.77779
?????????????????????	-8.77848
???	-8.7804
???????????????	-8.78172
?????????????????????	-8.78323
???	-8.78533
???????????????	-8.78587
????????????	-8.78724
??????????????????????????????	-8.78796
?????????????????????	-8.78936
??????????????????	-8.78959
?????????????????????	-8.79119
?????????????????????	-8.79603
?????????	-8.7965
????????????????????????	-8.79658
?????????????????????	-8.79675
????????????????????????	-8.79675
?????????????????????	-8.79676
?????????	-8.79677
??????????????????	-8.79678
???????????????????????????????????????	-8.79681
???????????????	-8.79683
????????????????????????	-8.79695
??????????????????????????????	-8.79708
?????????????????????	-8.79807
?????????	-8.79809
??????????????????	-8.80018
??????????????????	-8.80098
?????????	-8.80113
??????????????????	-8.80243
????????????????????????	-8.8033
??????????????????	-8.80748
??????????????????	-8.81364
???	-8.81509
?????????	-8.8197
????????????????????????	-8.81973
?????????????????????	-8.82018
????????????????????????	-8.82033
???????????????????????????	-8.82087
???????????????????????????	-8.82142
??????????????????	-8.82147
???????????????	-8.82277
??????????????????	-8.82713
??????	-8.82771
??????????????????	-8.8304
???	-8.83231
???????????????	-8.83286
?????????	-8.83319
??????????????????	-8.83322
??????	-8.83449
????????????	-8.83743
????????????	-8.83796
???????????????	-8.83939
???????????????	-8.84195
?????????????????????	-8.84318
????????????????????????	-8.84326
???????????????	-8.84381
?????????????????????	-8.84385
?????????????????????	-8.84389
????????????	-8.84394
????????????????????????	-8.84415
??????????????????	-8.84432
????????????	-8.84435
?????????	-8.84477
????????????????????????	-8.84577
?????????????????????	-8.8466
????????????????????????	-8.84775
???????????????	-8.84816
???????????????	-8.8496
??????????????????	-8.85086
??????????????????	-8.85139
?????????????????????	-8.85145
?????????????????????	-8.85231
?????????	-8.85427
??????????????????????????????	-8.85546
??????	-8.86094
?????????	-8.86327
???????????????	-8.86349
??????????????????	-8.86703
????????????	-8.8671
??????????????????	-8.86732
???????????????	-8.86813
?????????????????????	-8.86835
??????????????????????????????	-8.86861
??????????????????	-8.86888
???	-8.87013
??????????????????	-8.87349
?????????????????????	-8.87365
?????????	-8.87678
????????????????????????	-8.87911
???	-8.87966
???????????????	-8.88178
?????????	-8.88314
??????????????????	-8.88396
?????????????????????	-8.88431
???	-8.88655
?????????	-8.88715
????????????	-8.88785
?????????????????????	-8.89128
???????????????	-8.89178
??????????????????????????????	-8.89322
???????????????	-8.89326
?????????????????????	-8.89353
???????????????	-8.89393
??????????????????????????????	-8.89402
????????????	-8.8945
?????????????????????	-8.89635
??????	-8.89913
?????????????????????	-8.90093
?????????????????????	-8.90431
???????????????????????????	-8.90592
???????????????????????????	-8.90639
???????????????	-8.90701
????????????	-8.90706
?????????????????????	-8.90848
???????????????	-8.91082
?????????????????????	-8.91114
??????????????????	-8.91254
???????????????	-8.91375
???	-8.91423
%)	-8.91611
?????????????????????	-8.9168
>	-8.91696
????????????????????????	-8.91753
?????????????????????	-8.91873
??????	-8.91884
????????????	-8.91889
???????????????	-8.91889
?????????	-8.91914
????????????	-8.9234
????????????????????????	-8.92346
li	-8.92359
??????????????????????????????	-8.924
????????????????????????	-8.92575
???????????????????????????????????????	-8.9267
??????????????????	-8.92678
????????????	-8.92838
?????????????????????????????????	-8.93097
??????????????????	-8.93493
????????????????????????	-8.93538
????????????????????????	-8.93577
????????????????????????????????????	-8.93614
??????	-8.93734
???	-8.93757
????????????	-8.93972
?????????????????????????????????	-8.94203
???????????????????????????	-8.9445
????????????????????????	-8.94517
???????????????????????????	-8.94518
???????????????	-8.9452
????????????	-8.94528
?????????	-8.9456
??????????????????	-8.94573
????????????????????????	-8.94576
????????????????????????	-8.94589
?????????	-8.94605
????????????	-8.95554
???	-8.9573
?????????????????????	-8.95842
?????????	-8.95869
?????????????????????	-8.95888
?????????????????????	-8.96066
???????????????	-8.96259
?????????	-8.96325
???????????????	-8.96439
????????????????????????	-8.96513
????????????	-8.96544
??????	-8.97049
???????????????	-8.97101
???????????????????????????	-8.97155
???????????????	-8.97191
?????????????????????	-8.97218
?????????????????????	-8.97222
???????????????	-8.97232
?????????????????????????????????????????????	-8.97237
????????????????????????	-8.97238
???????????????	-8.97258
???????????????????????????	-8.97261
?????????????????????	-8.9727
????????????	-8.97275
??????????????????	-8.97289
????????????????????????	-8.9761
??????	-8.9769
????	-8.97895
?????????????????????	-8.98037
?????????????????????	-8.98044
????????????	-8.98178
??????	-8.98286
?????????	-8.98655
?????????????????????	-8.98699
???????????????????????????	-8.98746
????????????	-8.98752
?????????????????????	-8.98791
?????????????????????	-8.98881
????????????	-8.98946
????????????????????????	-8.9899
?????????????????????	-8.99264
????????????????????????????????????	-8.99568
??????	-8.99612
?????????	-8.99843
???????????????	-8.99847
?????????	-8.99866
???????????????	-8.99908
?????????????????????	-8.99977
???????????????????????????	-8.99996
???????????????????????????	-8.99996
??????????????????	-9.00002
???????????????	-9.00019
????????????????????????	-9.00027
????????????????????????	-9.00028
????????????	-9.00035
???????????????????????????	-9.00048
?????????	-9.00058
??????????????????	-9.00059
??????	-9.00119
????????????	-9.00124
????????????	-9.00134
????????????????????????????????????	-9.0021
?????????	-9.00406
?????????????????????	-9.00596
??????????????????	-9.00649
???	-9.00737
???????????????????????????	-9.01171
????????????	-9.01355
????????????????????????	-9.01647
??????????????????	-9.01745
?????????	-9.01773
??????	-9.02039
????????????	-9.02088
????????????????????????	-9.0214
??????	-9.02442
????????????	-9.02546
??????????????????	-9.02573
??????????????????	-9.02792
?????????????????????	-9.02811
?????????????????????	-9.02853
??????????????????????????????	-9.02854
?????????????????????	-9.02854
?????????????????????????????????	-9.02863
?????????????????????	-9.0287
??????????????????	-9.02875
???and	-9.02895
???????????????	-9.02923
?????????????????????	-9.02976
???????????????	-9.03016
????????????	-9.03024
??????????????????????????????	-9.03207
????????????	-9.03277
?????????	-9.03488
?????????	-9.03683
?????????????????????	-9.03876
????????????	-9.04125
????????????	-9.04229
??????????????????	-9.04348
????????????	-9.04538
???????????????	-9.04578
?????????????????????	-9.04612
?????????	-9.04657
??????????????????????????????	-9.04903
???????????????	-9.04975
???????????????	-9.05147
???????????????	-9.05662
????????????	-9.05717
????????????	-9.05757
????????????????????????	-9.05771
????????????	-9.05794
?????????????????????	-9.05794
???????????????	-9.05798
????????????????????????	-9.05801
??????????????????	-9.05807
?????????????????????	-9.05864
???????????????	-9.05881
???????????????	-9.06106
??????	-9.06116
??????????????????????????????	-9.06263
????????????	-9.06361
???)	-9.06394
?????????????????????	-9.06427
????????????	-9.06666
???????????????	-9.06692
??????????????????	-9.06826
?????????????????????	-9.06862
??????????????????????????????	-9.06919
????????????	-9.07023
????????????	-9.072
????????????	-9.0726
????????????	-9.07308
??????	-9.07395
?????????	-9.07516
?????????	-9.07982
?????????????????????	-9.07992
?????????	-9.08148
??????????????????????????????	-9.08173
??????????????????	-9.08237
?????????????????????	-9.08397
?????????????????????	-9.08825
??????????????????	-9.08825
???????????????	-9.08826
?????????????????????	-9.08829
?????????????????????	-9.08834
?????????????????????	-9.0884
??????????????????????????????	-9.08854
????????????????????????	-9.08886
???????????????????????????	-9.08941
?????????????????????	-9.0907
????????????????????????	-9.09136
???????????????	-9.09243
??????	-9.09254
?????????????????????	-9.09351
??????????????????	-9.09545
??????????????????????????????	-9.09645
????????????????????????	-9.09679
?????????	-9.09684
?????????	-9.09986
??????????????????	-9.10058
??????????????????	-9.10245
??????	-9.1033
?????????????????????	-9.10417
???????????????????????????	-9.10536
?????????????????????	-9.10627
????????????????????????????????????	-9.10754
?????????	-9.11082
+	-9.11369
???????????????????????????	-9.11581
??????????????????	-9.11726
??????????????????	-9.11817
???????????????	-9.11864
?????????	-9.1189
??????????????????	-9.11898
?????????????????????????????????	-9.11913
????????????????????????	-9.1195
?????????????????????	-9.11953
?????????????????????	-9.11979
????????????	-9.12008
???<	-9.12049
???????????????	-9.12203
?????????????????????	-9.12246
??????????????????????????????	-9.1259
??????????????????????????????	-9.12669
????????????????????????	-9.12693
??????	-9.12718
??????????????????	-9.12864
?????????????????????	-9.13326
????????????????????????	-9.13388
????????????????????????	-9.13482
?????????????????????	-9.14112
?????????????????????	-9.14372
???????????????	-9.14443
??????????????????	-9.14546
??????	-9.14983
?????????	-9.14991
???????????????	-9.15162
??????????????????	-9.15174
??????????????????	-9.15176
????????????	-9.15177
??????????????????	-9.1518
????????????	-9.15182
?????????????????????	-9.15183
??????????????????	-9.15186
?????????????????????	-9.15187
??????????????????	-9.15189
???????????????	-9.1519
???????????????	-9.15208
??????	-9.15347
??????????????????	-9.15505
?????????	-9.1578
???????????????	-9.15905
????????????	-9.16287
??????????????????	-9.16304
???????????????	-9.16371
????????????	-9.16598
??????	-9.16754
?????????????????????	-9.1683
??????????????????????????????	-9.16901
???????????????	-9.16979
???????????????	-9.16998
?????????????????????	-9.16999
?????????????????????	-9.17194
???????????????????????????	-9.17204
??????????????????????????????	-9.17229
?????????	-9.17328
???????????????	-9.17334
?????????????????????	-9.17366
?????????????????????	-9.17382
???????????????	-9.17574
???????????????	-9.17604
?????????	-9.17779
???????????????	-9.1791
????????????????????????	-9.17956
????????????????????????	-9.18176
?????????????????????	-9.18304
??????????????????????????????	-9.18446
????????????????????????	-9.18461
????????????????????????	-9.18509
?????????????????????	-9.18509
????????????????????????	-9.1851
????????????????????????	-9.18512
??????????????????????????????	-9.18512
?????????????????????????????????	-9.18538
????????????	-9.18578
?????????????????????	-9.18619
???????????????????????????	-9.1876
??????????????????	-9.19121
??????????????????	-9.19285
?????????	-9.19402
???????????????????????????????????????	-9.19455
??????????????????	-9.19465
?????????	-9.19557
?????????	-9.19633
???	-9.19657
?????????????????????????????????	-9.19659
???????????????????????????	-9.19709
??????????????????	-9.19759
??????????????????	-9.20001
??????????????????	-9.20171
????????????????????????	-9.20227
????????????	-9.20438
???????????????	-9.20469
???????????????????????????	-9.20652
????????????????????????????????????	-9.20685
??????????????????	-9.20992
??????????????????	-9.21131
??????????????????	-9.21221
???A	-9.21263
???????????????	-9.21435
???????????????????????????	-9.21589
??????????????????	-9.21665
??????????????????	-9.21669
?????????????????????	-9.21958
???????????????	-9.21961
??????????????????	-9.21964
???????????????????????????	-9.21968
????????????????????????	-9.21968
????????????????????????	-9.21969
???????????????????????????	-9.21969
????????????????????????	-9.21975
?????????????????????	-9.21986
??????????????????	-9.21988
?????????????????????	-9.21988
??????????????????	-9.22016
??????????????????	-9.22019
??????????????????	-9.22027
???????????????	-9.22034
???????????????	-9.22054
???????????????	-9.22077
????????????	-9.22112
???????????????????????????	-9.22119
??????????????????	-9.22337
??????????????????	-9.22378
??????????????????	-9.22521
??????	-9.22766
??????	-9.22781
??????????????????????????????	-9.22822
?????????	-9.23016
??????????????????	-9.23032
???????????????	-9.23246
????????????????????????????????????	-9.23433
???	-9.23576
????????????????????????	-9.23616
?????????????????????	-9.23702
????????????	-9.2376
????????????	-9.23821
???????????????????????????	-9.23822
???	-9.24137
???????????????????????????	-9.24345
????????????	-9.24411
????????????	-9.24499
?????????	-9.24517
?????????	-9.24521
??????????????????	-9.24656
?????????????????????	-9.24792
??????????????????	-9.24862
?????????	-9.24886
????????????????????????	-9.24966
???S	-9.2501
?????????????????????	-9.25286
????????????????????????	-9.25343
????????????????????????????????????	-9.25529
???????????????	-9.2553
??????????????????	-9.25532
????????????????????????	-9.25533
???????????????????????????	-9.25534
????????????????????????	-9.2554
???????????????	-9.25566
?????????????????????	-9.25589
?????????????????????????????????	-9.25762
??????????????????	-9.25896
?????????????????????	-9.25975
??????	-9.25977
????????????	-9.26147
????????????????????????	-9.26433
?????????	-9.26602
???????????????????????????	-9.26818
?????????????????????	-9.26821
????????????????????????	-9.27008
?????????????????????????????????	-9.27234
?????????	-9.27384
???????????????	-9.274
?????????????????????	-9.27539
?????????????????????	-9.27749
???????????????	-9.27847
?????????	-9.27924
???????????????	-9.27967
????????????	-9.2801
???????????????	-9.28073
??????????????????????????????	-9.28235
?????????	-9.28255
?????????	-9.28403
=	-9.2847
?????????	-9.28569
??????????????????	-9.28583
???????????????????????????	-9.28616
???????????????	-9.28684
?????????	-9.28715
???????????????	-9.28782
?????????????????????	-9.28849
??????????????????	-9.28887
?????????	-9.29064
????????????	-9.29139
???????????????	-9.29202
???????????????	-9.29232
?????????????????????	-9.29232
???UTF	-9.29232
?????????????????????	-9.29232
????????????????????????	-9.29234
?????????????????????	-9.29234
??????????????????	-9.29234
??????????????????	-9.29242
??????????????????	-9.29242
?????????????????????	-9.29252
??????????????????	-9.29289
???????????????	-9.29291
??????????????????	-9.29472
??????????????????	-9.2953
?????????????????????	-9.29536
???????????????	-9.29725
????????????	-9.29732
???????????????	-9.29843
???????????????????????????	-9.29843
???????????????	-9.29882
???[	-9.29896
???????????????	-9.29928
??????????????????	-9.29946
????????????	-9.29983
?????????	-9.30121
???????????????????????????	-9.30171
?????????????????????	-9.30198
???????????????	-9.30235
????????????????????????	-9.3029
????????????????????????	-9.30302
?????????????????????	-9.3044
??????????????????????????????	-9.30463
????????????	-9.30488
????????????????????????	-9.30695
????????????	-9.30957
??????????????????????????????	-9.31083
??????	-9.31141
?????????????????????	-9.31264
??????	-9.3132
????????????????????????	-9.31353
????????????????????????	-9.31371
??????	-9.31446
???;	-9.31548
???????????????	-9.31607
??????	-9.31747
????????????????????????	-9.31945
??????	-9.32008
??????	-9.32187
?????????????????????	-9.32206
????????????????????????	-9.32368
??????????????????	-9.32398
?????????????????????	-9.32434
????????????	-9.32445
???????????????	-9.3255
????????????	-9.32721
??????????????????	-9.32862
???????????????	-9.32886
??????????????????	-9.32911
?????????????????????	-9.32939
???????????????	-9.33078
????????????????????????????????????	-9.33078
????????????	-9.33078
???????????????????????????	-9.33078
????????????	-9.33079
??????????????????	-9.33079
??????????????????	-9.33081
???????????????	-9.33085
????????????????????????	-9.33087
????????????????????????	-9.33095
???????????????	-9.33097
?????????????????????	-9.33099
???????????????	-9.33112
?????????????????????	-9.33115
??????	-9.33172
?????????	-9.33189
???????????????	-9.33196
?????????????????????	-9.33213
??????????????????	-9.33253
???????????????	-9.33434
??????	-9.33461
?????????????????????	-9.33463
???????????????????????????	-9.33801
?????????????????????	-9.34204
????????????	-9.34361
?????????????????????	-9.34572
???????????????????????????	-9.34772
?????????	-9.34842
??????????????????	-9.3487
????????????????????????????????????	-9.34932
??????	-9.35114
????????????????????????	-9.35178
?????????	-9.35193
?????????	-9.35242
???????????????	-9.3538
??????????????????	-9.35524
???????????????	-9.35562
?????????????????????	-9.35642
?????????	-9.35652
???????????????	-9.3567
??????????????????	-9.35684
ing	-9.35699
??????????????????	-9.35867
???????????????	-9.35922
????????????	-9.35972
??????????????????????????????	-9.36089
????????????	-9.36144
??????????????????	-9.36168
????????????	-9.36292
????????????	-9.36687
??????????????????????????????	-9.36712
????????????????????????	-9.3689
????????????????????????	-9.36961
??????????????????	-9.3701
???????????????????????????	-9.37016
???????????????????????????	-9.37078
?????????????????????????????????	-9.37078
?????????????????????????????????	-9.37079
???????????????	-9.37079
????????????????????????	-9.37081
???????????????	-9.37087
?????????????????????	-9.37087
?????????????????????	-9.3709
??????????????????	-9.37092
??????????????????????????????????????????	-9.37095
??????????????????	-9.37095
??????????????????	-9.37104
??????????????????	-9.37106
???????????????	-9.37108
???????????????	-9.37113
???????????????	-9.37145
?????????	-9.37147
??????????????????	-9.3715
???????????????	-9.37166
????????????????????????	-9.37183
???????????????	-9.37245
?????????????????????	-9.37392
?????????	-9.37424
????????????	-9.37498
???????????????	-9.37611
?????????	-9.3769
????????????????????????	-9.3775
??????????????????????????????	-9.37875
??????????????????????????????	-9.37966
?????????	-9.38028
??????????????????	-9.38046
???????????????	-9.38074
??????	-9.38177
??????????????????????????????	-9.3821
????????????????????????	-9.38219
??????????????????????????????	-9.38309
???????????????	-9.38495
????????????????????????	-9.38629
??????????????????	-9.38636
????????????????????????	-9.39029
?????????????????????	-9.3934
????????????	-9.39406
??????	-9.39431
??????????????????	-9.39509
?????????????????????????????????	-9.39519
?????????????????????	-9.39566
?????????	-9.39767
??????????????????	-9.39848
????????????????????????	-9.39852
?????????	-9.39947
????????????????????????	-9.39972
???????????????	-9.40185
??????????????????	-9.4059
???????????????	-9.40777
?????????	-9.40817
??????????????????	-9.40997
?????????????????????	-9.41179
???????????????	-9.41237
???????????????	-9.41245
???????????????	-9.41245
?????????????????????	-9.41245
??????????????????	-9.41246
???????????????????????????	-9.41246
??????????????????????????????	-9.41246
???????????????????????????	-9.41246
????????????????????????	-9.41248
??????????????????????????????	-9.41249
????????????????????????	-9.4125
???????????????	-9.41259
???????????????????????????	-9.41259
?????????????????????	-9.41259
???????????????	-9.41271
????????????????????????	-9.41273
?????????????????????	-9.41277
?????????????????????	-9.41284
???????????????????????????????????????	-9.41288
???????????????	-9.41353
???????????????	-9.41359
??????????????????	-9.41396
??????????????????	-9.41412
???????????????	-9.41413
???The	-9.41428
?????????????????????	-9.41449
??	-9.41508
?????????????????????	-9.41525
???????????????	-9.41555
?????????????????????	-9.41588
?????????	-9.41604
?????????	-9.4163
????????????????????????	-9.4178
??????????????????	-9.4183
??????????????????????????????	-9.41876
?????????	-9.41902
y	-9.42068
????????????????????????????????????	-9.42106
??????????????????	-9.42222
?????????	-9.42357
??????	-9.42488
????????????	-9.42527
?????????????????????	-9.42683
?????????????????????????????????	-9.42769
??????????????????	-9.42836
????????????????????????????????????	-9.42871
????????????	-9.4289
??????	-9.42913
????????????	-9.42944
???????????????????????????	-9.42971
????????????????????????	-9.43102
??????	-9.43408
????????????	-9.43449
??????	-9.43674
??????????????????	-9.43707
???????????????	-9.43849
?????????????????????	-9.43883
??????	-9.4402
????????????????????????	-9.44029
??????	-9.4404
?????????	-9.4427
????????????	-9.44347
???????????????????????????	-9.44375
????????????????????????	-9.44376
???	-9.44568
????????????	-9.44653
?????????????????????	-9.44659
????????????????????????	-9.44689
?????????????????????	-9.44757
???????????????	-9.44814
?????????????????????????????????	-9.44845
?????????????????????	-9.44871
???????????????	-9.44914
?????????????????????	-9.44924
??????	-9.44939
??????????????????	-9.44961
??????????????????	-9.44989
?????????	-9.45014
?????????	-9.45038
e	-9.45124
????????????????????????	-9.45215
???????????????????????????	-9.45229
??????????????????	-9.45261
??????	-9.45366
??????????????????	-9.45479
????????????????????????	-9.45546
?????????????????????	-9.45588
??????????????????????????????	-9.45593
?????????????????????????????????????????????	-9.45593
?????????????????????	-9.45596
???????????????	-9.45596
???????????????????????????	-9.45598
??????????????????	-9.45598
???????????????????????????????????????	-9.45603
?????????????????????	-9.45607
???????????????	-9.45617
??????????????????	-9.45635
??????????????????????????????????????????	-9.45644
?????????????????????	-9.45648
??????????????????	-9.4566
????????????	-9.45691
????????????????????????	-9.45695
???????????????	-9.45734
??????????????????	-9.45765
??????????????????	-9.45777
???in	-9.45807
???????????????	-9.45807
???????????????	-9.45817
????????????????????????	-9.45866
????????????????????????	-9.45889
al	-9.46022
?????????????????????????????????	-9.46218
??????????????????	-9.46291
?????????????????????	-9.46407
??????????????????????????????	-9.46486
?????????	-9.4658
?????????????????????	-9.46603
????????????????????????	-9.46713
??????	-9.46728
??????????????????	-9.46749
?????????	-9.46798
????????????????????????	-9.46866
?????????????????????	-9.47068
?????????	-9.47181
??????????????????	-9.47217
?????????????????????	-9.47295
??????	-9.47351
???????????????????????????	-9.47486
???????????????????????????	-9.47596
????????????	-9.47704
?????????????????????	-9.47747
?????????????????????	-9.47787
???????????????????????????????????????	-9.47964
???????????????	-9.48312
?????????????????????	-9.48323
???????????????	-9.48496
??????????????????????????????	-9.48572
?????????????????????	-9.48575
???	-9.48637
?????????	-9.48703
??????????????????	-9.48751
?????????????????????	-9.48845
???????????????	-9.4888
?????????????????????????????????	-9.48908
????????????	-9.48996
??????????????????????????????	-9.49012
??????	-9.49081
???????????????????????????	-9.49084
???????????????	-9.49342
????????????	-9.49396
???????????????	-9.49427
???????????????	-9.49475
?????????	-9.49529
???????????????????????????	-9.49549
??????????????????????????????	-9.49665
??????????????????	-9.49667
????????????????????????????????????	-9.49708
??????????????????	-9.49748
?????????????????????	-9.49836
????????????	-9.49913
??????????????????	-9.49937
???????????????	-9.50064
???????????????	-9.50075
??????	-9.50089
????????????????????????	-9.50101
??????????????????????????????	-9.50133
??????????????????	-9.50138
??????????????????????????????	-9.50138
????????????????????????	-9.50139
?????????????????????	-9.5014
???????????????????????????	-9.5014
?????????????????????????????????	-9.5014
?????????????????????	-9.5014
???????????????	-9.50141
??????????????????	-9.50143
??????????????????	-9.50144
?????????	-9.50151
??????????????????	-9.50154
?????????????????????	-9.50155
???????????????????????????	-9.50155
?????????????????????	-9.50157
????????????	-9.5016
????????????????????????	-9.5016
??????????????????	-9.50181
?????????????????????	-9.50201
????????????????????????	-9.50205
???????????????	-9.5021
?????????????????????	-9.50213
???????????????	-9.50224
??????????????????????????????	-9.50259
???????????????	-9.50323
???????????????	-9.50334
??????????????????????????????	-9.50347
?????????????????????	-9.50361
??????????????????	-9.50397
????????????	-9.5042
?????????????????????	-9.50447
?????????????????????	-9.50471
?????????????????????	-9.50529
???to	-9.50847
?????????????????????	-9.50885
??????	-9.5101
?????????	-9.51031
?????????????????????	-9.51042
?????????	-9.51128
??????	-9.51189
?????????	-9.51353
??????	-9.51382
?????????	-9.51411
?????????????????????	-9.51501
?????????????????????????????????	-9.5153
?????????	-9.51573
??????????????????	-9.51705
??????	-9.51724
????????????	-9.51783
???????????????????????????	-9.51802
??????	-9.51846
?????????	-9.51921
???	-9.51966
????????????????????????	-9.52031
?????????	-9.52045
?????????	-9.52083
??????	-9.52103
?????????	-9.52196
??????	-9.5227
??????	-9.52367
?????????????????????	-9.52377
????????????????????????	-9.52548
???????????????????????????	-9.52603
??????	-9.52661
??????????????????	-9.52796
??????????????????	-9.52835
???????????????	-9.5298
??????	-9.52981
???????????????	-9.53252
??????????????????	-9.53453
???????????????	-9.53599
??????????????????	-9.5364
???????????????	-9.53674
??????	-9.53684
???????????????????????????	-9.53689
?????????????????????	-9.53704
???????????????	-9.53708
??????????????????	-9.53711
????????????	-9.53772
??????	-9.53952
????????????	-9.54061
]	-9.54094
????????????????????????	-9.54163
??????????????????	-9.54196
???????????????????????????	-9.54272
??????????????????	-9.54319
??????????????????	-9.54359
????????????	-9.54396
?????????????????????	-9.54424
?????????	-9.54529
????????????	-9.546
????????????????????????	-9.54641
???????????????	-9.5469
???????????????	-9.54694
????????????	-9.54722
???()	-9.54743
???????????????	-9.54803
???????????????	-9.54829
?????????????????????	-9.54835
????????????????????????	-9.54891
????????????????????????	-9.549
????????????????????????	-9.549
????????????????????????	-9.549
????????????????????????	-9.549
??????????????????????????????	-9.549
????????????????????????	-9.549
???is	-9.549
????????????????????????	-9.549
???????????????????????????????????????	-9.54903
?????????????????????	-9.54903
?????????????????????	-9.54904
??????????????????	-9.54904
???????????????????????????????????????	-9.54907
?????????????????????	-9.54913
??????????????????	-9.54916
?????????????????????	-9.5492
????????????	-9.54933
???????????????	-9.54944
????????????????????????	-9.54949
???????????????????????????	-9.54956
?????????????????????	-9.54981
???????????????????????????	-9.55004
???????????????????????????????????????	-9.55024
???????????????	-9.55041
??????????????????	-9.55075
??????	-9.55117
???????????????	-9.55117
????????????????????????	-9.55138
??????????????????	-9.55171
?????????????????????	-9.55215
??????	-9.55232
?????????	-9.55242
????????????????????????	-9.55311
????????????????????????	-9.55427
????????????	-9.55441
??????	-9.55613
???????????????????????????	-9.55711
?????????????????????	-9.55723
???????????????	-9.55779
??????	-9.55795
???????????????	-9.55795
??????	-9.55812
?????????	-9.55992
?????????????????????????????????	-9.56001
????????????????????????	-9.56059
???????????????????????????	-9.56117
?????????????????????	-9.56148
???????????????????????????	-9.56266
??????	-9.56404
??????????????????	-9.5641
????????????????????????	-9.56459
?????????	-9.56639
?????????????????????	-9.56673
?????????????????????	-9.5686
???C	-9.56961
?????????????????????	-9.57286
???????????????????????????	-9.57295
?????????????????????????????????	-9.5741
?????????????????????	-9.57421
????????????????????????	-9.57803
???????????????	-9.57837
????????????????????????	-9.57976
????????????	-9.58059
?????????	-9.58132
?????????	-9.58194
???????????????	-9.58341
???????????????????????????	-9.58476
????????????	-9.58482
??????????????????????????????	-9.5865
???????????????????????????	-9.58728
??????	-9.58963
??????	-9.59053
???????????????	-9.5911
????????????????????????	-9.59182
???????????????	-9.5951
???????????????	-9.59518
???????????????	-9.5956
?????????????????????	-9.59685
???/	-9.59748
??????????????????	-9.59753
???????????????????????????	-9.59771
??????????????????	-9.59778
????????????????????????	-9.59861
????????????	-9.59897
????????????????????????	-9.599
??????????????????	-9.599
???????????????????????????	-9.599
?????????????????????	-9.599
??????????????????????????????	-9.59901
????????????????????????	-9.59901
?????????????????????	-9.59902
????????????????????????	-9.59905
??????????????????????????????	-9.5991
??????????????????????????????	-9.59915
?????????????????????	-9.59917
??????????????????	-9.59918
??????????????????	-9.59921
?????????????????????	-9.59925
???????????????	-9.59935
??????????????????	-9.59944
?????????????????????	-9.59945
?????????????????????	-9.59945
???????????????	-9.59957
????????????	-9.59972
?????????????????????	-9.59983
???????????????	-9.59995
??????????????????	-9.59995
????????????????????????????????????	-9.60019
?????????	-9.60067
????????????	-9.60073
????????????????????????	-9.60336
??????????????????	-9.60363
?????????????????????	-9.60366
??????	-9.60376
???????????????	-9.60443
???????????????????????????????????????	-9.60461
?????????	-9.60546
?????????	-9.60838
??????	-9.60847
?????????????????????????????????	-9.60868
???????????????????????????	-9.60904
??????	-9.60921
???????????????????????????	-9.60964
???????????????????????????	-9.61141
????????????????????????	-9.61429
???????????????	-9.61439
??????????????????	-9.61464
?????????????????????????????????	-9.61635
?????????	-9.61823
??????????????????????????????	-9.6184
??????	-9.61972
????????????	-9.61983
?????????????????????	-9.6239
?????????????????????	-9.62468
???????????????	-9.62586
????????????????????????	-9.62625
?????????	-9.62639
???????????????????????????	-9.62685
?????????????????????	-9.62714
????????????????????????	-9.62896
???????????????????????????	-9.62952
???????????????????????????	-9.63148
?????????????????????	-9.63186
????????????????????????	-9.63222
??????	-9.63235
????????????	-9.63466
??????????????????	-9.63471
?????????	-9.63514
?????????????????????	-9.63525
?????????????????????	-9.63578
??????????????????	-9.63641
??????????????????	-9.63713
??????????????????	-9.63743
??????????????????????????????	-9.63961
?????????????????????	-9.63967
????????????????????????	-9.64075
?????????????????????	-9.64146
???????????????	-9.64196
?????????	-9.64199
???????????????????????????	-9.64233
??????????????????????????????	-9.64347
??????????????????	-9.64349
??????	-9.64371
???????????????	-9.64417
??????????????????	-9.64419
?????????????????????	-9.64484
???????????????	-9.64484
??????	-9.64495
??????????????????	-9.64526
????????????	-9.64572
?????????	-9.64708
????????????????????????	-9.64773
??????	-9.64866
??????????????????	-9.64935
????????????	-9.64991
?????????????????????	-9.65047
???????????????	-9.651
???????????????	-9.65113
??????????????????	-9.65117
??????????????????	-9.65157
???mathematics	-9.65163
???????????????????????????	-9.65163
?????????????????????	-9.65163
????????????????????????	-9.65163
??????????????????	-9.65163
????????????????????????	-9.65163
???????????????	-9.65164
???????????????????????????	-9.65164
???????????????????????????	-9.65165
???????????????	-9.65166
????????????????????????	-9.65167
?????????????????????	-9.65168
???????????????????????????	-9.65172
???????????????	-9.65176
????????????????????????	-9.65181
?????????????????????	-9.65181
????????????????????????	-9.65181
?????????????????????????????????	-9.65183
?????????????????????	-9.65185
??????????????????	-9.6519
???????????????	-9.65198
??????????????????	-9.652
????????????????????????	-9.65211
??????????????????	-9.65222
?????????????????????	-9.65227
?????????	-9.65234
???????????????	-9.65245
???????????????	-9.65254
??????????????????	-9.65278
???????????????	-9.65278
?????????????????????	-9.65316
??????????????????????????????	-9.65336
????????????	-9.6536
??????????????????	-9.65458
??????????????????	-9.65564
?????????	-9.65609
????????????	-9.65678
??????	-9.6571
?????????	-9.65882
???????????????	-9.65883
??????????????????	-9.65955
?????????	-9.65968
?????????	-9.66027
??????????????????	-9.66093
???????????????????????????	-9.66135
?????????????????????	-9.66184
??????????????????	-9.66185
??????????????????????????????	-9.66214
???????????????????????????	-9.66237
??????	-9.66259
???????????????	-9.6629
????????????	-9.66301
??????????????????	-9.66399
?????????	-9.66605
?????????????????????	-9.6677
????????????????????????	-9.66801
?????????????????????	-9.6683
???????????????????????????	-9.66888
???????????????????????????	-9.66925
??????	-9.67087
??????	-9.67105
????????????????????????	-9.67337
?????????????????????	-9.67407
????????????	-9.67541
?????????????????????	-9.67714
????????????????????????	-9.67825
??????????????????????????????	-9.67886
???????????????????????????	-9.68025
????????????????????????	-9.68071
??????	-9.68084
?????????????????????	-9.68106
?????????	-9.68145
??????????????????????????????	-9.68159
??????????????????	-9.68159
????????????	-9.68371
???????????????	-9.6852
):	-9.68571
????????????????????????	-9.68649
????????????????????????	-9.68688
????????????	-9.68848
???????????????	-9.68921
?????????	-9.68948
??????	-9.68955
???????????????	-9.69023
?????????????????????	-9.69076
??????????????????	-9.69093
???????????????	-9.69098
?????????	-9.69146
???????????????	-9.69367
????????????	-9.69398
???????????????	-9.69422
?????????????????????	-9.69474
???????????????	-9.69486
???????????????????????????	-9.69501
??????	-9.69517
??????????????????	-9.69685
????????????????????????	-9.69692
??????	-9.69803
???????????????	-9.69809
?????????	-9.69821
????????????	-9.69853
????????????????????????????????????	-9.69873
?????????????????????	-9.69879
????????????????????????	-9.69909
??????????????????	-9.69974
???????????????????????????	-9.7
??????	-9.70064
?????????????????????	-9.70148
????????????????????????	-9.70151
??????????????????????????????	-9.70289
???????????????????????????	-9.70371
??????	-9.70512
??????	-9.70532
??????????????????	-9.70557
????????????????????????	-9.70582
???????????????	-9.70595
?????????????????????	-9.70667
?????????????????????	-9.70699
????????????	-9.70701
????????????????????????	-9.70716
??????????????????	-9.70719
??????????????????	-9.70719
??????????????????????????????????????????	-9.70719
??????????????????	-9.7072
?????????????????????	-9.70722
????????????	-9.70722
????????????????????????	-9.70723
???????????????????????????	-9.70723
??????????????????	-9.70724
????????????????????????	-9.70724
??????????????????	-9.70733
???????????????????????????	-9.70738
?????????????????????	-9.70739
???????????????	-9.7074
?????????????????????????????????	-9.70748
???????????????????????????	-9.70748
???????????????	-9.70752
???????????????	-9.70756
??????????????????	-9.70758
?????????????????????	-9.70762
????????????????????????	-9.70765
?????????????????????	-9.70765
???????????????	-9.70781
??????????????????	-9.70812
???????????????????????????????????????	-9.70821
???????????????	-9.70825
???????????????	-9.70829
???????????????	-9.70836
??????????????????	-9.7084
???????????????	-9.70846
?????????????????????	-9.70866
???????????????????????????	-9.70897
???????????????	-9.70899
??????????????????????????????	-9.70905
??????????????????	-9.70967
????????????????????????	-9.71036
????????????	-9.71102
???????????????	-9.71121
??????	-9.71166
????????????????????????	-9.7118
??????????????????????????????	-9.71187
??????????????????	-9.71242
????????????	-9.7128
?????????????????????	-9.71406
????????????	-9.71532
???????????????	-9.71654
???????????????????????????	-9.71861
?????????????????????	-9.71974
????????????????????????????????????	-9.71994
??????????????????	-9.72222
???	-9.72257
?????????????????????????????????	-9.7226
??????	-9.72289
??????	-9.72476
??????????????????????????????	-9.72536
????????????	-9.7266
????????????????????????	-9.72694
????????????	-9.72779
????????????????????????	-9.72798
??????	-9.72931
??????????????????	-9.72985
?????????	-9.73069
??????????????????????????????	-9.73204
?????????????????????????????????	-9.73337
??????????????????????????????	-9.73437
?????????????????????	-9.73651
??????	-9.73745
???????????????	-9.73855
???????????????	-9.73874
???a	-9.74262
?????????	-9.74279
????????????	-9.74308
??????????????????????????????	-9.74379
?????????	-9.74512
???????????????	-9.74537
????????????????????????	-9.74592
?????????????????????	-9.74642
?????????????????????	-9.74652
????????????????????????	-9.74818
??????	-9.74963
??????	-9.7499
????????????????????????	-9.75123
???????????????	-9.7519
?????????	-9.75226
????????????	-9.75297
?????????????????????	-9.75316
??????????????????	-9.75325
??????	-9.75356
?????????????????????	-9.75357
??????????????????	-9.75369
????????????	-9.75401
????????????????????????	-9.75431
??????	-9.75432
?????????????????????	-9.75437
?????????	-9.75447
??????????????????	-9.75466
???????????????	-9.75565
???????????????	-9.75597
???????????????????????????	-9.7566
?????????	-9.75703
????????????	-9.75747
??????????????????????????????	-9.758
??????	-9.75815
????????????	-9.75829
?????????????????????	-9.75898
??????	-9.75945
???????????????	-9.7599
????????????????????????????????????	-9.76063
??????????????????	-9.76063
????????????	-9.76108
????????????	-9.76167
?????????????????????	-9.76177
???????????????	-9.7627
????????????????????????	-9.76292
?????????????????????????????????	-9.76334
????????????	-9.76399
??????	-9.76529
????????????	-9.76549
?????????????????????	-9.76574
Fedora	-9.76601
????????????????????????	-9.76601
??????????????????	-9.76601
???????????????????????????	-9.76601
???????????????????????????	-9.76601
????????????????????????	-9.76601
??????????????????????????????	-9.76601
??????????????????	-9.76601
??????????????????	-9.76602
???????????????????????????	-9.76602
??????????????????	-9.76603
???????????????	-9.76604
???????????????	-9.76606
??????????????????	-9.76607
???????????????????????????	-9.76611
???????????????????????????	-9.76615
??????????????????????????????	-9.76616
??????????????????????????????	-9.76618
???????????????	-9.76618
???????????????	-9.76618
?????????????????????	-9.76621
???????????????	-9.76622
????????????????????????	-9.76624
?????????????????????????????????	-9.76624
??????????????????	-9.76627
??????????????????	-9.76629
???????????????	-9.76645
?????????????????????	-9.76654
???????????????	-9.7668
???????????????	-9.76697
???????????????	-9.76698
????????????	-9.7672
????????????????????????	-9.7674
?????????	-9.76788
??????????????????	-9.76794
??????????????????	-9.76809
???????????????	-9.76809
??????????????????	-9.76816
??????	-9.76841
??????????????????	-9.76937
????????????????????????	-9.76983
??????????????????	-9.77005
?????????????????????	-9.77006
?????????????????????	-9.77118
?????????????????????	-9.77269
?????????????????????	-9.77555
???????????????	-9.7763
??????????????????????????????	-9.77647
???????????????????????????	-9.77678
???????????????	-9.77715
??????	-9.77789
?????????????????????????????????	-9.77817
????????????????????????	-9.77836
???????????????	-9.7792
????????????????????????????????????	-9.78097
?????????????????????	-9.7823
?????????????????????????????????	-9.7829
??????????????????	-9.78391
?????????	-9.78416
??????	-9.78579
??????????????????	-9.78724
??????	-9.78822
??????	-9.79141
??????	-9.79165
?????????	-9.79186
??????	-9.79248
???????????????????????????	-9.79378
?????????	-9.79787
??????	-9.79787
??????	-9.79832
????????????	-9.79843
??????	-9.80033
??????????????????????????????	-9.80179
???????????????	-9.80232
?????????????????????	-9.80345
????????????????????????????????????	-9.80348
?????????	-9.80349
?????????????????????	-9.80361
????????????	-9.80371
?????????????????????	-9.80641
??????	-9.80731
?????????????????????	-9.80791
?????????	-9.80796
???????????????	-9.80895
????????????	-9.80911
??????	-9.80938
??????	-9.811
???????????????	-9.81178
????????????	-9.81234
??????????????????????????????	-9.81288
??????	-9.81556
?????????	-9.81633
??????????????????	-9.81656
?????????????????????	-9.81804
???????????????	-9.81864
??????????????????	-9.82134
??????????????????	-9.82169
???????????????????????????	-9.82175
??????????????????????????????	-9.82183
???????????????????????????	-9.82199
?????????????????????????????????	-9.82256
??????????????????????????????	-9.82259
?????????????????????	-9.82443
???	-9.82447
?????????????????????????????????	-9.82449
?????????	-9.82493
?????????????????????	-9.82528
????????????????????????	-9.82614
??????	-9.82664
????????????	-9.82681
?????????	-9.82769
???????????????	-9.82791
?????????	-9.82791
??????????????????	-9.82794
?????????????????????	-9.82811
??????????????????	-9.82841
?????????????????????	-9.82849
??????????????????	-9.8285
??????????????????	-9.82851
????????????	-9.82851
?????????????????????	-9.82851
?????????????????????	-9.82852
??????????????????	-9.82852
?????????????????????	-9.82852
??????????????????	-9.82854
?????????????????????	-9.82854
??????????????????	-9.82855
????????????	-9.82856
??????????????????	-9.82856
?????????????????????	-9.82857
??????????????????	-9.82858
???????????????	-9.82866
????????????????????????	-9.82868
????????????????????????	-9.82872
?????????????????????	-9.82873
?????????????????????	-9.82879
?????????????????????	-9.82879
??????????????????????????????	-9.82887
?????????????????????	-9.82888
???????????????	-9.82897
??????????????????	-9.82897
???????????????????????????	-9.82898
??????????????????	-9.82901
??????????????????	-9.82908
??????????????????????????????????????????	-9.82909
?????????????????????	-9.82909
??????????????????	-9.82942
???????????????	-9.82944
?????????????????????	-9.82951
???????????????????????????	-9.82951
??????????????????	-9.82962
????????????	-9.8297
????????????	-9.82972
??????????????????????????????	-9.82976
??????????????????	-9.8299
???????????????	-9.82993
????????????????????????	-9.83018
???????????????	-9.83019
????????????????????????	-9.83056
????????????	-9.83091
?????????????????????	-9.83166
????????????????????????????????????	-9.83221
????????????	-9.83227
??????????????????????????????	-9.83257
h	-9.83327
????????????	-9.83355
????????????	-9.83475
???????????????	-9.83479
????????????????????????	-9.83527
?????????	-9.83567
??????????????????????????????	-9.83619
?????????????????????	-9.83634
???????????????????????????	-9.83788
??????????????????	-9.83812
?????????????????????	-9.83835
??????????????????	-9.83958
?????????????????????	-9.84029
????????????	-9.84047
?????????	-9.84108
????????????????????????	-9.842
?????????	-9.84202
????????????	-9.8423
??????	-9.84255
?????????	-9.84271
??????	-9.84432
?????????	-9.84439
????????????????????????	-9.8449
?????????????????????	-9.84516
?????????	-9.84523
???????????????????????????	-9.84523
??????????????????????????????	-9.84598
????????????	-9.84629
???????????????	-9.84643
?????????????????????????????????	-9.84776
????????????????????????	-9.84857
t	-9.84874
????????????????????????????????????	-9.84925
??????????????????	-9.85055
??????	-9.8509
???????????????????????????	-9.85109
????????????????????????	-9.85131
??????????????????	-9.8526
?????????	-9.85285
????????????	-9.85595
???????????????	-9.85632
??????	-9.8567
?????????????????????	-9.85799
??????	-9.85881
?????????????????????	-9.85959
??????	-9.86196
?????????	-9.86226
?????????	-9.86231
????????????????????????	-9.86316
?????????	-9.86547
????????????	-9.86561
??????	-9.86593
????????????????????????	-9.86684
?????????????????????????????????????????????	-9.86794
????????????	-9.86856
?????????	-9.87001
??????	-9.87002
?????????????????????	-9.87073
??????????????????	-9.87106
??????????????????????????????	-9.87113
????????????	-9.87174
?????????????????????	-9.87193
????????????????????????	-9.87198
???????????????	-9.87199
????????????????????????	-9.87217
??????????????????	-9.87277
?????????	-9.87317
??????????????????	-9.87579
????????????????????????	-9.87595
???????????????	-9.87724
?????????	-9.87733
??????????????????	-9.878
???????????????	-9.87892
???????????????	-9.87995
?????????	-9.88137
??????	-9.88208
??????????????????	-9.88211
?????????	-9.88237
?????????????????????	-9.88242
??????????????????	-9.88245
???????????????	-9.88328
???????????????	-9.8838
??????????????????????????????	-9.88476
?????????	-9.88516
???????????????	-9.8855
????????????	-9.88579
???????????????	-9.88644
????????????????????????	-9.88688
?????????????????????	-9.88692
????????????????????????	-9.8871
??????	-9.88716
???????????????????????????	-9.88722
???????????????	-9.88734
??????????????????	-9.88828
?????????????????????	-9.88883
????????????	-9.88886
??????????????????	-9.8892
???????????????????????????	-9.88991
?????????????????????	-9.89083
??????????????????	-9.89107
??????????????????	-9.89127
????????????????????????	-9.8918
?????????????????????	-9.89195
??????	-9.89287
??????????????????	-9.89366
???for	-9.8946
??????????????????????????????	-9.8947
??????????????????	-9.89483
??????????????????	-9.89503
???????????????	-9.89517
???from	-9.89518
???????????????????????????	-9.89518
??????????????????	-9.89518
?????????????????????	-9.89518
???????????????????????????	-9.89518
??????????????????????????????	-9.89518
?????????????????????	-9.89518
??????????????????????????????	-9.89518
????????????????????????	-9.89518
??????????????????	-9.89518
??????????????????????????????	-9.89518
??????????????????	-9.89518
?????????????????????????????????	-9.89518
???????????????	-9.89519
??????????????????????????????	-9.89519
?????????????????????	-9.89519
??????????????????	-9.89519
???????????????	-9.89519
?????????????????????	-9.89519
???????????????????????????	-9.89519
??????????????????	-9.8952
??????????????????????????????	-9.8952
???????????????	-9.89521
???????????????	-9.89524
???????????????	-9.89526
??????????????????????????????	-9.89529
??????????????????????????????	-9.89536
????????????????????????	-9.89537
???????????????	-9.89538
??????????????????????????????	-9.8954
?????????????????????	-9.8954
?????????????????????????????????????????????	-9.8954
??????????????????????????????	-9.89541
???????????????????????????	-9.89541
???????????????	-9.89542
????????????????????????	-9.89542
???????????????????????????????????????	-9.89542
?????????????????????	-9.89543
???????????????	-9.89543
???????????????????????????	-9.89545
??????????????????	-9.89546
???????????????	-9.8955
???????????????	-9.8955
???????????????????????????	-9.89555
????????????	-9.89557
???????????????	-9.89573
???????????????	-9.89582
????????????????????????	-9.89583
??????????????????	-9.89587
?????????????????????	-9.89587
??????????????????	-9.89589
???????????????	-9.89596
????????????	-9.89599
??????????????????	-9.896
????????????	-9.89625
???!	-9.89629
??????????????????	-9.89668
????????????	-9.89693
?????????????????????	-9.89698
?????????????????????????????????	-9.89703
???????????????	-9.89703
??????????????????	-9.8972
???????????????	-9.89737
???????????????????????????	-9.89771
?????????	-9.89818
??????	-9.89837
???????????????	-9.89863
????????????	-9.89908
????????????	-9.9004
???????????????	-9.90124
.),	-9.90168
???????????????????????????????????????	-9.90316
????????????	-9.90423
????????????????????????????????????	-9.90446
???????????????	-9.90461
????????????	-9.90497
?????????????????????????????????	-9.90582
???????????????	-9.90647
??????	-9.90658
????????????????????????	-9.90677
???????????????	-9.90694
?????????????????????	-9.90724
???????????????	-9.90755
?????????????????????	-9.90916
????????????????????????????????????	-9.90996
?????????	-9.91036
???????????????????????????	-9.91051
???????????????	-9.91083
???????????????	-9.91381
?????????	-9.91394
?????????	-9.91454
????????????	-9.91531
???????????????	-9.91598
???????????????	-9.91656
?????????????????????	-9.91733
????????????????????????	-9.9196
???????????????	-9.92147
??????????????????????????????	-9.92221
????????????	-9.92275
??????	-9.92452
?????????	-9.9249
???????????????	-9.92579
????????????????????????????????????	-9.92626
????????????????????????	-9.92795
??????	-9.93083
?????????	-9.93215
???????????????	-9.93251
????????????????????????	-9.93317
???????????????	-9.93348
????????????	-9.9342
????????????	-9.93485
??????????????????????????????	-9.93504
?????????????????????	-9.93565
????????????	-9.93663
????????????????????????	-9.93769
?????????	-9.93781
?????????????????????	-9.93859
????????????	-9.93905
????????????????????????	-9.93991
????????????	-9.94074
??????????????????	-9.94099
????????????	-9.9412
????????????	-9.94134
???????????????????????????	-9.94162
??????????????????????????????	-9.94196
????????????????????????	-9.94254
???	-9.94272
?????????????????????	-9.94278
????????????????????????	-9.9428
????????????	-9.94403
????????????	-9.94531
??????????????????	-9.94588
????????????????????????	-9.94621
?????????	-9.94642
??????????????????	-9.94673
???????????????????????????????????????	-9.9469
?????????????????????	-9.94792
??????	-9.94909
??????????????????	-9.94962
????????????????????????	-9.95048
??????????????????????????????	-9.95099
???????????????	-9.95216
???????????????	-9.95289
????????????	-9.95309
?????????????????????????????????	-9.95408
???????????????	-9.95422
??????????????????	-9.95442
??????????????????	-9.95464
???????????????	-9.95507
??????	-9.95512
?????????????????????	-9.95522
?????????	-9.9562
???????????????	-9.95664
???????????????	-9.95763
???????????????	-9.95859
?????????????????????	-9.95894
????????????????????????	-9.95908
?????????????????????????????????	-9.95932
a	-9.95935
?????????????????????	-9.95975
???????????????	-9.96096
???????????????	-9.96122
?????????????????????	-9.96138
??????????????????	-9.96183
c	-9.96214
????????????	-9.96263
??????	-9.96266
?????????????????????	-9.96284
??????	-9.96308
???????????????	-9.96359
??????	-9.96374
???????????????	-9.96417
???????????????	-9.96427
???????????????????????????????????????	-9.96447
??????????????????	-9.96455
????????????	-9.965
??????????????????	-9.96516
?????????????????????	-9.96519
???	-9.96542
????????????	-9.96552
???????????????	-9.96637
????????????	-9.96649
??????????????????	-9.96657
???????????????	-9.9666
????????????????????????	-9.96661
?????????????????????	-9.96661
????????????????????????	-9.96661
?????????????????????	-9.96661
????????????????????????	-9.96661
???????????????????????????	-9.96661
?????????????????????	-9.96661
???????????????????????????	-9.96662
???????????????????????????	-9.96663
???????????????????????????	-9.96663
????????????????????????	-9.96663
???????????????	-9.96665
??????????????????	-9.96665
???????????????	-9.96665
?????????????????????????????????	-9.96666
?????????????????????	-9.96666
??????????????????????????????	-9.96667
????????????	-9.96667
????????????	-9.96672
????????????????????????	-9.96673
???????????????????????????	-9.96685
?????????????????????	-9.96686
??????????????????	-9.96689
???????????????	-9.9669
?????????????????????	-9.96698
??????????????????	-9.96704
????????????	-9.96705
?????????????????????	-9.9671
?????????????????????	-9.96721
??????????????????	-9.96721
?????????????????????	-9.96726
?????????????????????	-9.96733
?????????????????????????????????	-9.96737
??????????????????	-9.96754
?????????????????????	-9.96761
???????????????????????????	-9.9677
?????????????????????	-9.96798
?????????????????????	-9.96808
????????????????????????	-9.96817
?????????????????????????????????	-9.96866
????????????????????????	-9.96881
??????????????????	-9.969
??????????????????	-9.96908
??????	-9.96915
??????????????????	-9.96962
???????????????	-9.96971
????????????	-9.96979
????????????????????????	-9.97006
?????????????????????	-9.97009
????????????????????????	-9.97038
????????????	-9.97083
????????????	-9.97108
????????????????????????	-9.97145
??????????????????????????????	-9.97395
??????	-9.97429
?????????????????????	-9.97444
?????????????????????	-9.97479
????????????????????????	-9.97483
?????????????????????	-9.97581
??????????????????	-9.97597
??????????????????	-9.9766
?????????	-9.97681
??????????????????????????????	-9.97759
?????????	-9.97815
????????????????????????	-9.97908
??????	-9.98038
???????????????	-9.98061
???????????????	-9.98075
????????????	-9.98104
????????????????????????	-9.98218
?????????	-9.98284
????????????	-9.98286
???????????????????????????	-9.98317
?????????????????????	-9.9832
?????????	-9.98348
?????????	-9.9837
???????????????????????????	-9.98386
???????????????	-9.98446
??????????????????	-9.98485
???????????????????????????	-9.98525
??????????????????	-9.98585
????????????	-9.98618
????????????	-9.98732
l	-9.99076
???:-	-9.99316
??????????????????	-9.9938
?????????	-9.99555
?????????	-9.9968
??????	-9.99837
????????????????????????????????????	-9.99978
???),	-10.0029
????????????	-10.003
p	-10.0038
o	-10.0047
????????????????????????????????????????????????	-10.0052
?????????????????????	-10.0055
??????????????????????????????	-10.0056
???????????????????????????	-10.0069
?????????????????????	-10.0074
?????????	-10.0085
???????????????????????????	-10.01
??????????????????	-10.01
??????????????????????????????	-10.0106
?????????????????????	-10.0123
???P	-10.0154
???	-10.0155
?????????	-10.0164
????????????	-10.0166
???????????????	-10.0172
?????????	-10.0186
??????????????????	-10.0191
????????????	-10.0201
????????????????????????	-10.0204
?????????	-10.0206
????????????	-10.0212
?????????	-10.0216
???????????????????????????	-10.0219
??????	-10.0224
??????????????????	-10.0233
???????????????????????????	-10.0236
???????????????????????????	-10.0246
??????????????????????????????	-10.0247
????????????	-10.0271
???????????????????????????	-10.0275
?????????????????????	-10.0281
???????????????	-10.0292
??????	-10.0293
??????	-10.0297
???????????????????????????	-10.0303
??????????????????	-10.0304
????????????????????????????????????	-10.0304
??????????????????????????????	-10.0313
???????????????	-10.0316
?????????????????????	-10.032
?????????????????????	-10.0322
???????????????????????????	-10.0328
??????????????????????????????	-10.0328
???????????????	-10.0329
???????????????	-10.0331
????????????	-10.034
????????????	-10.0347
????????????	-10.0351
??????????????????????????????	-10.0352
??????????????????	-10.0353
????????????????????????	-10.0353
???????????????	-10.0356
????????????	-10.0359
????????????????????????	-10.0367
??????????????????	-10.0368
???????????????	-10.0372
???????????????	-10.0373
??????????????????	-10.0376
???????????????	-10.0378
???????????????	-10.0389
???????????????	-10.0395
??????	-10.0397
?????????????????????	-10.0397
????????????	-10.0397
??????	-10.0404
??????	-10.0411
??????????????????	-10.0416
?????????	-10.0421
???????????????	-10.0423
???????????????	-10.0424
??????????????????	-10.043
?????????	-10.0431
????????????	-10.0432
???????????????????????????	-10.0432
???????????????????????????	-10.0434
????????????	-10.0435
?????????????????????	-10.0435
????????????????????????	-10.0435
????????????????????????	-10.0435
?????????????????????????????????	-10.0435
???????????????????????????	-10.0435
??????????????????	-10.0435
??????????????????	-10.0435
?????????????????????	-10.0435
?????????????????????	-10.0435
?????????????????????????????????	-10.0435
??????????????????	-10.0435
?????????????????????	-10.0435
??????????????????????????????	-10.0435
??????????????????	-10.0435
??????????????????	-10.0435
??????????????????????????????	-10.0435
????????????????????????	-10.0435
????????????????????????	-10.0435
????????????	-10.0435
?????????????????????	-10.0436
?????????????????????	-10.0436
???????????????	-10.0436
???????????????	-10.0436
??????????????????	-10.0436
??????????????????	-10.0436
???????????????	-10.0436
?????????????????????	-10.0437
??????????????????	-10.0437
???????????????????????????	-10.0437
?????????????????????	-10.0438
??????????????????????????????	-10.0438
???Unicode	-10.0438
??????????????????????????????	-10.0438
????????????????????????	-10.0438
???????????????	-10.0438
?????????????????????	-10.0438
????????????????????????	-10.0438
????????????	-10.0439
????????????????????????	-10.0439
???????????????	-10.0439
???????????????	-10.0439
???????????????	-10.044
???????????????????????????	-10.0441
??????????????????	-10.0442
???????????????	-10.0442
???????????????	-10.0442
???????????????????????????	-10.0442
?????????	-10.0443
???????????????	-10.0443
????????????????????????	-10.0443
???????????????	-10.0443
???????????????	-10.0444
???????????????	-10.0444
???????????????	-10.0444
?????????????????????	-10.0445
????????????	-10.0445
??????????????????	-10.0446
??????????????????	-10.0446
??????????????????????????????	-10.0446
????????????????????????	-10.0447
?????????????????????	-10.045
???????????????	-10.0451
?????????????????????	-10.0452
?????????	-10.0453
?????????????????????	-10.0455
???????????????	-10.0455
???????????????	-10.0457
??????????????????	-10.046
???????????????????????????????????????	-10.0462
??????????????????	-10.0463
???????????????	-10.0463
??????????????????????????????	-10.0467
????????????????????????	-10.047
?????????????????????	-10.047
???????????????	-10.0474
??????????????????	-10.0478
?????????	-10.0484
?????????????????????	-10.0492
??????????????????	-10.0505
r	-10.0509
??????????????????????????????	-10.0516
?????????????????????????????????	-10.0517
??????	-10.052
??????????????????	-10.0521
?????????	-10.0523
???????????????????????????	-10.0532
??????????????????	-10.054
???????????????????????????	-10.0546
n	-10.0547
????????????????????????	-10.0549
??????????????????????????????	-10.0549
?????????????????????????????????	-10.0552
????????????????????????	-10.0561
?????????????????????	-10.0567
??????	-10.0571
?????????	-10.0578
?????????	-10.0578
???+	-10.0583
???????????????????????????	-10.0583
C	-10.0585
???????????????	-10.0638
?????????	-10.0638
?????????	-10.0639
????????????????????????	-10.0643
??????	-10.0652
?????????????????????	-10.066
??????????????????	-10.0679
???????????????????????????	-10.0683
?????????	-10.0684
????????????????????????	-10.0691
????????????????????????	-10.0698
???????????????????????????	-10.0703
??????	-10.0704
????????????????????????	-10.0708
?????????	-10.071
?????????????????????	-10.0711
?????????	-10.0716
?????????	-10.073
??????	-10.073
??????????????????????????????	-10.0734
??????????????????	-10.0748
????????????	-10.0762
??????	-10.0777
????????????	-10.0784
????????????????????????	-10.0786
??????	-10.079
??????	-10.0821
?????????	-10.0833
??????????????????	-10.0839
????????????????????????????????????	-10.0848
d	-10.0851
??????????????????	-10.0856
?????????	-10.0862
?????????????????????	-10.0871
??????	-10.0878
??????????????????	-10.088
?????????????????????	-10.0902
?????????	-10.0915
A	-10.0922
???????????????	-10.0925
??????????????????	-10.0929
?????????	-10.0932
??????????????????????????????	-10.0936
?????????	-10.0937
??????????????????	-10.0939
?????????	-10.0941
?????????????????????????????????????????????	-10.0942
?????????????????????????????????	-10.095
??????????????????	-10.0953
??????	-10.0957
????????????	-10.0984
??????	-10.0986
?????????	-10.0987
?????????????????????	-10.0992
?????????????????????	-10.1016
?????????????????????	-10.1018
????????????	-10.1035
?????????????????????	-10.1037
??????????????????	-10.1054
??????????????????	-10.1056
?????????	-10.1059
?????????????????????	-10.1059
ed	-10.1066
???????????????????????????	-10.1068
??????	-10.107
??????	-10.1073
?????????	-10.1084
??????????????????????????????	-10.1089
??????????????????	-10.109
?????????????????????	-10.1091
???????????????????????????	-10.1094
??????????????????	-10.1097
?????????	-10.1101
????????????	-10.1105
???????????????	-10.1106
??????????????????	-10.1107
?????????	-10.1111
?????????	-10.1124
?????????	-10.1126
????????????????????????	-10.1134
?????????????????????	-10.1138
??????	-10.1138
?????????????????????????????????	-10.1138
?????????????????????	-10.1148
???????????????	-10.1148
????????????????????????	-10.1149
?????????????????????	-10.1151
???????????????	-10.1157
????????????	-10.1168
?????????	-10.1169
????????????????????????	-10.1172
?????????????????????	-10.1178
????????????????????????????????????	-10.119
?????????????????????	-10.1193
??????????????????	-10.1194
?????????????????????	-10.1201
????????????????????????	-10.1201
?????????????????????	-10.1203
??????????????????	-10.1204
????????????	-10.1212
????????????	-10.1214
??????????????????	-10.1215
???????????????????????????	-10.1218
?????????	-10.1219
m	-10.122
?????????????????????	-10.1225
???????????????	-10.1225
??????????????????	-10.1231
??????????????????????????????	-10.1234
?????????	-10.1236
???????????????	-10.1245
????????????	-10.1248
????????????????????????	-10.125
????????????	-10.125
??????????????????	-10.1251
???????????????	-10.1251
??????????????????	-10.1252
???????????????	-10.1253
??????????????????	-10.1254
??????	-10.1254
???????????????	-10.1255
????????????	-10.1256
?????????	-10.1259
??????????????????????????????	-10.1261
?????????????????????	-10.1264
?????????????????????	-10.1268
????????????????????????	-10.1269
???????????????????????????	-10.1269
???????????????????????????	-10.1269
?????????????????????	-10.1269
??????????????????	-10.1269
???????????????????????????	-10.1269
??????????????????	-10.1269
??????????????????	-10.1269
??????????????????	-10.1269
????????????	-10.1269
?????????????????????	-10.1269
????????????????????????	-10.1269
????????????????????????	-10.1269
???????????????????????????????????????	-10.1269
?????????????????????	-10.1269
?????????????????????	-10.1269
?????????????????????????????????	-10.1269
????????????????????????	-10.1269
???????????????????????????	-10.1269
??????????????????	-10.1269
?????????????????????	-10.1269
??????????????????	-10.1269
????????????????????????	-10.1269
?????????????????????	-10.1269
???????????????	-10.1269
?????????????????????	-10.1269
?????????????????????	-10.127
????????????????????????	-10.127
???????????????	-10.127
????????????	-10.127
?????????????????????	-10.127
????????????????????????	-10.127
?????????????????????	-10.1271
??????????????????	-10.1271
??????????????????	-10.1271
??????????????????????????????	-10.1271
???????????????????????????	-10.1272
???????????????	-10.1272
?????????????????????	-10.1272
???????????????	-10.1272
?????????????????????	-10.1272
????????????	-10.1272
???????????????	-10.1273
????????????	-10.1273
??????????????????	-10.1273
???????????????????????????	-10.1273
??????????????????	-10.1273
????????????????????????	-10.1273
???????????????	-10.1274
??????????????????	-10.1275
????????????????????????	-10.1275
??????????????????????????????	-10.1275
??????????????????	-10.1275
?????????	-10.1275
???or	-10.1275
???????????????	-10.1276
??????	-10.1276
??????????????????	-10.1276
??????????????????	-10.1276
???????????????	-10.1277
???????????????	-10.1277
???????????????	-10.1277
??????????????????????????????	-10.1278
??????????????????	-10.1279
???????????????????????????	-10.128
????????????	-10.1281
?????????	-10.1281
????????????	-10.1282
???????????????????????????	-10.1284
???????????????	-10.1284
?????????	-10.1286
???on	-10.1287
?????????	-10.1291
??????	-10.1291
???????????????	-10.1291
???????????????	-10.1293
??????????????????????????????	-10.1293
??????????????????	-10.1295
????????????	-10.1305
???????????????????????????	-10.1307
??????????????????	-10.1311
??????	-10.1316
????????????????????????	-10.1318
????????????????????????	-10.1323
??????	-10.1324
???????????????????????????????????????	-10.1324
??????????????????????????????????????????	-10.1336
??????	-10.1342
??????????????????	-10.1344
?????????	-10.1346
????????????	-10.1348
?????????????????????	-10.1353
??????	-10.1353
?????????????????????	-10.1355
??????????????????	-10.1357
????????????????????????	-10.1358
D	-10.1363
????????????????????????	-10.1368
?????????	-10.137
?????????????????????????????????	-10.1372
???????????????	-10.1372
????????????	-10.1376
????????????	-10.1376
???????????????????????????	-10.1376
?????????	-10.1382
?????????????????????	-10.1398
???????????????	-10.14
??????????????????	-10.1404
????????????????????????	-10.1405
????????????	-10.1414
?????????????????????	-10.1416
??????	-10.1426
????????????????????????	-10.143
?????????	-10.1434
?????????	-10.1435
??????	-10.1436
????????????????????????????????????	-10.1439
?????????????????????	-10.1447
??????	-10.1447
??????????????????????????????	-10.145
?????????	-10.1452
??????	-10.1457
??????	-10.1472
???????????????	-10.1477
??????????????????	-10.1481
?????????????????????	-10.1483
????????????	-10.1487
????????????????????????	-10.1493
????????????	-10.1499
??????????????????????????????	-10.1504
??????	-10.1505
??????????????????????????????	-10.1506
?????????????????????????????????	-10.151
???????????????????????????????????????	-10.1511
??????	-10.1524
??????????????????????????????	-10.1528
???????????????????????????	-10.1529
????????????????????????????????????	-10.1539
??????	-10.1559
????????????	-10.1573
??????	-10.1583
??????	-10.159
?????????????????????	-10.1593
????????????	-10.1596
????????????	-10.1605
????????????	-10.1614
??????	-10.1621
??????	-10.1629
??????	-10.1657
??????????????????	-10.1684
??????	-10.1697
??????????????????????????????	-10.1711
????????????	-10.1738
??????????????????	-10.1745
??????	-10.1758
??????????????????????????????	-10.178
??????????????????	-10.1786
??????	-10.179
?????????????????????	-10.1808
??????	-10.1815
?????????	-10.1818
????????????????????????	-10.1825
??????	-10.1826
?????????	-10.183
?????????????????????	-10.1833
??????	-10.1847
???????????????	-10.1855
????????????????????????	-10.1865
???R	-10.1904
?????????????????????????????????	-10.1912
?????????????????????	-10.1915
????????????	-10.1934
?????????????????????	-10.1934
??????	-10.1935
??????	-10.1947
??????	-10.1948
??????????????????	-10.1954
?????????	-10.1962
??????	-10.1965
??????	-10.197
??????????????????	-10.1975
???????????????	-10.1985
?????????????????????	-10.1985
????????????????????????	-10.1987
?????????????????????	-10.1988
?????????	-10.1991
???????????????	-10.1994
???????????????????????????	-10.1996
?????????????????????	-10.1999
?????????	-10.2002
?????????????????????	-10.2003
????????????	-10.2019
????????????????????????	-10.2025
????????????????????????	-10.2028
??????????????????	-10.203
????????????????????????	-10.2043
???????????????????????????	-10.2046
????????????????????????	-10.2046
????????????	-10.205
?????????????????????????????????	-10.2061
??????????????????????????????	-10.2064
??????	-10.2069
??????????????????	-10.2069
??????	-10.2078
?????????????????????	-10.2095
S	-10.2102
?????????	-10.2102
??????????????????	-10.2102
????????????	-10.2108
?????????	-10.2114
????????????????????????	-10.2116
???	-10.2117
?????????????????????	-10.2118
?????????	-10.2119
???????????????	-10.2119
????????????	-10.212
???????????????	-10.2122
???????????????	-10.2122
?????????	-10.2122
???????????????	-10.2123
????????????	-10.2124
?????????	-10.2124
???????????????	-10.2127
???????????????	-10.2127
????????????	-10.2131
?????????????????????	-10.2136
?????????	-10.214
???????????????	-10.2142
???????????????	-10.2147
?????????????????????	-10.2148
?????????????????????	-10.2156
???????????????	-10.2157
??????????????????	-10.2162
????????????	-10.2163
??????????????????	-10.2163
???????????????	-10.2168
??????????????????????????????	-10.2168
???????????????????????????	-10.2169
?????????????????????????????????	-10.217
???????????????	-10.2171
?????????????????????	-10.2175
???????????????????????????	-10.2176
???????????????	-10.2176
???????????????	-10.2176
???????????????	-10.2177
????????????????????????	-10.2177
???????????????	-10.2177
???theory	-10.2178
?????????????????????	-10.2178
???????????????????????????	-10.2178
?????????????????????????????????	-10.2178
??????????????????	-10.2178
????????????????????????	-10.2178
?????????????????????	-10.2178
?????????????????????	-10.2178
??????????????????	-10.2178
?????????????????????	-10.2178
????????????????????????	-10.2178
??????????????????	-10.2178
?????????????????????	-10.2178
??????????????????	-10.2178
??????????????????????????????	-10.2178
??????????????????	-10.2178
??????????????????????????????	-10.2178
????????????????????????	-10.2178
?????????????????????	-10.2178
???????????????????????????	-10.2178
?????????????????????	-10.2178
??????????????????????????????	-10.2178
???????????????????????????	-10.2178
?????????????????????	-10.2178
??????????????????	-10.2178
????????????????????????	-10.2178
???????????????????????????	-10.2178
????????????????????????????????????	-10.2178
?????????????????????	-10.2178
?????????????????????	-10.2178
???????????????????????????	-10.2178
????????????????????????	-10.2178
????????????????????????	-10.2178
?????????????????????	-10.2178
??????????????????	-10.2178
?????????????????????	-10.2178
???????????????	-10.2178
???????????????	-10.2178
???????????????????????????????????????	-10.2178
???????????????	-10.2178
???????????????	-10.2178
????????????????????????	-10.2178
??????????????????	-10.2178
????????????	-10.2178
?????????????????????	-10.2178
????????????????????????	-10.2178
??????????????????	-10.2179
??????????????????	-10.2179
??????????????????	-10.2179
???????????????????????????	-10.2179
????????????????????????	-10.2179
???????????????	-10.2179
????????????	-10.2179
??????????????????????????????	-10.2179
??????????????????	-10.2179
?????????????????????	-10.2179
??????????????????	-10.2179
??????????????????????????????	-10.2179
???????????????	-10.2179
??????????????????	-10.2179
?????????????????????	-10.2179
???????????????	-10.2179
?????????????????????	-10.218
???????????????????????????	-10.2181
????????????????????????	-10.2181
???????????????	-10.2181
?????????????????????	-10.2181
?????????????????????????????????	-10.2181
???????????????????????????	-10.2181
??????????????????	-10.2181
???????????????	-10.2181
???????????????	-10.2181
?????????????????????	-10.2182
?????????????????????	-10.2182
?????????????????????	-10.2182
???????????????	-10.2182
?????????????????????	-10.2182
???????????????	-10.2182
???????????????	-10.2182
?????????????????????	-10.2183
??????????????????	-10.2183
??????????????????	-10.2184
????????????	-10.2184
????????????????????????	-10.2184
????????????	-10.2186
????????????????????????	-10.2186
??????????????????	-10.2186
???????????????????????????	-10.2187
?????????????????????	-10.2187
?????????????????????	-10.2187
???????????????	-10.2187
????????????????????????	-10.2187
????????????	-10.2187
???????????????????????????	-10.2188
???????????????	-10.2188
???????????????	-10.219
??????	-10.2191
??????????????????	-10.2191
????????????	-10.2191
?????????????????????	-10.2192
????????????????????????	-10.2192
???????????????	-10.2193
?????????????????????????????????	-10.2195
????????????	-10.2195
?????????????????????	-10.2196
????????????	-10.22
????????????	-10.22
?????????????????????	-10.2202
??????????????????	-10.2202
?????????????????????	-10.2203
??????????????????	-10.2204
???????????????????????????	-10.2205
????????????????????????	-10.2205
???????????????	-10.2207
?????????????????????	-10.2209
???????????????????????????????????????	-10.2213
?????????????????????	-10.2217
????????????????????????	-10.2218
??????????????????????????????	-10.2218
???????????????	-10.222
??????????????????	-10.2222
???????????????????????????	-10.2226
????????????????????????	-10.2227
??????????????????	-10.2233
??????????????????	-10.224
????????????????????????	-10.2248
?????????	-10.2254
????????????	-10.2257
???K	-10.2258
???????????????????????????	-10.2259
??????	-10.2267
??????????????????	-10.2271
?????????????????????????????????	-10.2273
?????????????????????	-10.2274
????????????????????????	-10.2274
?????????????????????????????????	-10.2278
????????????????????????????????????????????????	-10.2285
?????????	-10.2286
???????????????????????????	-10.2289
?????????	-10.2289
??????????????????????????????	-10.2297
???????????????????????????	-10.2301
??????????????????????????????	-10.2308
???????????????	-10.2311
????????????????????????????????????	-10.2318
?????????	-10.2318
??????????????????????????????	-10.232
????????????????????????	-10.232
?????????	-10.2321
???????????????	-10.2325
??????????????????????????????	-10.2325
????????????????????????	-10.2326
??????	-10.2342
??????????????????????????????	-10.2347
i	-10.2355
??????	-10.2355
??????????????????????????????	-10.2363
????????????????????????	-10.2373
??????????????????????????????	-10.2376
?????????	-10.2379
???????????????????????????	-10.2379
??????????????????????????????	-10.2381
???????????????????????????	-10.2385
???????????????	-10.2386
???re	-10.2402
??????????????????	-10.2402
???????????????????????????	-10.2409
??????????????????????????????	-10.2417
????????????????????????????????????	-10.2418
?????????????????????	-10.2423
????????????	-10.2425
??????????????????????????????	-10.2426
????????????	-10.2443
??????	-10.2445
????????????????????????????????????	-10.2452
?????????	-10.2467
??????????????????????????????	-10.2467
?????????	-10.2482
????????????????????????	-10.2492
????????????	-10.2494
????????????	-10.25
?????????	-10.2502
????????????	-10.2506
??????????????????	-10.2511
???????????????????????????	-10.2511
????????????????????????	-10.2516
???????????????	-10.254
?????????	-10.256
?????????	-10.256
????????????	-10.2586
???????????????????????????	-10.2589
??????	-10.2597
??????????????????????????????	-10.2606
?????????	-10.2611
?????????????????????????????????	-10.2618
?????????????????????	-10.2625
????????????????????????	-10.2627
??????	-10.2637
??????????????????????????????	-10.2638
????????????????????????	-10.2655
?????????????????????	-10.2659
?????????	-10.266
??????	-10.2679
??????????????????????????????????????????	-10.2693
??????????????????????????????	-10.2696
?????????????????????	-10.2702
??????	-10.2702
?????????	-10.2704
???????????????	-10.2718
????????????????????????????????????	-10.2723
???????????????	-10.2728
??????????????????	-10.275
?????????	-10.2764
??????	-10.2767
??????????????????????????????	-10.2772
?????????????????????	-10.2773
????????????????????????	-10.2783
???W	-10.2784
?????????	-10.2793
?????????????????????????????????	-10.2793
????????????????????????	-10.2815
??????	-10.2825
????????????????????????????????????	-10.2825
????????????	-10.283
???????????????	-10.2835
?????????????????????	-10.2839
?????????????????????????????????	-10.284
????????????????????????	-10.2849
??????	-10.2854
??????	-10.2861
?????????	-10.2864
????????????	-10.2875
????????????	-10.2878
????????????	-10.2885
??????????????????	-10.2895
????????????????????????	-10.2925
?????????????????????	-10.2928
????????????	-10.293
????????????????????????	-10.2931
?????????	-10.2933
????????????	-10.2936
?????????????????????	-10.295
?????????????????????????????????	-10.2951
??????????????????	-10.2958
?????????????????????	-10.296
?????????????????????	-10.2964
??????	-10.2968
???????????????????????????	-10.297
??????	-10.297
??????????????????	-10.2978
???I	-10.2979
?????????	-10.298
?????????	-10.2982
?????????	-10.2983
???????????????	-10.2985
?????????	-10.2988
?????????????????????	-10.2994
?????????????????????	-10.2994
?????????	-10.2995
?????????	-10.3002
??????????????????	-10.3012
?????????	-10.3012
??????????????????	-10.3013
??????????????????	-10.3017
?????????????????????	-10.3017
????????????	-10.3023
??????	-10.3028
??????	-10.3029
???????????????	-10.3031
???????????????	-10.3035
????????????	-10.3037
??????????????????????????????	-10.3042
?????????????????????	-10.3043
????????????????????????	-10.3045
????????????????????????	-10.3046
?????????????????????	-10.3046
??????????????????	-10.305
??????????????????	-10.305
???????????????	-10.3056
???????????????????????????	-10.3058
???????????????	-10.3061
??????????????????????????????	-10.3073
????????????	-10.3081
?????????	-10.3082
????????????	-10.3085
????????????????????????	-10.3087
?????????????????????	-10.3088
????????????	-10.3094
?????????????????????	-10.3095
????????????????????????	-10.3095
???c	-10.3096
??????????????????	-10.3102
????????????????????????	-10.3103
?????????????????????????????????	-10.3103
????????????????????????	-10.3103
w	-10.3103
???????????????	-10.3108
????????????	-10.3109
???????????????	-10.3112
??????????????????	-10.3116
??????????????????	-10.3117
?????????????????????????????????	-10.3119
????????????????????????	-10.3122
????????????	-10.3138
???????????????	-10.3139
??????????????????????????????	-10.3139
??????????????????	-10.3144
??????????????????	-10.3155
???????????????	-10.3158
????????????????????????	-10.3161
????????????	-10.3162
???????????????	-10.3166
???????????????????????????	-10.3166
??????????????????	-10.3172
???????????????????????????	-10.3173
???theorem	-10.3174
???????????????	-10.3176
??????????????????	-10.3177
?????????????????????	-10.3177
???????????????????????????????????????	-10.3177
??????????????????	-10.3178
?????????????????????	-10.3178
?????????????????????	-10.3178
??????????????????????????????	-10.3178
??????????????????	-10.3178
?????????????????????	-10.3178
???????????????????????????????????????	-10.3178
??????????????????????????????	-10.3178
?????????????????????????????????	-10.3178
??????????????????	-10.3178
?????????????????????	-10.3178
????????????	-10.3178
???????????????????????????	-10.3178
???????????????????????????	-10.3178
?????????????????????	-10.3178
??????	-10.3178
?????????????????????????????????	-10.3178
?????????????????????	-10.3178
??????????????????????????????	-10.3178
??????????????????	-10.3178
????????????	-10.3178
??????????????????????????????	-10.3178
?????????????????????	-10.3178
????????????????????????	-10.3178
?????????????????????	-10.3178
????????????????????????????????????????????????	-10.3178
?????????????????????	-10.3178
????????????????????????	-10.3178
???????????????	-10.3178
??????????????????????????????????????????	-10.3178
??????????????????	-10.3178
??????????????????	-10.3178
???????????????????????????	-10.3178
??????????????????????????????	-10.3178
??????????????????	-10.3178
???????????????????????????	-10.3178
????????????	-10.3178
?????????????????????	-10.3178
???[2	-10.3178
??????????????????	-10.3178
????????????????????????	-10.3178
???[3	-10.3179
??????????????????????????????	-10.3179
???????????????????????????	-10.3179
???????????????????????????	-10.3179
??????????????????	-10.3179
???????????????	-10.3179
???????????????	-10.3179
??????????????????	-10.318
????????????????????????	-10.318
??????????????????	-10.318
??????????????????	-10.318
?????????????????????	-10.318
??????????????????	-10.318
???????????????	-10.318
????????????????????????	-10.3181
?????????????????????	-10.3181
????????????????????????	-10.3181
???????????????????????????	-10.3181
???????????????	-10.3181
???????????????????????????	-10.3181
????????????????????????	-10.3181
??????????????????????????????	-10.3181
?????????????????????	-10.3181
???????????????????????????	-10.3181
??????????????????	-10.3181
???by	-10.3182
???????????????	-10.3182
?????????????????????	-10.3182
?????????????????????	-10.3182
?????????????????????	-10.3182
????????????????????????	-10.3182
???????????????	-10.3183
?????????????????????	-10.3183
????????????	-10.3183
???????????????	-10.3184
?????	-10.3184
???????????????	-10.3184
??????????????????????????????	-10.3185
????????????	-10.3185
????????????????????????	-10.3185
???????????????	-10.3185
????????????????????????	-10.3185
???????????????	-10.3186
???????????????????????????	-10.3187
??????????????????????????????	-10.3189
???????????????	-10.3193
???????????????????????????????????????	-10.3193
???????????????????????????	-10.3193
??????????????????	-10.3194
????????????????????????	-10.3194
???????????????	-10.3195
?????????????????????	-10.3195
???????????????????????????????????????	-10.3196
????????????????????????	-10.3197
?????????	-10.3198
????????????	-10.3203
?????????	-10.3205
?????????????????????	-10.3205
??????????????????	-10.3206
???????????????	-10.3208
??????????????????????????????	-10.3209
?????????????????????????????????	-10.321
?????????????????????	-10.3211
??????????????????	-10.3212
????????????????????????????????????	-10.3215
??????????????????????????????	-10.3216
??????????????????	-10.3217
??????	-10.3222
???????????????	-10.3222
??????????????????	-10.3226
????????????????????????	-10.3226
?????????????????????	-10.3227
???????????????	-10.3228
?????????????????????????????????	-10.3232
?????????????????????	-10.3233
???????????????	-10.3235
??????????????????	-10.3237
????????????	-10.3239
?????????????????????	-10.324
??????????????????	-10.3241
????????????????????????????????????	-10.325
???????????????	-10.3252
??????????????????	-10.3253
??????????????????	-10.3253
??????????????????	-10.3255
??????????????????	-10.3267
?????????????????????	-10.3268
??????????????????????????????	-10.3269
???????????????????????????	-10.3271
??????????????????	-10.3273
??????	-10.3274
????????????	-10.3275
??????????????????	-10.3276
???????????????	-10.3277
????????????	-10.328
???????????????	-10.3281
????????????	-10.3281
??????????????????	-10.3285
?????????????????????????????????	-10.3287
????????????	-10.3292
?????????????????????	-10.3294
????????????	-10.3296
????????????????????????????????????	-10.3297
???????????????	-10.3297
??????????????????	-10.3297
????????????	-10.3301
????????????????????????	-10.3307
???????????????????????????	-10.3309
???????????????	-10.3314
????????????????????????	-10.3314
????????????????????????	-10.3315
????????????????????????????????????	-10.3316
?????????????????????	-10.3318
????????????????????????	-10.3321
????????????????????????	-10.3325
??????	-10.3328
??????	-10.333
??????????????????????????????	-10.3331
??????????????????	-10.3332
?????????????????????????????????	-10.3333
??????????????????????????????	-10.3336
??????	-10.3338
?????????????????????	-10.3339
????????????????????????????????????	-10.3348
??????????????????	-10.3348
?????????	-10.3363
?????????	-10.3366
????????????????????????	-10.3368
???????????????	-10.3371
????????????????????????	-10.3372
??????	-10.3372
?????????	-10.3375
?????????	-10.3379
???????????????	-10.338
?????????????????????	-10.338
??????	-10.3382
??????????????????	-10.3384
???D	-10.3394
?????????	-10.34
????????????	-10.3409
??????????????????	-10.3411
???????????????????????????	-10.3411
???????????????????????????	-10.3411
???????????????	-10.3421
??????????????????????????????	-10.3424
?????????	-10.3426
???????????????	-10.3426
?????????	-10.3455
????????????????????????	-10.3456
???H	-10.3462
??????????????????	-10.3477
????????????????????????	-10.3487
?????????????????????	-10.349
????????????	-10.3507
????????????????????????	-10.3512
?????????	-10.3513
?????????	-10.3524
????????????????????????	-10.3527
?????????	-10.3528
?????????????????????	-10.3533
???????????????????????????	-10.3545
?????????????????????	-10.3546
?????????	-10.3548
?????????	-10.3549
?????????	-10.355
????????????	-10.3555
?????????	-10.3559
?????????????????????	-10.356
?????????????????????	-10.3571
?????????????????????	-10.3572
????????????????????????????????????	-10.3574
???????????????????????????	-10.3575
?????????	-10.3576
????????????	-10.3576
?????????	-10.3578
????????????????????????????????????	-10.3581
????????????????????????	-10.3588
??????	-10.3589
???????????????	-10.3593
??????????????????????????????	-10.3605
?????????	-10.3616
?????????	-10.3617
???????????????????????????	-10.3618
???????????????????????????	-10.3619
????????????????????????	-10.3619
??????????????????????????????????????????	-10.3621
?????????????????????????????????	-10.3622
????????????	-10.3624
?????????	-10.3626
???????????????????????????	-10.3635
?????????	-10.364
?????????	-10.3641
???????????????	-10.3648
?????????????????????	-10.3658
?????????	-10.3675
????????????????????????	-10.3678
?????????????????????	-10.3686
??????????????????????????????	-10.3689
?????????	-10.3695
????????????	-10.3696
?????????????????????	-10.3701
?????????????????????	-10.3712
????????????	-10.3717
????????????	-10.3724
???????????????????????????	-10.3724
??????????????????	-10.373
??????	-10.3732
?????????????????????	-10.3735
????????????	-10.3745
??????	-10.375
??????????????????????????????	-10.3754
?????????????????????????????????	-10.3759
???????????????	-10.3766
??????	-10.377
??????	-10.3772
??????????????????	-10.3783
?????????????????????	-10.3788
??????????????????	-10.3792
???????????????	-10.3796
?????????	-10.3797
???????????????????????????????????????	-10.3799
??????	-10.3819
??????????????????	-10.3824
??????????????????????????????	-10.3828
????????????	-10.3831
????????????	-10.3839
??????????????????	-10.384
??????	-10.3845
????????????	-10.3849
????????????????????????	-10.3857
???????????????	-10.3861
?????????	-10.3862
?????????????????????	-10.3867
??????	-10.3871
??????????????????????????????	-10.3874
???????????????	-10.3885
?????????????????????	-10.3885
??????	-10.3887
?????????	-10.3888
?????????????????????	-10.3907
??????	-10.3909
???????????????????????????	-10.3917
??????	-10.3933
?????????	-10.394
?????????	-10.3944
????????????????????????	-10.3948
?????????	-10.3961
????????????????????????	-10.4005
?????????	-10.4028
?????????????????????????????????	-10.403
???????????????	-10.4043
??????	-10.405
??????????????????	-10.406
??????????????????	-10.4063
??????????????????	-10.4064
?????????????????????	-10.4066
????????????	-10.407
??????????????????	-10.4073
????????????	-10.4074
???????????????	-10.4077
???????????????????????????	-10.4087
??????????????????	-10.4088
????????????	-10.409
???????????????	-10.4091
?????????	-10.4091
??????????????????	-10.4098
?????????	-10.41
????????????????????????	-10.4104
???????????????????????????	-10.4107
??????	-10.4119
?????????????????????	-10.412
?????????????????????	-10.4135
???????????????????????????	-10.4139
????????????	-10.414
??????????????????	-10.4141
??????????????????	-10.4142
????????????	-10.4143
???????????????????????????	-10.4146
???????????????????????????	-10.4147
??????	-10.4153
?????????	-10.4157
?????????????????????	-10.4158
?????????????????????	-10.4159
???????????????????????????	-10.4161
??????????????????????????????	-10.4163
?????????	-10.4165
???????????????????????????	-10.4167
???????????????????????????????????????	-10.4168
??????????????????	-10.4169
????????????????????????????????????	-10.4173
??????????????????	-10.4177
?????????????????????	-10.4187
???????????????????????????	-10.4189
?????????	-10.4205
???????????????	-10.4205
????????????????????????????????????	-10.4206
??????????????????????????????	-10.4206
????????????????????????	-10.4206
M	-10.4207
????????????????????????	-10.4207
????????????????????????	-10.4217
?????????????????????	-10.4228
??????	-10.4229
???????????????	-10.4231
??????????????????	-10.4231
?????????????????????	-10.4232
????????????	-10.4242
????????????????????????????????????	-10.4242
????????????????????????????????????	-10.4243
?????????????????????????????????	-10.4243
??????????????????	-10.4246
???????????????	-10.4248
??????	-10.4249
?????????????????????	-10.4251
?????????????????????	-10.4254
????????????????????????	-10.426
???????????????	-10.4267
?????????	-10.4271
????????????????????????	-10.4273
?????????????????????	-10.4273
????????????	-10.4274
?????????	-10.4275
??????????????????	-10.4277
???????????????	-10.4277
????????????	-10.4279
',	-10.4279
?????????????????????	-10.428
??????????????????	-10.428
?????????????????????	-10.4281
???????????????	-10.4284
??????????????????	-10.4285
????????????????????????	-10.4287
??????????????????	-10.4289
?????????????????????	-10.4289
????????????	-10.4289
???about	-10.4289
???not	-10.4289
??????????????????	-10.4289
????????????????????????	-10.4289
???????????????????????????????????????	-10.4289
???????????????????????????????????????	-10.4289
????????????????????????	-10.4289
?????????????????????	-10.4289
???????????????????????????	-10.4289
?????????????????????	-10.4289
??????????????????????????????	-10.4289
???????????????????????????	-10.4289
?????????????????????	-10.4289
?????????????????????	-10.4289
?????????????????????????????????	-10.4289
????????????????????????????????????	-10.4289
????????????????????????	-10.4289
????????????????????????	-10.4289
????????????????????????	-10.4289
?????????????????????	-10.4289
????????????????????????	-10.4289
??????????????????	-10.4289
???????????????	-10.4289
?????????????????????	-10.4289
???????????????	-10.4289
????????????????????????????????????	-10.4289
????????????????????????	-10.4289
??????????????????	-10.4289
?????????????????????????????????	-10.4289
?????????????????????????????????	-10.4289
??????????????????	-10.4289
????????????????????????	-10.4289
??????????????????	-10.4289
??????????????????????????????	-10.4289
?????????????????????	-10.4289
??????????????????	-10.4289
????????????????????????	-10.4289
??????????????????	-10.4289
?????????????????????	-10.4289
???????????????????????????	-10.4289
??????????????????	-10.4289
???????????????	-10.4289
???????????????	-10.4289
?????????????????????	-10.4289
????????????????????????	-10.4289
?????????????????????	-10.4289
???????????????	-10.429
???????????????	-10.429
?????????????????????	-10.429
??????????????????	-10.429
????????????????????????	-10.429
???????????????	-10.429
????????????????????????	-10.429
????????????????????????	-10.429
?????????????????????	-10.429
??????????????????	-10.429
????????????????????????	-10.4291
???s	-10.4291
????????????	-10.4291
???????????????	-10.4292
??????????????????	-10.4292
?????????????????????	-10.4292
?????????????????????????????????	-10.4292
?????????????????????	-10.4292
??????????????????	-10.4293
????????????????????????	-10.4293
??????????????????	-10.4293
?????????????????????????????????	-10.4293
???????????????	-10.4293
????????????????????????	-10.4293
?????????????????????	-10.4293
???????????????	-10.4293
???????????????????????????	-10.4294
????????????	-10.4294
?????????????????????	-10.4295
???????????????	-10.4295
???????????????	-10.4298
????????????	-10.4299
????????????	-10.43
???????????????	-10.43
????????????????????????	-10.43
??????????????????????????????	-10.43
????????????????????????	-10.4302
??????????????????	-10.4303
???????????????	-10.4303
????????????????????????	-10.4303
?????????????????????	-10.4304
???????????????????????????	-10.4305
????????????	-10.4305
???????????????	-10.4306
???????????????	-10.4306
????????????????????????	-10.4309
???????????????	-10.4309
???????????????	-10.4309
???????????????????????????	-10.4309
???????????????	-10.4309
????????????????????????	-10.4311
?????????????????????	-10.4312
??????????????????????????????	-10.4312
??????????????????????????????	-10.4312
???????????????	-10.4313
??????????????????	-10.4314
??????????????????	-10.4314
????????????????????????	-10.4316
???????????????????????????????????????	-10.4316
?????????????????????	-10.4319
???????????????????????????	-10.4322
???????????????????????????	-10.4324
?????????????????????????????????	-10.4327
?????????????????????	-10.4327
???????????????	-10.4329
???????????????	-10.433
???????????????	-10.4331
????????????	-10.4333
????????????	-10.4334
????????????	-10.4336
="	-10.4336
us	-10.4337
???????????????	-10.4343
??????????????????	-10.4343
???????????????????????????	-10.4343
????????????????????????	-10.4352
?????????	-10.4352
????????????	-10.4353
????????????	-10.4358
?????????????????????????????????	-10.4359
???????????????????????????	-10.4365
?????????	-10.4366
?????????????????????	-10.4366
????????????	-10.4368
???????????????	-10.4372
???????????????	-10.4377
???????????????????????????	-10.4377
?????????	-10.4379
???????????????????????????	-10.4379
??????????????????	-10.438
???????????????????????????	-10.4381
?????????????????????	-10.4386
???????????????	-10.4396
?????????????????????	-10.4399
??????????????????	-10.4404
??????????????????????????????	-10.4411
?????????????????????	-10.4412
?????????????????????	-10.4413
?????????	-10.4413
????????????????????????	-10.4415
?????????????????????	-10.4431
????????????????????????????????????	-10.444
??????????????????????????????	-10.444
???????????????	-10.4448
???????????????	-10.4449
?????????????????????????????????	-10.445
????????????	-10.4469
?????????????????????????????????	-10.4473
????????????	-10.4474
????????????	-10.4476
??????	-10.4476
?????????????????????????????????	-10.4478
????????????	-10.4481
?????????	-10.4483
?????????	-10.4484
????????????	-10.4486
?????????????????????	-10.4487
?????????????????????????????????	-10.4494
?????????	-10.4496
?????????	-10.4497
?????????????????????	-10.4499
????????????	-10.4499
?????????	-10.4499
??????	-10.4505
??????	-10.4514
?????????	-10.4518
??????????????????????????????	-10.4518
in	-10.452
?????????????????????	-10.4526
?????????	-10.453
?????????	-10.4534
?????????	-10.4535
????????????	-10.4537
???????????????	-10.4554
?????????	-10.4589
??????	-10.4589
??????????????????????????????	-10.4591
??????	-10.4594
??????????????????????????????	-10.4604
??????	-10.4606
?????????????????????	-10.4615
?????????????????????	-10.4627
????????????????????????	-10.4629
????????????	-10.4635
??????????????????	-10.464
????????????????????????????????????	-10.4647
??????????????????????????????	-10.4649
??????	-10.4651
?????????????????????	-10.4659
????????????	-10.4666
??????	-10.4682
????????????????????????	-10.4688
??????????????????	-10.4702
???????????????	-10.4707
?????????	-10.4723
????????????	-10.4724
?????????????????????????????????	-10.4724
?????????	-10.4725
??????	-10.4725
??????????????????	-10.4743
??????????????????????????????	-10.475
?????????	-10.4754
??????????????????	-10.4759
u	-10.476
??????????????????	-10.4763
??????????????????	-10.4763
?????????	-10.4797
???????????????????????????	-10.4797
?????????	-10.48
???G	-10.4811
???????????????????????????	-10.4818
???????????????	-10.482
????????????????????????	-10.4828
?????????????????????	-10.483
?????????	-10.4833
????????????	-10.4834
?????????	-10.4835
???????????????????????????	-10.4841
???????????????	-10.4846
??????????????????????????????	-10.4861
??????????????????????????????	-10.4875
????????????	-10.4882
????????????????????????	-10.4884
?????????????????????	-10.4902
????????????????????????????????????	-10.4916
????????????????????????	-10.493
??????	-10.4936
????????????	-10.4938
??????????????????????????????	-10.4939
????????????	-10.494
??????	-10.494
?????????	-10.4942
??????	-10.4952
?????????	-10.4958
??????????????????	-10.4971
????????????	-10.4974
?????????????????????	-10.4974
er	-10.4977
???????????????????????????	-10.498
???????????????????????????	-10.4989
??????	-10.4991
????????????	-10.4993
?????????	-10.4995
????????????????????????	-10.4999
???	-10.5009
??????????????????	-10.5013
?????????	-10.5015
?????????	-10.502
?????????????????????????????????	-10.5025
??????????????????	-10.5034
??????	-10.5039
?????????????????????????????????	-10.504
????????????????????????	-10.5048
O	-10.5048
????????????????????????	-10.5055
?????????????????????	-10.506
?????????	-10.507
??????????????????????????????	-10.5074
????????????????????????	-10.5082
ly	-10.5085
?????????	-10.5089
?????????	-10.509
??????????????????	-10.5101
??????	-10.5134
????????????	-10.5142
????????????????????????	-10.5148
??????	-10.5167
????????????	-10.5184
?????????	-10.5196
??????	-10.5199
?????????	-10.5202
??????????????????????????????	-10.5213
????????????????????????	-10.5235
?????????	-10.5242
???????????????	-10.525
?????????	-10.5259
??????????????????	-10.5263
????????????????????????	-10.5264
?????????????????????	-10.5266
??????????????????	-10.5267
?????????????????????	-10.5267
?????????????????????	-10.5285
???T	-10.5287
????????????????????????	-10.5299
????????????	-10.53
????????????	-10.5321
??????	-10.5321
???????????????	-10.5322
??????????????????	-10.5326
?????????	-10.5333
??????????????????	-10.5334
??????????????????	-10.5335
????????????????????????	-10.534
???????????????	-10.5347
?????????????????????	-10.5347
???)	-10.5352
???????????????	-10.5356
??????????????????????????????????????????	-10.5362
??????????????????????????????	-10.5364
????????????	-10.537
???L	-10.5371
?????????	-10.5377
??????????????????	-10.5378
???????????????	-10.5379
???????????????	-10.5382
???????????????	-10.5382
????????????????????????	-10.5393
??????????????????????????????????????????	-10.5394
????????????????????????	-10.5394
??????????????????????????????	-10.5394
???????????????	-10.5396
???????????????????????????	-10.5401
??????????????????	-10.5406
?????????????????????	-10.5406
?????????????????????????????????	-10.5408
???????????????	-10.5409
??????????????????	-10.5413
??????????????????????????????	-10.5415
??????????????????	-10.5415
??????????????????	-10.5416
???????????????????????????	-10.5418
??????????????????	-10.5421
????????????????????????????????????	-10.5422
?????????????????????	-10.5426
???????????????	-10.5431
???????????????	-10.5431
??????????????????	-10.5432
???????????????	-10.5435
???????????????	-10.5445
?????????	-10.5454
??????????????????	-10.5456
?????????????????????	-10.546
??????	-10.5461
????????????	-10.5462
???????????????	-10.5463
??????????????????????????????	-10.5464
??????????????????????????????	-10.5466
6	-10.5467
??????	-10.547
?????????	-10.5473
????????????????????????	-10.5474
???????????????	-10.5476
?????????	-10.5476
F	-10.5477
???????????????????????????	-10.5478
???????????????	-10.5479
[	-10.548
!	-10.5481
?????????????????????	-10.5482
????????????	-10.5482
The	-10.5482
??????????????????	-10.5483
???	-10.5483
???????????????	-10.5483
??????????????????	-10.5483
?????????	-10.5487
????????????	-10.549
??????????????????????????????	-10.5492
???????????????????????????	-10.5496
????????????	-10.55
???????????????	-10.55
??????????????????	-10.5501
?????????????????????	-10.5509
???????????????	-10.5519
????????????????????????	-10.5521
?????????????????????????????????	-10.5521
????????????????????????	-10.5521
?????????????????????????????????	-10.5523
????????????	-10.5524
?????????????????????	-10.5527
??????????????????	-10.5529
????????????	-10.5529
???????????????????????????	-10.5529
??????????????????	-10.5531
?????????????????????	-10.5531
??????????????????????????????	-10.5531
??????????????????	-10.5532
???????????????	-10.5532
??????????????????	-10.5533
???????????????	-10.5533
???????????????????????????	-10.5534
???Byzantine	-10.5534
??????????????????	-10.5536
??????????????????	-10.5537
????????????	-10.5537
???????????????	-10.5537
???????????????????????????	-10.5537
????????????????????????	-10.5538
com	-10.5539
????????????????????????????????????	-10.5539
????????????????????????	-10.5539
?????????????????????	-10.5539
???????????????	-10.5539
?????????????????????	-10.5539
????????????????????????	-10.5539
???????????????????????????	-10.5539
???????????????????????????	-10.5539
???????????????	-10.5539
?????????????????????	-10.5539
??????????????????	-10.5539
?????????????????????????????????	-10.5539
???????????????????????????	-10.5539
????????????????????????????????????	-10.5539
????????????????????????	-10.5539
???????????????????????????	-10.5539
??????????????????????????????	-10.5539
????????????????????????	-10.5539
???????????????????????????????????????	-10.5539
?????????????????????	-10.5539
?????????????????????	-10.5539
????????????????????????	-10.5539
?????????????????????????????????	-10.5539
?????????????????????	-10.5539
???????????????????????????	-10.5539
??????????????????????????????	-10.5539
?????????????????????	-10.5539
://	-10.5539
?????????????????????	-10.5539
???????????????????????????????????????	-10.5539
??????????????????	-10.5539
ww	-10.5539
??????????????????????????????	-10.5539
????????????	-10.5539
???????????????	-10.5539
????????????????????????	-10.5539
????????????????????????	-10.5539
?????????????????????????????????	-10.5539
??????????????????	-10.5539
???????????????	-10.5539
?????????????????????????????????	-10.5539
?????????????????????????????????	-10.5539
??????????????????????????????	-10.5539
??????????????????????????????	-10.5539
??????????????????????????????	-10.5539
????????????????????????	-10.5539
??????????????????	-10.5539
?????????????????????	-10.5539
?????????????????????????????????????????????	-10.5539
????????????????????????	-10.5539
??????????????????	-10.5539
??????????????????	-10.5539
?????????????????????????????????	-10.5539
?????????????????????	-10.5539
?????????????????????	-10.5539
?????????????????????	-10.5539
?????????????????????	-10.5539
???????????????????????????????????????	-10.5539
??????????????????	-10.5539
??????????????????	-10.5539
???????????????????????????	-10.554
????????????????????????	-10.554
??????????????????????????????	-10.554
??????????????????	-10.554
????????????????????????	-10.554
???????????????	-10.554
?????????????????????	-10.554
?????????????????????????????????	-10.554
??????????????????????????????	-10.554
???????????????	-10.554
???characters	-10.554
????????????????????????	-10.554
??????????????????	-10.554
?????????????????????	-10.554
??????????????????????????????	-10.554
??????????????????	-10.554
?????????????????????	-10.554
????????????	-10.554
??????????????????	-10.554
????????????	-10.5541
???An	-10.5541
??????????????????	-10.5541
????????????	-10.5541
????????????????????????	-10.5541
???????????????	-10.5541
?????????????????????	-10.5541
?????????????????????	-10.5541
???????????????	-10.5541
??????????????????	-10.5541
???????????????	-10.5542
??????????????????	-10.5542
???????????????????????????	-10.5542
???????????????	-10.5543
????????????????????????	-10.5543
???????????????	-10.5543
?????????????????????	-10.5543
??????????????????????????????	-10.5543
?????????????????????	-10.5543
???????????????	-10.5543
?????????????????????	-10.5543
????????????????????????	-10.5543
?????????????????????????????????	-10.5544
????????????????????????	-10.5544
???????????????	-10.5544
??????????????????	-10.5544
???????????????	-10.5544
???????????????	-10.5544
????????????????????????	-10.5544
?????????????????????	-10.5544
????????????????????????	-10.5544
??????????????????	-10.5544
??????????????????	-10.5545
????????????	-10.5545
???}	-10.5545
??????????????????	-10.5545
???????????????????????????	-10.5545
le	-10.5545
??????????????????	-10.5545
????????????????????????????????????????????????	-10.5545
???????????????	-10.5545
???????????????	-10.5545
????????????	-10.5546
??????????????????????????????	-10.5546
????????????	-10.5546
???????????????	-10.5547
?????????????????????	-10.5547
???????????????	-10.5548
???????????????	-10.5548
????????????	-10.5548
?????????????????????	-10.5548
???????????????	-10.5548
????????????????????????????????????	-10.5548
???????????????????????????	-10.5549
?????????????????????	-10.5549
???????????????	-10.5549
??????????????????	-10.5549
???????????????	-10.5549
???????????????	-10.5549
????????????	-10.555
???????????????	-10.555
?????????????????????	-10.555
???????????????????????????	-10.555
??????????????????	-10.5551
??????????????????	-10.5551
????????????????????????????????????	-10.5551
????????????	-10.5552
???????????????	-10.5552
?????????????????????	-10.5554
??????????????????	-10.5554
???????????????	-10.5555
??????????????????	-10.5556
??????????????????????????????	-10.5556
?????????????????????	-10.5556
?????????????????????	-10.5558
??????????????????????????????	-10.5559
???????????????	-10.556
??????????????????	-10.556
????????????????????????	-10.5561
??????????????????	-10.5561
????????????????????????	-10.5562
????????????????????????	-10.5562
???????????????????????????	-10.5563
???????????????	-10.5563
????????????	-10.5563
????????????????????????	-10.5563
???????????????????????????	-10.5566
??????????????????	-10.5568
??????????????????	-10.5568
?????????????????????????????????????????????	-10.5568
???????????????	-10.557
??????????????????	-10.5571
??????????????????	-10.5572
???????????????????????????	-10.5577
??????????????????????????????????????????	-10.5577
????????????????????????????????????	-10.5578
???????????????	-10.5578
???????????????	-10.5581
P	-10.5584
???????????????	-10.5586
??????????????????????????????	-10.5588
???????????????	-10.5589
?????????????????????	-10.5591
?????????	-10.5593
????????????	-10.5594
???????????????	-10.5597
?????????	-10.5601
????????????????????????	-10.5603
?????????????????????????????????	-10.5603
??????????????????????????????	-10.561
???????????????	-10.5611
????????????????????????	-10.5616
???????????????	-10.5617
??????????????????????????????	-10.5618
???????????????	-10.5619
??????????????????	-10.5623
????????????????????????	-10.5625
????????????????????????	-10.5626
???????????????	-10.5627
???????????????	-10.563
????????????????????????	-10.5633
????????????	-10.5634
????????????????????????????????????	-10.5634
?????????????????????	-10.5634
???????????????????????????	-10.5636
?????????????????????????????????	-10.5641
?????????	-10.5642
??????????????????????????????	-10.5647
????????????	-10.5647
?????????????????????	-10.5648
??????????????????	-10.5652
???????????????	-10.5655
???p	-10.5655
??????????????????	-10.5657
??????????????????????????????	-10.5673
???w	-10.5679
??????????????????	-10.5682
???????????????	-10.5686
an	-10.5689
?????????	-10.569
????????????????????????????????????	-10.569
????????????	-10.5691
?????????????????????	-10.5692
?????????????????????	-10.5705
??????????????????????????????????????????	-10.5706
??????????????????	-10.5718
???(),	-10.5726
?????????????????????	-10.5727
?????????????????????	-10.5736
????????????????????????	-10.5737
??????????????????	-10.5738
????????????????????????	-10.5738
????????????????????????	-10.574
????????????	-10.5742
???????????????	-10.5745
??????????????????	-10.5748
??????????????????	-10.5755
??????????????????????????????	-10.5756
?????????????????????????????????	-10.5765
??????????????????	-10.5768
??????????????????????????????	-10.5771
??????????????????	-10.5772
??????????????????	-10.5772
??????	-10.5781
????????????????????????	-10.5782
???????????????????????????	-10.5783
???????????????	-10.5784
????????????????????????????????????	-10.5793
????????????????????????	-10.5794
????????????	-10.5795
??????????????????	-10.5802
???????????????	-10.5808
??????????????????????????????	-10.5811
?????????	-10.5813
th	-10.5813
?????????????????????	-10.5819
???????????????????????????	-10.5822
?????????	-10.5824
??????????????????	-10.5824
????????????????????????	-10.5835
?????????????????????	-10.5838
??????????????????	-10.584
??????????????????????????????	-10.584
???????????????	-10.5841
????????????	-10.5847
?????????????????????????????????	-10.585
???????????????????????????	-10.5853
z	-10.5854
??????????????????????????????	-10.5859
??????	-10.5863
?????????????????????????????????	-10.5864
????????????	-10.5872
?????????????????????????????????	-10.5881
????????????	-10.5883
?????????	-10.5885
??????	-10.5894
?????????	-10.5895
???????????????????????????	-10.59
?????????????????????????????????	-10.5903
???????????????	-10.5906
??????????????????????????????	-10.5907
???????????????	-10.5915
???????????????????????????	-10.5916
?????????	-10.595
??????	-10.5953
??????????????????????????????	-10.5953
????????????????????????	-10.5957
????????????????????????	-10.5958
?????????	-10.5961
?????????????????????	-10.5962
?????????????????????	-10.5963
???????????????????????????	-10.5965
????????????	-10.5976
?????????	-10.599
????????????	-10.5992
??????????????????????????????	-10.6014
k	-10.6015
????????????	-10.6021
??????????????????????????????	-10.6031
??????????????????????????????	-10.6037
????????????????????????????????????	-10.6039
???t	-10.6039
????????????	-10.604
????????????????????????	-10.605
???????????????????????????	-10.6052
??????	-10.6084
??????	-10.6084
??????????????????	-10.6089
???????????????????????????	-10.609
??????	-10.6094
??????	-10.61
????????????????????????	-10.6133
????????????	-10.6143
??????	-10.6159
????????????	-10.616
?????????????????????	-10.6167
??????????????????????????????	-10.6179
????????????????????????	-10.618
??????	-10.6182
????????????	-10.62
????????????	-10.6203
?????????????????????	-10.6208
?????????	-10.6227
????????????	-10.6227
???????????????????????????	-10.6229
??????????????????	-10.6236
??????????????????????????????	-10.6237
???????????????????????????????????????	-10.6238
?????????????????????	-10.6244
??????	-10.6248
???????????????	-10.6262
??????????????????????????????	-10.6265
??????????????????	-10.6277
????????????	-10.6277
???????????????	-10.6282
???????????????	-10.6322
?????????????????????	-10.6341
?????????????????????????????????????????????	-10.6364
??????????????????	-10.6369
?????????	-10.6369
??????	-10.639
?????????	-10.6391
?????????	-10.6392
?????????	-10.6399
???????????????????????????	-10.6401
??????	-10.6406
??????????????????	-10.6406
??????	-10.6427
?????????????????????????????????	-10.6427
????????????	-10.6434
???????????????	-10.6438
??????????????????????????????????????????	-10.6442
???????????????	-10.6447
??????	-10.6449
?????????	-10.6454
????????????	-10.6476
??????	-10.6479
????????????????????????	-10.6479
????????????????????????	-10.6487
?????????????????????	-10.6491
?????????????????????	-10.6498
?????????	-10.6501
????????????????????????	-10.6503
?????????	-10.6504
???	-10.6504
??????????????????????????????	-10.6509
???????????????	-10.6512
??????	-10.6518
?????????????????????	-10.652
????????????????????????	-10.6529
?????????????????????	-10.6532
???????????????	-10.6538
??????????????????	-10.6578
?????????	-10.6585
?????????	-10.6585
?????????	-10.6586
??????????????????	-10.6586
??????????????????	-10.6588
?????????	-10.659
);	-10.6592
?????????????????????	-10.662
??????????????????	-10.6625
????????????????????????	-10.6631
???????????????????????????	-10.6631
??????????????????	-10.6632
???1	-10.6634
??????	-10.6635
??????????????????	-10.6636
?????????	-10.664
??????????????????	-10.6655
???????????????	-10.6659
???	-10.6659
?????????	-10.6659
???????????????	-10.6674
????????????	-10.6674
???????????????	-10.6689
??????	-10.669
?????????	-10.6691
?????????????????????????????????	-10.6692
?????????????????????	-10.6696
?????????	-10.6698
?????????????????????	-10.6715
??????	-10.6723
?????????????????????	-10.6725
?????????	-10.6735
????????????????????????	-10.6736
????????????????????????????????????	-10.6746
????????????????????????	-10.6752
??????	-10.6756
????????????	-10.6758
??????	-10.6759
??????????????????	-10.6762
?????????????????????	-10.6762
???????????????	-10.6765
?????????????????????????????????	-10.6766
???????????????????????????	-10.6774
????????????	-10.6779
???????????????????????????	-10.6782
??????????????????	-10.6782
???????????????	-10.6785
?????????	-10.6786
????????????	-10.6788
?????????????????????	-10.6789
???????????????	-10.6795
?????????	-10.6799
??????????????????????????????	-10.6799
????????????????????????	-10.6801
????????????	-10.6802
??????????????????????????????	-10.6802
?????????????????????	-10.6804
?????????	-10.6804
??????????????????	-10.6807
?????????????????????	-10.6809
??????????????????	-10.681
????????????	-10.6814
????????????????????????	-10.6817
????????????????????????	-10.6818
?????????????????????????????????	-10.682
???????????????	-10.6823
???????????????????????????	-10.6823
????????????????????????	-10.6823
??????????????????	-10.6823
???????????????	-10.6823
???????????????	-10.6824
??????????????????	-10.6825
???????????????	-10.6827
??????????????????	-10.6828
????????????	-10.683
????????????	-10.6835
??????????????????	-10.6836
??????????????????????????????	-10.6837
???????????????	-10.6838
?????????????????????	-10.6838
???????????????	-10.684
??????????????????	-10.6842
????????????????????????	-10.6844
??????????????????????????????	-10.6845
??????????????????	-10.6853
???B	-10.6859
????????????	-10.6873
???????????????	-10.6877
?????????	-10.6877
?????????????????????	-10.6878
??????????????????	-10.6878
???????????????????????????	-10.6883
????????????????????????????????????	-10.6885
??????????????????	-10.6885
????????????????????????	-10.6885
????????????	-10.6887
?????????????????????	-10.6896
????????????	-10.6898
??????????????????	-10.6901
??????????????????	-10.6901
???????????????	-10.6903
H	-10.6908
?????????????????????	-10.6909
??????????????????	-10.691
???????????????	-10.691
??????????????????	-10.691
??????????????????	-10.6911
????????????	-10.6911
?????????????????????	-10.6912
??????	-10.6912
????????????	-10.6912
????????????	-10.6912
????????????????????????	-10.6912
????????????????????????	-10.6913
???????????????	-10.6913
???????????????????????????????????????	-10.6914
????????????	-10.6914
??????????????????????????????	-10.6917
ell	-10.6919
??????	-10.6919
???????????????	-10.692
?????????????????????	-10.692
???????????????	-10.6921
???F	-10.6921
?????????	-10.6924
????????????????????????	-10.6924
????????????	-10.6925
??????????????????	-10.6925
??????????????????????????????	-10.6928
???????????????????????????	-10.6928
????????????????????????	-10.693
?????????	-10.6931
????????????????????????	-10.6932
?????????	-10.6933
?????????	-10.6935
???????????????	-10.6936
????????????	-10.6938
????????????	-10.694
?????????	-10.6941
????????????	-10.6943
????????????????????????	-10.6944
????????????	-10.6945
???????????????	-10.6947
???????????????	-10.6948
???????????????????????????	-10.6949
??????????????????	-10.6951
??????????????????	-10.6952
??????????????????	-10.6954
????????????	-10.6954
??????????????????	-10.6958
????????????????????????	-10.6961
?????????????????????	-10.6961
????????????????????????	-10.6963
???????????????	-10.6963
?????????????????????	-10.6963
?????????????????????	-10.6963
???????????????	-10.6965
???E	-10.6966
??????????????????	-10.6967
???????????????	-10.6967
???????????????	-10.6967
???numbers	-10.6967
???????????????????????????	-10.6967
????????????????????????????????????	-10.6967
??????????????????????????????	-10.6967
??????????????????	-10.6967
?????????????????????????????????????????????	-10.6967
????????????????????????	-10.6967
??????????????????	-10.6967
??????????????????????????????	-10.6967
????????????????????????	-10.6967
???????????????????????????	-10.6967
?????????????????????	-10.6967
??????????????????????????????	-10.6967
??????????????????	-10.6967
???????????????????????????	-10.6967
?????????????????????	-10.6967
?????????????????????????????????	-10.6967
????????????????????????	-10.6967
????????????????????????	-10.6967
??????????????????????????????	-10.6967
????????????????????????	-10.6967
??????????????????????????????????????????	-10.6967
??????????????????	-10.6967
?????????????????????	-10.6967
???????????????????????????	-10.6967
?????????????????????	-10.6967
???????????????????????????	-10.6967
????????????????????????	-10.6967
?????????????????????	-10.6967
?????????????????????	-10.6967
?????????????????????	-10.6967
???????????????????????????	-10.6967
??????????????????	-10.6967
??????????????????????????????????????????	-10.6967
????????????????????????	-10.6967
???????????????	-10.6967
????????????????????????	-10.6967
??????????????????????????????	-10.6967
?????????????????????	-10.6967
????????????????????????	-10.6967
????????????????????????	-10.6967
??????????????????????????????	-10.6967
??????????????????????????????	-10.6967
?????????????????????????????????	-10.6967
??????????????????????????????	-10.6967
??????????????????	-10.6967
?????????????????????	-10.6967
???United	-10.6967
???????????????????????????	-10.6967
?????????????????????	-10.6967
??????????????????????????????	-10.6967
?????????????????????	-10.6967
????????????????????????????????????	-10.6967
????????????	-10.6967
??????????????????	-10.6967
????????????????????????	-10.6967
???????????????????????????	-10.6967
??????????????????????????????	-10.6967
???Education	-10.6967
????????????????????????	-10.6967
???????????????	-10.6967
????????????????????????????????????	-10.6967
???????????????????????????	-10.6967
_	-10.6967
????????????????????????	-10.6967
?????????????????????	-10.6967
??????????????????????????????	-10.6967
??????????????????	-10.6967
????????????????????????????????????	-10.6967
?????????????????????	-10.6968
???????????????	-10.6968
??????????????????	-10.6968
?????????????????????????????????	-10.6968
??????????????????	-10.6968
???????????????	-10.6968
??????????????????	-10.6968
?????????????????????	-10.6968
??????????????????	-10.6968
??????????????????	-10.6968
????????????????????????	-10.6968
???????????????????????????	-10.6968
?????????????????????	-10.6968
???????????????????????????????????????	-10.6968
???????????????????????????	-10.6968
???????????????????????????	-10.6968
??????????????????	-10.6968
???????????????	-10.6968
????????????????????????????????????	-10.6968
???????????????????????????	-10.6968
?????????????????????	-10.6968
???????????????????????????	-10.6968
????????????????????????	-10.6968
???????????????	-10.6968
????????????????????????	-10.6968
???????????????????????????	-10.6968
??????????????????	-10.6968
px	-10.6968
????????????????????????????????????	-10.6968
???????????????	-10.6968
????????????????????????	-10.6968
???????????????	-10.6968
???????????????	-10.6968
???????????????	-10.6968
????????????????????????	-10.6968
??????????????????	-10.6968
????????????????????????	-10.6968
?????????????????????	-10.6968
???[1	-10.6968
?????????????????????????????????	-10.6968
????????????????????????	-10.6968
??????????????????	-10.6968
??????????????????	-10.6968
??????????????????	-10.6968
????????????????????????	-10.6969
?????????????????????	-10.6969
????????????????????????	-10.6969
???????????????????????????	-10.6969
???site	-10.6969
????????????????????????	-10.6969
?????????????????????	-10.6969
???????????????	-10.6969
??????????????????	-10.6969
????????????????????????	-10.6969
????????????????????????	-10.6969
??????????????????????????????	-10.6969
?????????????????????	-10.6969
????????????	-10.6969
???????????????	-10.6969
?????????????????????	-10.6969
???????????????	-10.6969
????????????	-10.6969
??????????????????	-10.6969
?????????????????????	-10.697
???????????????????????????	-10.697
??????????????????????????????	-10.697
??????????????????	-10.697
???????????????	-10.697
]]	-10.697
??????????????????	-10.697
???????????????	-10.697
???????????????	-10.697
???????????????	-10.697
???????????????	-10.6971
????????????	-10.6971
????????????????????????	-10.6971
????????????????????????	-10.6971
???????????????	-10.6971
????????????????????????	-10.6971
??????????????????????????????	-10.6971
???????????????	-10.6971
??????????????????	-10.6971
???????????????	-10.6971
????????????	-10.6971
???????????????	-10.6971
??????????????????	-10.6971
?????????	-10.6972
??????????????????	-10.6972
?????????????????????	-10.6972
???????????????????????????	-10.6972
?????????????????????????????????	-10.6972
???????????????	-10.6972
????????????????????????	-10.6972
???????????????	-10.6972
??????????????????	-10.6973
??????????????????	-10.6973
???????????????????????????	-10.6973
?????????????????????????????????	-10.6973
???????????????	-10.6973
?????????????????????	-10.6973
????????????????????????	-10.6973
????????????????????????	-10.6973
???????????????????????????	-10.6973
????????????	-10.6973
???????????????????????????	-10.6973
???????????????	-10.6973
????????????????????????	-10.6973
?????????????????????	-10.6973
????????????????????????	-10.6973
??????????????????	-10.6973
???????????????????????????	-10.6973
???????????????	-10.6973
??????????????????????????????	-10.6973
????????????????????????	-10.6973
???????????????	-10.6973
???????????????	-10.6974
???????????????	-10.6974
????????????????????????	-10.6974
??????????????????????????????	-10.6974
???????????????	-10.6974
????????????????????????	-10.6974
???di	-10.6975
???????????????	-10.6975
???????????????	-10.6976
??????????????????	-10.6976
?????????????????????	-10.6976
???????????????	-10.6976
???????????????	-10.6976
????????????	-10.6976
??????????????????????????????	-10.6977
???????????????	-10.6977
????????????	-10.6977
???????????????	-10.6978
???????????????	-10.6978
???????????????????????????	-10.6978
???????????????????????????	-10.6978
???????????????	-10.6979
????????????????????????	-10.6979
????????????	-10.6979
?????????????????????	-10.6981
????????????	-10.6981
??????????????????	-10.6982
??????????????????	-10.6982
????????????????????????	-10.6982
??????????????????	-10.6982
????????????	-10.6982
?????????????????????	-10.6982
????????????????????????	-10.6982
????????????????????????	-10.6982
?????????????????????????????????	-10.6982
???????????????	-10.6982
???????????????	-10.6983
???????????????	-10.6984
???????????????	-10.6986
??????????????????????????????	-10.6987
????????????	-10.6987
???????????????????????????	-10.6987
?????????????????????	-10.6988
???????????????	-10.6988
????????????????????????????????????	-10.6988
???????????????	-10.6988
????????????????????????	-10.6989
?????????????????????????????????	-10.6989
???????????????	-10.6989
????????????????????????	-10.6989
???????????????	-10.699
?????????????????????	-10.699
????????????	-10.699
??????????????????	-10.6991
??????????????????	-10.6991
?????????????????????	-10.6992
???????????????	-10.6992
???????????????????????????????????????	-10.6993
?????????????????????????????????????????????	-10.6993
?????????	-10.6993
???????????????	-10.6994
????????????????????????	-10.6994
?????????????????????????????????	-10.6994
??????????????????	-10.6994
????????????????????????????????????	-10.6995
??????????????????	-10.6997
???????????????????????????	-10.6998
?????????????????????	-10.7
??????????????????	-10.7
?????????????????????	-10.7
?????????????????????	-10.7002
?????????????????????	-10.7004
?????????????????????	-10.7004
???????????????????????????	-10.7004
????????????????????????????????????	-10.7004
?????????	-10.7005
??????????????????	-10.7006
??????????????????	-10.7007
?????????????????????????????????	-10.7008
???????????????????????????	-10.7008
?????????????????????????????????	-10.7008
??????????????????	-10.7009
??????????????????	-10.7009
???????????????	-10.701
????????????????????????	-10.7012
??????????????????	-10.7012
?????????	-10.7013
???????????????	-10.7013
?????????????????????	-10.7014
?????????????????????	-10.7016
?????????????????????	-10.7016
????????????	-10.702
??????????????????	-10.7021
??????????????????	-10.7021
????????????	-10.7023
???????????????	-10.7024
?????????????????????	-10.7025
????????????????????????	-10.7026
??????	-10.7027
??????????????????	-10.7029
??????????????????????????????	-10.7029
g	-10.703
?????????????????????	-10.7031
??????????????????????????????	-10.7031
??????????????????????????????	-10.7031
???????????????	-10.7032
???????????????	-10.7034
????????????	-10.7034
????????????	-10.7035
?????????	-10.7035
????????????????????????	-10.7036
????????????????????????	-10.7036
???????????????????????????????????????	-10.7038
???????????????????????????	-10.7039
???O	-10.7039
????????????????????????	-10.704
??????	-10.704
???????????????????????????????????????	-10.7041
?????????????????????????????????	-10.7042
?????????????????????????????????	-10.7043
?????????????????????	-10.7047
????????????????????????	-10.7048
?????????????????????????????????	-10.7051
???????????????????????????	-10.7052
???????????????????????????	-10.7054
?????????????????????????????????	-10.7054
????????????	-10.7059
??????????????????????????????	-10.7059
??????????????????	-10.7061
???????????????	-10.7069
???????????????????????????	-10.7069
??????????????????	-10.7071
???????????????	-10.7072
?????????????????????????????????	-10.7073
???????????????	-10.7073
???????????????	-10.7075
?????????	-10.7078
???????????????????????????	-10.7079
????????????	-10.7079
??????????????????	-10.7088
???????????????	-10.7088
?????????????????????	-10.709
??????????????????	-10.7095
???????????????	-10.7097
?????????????????????	-10.7097
???????????????????????????	-10.7097
???????????????	-10.71
???????????????????????????????????????	-10.7102
??????	-10.7102
?????????????????????????????????	-10.7103
???????????????????????????	-10.7105
????????????????????????	-10.7106
??????	-10.7109
????????????	-10.7111
???????????????	-10.7111
???????????????????????????	-10.7112
?????????????????????	-10.7115
??????????????????	-10.7118
?????????????????????????????????	-10.7122
???????????????	-10.7123
????????????	-10.7123
???????????????????????????	-10.7126
??????	-10.7126
?????????????????????????????????	-10.7126
?????????????????????	-10.7129
????????????	-10.713
?????????????????????	-10.713
?????????????????????????????????????????????	-10.7132
???????????????????????????	-10.7133
???????????????	-10.7137
??????????????????	-10.7137
??????????????????????????????	-10.7138
??????????????????????????????	-10.7141
?????????????????????????????????	-10.7141
??????????????????	-10.7142
?????????????????????	-10.7142
?????????????????????	-10.7145
?????????	-10.7147
?????????????????????????????????	-10.7149
????????????????????????	-10.7149
????????????	-10.7156
??????	-10.7156
?????????????????????????????????	-10.7156
???????????????????????????	-10.7163
?????????	-10.7164
???????????????	-10.7165
?????????	-10.7169
??????	-10.7177
????????????????????????	-10.7181
???????????????????????????	-10.7183
?????	-10.7186
?????????????????????	-10.7186
?????????????????????????????????	-10.7194
??????????????????	-10.7196
????????????????????????	-10.7197
??????	-10.72
??????????????????	-10.7201
?????????	-10.7212
????????????	-10.7213
???????????????	-10.7213
?????????????????????	-10.7215
????????????	-10.7218
??????????????????	-10.7223
??????????????????	-10.7225
????????????	-10.7225
?????????????????????	-10.7228
????????????????????????????????????	-10.723
???????????????????????????	-10.7237
?????????????????????????????????	-10.7238
?????????	-10.7239
?????????????????????	-10.724
????????????	-10.7242
?????????????????????	-10.7243
????????????	-10.7246
???????????????????????????	-10.7246
?????????????????????	-10.7246
???????????????????????????	-10.7258
???????????????????????????	-10.7263
?????????????????????	-10.7275
????????????	-10.728
??????????????????????????????	-10.7284
?????????	-10.7287
????????????????????????	-10.7288
???????????????	-10.7291
...	-10.7297
????????????????????????	-10.7299
??????	-10.7301
?????????????????????	-10.7302
?????????????????????	-10.7302
?????????	-10.7308
????????????????????????????????????	-10.7312
????????????	-10.7313
??????????????????	-10.7315
?????????????????????	-10.7315
?????????	-10.7316
???????????????	-10.732
???????????????????????????	-10.7323
??????	-10.7323
?????????????????????????????????	-10.7324
????????????????????????	-10.7324
????????????????????????????????????	-10.733
??????	-10.7335
?????????????????????	-10.7336
??????????????????	-10.7339
????????????	-10.7344
????????????	-10.7344
??????????????????	-10.7348
??????	-10.7355
?????????????????????	-10.7358
?????????????????????	-10.7361
???????????????????????????	-10.7374
????????????????????????????????????	-10.7382
????????????????????????	-10.7383
??????????????????	-10.7385
?????????????????????????????????	-10.7392
????????????????????????	-10.7395
??????????????????	-10.7395
??????????????????	-10.7396
??????	-10.74
???????????????????????????	-10.74
?????????????????????	-10.7406
??????????????????	-10.7409
?????????	-10.7409
???????????????	-10.7411
?????????	-10.7415
??????????????????	-10.7418
???????????????????????????	-10.7422
??????????????????	-10.7425
?????????????????????	-10.7428
??????????????????	-10.743
?????????????????????	-10.7437
???????????????????????????	-10.7452
?????????????????????	-10.746
??????	-10.747
?????????	-10.7477
??????????????????	-10.7483
?????????	-10.7485
????????????????????????????????????	-10.7486
????????????	-10.7496
???????????????????????????	-10.7499
???????????????????????????	-10.7518
??????????????????	-10.7523
?????????????????????	-10.7541
?????????	-10.7543
????????????	-10.7547
?????????????????????	-10.7551
?????????	-10.7554
??????????????????????????????	-10.7557
???????????????????????????	-10.756
????????????????????????	-10.7568
??????	-10.7574
??????????????????	-10.7585
?????????	-10.7592
?????????????????????	-10.7595
?????????	-10.7597
?????????	-10.76
????????????	-10.761
???????????????	-10.7615
???????????????	-10.764
?????????????????????	-10.7645
?????????	-10.7646
?????????????????????	-10.7686
??????????????????	-10.769
????????????	-10.7691
????????????????????????	-10.7693
??????????????????????????????	-10.7694
????????????	-10.7694
???????????????????????????	-10.7697
?????????	-10.7711
?????????	-10.7712
????????????	-10.7727
????????????????????????????????????	-10.7729
??????	-10.7733
????????????	-10.7735
?????????	-10.7737
???????????????	-10.7747
???????????????	-10.7752
????????????	-10.7764
??????	-10.7765
????????????	-10.7778
?????????	-10.7779
????????????????????????	-10.7787
?????????????????????	-10.7788
??????????????????	-10.7789
????????????	-10.7792
??????????????????????????????	-10.7794
?????????	-10.7795
?????????????????????	-10.7797
????????????	-10.7805
??????????????????????????????	-10.7807
?????????????????????????????????	-10.7812
??????	-10.7822
?????????	-10.7827
??????	-10.7831
AS	-10.7836
???????????????????????????	-10.7839
?????????	-10.784
??????????????????????????????	-10.7841
?????????	-10.7841
????????????	-10.7857
?????????	-10.7864
????????????	-10.7875
???????????????????????????	-10.7877
?????????????????????	-10.7877
?????????????????????	-10.7881
???????????????	-10.7892
???????????????	-10.7893
???????????????????????????????????????	-10.7897
????????????????????????	-10.7899
???????????????	-10.7905
????????????	-10.7912
??????	-10.7912
???????????????	-10.7914
???????????????????????????????????????	-10.7931
??????	-10.7944
???h	-10.7961
???????????????	-10.7965
?????????????????????	-10.7971
?????????????????????	-10.7984
??????????????????????????????	-10.7988
????????????	-10.7989
???(;	-10.8014
???????????????	-10.8048
?????????	-10.8052
???????????????	-10.8065
??????????????????????????????	-10.807
?????????	-10.8073
??????????????????????????????????????????	-10.8074
??????????????????	-10.8077
????????????	-10.8078
???????????????	-10.8083
??????????????????????????????	-10.8085
???????????????	-10.8087
?????????????????????????????????????????????	-10.8095
????????????????????????	-10.8107
??????	-10.8112
????????????	-10.8115
??????	-10.812
?????????	-10.8125
?????????	-10.8126
??????	-10.8127
?????????????????????	-10.814
?????????????????????	-10.8143
???????????????	-10.8144
????????????	-10.8145
??????????????????	-10.8147
??????	-10.8149
???????????????	-10.8159
?????????	-10.816
??????	-10.8163
?????????	-10.8165
????????????	-10.817
?????????	-10.8181
????????????????????????	-10.8202
???????????????	-10.8204
?????????	-10.8205
??????	-10.8222
el	-10.8226
???????????????	-10.8228
?????????????????????	-10.8228
??????????????????	-10.8234
????????????????????????	-10.8236
??????????????????????????????	-10.8236
???????????????	-10.8239
?????????	-10.8259
??????	-10.826
???????????????????????????	-10.8261
????????????????????????	-10.8266
?????????	-10.828
????????????	-10.8288
????????????	-10.8289
??????	-10.8292
????????????	-10.8293
????????????	-10.8307
?????????	-10.832
en	-10.8322
??????????????????????????????	-10.8332
?????????	-10.8353
??????	-10.8355
??????????????????????????????	-10.8387
?????????	-10.8388
???????????????	-10.8404
????????????????????????	-10.8406
???????????????	-10.8408
?????????	-10.8409
???????????????	-10.841
???????????????	-10.8411
???????????????	-10.8417
?????????????????????	-10.8423
?????????	-10.8425
????????????	-10.8428
???????????????	-10.8436
???????????????????????????	-10.8448
???????????????	-10.8456
?????????????????????	-10.8457
????????????	-10.8457
????????????????????????	-10.8459
???????????????	-10.8464
????????????????????????	-10.8468
??????????????????	-10.8472
????????????	-10.8472
??????????????????	-10.8478
????????????	-10.8481
?????????	-10.8485
????????????	-10.8486
???????????????????????????	-10.8489
???????????????	-10.849
?????????????????????	-10.849
???????????????????????????	-10.849
???????????????	-10.8494
??????????????????	-10.8495
??????????????????????????????	-10.8497
???????????????????????????	-10.8503
????????????????????????	-10.8503
????????????????????????	-10.8503
????????????	-10.8506
??????????????????	-10.8506
???????????????????????????	-10.8507
?????????????????????????????????	-10.8508
?????????????????????	-10.8509
?????????????????????????????????	-10.8513
????????????	-10.8514
??????????????????	-10.8515
????????????	-10.8516
???????????????	-10.8517
???????????????	-10.8517
?????????	-10.8518
?????????????????????	-10.8518
??????????????????????????????	-10.8519
????????????????????????	-10.8528
?????????	-10.8529
????????????	-10.8533
??????	-10.8533
???????????????	-10.8536
?????????????????????	-10.8538
um	-10.8543
???????????????	-10.8543
??????????????????	-10.8547
??????????????????	-10.8548
???????????????	-10.8549
?????????????????????	-10.8551
??????????????????????????????	-10.8551
???????????????	-10.8552
?????????	-10.8556
????????????	-10.8557
??????	-10.8558
?????????????????????	-10.856
bo	-10.856
??????	-10.856
???????????????????????????	-10.8562
???????????????	-10.8562
??????????????????	-10.8566
????????????	-10.8567
?????????????????????	-10.8568
N	-10.857
??????????????????	-10.8571
????????????	-10.8571
???b	-10.8573
?????????	-10.8574
??????????????????	-10.8575
???????????????	-10.8575
???????????????	-10.8576
??????????????????	-10.8576
???????????????????????????	-10.8576
???????????????	-10.8577
????????????	-10.8577
??????????????????	-10.8577
???????????????	-10.8577
???????????????	-10.8577
??????????????????	-10.8578
??????????????????????????????	-10.8578
???????????????	-10.8578
<	-10.8578
??????????????????	-10.8578
????????????	-10.8578
????????????	-10.858
???????????????	-10.858
????????????	-10.858
????????????	-10.858
????????????	-10.8583
????????????	-10.8584
?????????	-10.8585
??????????????????	-10.8585
????????????	-10.8585
????????????????????????	-10.8585
????????????	-10.8586
????????????	-10.8587
?????????????????????	-10.8587
????????????????????????	-10.8587
??????????????????	-10.8589
???????????????	-10.8589
??????	-10.859
??????????????????????????????	-10.8591
????????????	-10.8593
???????????????	-10.8593
???????????????????????????	-10.8593
???????????????????????????	-10.8594
????????????	-10.8594
???????????????????????????	-10.8595
????????????????????????	-10.8595
????????????	-10.8595
???????????????	-10.8596
???????????????	-10.8597
?????????????????????	-10.8599
??????	-10.86
?????????	-10.86
?????????	-10.86
????????????	-10.8605
?????????	-10.8609
????????????????????????	-10.8613
?????????????????????	-10.8614
???????????????	-10.8616
???????????????	-10.8616
??????????????????	-10.8618
?????????	-10.8618
?????????????????????????????????	-10.862
????????????	-10.8621
?????????????????????	-10.8622
???????????????????????????	-10.8623
?????????????????????	-10.8624
????????????	-10.8624
???????????????	-10.8624
??????????????????	-10.8624
????????????	-10.8627
?????????	-10.8627
??????????????????	-10.8628
????????????	-10.8629
??????????????????	-10.863
?????????	-10.863
????????????????????????	-10.8631
?????????????????????	-10.8631
?????????????????????	-10.8631
????????????	-10.8631
??????????????????	-10.8632
????????????	-10.8632
x	-10.8632
??????????????????	-10.8632
??????????????????	-10.8633
??????????????????	-10.8633
?????????????????????	-10.8634
???????????????	-10.8634
????????????????????????	-10.8634
????????????????????????	-10.8634
?????????????????????	-10.8634
??????????????????	-10.8634
????????????	-10.8634
???International	-10.8634
???Mathematics	-10.8634
???people	-10.8634
???????????????????????????	-10.8634
????????????????????????	-10.8634
????????????????????????????????????	-10.8634
?????????????????????	-10.8634
??????????????????	-10.8634
???????????????????????????	-10.8634
????????????????????????	-10.8634
????????????????????????	-10.8634
???????????????????????????	-10.8634
?????????????????????	-10.8634
?????????????????????	-10.8634
?????????????????????	-10.8634
????????????????????????	-10.8634
??????????????????	-10.8634
??????????????????????????????	-10.8634
????????????????????????	-10.8634
?????????????????????????????????	-10.8634
??????????????????	-10.8634
???????????????????????????	-10.8634
???????????????	-10.8634
??????????????????????????????	-10.8634
??????????????????	-10.8634
??????????????????????????????	-10.8634
???????????????????????????	-10.8634
??????????????????????????????	-10.8634
????????????????????????	-10.8634
??????????????????????????????	-10.8634
??????????????????????????????	-10.8634
??????????????????????????????	-10.8634
???????????????????????????	-10.8634
????????????????????????????????????	-10.8634
??????????????????????????????	-10.8634
???????????????????????????	-10.8634
????????????????????????	-10.8634
????????????????????????????????????	-10.8634
???????????????????????????	-10.8634
?????????????????????	-10.8634
???????????????????????????	-10.8634
?????????????????????	-10.8634
????????????????????????????????????	-10.8634
????????????????????????	-10.8634
????????????????????????	-10.8634
????????????????????????	-10.8634
??????????????????	-10.8634
???????????????	-10.8634
??????????????????	-10.8634
????????????????????????	-10.8634
???????????????	-10.8634
???????????????????????????	-10.8634
????????????????????????	-10.8634
????????????????????????	-10.8634
???????????????????????????	-10.8634
????????????????????????	-10.8634
???????????????????????????????????????	-10.8634
???????????????????????????	-10.8634
??????????????????	-10.8634
??????????????????????????????	-10.8634
?????????????????????	-10.8634
??????????????????	-10.8634
??????????????????	-10.8634
???????????????	-10.8634
???????????????	-10.8634
?????????????????????	-10.8634
????????????????????????	-10.8634
???	-10.8634
????????????	-10.8634
??????????????????	-10.8634
??????????????????	-10.8634
?????????????????????	-10.8634
??????????????????????????????	-10.8634
?????????????????????	-10.8634
??????????????????????????????	-10.8634
?????????????????????????????????	-10.8634
???????????????????????????	-10.8634
????????????????????????	-10.8634
????????????????????????	-10.8634
?????????????????????????????????	-10.8634
???????????????????????????????????????	-10.8634
???????????????	-10.8634
???????????????????????????	-10.8634
???????????????	-10.8634
?????????????????????????????????	-10.8634
??????????????????	-10.8634
??????????????????	-10.8634
???Asen	-10.8634
??????????????????	-10.8634
??????????????????????????????	-10.8634
?????????????????????	-10.8634
??????????????????????????????	-10.8634
?????????????????????	-10.8634
??????????????????	-10.8634
???????????????????????????	-10.8634
?????????????????????	-10.8634
????????????	-10.8634
???????????????????????????	-10.8634
?????????????????????	-10.8634
??????????????????	-10.8634
??????????????????	-10.8634
?????????????????????	-10.8634
???????????????????????????	-10.8634
?????????????????????	-10.8634
?????????????????????	-10.8634
?????????????????????	-10.8634
???????????????????????????????????????	-10.8634
??????????????????	-10.8634
??????????????????	-10.8634
???Nations	-10.8635
??????????????????	-10.8635
??????????????????	-10.8635
???????????????????????????	-10.8635
???????????????	-10.8635
???????????????????????????	-10.8635
???????????????????????????	-10.8635
?????????????????????????????????	-10.8635
?????????????????????	-10.8635
?????????????????????	-10.8635
???????????????	-10.8635
???????????????	-10.8635
?????????????????????	-10.8635
?????????????????????	-10.8635
??????????????????	-10.8635
?????????????????????????????????	-10.8635
?????????????????????	-10.8635
????????????	-10.8635
???????????????	-10.8635
???????????????	-10.8635
?????????????????????	-10.8635
????????????????????????	-10.8635
??????????????????	-10.8635
??????????????????	-10.8635
????????????????????????????????????	-10.8635
??????????????????	-10.8635
???????????????	-10.8635
???????????????	-10.8635
???????????????	-10.8635
?????????????????????????????????	-10.8635
???[4	-10.8635
?????????????????????	-10.8635
??????????????????	-10.8635
?????????????????????	-10.8635
?????????????????????????????????????????????	-10.8635
??????????????????	-10.8635
???????????????????????????	-10.8636
?????????????????????	-10.8636
???????????????	-10.8636
??????????????????????????????	-10.8636
???????????????	-10.8636
??????????????????	-10.8636
??????????????????	-10.8636
??????????????????????????????	-10.8636
?????????????????????	-10.8636
????????????????????????	-10.8636
?????????????????????????????????	-10.8636
???????????????????????????	-10.8636
???????????????????????????	-10.8636
??????????????????	-10.8636
???????????????	-10.8636
???????????????????????????	-10.8636
???????????????????????????	-10.8636
??????????????????	-10.8636
???????????????????????????	-10.8636
??????????????????	-10.8636
????????????????????????	-10.8636
???????????????	-10.8636
??????????????????	-10.8636
??????????????????	-10.8636
??????????????????	-10.8636
???????????????	-10.8636
??????????????????	-10.8636
?????????????????????	-10.8637
???????????????	-10.8637
???????????????	-10.8637
?????????????????????	-10.8637
??????????????????	-10.8637
????????????	-10.8637
?????????????????????	-10.8637
??????????????????????????????	-10.8637
???????????????	-10.8637
??????????????????	-10.8637
????????????????????????	-10.8637
????????????	-10.8637
???????????????	-10.8637
?????????????????????	-10.8637
????????????????????????????????????	-10.8637
???????????????????????????	-10.8638
?????????????????????????????????	-10.8638
??????????????????	-10.8638
??????????????????	-10.8638
?????????????????????	-10.8638
???????????????????????????	-10.8638
???????????????????????????	-10.8638
?????????????????????	-10.8638
ers	-10.8638
?????????????????????	-10.8638
????????????????????????	-10.8639
?????????????????????	-10.8639
????????????????????????????????????	-10.8639
???????????????	-10.8639
???????????????	-10.8639
?????????????????????	-10.8639
??????????????????????????????	-10.8639
????????????	-10.8639
???????????????????????????	-10.8639
????????????????????????	-10.864
????????????	-10.864
??????????????????	-10.864
?????????????????????	-10.864
????????????????????????	-10.864
???????????????	-10.864
?????????????????????	-10.864
??????????????????????????????	-10.864
??????????????????	-10.864
????????????????????????	-10.864
??????????????????	-10.864
????????????????????????	-10.864
?????????????????????	-10.864
???????????????????????????	-10.864
??????????????????????????????	-10.864
????????????????????????	-10.864
???????????????????????????	-10.864
??????????????????	-10.864
????????????????????????????????????	-10.864
??????????????????????????????	-10.864
???????????????	-10.864
???????????????	-10.864
??????????????????	-10.864
???UN	-10.864
??????????????????????????????	-10.864
???theorems	-10.864
?????????????????????	-10.864
???????????????	-10.864
??????????????????	-10.864
??????????????????	-10.864
???????????????	-10.864
?????????????????????	-10.8641
?????????????????????	-10.8641
???????????????????????????	-10.8641
???????????????	-10.8641
??????????????????	-10.8641
???????????????	-10.8641
??????????????????	-10.8641
??????????????????????????????	-10.8641
?????????????????????????????????	-10.8641
????????????	-10.8641
???????????????	-10.8641
???????????????????????????	-10.8641
?????????????????????	-10.8642
????????????????????????	-10.8642
???????????????	-10.8642
???????????????	-10.8642
???????????????	-10.8642
?????????????????????	-10.8642
????????????????????????	-10.8642
??????????????????	-10.8642
???????????????????????????	-10.8642
???????????????	-10.8642
????????????	-10.8643
?????????????????????	-10.8643
???????????????	-10.8643
???????????????	-10.8643
??????????????????	-10.8643
???????????????	-10.8643
???????????????	-10.8644
?????????????????????	-10.8644
?????????????????????	-10.8644
???are	-10.8644
???????????????	-10.8644
???????????????	-10.8644
???????????????????????????	-10.8645
????????????	-10.8645
???????????????????????????	-10.8645
???????????????	-10.8645
??????????????????	-10.8645
??????	-10.8645
????????????????????????	-10.8646
?????????	-10.8646
????????????????????????	-10.8646
???????????????	-10.8647
????????????????????????	-10.8647
????????????????????????	-10.8648
???????????????	-10.8648
?????????????????????	-10.8648
???????????????	-10.8648
???????????????	-10.8648
?????????????????????	-10.8648
??????????????????????????????	-10.8648
?????????????????????	-10.8649
?????????????????????	-10.865
???????????????	-10.8651
?????????????????????	-10.8651
?????????????????????	-10.8651
??????????????????	-10.8651
?????????????????????	-10.8651
????????????	-10.8651
???????????????????????????	-10.8651
?????????????????????	-10.8651
?????????????????????	-10.8652
???????????????	-10.8653
????????????????????????	-10.8653
?????????????????????	-10.8653
????????????????????????	-10.8653
??????????????????	-10.8654
????????????????????????	-10.8655
??????????????????????????????	-10.8656
??????????????????????????????	-10.8657
???????????????	-10.8657
???????????????????????????????????????	-10.8658
????????????????????????????????????	-10.8659
??????????????????	-10.8659
????????????	-10.8659
?????????????????????????????????	-10.866
????????????	-10.866
?????????????????????	-10.866
?????????????????????	-10.866
???????????????	-10.866
???????????????	-10.8661
??????????????????	-10.8661
????????????????????????	-10.8661
?????????????????????	-10.8662
????????????????????????	-10.8662
????????????	-10.8662
??????????????????	-10.8662
??????????????????	-10.8663
???????????????	-10.8663
??????????????????	-10.8664
???????????????	-10.8664
???????????????	-10.8665
???????????????	-10.8666
??????????????????	-10.8666
????????????????????????	-10.8666
??????????????????	-10.8666
????????????????????????????????????????????????	-10.8667
?????????????????????????????????	-10.8669
????????????????????????	-10.8669
??????????????????	-10.867
????????????????????????	-10.867
??????????????????????????????	-10.8671
????????????	-10.8672
??????	-10.8672
??????????????????????????????????????????	-10.8672
??????????????????	-10.8672
???????????????	-10.8674
???????????????	-10.8675
???????????????	-10.8678
???????????????	-10.8678
?????????????????????	-10.8679
?????????????????????????????????	-10.868
?????????	-10.8682
????????????????????????????????????	-10.8682
????????????	-10.8683
???????????????	-10.8684
?????????????????????	-10.8686
??????????????????????????????	-10.8688
???????????????????????????????????????	-10.869
??????????????????	-10.8691
??????	-10.8693
????????????????????????	-10.8696
???????????????????????????	-10.8696
??????????????????????????????	-10.8696
????????????	-10.8698
???????????????	-10.8698
????????????	-10.8698
???????????????	-10.87
??????????????????	-10.8702
????????????????????????	-10.8702
?????????	-10.8703
??????	-10.8703
????????????	-10.8705
???????????????	-10.871
?????????????????????	-10.8711
??????????????????	-10.8713
????????????????????????	-10.8717
????????????	-10.8719
??????????????????????????????	-10.872
????????????	-10.8722
??????????????????	-10.8724
???????????????	-10.8726
???????????????	-10.8728
???????????????????????????	-10.8729
????????????????????????	-10.8729
???????????????????????????	-10.873
???????????????	-10.873
??????????????????	-10.8731
????????????	-10.8732
???????????????	-10.8733
?????????????????????	-10.8734
??????????????????	-10.8734
????????????????????????????????????	-10.8735
???????????????????????????	-10.874
?????????????????????	-10.8741
???????????????	-10.8743
????????????	-10.8744
????????????	-10.8748
???????????????	-10.875
??????	-10.8751
????????????????????????	-10.8753
???l	-10.8756
????????????????????????	-10.8756
????????????	-10.8758
???????????????????????????	-10.876
????????????	-10.876
???????????????????????????	-10.8762
??????	-10.8763
????????????????????????	-10.8763
??????????????????	-10.8766
????????????	-10.8766
????????????	-10.8767
?????????????????????????????????	-10.8769
?????????????????????	-10.8773
?????????????????????	-10.8775
???????????????????????????	-10.8777
????????????????????????	-10.8777
????????????????????????	-10.8778
?????????????????????????????????	-10.878
????????????	-10.8781
????????????	-10.8783
??????????????????	-10.8784
???????????????	-10.8784
????????????????????????	-10.8785
???????????????	-10.8786
??????????????????	-10.879
???????????????	-10.8791
?????????????????????	-10.8792
???('	-10.8793
?????????????????????????????????	-10.8794
????????????????????????	-10.8796
????????????????????????????????????	-10.8798
???????????????????????????	-10.8801
?????????	-10.8802
??????????????????????????????	-10.8805
??????????????????????????????	-10.8807
?????????????????????	-10.8809
?????????????????????	-10.8811
???????????????????????????	-10.8814
???????????????????????????	-10.8819
?????????	-10.882
??????????????????	-10.882
????????????????????????	-10.8822
?????????????????????	-10.8825
???????????????	-10.8826
??????????????????????????????	-10.883
??????	-10.8831
???????????????	-10.8835
????????????????????????????????????	-10.8835
?????????	-10.8836
?????????	-10.8839
???????????????	-10.884
???????????????????????????	-10.8844
?????????????????????????????????	-10.8844
?????????????????????	-10.8844
????????????	-10.8845
????????????????????????	-10.8846
?????????	-10.8846
????????????	-10.8847
??????????????????????????????	-10.8852
??????????????????	-10.8854
?????????????????????	-10.8856
??????????????????????????????	-10.8858
?????????????????????	-10.886
?????????????????????	-10.8862
??????????????????????????????	-10.8864
?????????????????????	-10.8865
??????????????????????????????	-10.8866
????????????????????????	-10.8867
?????????????????????	-10.8868
?????????	-10.8869
??????????????????	-10.887
?????????	-10.8878
?????????????????????	-10.8893
???????????????????????????	-10.8894
????????????????????????	-10.8896
?????????	-10.8904
?????????????????????????????????	-10.8906
??????????????????????????????	-10.8908
?????????	-10.8909
???????????????????????????	-10.891
??????????????????????????????	-10.8916
?????????????????????	-10.8918
???????????????	-10.8919
???????????????????????????	-10.8921
????????????????????????	-10.8922
??????????????????????????????	-10.8935
????????????	-10.8936
?????????????????????	-10.8941
????????????????????????????????????	-10.8943
????????????????????????	-10.8944
??????????????????	-10.8954
????????????	-10.8958
????????????????????????	-10.8958
????????????????????????	-10.8959
??????????????????	-10.8961
??????????????????	-10.8961
?????????????????????	-10.8964
????????????	-10.8967
????????????	-10.8968
??????????????????????????????	-10.897
?????????	-10.8976
????????????????????????	-10.8979
?????????????????????	-10.8983
??????	-10.8991
???????????????	-10.8991
?????????????????????????????????	-10.8995
????????????????????????????????????	-10.8995
???	-10.9001
????????????	-10.9002
????????????????????????	-10.9002
?????????????????????	-10.9006
???????????????????????????????????????	-10.9008
????????????	-10.9012
?????????????????????	-10.9015
")	-10.9018
????????????	-10.9019
????????????????????????	-10.9029
????????????	-10.903
?????????	-10.9031
??????????????????	-10.9036
????????????	-10.9037
?????????	-10.904
????????????????????????	-10.9043
??????	-10.9048
?????????????????????????????????	-10.9048
?????????????????????	-10.9049
??????????????????????????????	-10.9049
?????????????????????????????????	-10.905
?????????????????????????????????	-10.9051
???????????????????????????	-10.9063
????????????????????????????????????	-10.9067
??????????????????	-10.9072
?????????????????????????????????	-10.9075
??????????????????	-10.908
st	-10.9083
???????????????????????????	-10.9086
?????????	-10.9089
???????????????????????????	-10.9089
???????????????????????????	-10.9094
?????????	-10.9095
????????????	-10.9096
???????????????	-10.9101
??????????????????????????????	-10.9108
???????????????	-10.9116
?????????????????????????????????????????????	-10.9116
??????	-10.9117
?????????????????????	-10.9118
???????????????????????????	-10.9119
????????????	-10.9123
?????????????????????	-10.914
????????????????????????	-10.9152
????????????????????????	-10.9153
ity	-10.9156
??????????????????????????????	-10.9159
?????????	-10.916
????????????????????????	-10.9166
??????	-10.9174
????????????	-10.9177
??????????????????	-10.918
????????????????????????	-10.9181
???????????????????????????	-10.9184
????????????????????????????????????	-10.9186
???????????????	-10.9196
??????????????????????????????	-10.9205
????????????	-10.9205
?????????	-10.9209
????????????	-10.9219
?????????	-10.923
????????????	-10.9233
?????????	-10.9234
??????????????????????????????	-10.9238
????????????????????????	-10.924
?????????????????????????????????	-10.9252
???????????????????????????	-10.9252
??????????????????????????????????????????	-10.9256
????????????????????????	-10.9266
????????????	-10.9277
????????????	-10.9279
?????????	-10.9281
T	-10.9284
at	-10.929
??????????????????????????????	-10.9295
????????????	-10.9302
????????????	-10.9312
?????????????????????	-10.9316
????????????????????????	-10.9322
???????????????	-10.9323
??????????????????????????????	-10.9324
????????????????????????	-10.9332
????????????????????????????????????	-10.9337
?????????	-10.9341
??????????????????????????????????????????	-10.9341
????????????????????????	-10.9343
???????????????????????????	-10.9343
??????	-10.9351
??????	-10.9353
????????????	-10.9354
?????????????????????????????????	-10.9362
??????????????????????????????	-10.9366
re	-10.9372
????????????	-10.9378
?????????	-10.938
?????????	-10.9383
??????????????????	-10.9383
?????????	-10.9391
????????????	-10.9396
????????????	-10.9399
?????????????????????	-10.9401
??????????????????	-10.9408
????????????	-10.9417
?????????	-10.9421
????????????	-10.9425
??????????????????	-10.9435
???????????????	-10.9436
???????????????????????????	-10.9437
ate	-10.9437
?????????	-10.9438
?????????	-10.9438
?????????	-10.944
???????????????	-10.9442
????????????	-10.9443
??????????????????	-10.9448
???????????????????????????????????????	-10.9449
?????????????????????	-10.9449
?????????	-10.9452
?????????????????????	-10.9452
?????????	-10.9457
???N	-10.9461
????????????????????????	-10.9463
??????	-10.9465
????????????????????????	-10.9472
????????????????????????	-10.9473
?????????	-10.9484
????????????????????????	-10.9489
??????	-10.9511
?????????????????????????????????	-10.9511
???????????????????????????	-10.9542
??????????????????	-10.9545
?????????	-10.9545
????????????	-10.9548
?????????	-10.9556
???????????????????????????	-10.9561
?????????	-10.9566
????????????????????????	-10.9571
????????????????????????	-10.9577
?????????	-10.9578
?????????????????????	-10.9586
??????????????????	-10.9592
????????????	-10.9601
?????????	-10.9603
???????????????????????????	-10.9619
??????????????????	-10.962
??????????????????????????????	-10.9633
????????????	-10.9643
???????????????	-10.9643
ic	-10.9651
?????????????????????	-10.9652
???f	-10.966
?????????	-10.9665
???????????????	-10.9666
????????????	-10.9674
??????????????????????????????	-10.9674
?????????	-10.9686
??????????????????????????????	-10.9686
????????????????????????	-10.9697
???????????????	-10.9703
?????????	-10.9709
??????	-10.9712
?????????	-10.9714
????????????	-10.9724
R	-10.9735
???????????????	-10.9748
??????	-10.9752
???????????????	-10.9757
???????????????????????????	-10.9768
??????	-10.9787
???????????????	-10.9791
???????????????????????????	-10.9793
????????????	-10.9818
??????	-10.9825
????????????	-10.9826
????????????????????????	-10.9838
?????????	-10.9847
?????????	-10.985
?????????	-10.9884
?????????????????????????????????	-10.9888
????????????	-10.9889
?????????	-10.9902
??????????????????????????????	-10.9902
?????????	-10.9925
?????????????????????	-10.9934
????????????	-10.9936
te	-10.9947
????????????????????????	-10.9958
??????	-10.9962
?????????	-10.9977
W	-10.9982
???????????????	-10.9984
?????????	-11.0002
?????????????????????	-11.0015
???????????????	-11.0015
????????????	-11.0025
??????????????????????????????	-11.0027
?????????	-11.003
?????????????????????	-11.0031
?????????	-11.0032
??????	-11.0034
??????	-11.0039
?????????	-11.0042
??????????????????	-11.0048
?????????	-11.0063
???????????????????????????	-11.0067
??????	-11.0088
???????????????	-11.0096
????????????	-11.0099
9	-11.0117
??????????????????	-11.0144
????????????????????????	-11.0147
????????????????????????	-11.015
??????????????????	-11.0158
ve	-11.016
?????????	-11.0166
??????	-11.0173
???????????????	-11.0173
??????	-11.0174
???????????????????????????	-11.0176
?????????	-11.018
?????????	-11.0194
?????????	-11.0197
????????????????????????????????????	-11.0203
??????????????????	-11.0203
?????????	-11.0208
?????????	-11.0213
????????????????????????	-11.0221
???????????????	-11.0237
????????????	-11.0238
??????????????????????????????	-11.0256
?????????????????????	-11.0261
??????	-11.0274
????????????	-11.0282
????????????????????????	-11.0284
????????????	-11.0293
??????	-11.0293
????????????	-11.0295
????????????	-11.0301
???????????????????????????	-11.0305
???????????????	-11.0307
?????????	-11.0316
??????????????????????????????????????????	-11.0325
??????	-11.0334
??????	-11.0334
??????????????????????????????	-11.0353
???????????????????????????	-11.0367
??????	-11.0376
??????????????????????????????	-11.0382
????????????	-11.0385
??????????????????	-11.0389
????????????	-11.0403
????????????	-11.0406
?????????????????????????????????	-11.0406
????????????	-11.0407
?????????	-11.0411
???????????????????????????	-11.0418
???????????????	-11.0419
?????????	-11.0425
?????????	-11.0427
??????????????????	-11.0427
?????????	-11.0428
????????????????????????	-11.0436
???????????????????????????	-11.0437
????????????	-11.0444
U	-11.0447
???????????????	-11.046
??????????????????	-11.0466
4	-11.0473
???????????????	-11.0478
?????????????????????????????????	-11.0481
???((	-11.0488
??????????????????	-11.0488
??????????????????	-11.0489
??????????????????	-11.0489
????????????????????????	-11.0489
???????????????	-11.049
???????????????????????????	-11.0493
????????????	-11.0494
???????????????	-11.0495
????????????????????????	-11.0497
???????????????	-11.0499
???????????????	-11.0499
???????????????	-11.0502
??????????????????????????????	-11.0503
????????????	-11.0504
?????????	-11.0504
?????????	-11.0505
??????????????????????????????	-11.0505
??????????????????????????????????????????	-11.0507
??????????????????????????????	-11.0509
??????????????????	-11.0509
????????????????????????	-11.0509
?????????	-11.051
??????	-11.051
???????????????????????????	-11.0511
????????????	-11.0512
????????????	-11.0512
??????????????????	-11.0514
???????????????	-11.0515
??????????????????	-11.0516
????????????	-11.0517
?????????	-11.0519
?????????	-11.0524
?????????????????????	-11.0525
???????????????	-11.0527
????????????????????????	-11.0528
????????????	-11.0529
??????????????????	-11.0532
???????????????	-11.0534
??????????????????	-11.0539
????????????	-11.054
????????????????????????	-11.0543
??????	-11.0543
???????????????????????????	-11.0551
?????????????????????	-11.0551
??????????????????????????????	-11.0551
?????????????????????	-11.0552
???????????????	-11.0554
????????????	-11.0555
???????????????????????????	-11.0555
????????????	-11.0555
?????????	-11.0556
????????????	-11.0557
???????????????	-11.0558
??????????????????	-11.0559
??????????????????	-11.0559
???????????????????????????	-11.0559
?????????????????????	-11.0559
???????????????	-11.0559
??????????????????	-11.0562
????????????????????????	-11.0564
?????????????????????	-11.0565
???????????????	-11.0566
??????????????????	-11.0568
2	-11.0568
L	-11.057
???????????????	-11.057
?????????????????????	-11.057
????????????	-11.057
????????????????????????	-11.0571
?????????	-11.0571
???	-11.0572
??????????????????	-11.0573
G	-11.0574
????????????	-11.0574
???????????????	-11.0575
?????????	-11.0575
???????????????	-11.0575
??????????????????	-11.0576
????????????????????????	-11.0577
????????????	-11.0577
????????????	-11.0577
????????????????????????	-11.0577
???????????????	-11.0577
???????????????	-11.0577
?????????????????????	-11.0577
??????????????????	-11.0577
?????????????????????	-11.0577
?????????????????????	-11.0577
??????????????????	-11.0578
???????????????	-11.0578
???????????????	-11.0578
???????????????	-11.0578
???????????????	-11.0578
????????????	-11.0578
???????????????	-11.0578
????????????????????????	-11.0578
????????????	-11.0578
?????????????????????	-11.0578
??????????????????	-11.0578
?????????????????????	-11.0578
????????????	-11.0579
???????????????	-11.0579
?????????	-11.0579
???????????????	-11.0579
????????????	-11.0579
???????????????	-11.058
????????????	-11.058
???????????????	-11.0581
?????????????????????????????????	-11.0581
????????????	-11.0583
?????????	-11.0584
?????????	-11.0586
??????????????????	-11.0587
????????????	-11.0588
???????????????	-11.0589
???????????????	-11.0589
?????????	-11.059
et	-11.059
??????????????????	-11.0592
?????????????????????	-11.0593
??????????????????????????????	-11.0593
???????????????????????????	-11.0595
?????????????????????	-11.0595
????????????	-11.0595
??????????????????	-11.0598
????????????????????????????????????	-11.0599
?????????????????????	-11.0599
?????????	-11.0605
??????????????????	-11.0606
???????????????	-11.0607
??????	-11.0608
??????????????????????????????	-11.0609
??????????????????	-11.061
?????????????????????	-11.0612
???????????????	-11.0612
??????????????????	-11.0612
?????????????????????	-11.0613
??????????????????	-11.0613
?????????????????????	-11.0613
???????????????	-11.0613
??????????????????????????????	-11.0613
????????????????????????	-11.0613
???????????????	-11.0613
?????????????????????	-11.0614
??????????????????????????????	-11.0616
?????????????????????	-11.0616
????????????	-11.0618
3	-11.0619
???????????????	-11.0621
?????????????????????	-11.0621
???????????????	-11.0622
????????????	-11.0623
???????????????	-11.0624
???????????????	-11.0624
??????????????????	-11.0624
J	-11.0626
????????????	-11.0628
?????????????????????	-11.0629
??????????????????	-11.0629
??????	-11.063
????????????	-11.063
?????????	-11.063
?????????????????????	-11.0631
??????????????????	-11.0631
????????????????????????	-11.0632
????????????????????????	-11.0632
????????????	-11.0632
?????????????????????	-11.0632
?????????????????????	-11.0633
??????????????????	-11.0633
?????????????????????	-11.0633
ment	-11.0634
????????????	-11.0634
??????????????????	-11.0634
ign	-11.0634
?????????????????????	-11.0634
??????????????????	-11.0634
??	-11.0634
??????	-11.0634
?????????????????????	-11.0634
????????????????????????	-11.0634
???Differential	-11.0634
???Mathematical	-11.0634
???oligarchy	-11.0634
???style	-11.0634
???that	-11.0634
????????????????????????	-11.0634
??????????????????	-11.0634
??????????????????	-11.0634
????????????????????????????????????	-11.0634
?????????????????????????????????	-11.0634
?????????????????????????????????	-11.0634
????????????????????????????????????	-11.0634
????????????????????????	-11.0634
?????????????????????	-11.0634
?????????????????????????????????	-11.0634
?????????????????????????????????	-11.0634
????????????????????????	-11.0634
?????????????????????	-11.0634
?????????????????????????????????????????????	-11.0634
??????????????????????????????	-11.0634
?????????????????????	-11.0634
??????????????????????????????	-11.0634
??????????????????????????????	-11.0634
???????????????????????????	-11.0634
?????????????????????	-11.0634
??????????????????	-11.0634
????????????????????????	-11.0634
????????????????????????	-11.0634
???????????????	-11.0634
?????????????????????	-11.0634
?????????????????????	-11.0634
??????????????????	-11.0634
????????????????????????	-11.0634
??????????????????	-11.0634
???????????????????????????	-11.0634
???????????????	-11.0634
????????????????????????	-11.0634
?????????????????????	-11.0634
?????????????????????	-11.0634
?????????????????????	-11.0634
????????????????????????	-11.0634
???????????????????????????	-11.0634
?????????????????????????????????	-11.0634
??????????????????????????????	-11.0634
?????????????????????	-11.0634
??????????????????	-11.0634
???????????????	-11.0634
?????????????????????	-11.0634
?????????????????????	-11.0634
??????????????????	-11.0634
????????????????????????	-11.0634
?????????????????????	-11.0634
?????????????????????	-11.0634
????????????????????????????????????	-11.0634
????????????????????????	-11.0634
?????????????????????	-11.0634
???????????????????????????	-11.0634
?????????????????????	-11.0634
?????????????????????	-11.0634
????????????????????????	-11.0634
?????????????????????????????????	-11.0634
????????????????????????	-11.0634
???????????????????????????	-11.0634
??????????????????????????????????????????	-11.0634
?????????????????????	-11.0634
???????????????????????????????????????	-11.0634
????????????????????????	-11.0634
??????????????????????????????	-11.0634
?????????????????????	-11.0634
??????????????????????????????	-11.0634
????????????????????????????????????	-11.0634
???????????????????????????	-11.0634
?????????????????????	-11.0634
???????????????	-11.0634
?????????????????????	-11.0634
?????????????????????	-11.0634
?????????????????????????????????	-11.0634
????????????????????????	-11.0634
??????????????????	-11.0634
????????????????????????	-11.0634
???????????????????????????	-11.0634
???????????????	-11.0634
???????????????????????????????????????	-11.0634
???????????????????????????????????????	-11.0634
???????????????????????????????????????	-11.0634
????????????	-11.0634
?????????????????????	-11.0634
????????????????????????????????????	-11.0634
??????????????????	-11.0634
??????????????????????????????	-11.0634
?????????????????????????????????	-11.0634
??????????????????????????????	-11.0634
???Index	-11.0634
???Libraries	-11.0634
?????????????????????	-11.0634
???????????????????????????????????????	-11.0634
??????????????????	-11.0634
??????????????????	-11.0634
????????????	-11.0634
??????????????????	-11.0634
???????????????????????????????????????	-11.0634
???????????????????????????	-11.0634
????????????????????????	-11.0634
????????????????????????	-11.0634
???????????????????????????	-11.0634
????????????????????????	-11.0634
???have	-11.0634
?????????????????????	-11.0634
??????????????????	-11.0634
???????????????	-11.0634
?????????????????????????????????	-11.0634
???????????????????????????	-11.0634
????????????????????????	-11.0634
?????????????????????????????????	-11.0634
?????????????????????	-11.0634
??????????????????	-11.0634
???????????????????????????????????????	-11.0634
rder	-11.0634
????????????????????????	-11.0634
???????????????????????????	-11.0634
??????????????????????????????????????????	-11.0634
???????????????????????????????????????	-11.0634
????????????????????????	-11.0634
???????????????????????????	-11.0634
?????????????????????	-11.0634
?????????????????????	-11.0634
???	-11.0634
???????????????	-11.0634
???????????????????????????	-11.0634
????????????????????????	-11.0634
???????????????????????????	-11.0634
??????????????????	-11.0634
?????????????????????	-11.0634
???????????????????????????	-11.0634
????????????????????????	-11.0634
???????????????	-11.0634
???????????????????????????????????????	-11.0634
??????????????????????????????	-11.0634
?????????????????????	-11.0634
????????????????????????	-11.0634
?????????????????????	-11.0634
??????????????????	-11.0634
??????????????????????????????	-11.0634
??????????????????	-11.0634
??????????????????????????????	-11.0634
??????????????????????????????????????????	-11.0634
?????????????????????	-11.0634
???????????????	-11.0634
??????????????????	-11.0634
????????????????????????	-11.0634
???????????????	-11.0634
??????????????????	-11.0634
7]	-11.0634
?????????????????????	-11.0634
???????????????	-11.0634
???????????????????????????????????????	-11.0634
???????????????????????????	-11.0634
?????????????????????	-11.0634
??????????????????	-11.0634
???????????????????????????????????????	-11.0634
???????????????????????????	-11.0634
??????????????????	-11.0634
???????????????????????????	-11.0634
??????????????????	-11.0634
?????????????????????	-11.0634
???????????????	-11.0634
?????????????????????	-11.0634
?????????????????????	-11.0634
??????????????????	-11.0634
?????????????????????	-11.0635
?????????????????????	-11.0635
????????????????????????	-11.0635
?????????????????????	-11.0635
???????????????	-11.0635
????????????????????????	-11.0635
?????????????????????	-11.0635
?????????????????????	-11.0635
??????????????????	-11.0635
????????????????????????	-11.0635
??????????????????????????????	-11.0635
???????????????????????????	-11.0635
AN	-11.0635
???????????????????????????	-11.0635
????????????????????????	-11.0635
??????????????????????????????	-11.0635
??????????????????	-11.0635
?????????????????????	-11.0635
????????????????????????	-11.0635
??????????????????????????????????????????	-11.0635
????????????????????????	-11.0635
?????????????????????	-11.0635
???????????????????????????	-11.0635
????????????????????????	-11.0635
?????????????????????	-11.0635
?????????????????????	-11.0635
??????????????????	-11.0635
???????????????	-11.0635
??????????????????	-11.0635
????????????????????????	-11.0635
?????????????????????	-11.0635
??????????????????	-11.0635
???????????????????????????	-11.0635
??????????????????	-11.0635
?????????????????????????????????	-11.0635
????????????????????????	-11.0635
???????????????	-11.0635
????????????????????????	-11.0635
?????????????????????	-11.0635
??????????????????	-11.0635
??????????????????	-11.0635
???????????????	-11.0635
?????????????????????????????????	-11.0635
???????????????????????????	-11.0635
?????????????????????	-11.0635
???????????????	-11.0635
??????????????????	-11.0635
????????????????????????	-11.0635
??????????????????	-11.0635
????????????????????????	-11.0635
???????????????????????????????????????	-11.0635
??????????????????	-11.0635
?????????????????????????????????	-11.0635
???????????????	-11.0635
???????????????	-11.0635
???????????????????????????	-11.0635
?????????????????????	-11.0635
?????????????????????	-11.0635
??????????????????	-11.0635
???????????????????????????	-11.0636
?????????????????????	-11.0636
???????????????????????????	-11.0636
??????????????????	-11.0636
??????????????????	-11.0636
???????????????	-11.0636
???????????????	-11.0636
???????????????	-11.0636
???????????????????????????	-11.0636
???????????????????????????????????????	-11.0636
??????????????????	-11.0636
??????????????????	-11.0636
?????????????????????	-11.0636
???????????????????????????????????????	-11.0636
??????????????????	-11.0636
???????????????	-11.0636
??????????????????	-11.0636
cent	-11.0636
????????????????????????	-11.0636
??????????????????	-11.0636
?????????????????????????????????	-11.0636
?????????	-11.0636
6]	-11.0636
??????????????????????????????	-11.0636
?????????????????????????????????	-11.0636
??????????????????	-11.0636
????????????????????????	-11.0636
???????????????	-11.0636
????????????????????????????????????	-11.0636
???????????????????????????	-11.0636
???????????????	-11.0636
???????????????	-11.0636
?????????????????????????????????	-11.0636
?????????????????????????????????	-11.0636
???????????????	-11.0637
?????????????????????	-11.0637
????????????????????????	-11.0637
???????????????	-11.0637
???????????????	-11.0637
?????????????????????	-11.0637
????????????????????????????????????	-11.0637
???????????????	-11.0637
???????????????	-11.0637
?????????????????????	-11.0637
??????????????????	-11.0637
?????????????????????	-11.0637
??????????????????????????????	-11.0637
????????????????????????????????????	-11.0638
??????????????????	-11.0638
????????????????????????	-11.0638
?????????????????????????????????	-11.0638
???????????????????????????	-11.0638
????????????????????????	-11.0638
?????????????????????	-11.0638
?????????????????????	-11.0638
???????????????	-11.0638
??????????????????	-11.0638
????????????	-11.0638
??????????????????	-11.0639
???????????????	-11.0639
???????????????????????????	-11.0639
??????????????????	-11.0639
???????????????	-11.0639
???????????????	-11.0639
??????????????????	-11.0639
???????????????????????????	-11.0639
??????????????????	-11.0639
?????????????????????????????????????????????	-11.0639
???????????????	-11.064
????????????	-11.064
?????????	-11.064
???????????????	-11.064
?????????????????????	-11.064
??????????????????????????????	-11.064
???????????????????????????	-11.064
???????????????	-11.064
???????????????	-11.064
??????????????????	-11.064
?????????????????????	-11.064
?????????????????????	-11.064
????????????????????????	-11.064
???????????????	-11.064
?????????????????????????????????	-11.064
???????????????	-11.0641
??????????????????	-11.0641
???????????????????????????	-11.0642
????????????????????????	-11.0642
???text	-11.0642
?????????????????????	-11.0642
?????????????????????	-11.0642
??????????????????????????????	-11.0642
??????????????????	-11.0642
???????????????	-11.0642
?????????????????????	-11.0642
???????????????????????????	-11.0642
?????????????????????	-11.0642
??????????????????	-11.0642
?????????????????????	-11.0642
?????????????????????	-11.0642
????????????????????????	-11.0642
?????????????????????	-11.0642
???????????????????????????	-11.0642
????????????	-11.0642
?????????????????????	-11.0642
??????????????????	-11.0642
?????????????????????	-11.0642
???????????????	-11.0642
??????????????????	-11.0642
??????????????????	-11.0642
??????????????????	-11.0642
??????????????????????????????	-11.0642
????????????????????????????????????	-11.0643
?????????????????????	-11.0643
????????????????????????????????????	-11.0643
?????????????????????????????????	-11.0643
??????????????????	-11.0643
??????????????????????????????	-11.0643
????????????????????????	-11.0643
?????????????????????	-11.0643
????????????????????????????????????	-11.0643
???????????????????????????	-11.0643
????????????	-11.0643
??????????????????????????????	-11.0643
?????????????????????	-11.0643
???[[	-11.0643
????????????	-11.0643
?????????????????????????????????	-11.0644
??????????????????	-11.0644
????????????????????????	-11.0644
???????????????	-11.0644
?????????????????????	-11.0644
?????????????????????	-11.0644
???????????????	-11.0644
???????????????	-11.0645
???????????????	-11.0645
????????????	-11.0645
?????????????????????	-11.0645
???????????????	-11.0645
????????????	-11.0645
???????????????	-11.0645
?????????????????????	-11.0645
???????????????	-11.0645
?????????????????????	-11.0646
???????????????	-11.0646
??????????????????	-11.0646
?????????????????????	-11.0646
???????????????	-11.0646
????????????????????????	-11.0646
????????????	-11.0646
???????????????	-11.0646
????????????	-11.0647
???????????????	-11.0647
???????????????	-11.0647
???????????????	-11.0647
?????????????????????	-11.0647
????????????	-11.0647
??????????????????????????????	-11.0648
??????????????????	-11.0648
??????????????????????????????	-11.0648
??????????????????	-11.0648
?????????????????????	-11.0648
???????????????	-11.0648
??????????????????	-11.0649
?????????????????????	-11.0649
???????????????	-11.0649
????????????????????????	-11.0649
????????????	-11.0649
??????????????????	-11.0649
?????????????????????????????????	-11.0649
??????????????????	-11.065
???????????????	-11.065
??????????????????	-11.065
?????????????????????	-11.0651
???????????????????????????	-11.0651
?????????????????????	-11.0651
????????????????????????????????????	-11.0652
?????????????????????	-11.0652
???????????????????????????????????????	-11.0652
??????????????????	-11.0653
?????????????????????	-11.0653
?????????????????????	-11.0653
???????????????	-11.0653
???????????????	-11.0653
j	-11.0654
?????????????????????	-11.0654
??????????????????	-11.0654
????????????	-11.0654
??????????????????	-11.0655
???????????????	-11.0655
??????????????????	-11.0655
????????????	-11.0656
???????????????	-11.0656
?????????	-11.0656
??????????????????	-11.0656
???????????????	-11.0656
???????????????	-11.0656
??????????????????	-11.0656
???????????????	-11.0657
able	-11.0657
???????????????????????????	-11.0658
??????????????????????????????	-11.0658
???????????????????????????	-11.0658
???????????????	-11.0659
????????????????????????	-11.0659
?????????	-11.066
????????????	-11.066
???????????????	-11.066
??????????????????????????????	-11.0661
???????????????	-11.0663
?????????????????????	-11.0665
???????????????	-11.0665
?????????????????????	-11.0665
???????????????????????????????????????	-11.0665
??????????????????	-11.0665
????????????????????????	-11.0665
????????????	-11.0666
????????????????????????	-11.0666
????????????	-11.0666
????????????	-11.0667
???????????????	-11.0667
????????????	-11.0667
?????????????????????	-11.0668
??????	-11.0668
[...]
