<pad>	0
<unk>	0
<s>	0
</s>	0
<0x00>	0
<0x01>	0
<0x02>	0
<0x03>	0
<0x04>	0
<0x05>	0
<0x06>	0
<0x07>	0
<0x08>	0
<0x09>	0
<0x0A>	0
<0x0B>	0
<0x0C>	0
<0x0D>	0
<0x0E>	0
<0x0F>	0
<0x10>	0
<0x11>	0
<0x12>	0
<0x13>	0
<0x14>	0
<0x15>	0
<0x16>	0
<0x17>	0
<0x18>	0
<0x19>	0
<0x1A>	0
<0x1B>	0
<0x1C>	0
<0x1D>	0
<0x1E>	0
<0x1F>	0
<0x20>	0
<0x21>	0
<0x22>	0
<0x23>	0
<0x24>	0
<0x25>	0
<0x26>	0
<0x27>	0
<0x28>	0
<0x29>	0
<0x2A>	0
<0x2B>	0
<0x2C>	0
<0x2D>	0
<0x2E>	0
<0x2F>	0
<0x30>	0
<0x31>	0
<0x32>	0
<0x33>	0
<0x34>	0
<0x35>	0
<0x36>	0
<0x37>	0
<0x38>	0
<0x39>	0
<0x3A>	0
<0x3B>	0
<0x3C>	0
<0x3D>	0
<0x3E>	0
<0x3F>	0
<0x40>	0
<0x41>	0
<0x42>	0
<0x43>	0
<0x44>	0
<0x45>	0
<0x46>	0
<0x47>	0
<0x48>	0
<0x49>	0
<0x4A>	0
<0x4B>	0
<0x4C>	0
<0x4D>	0
<0x4E>	0
<0x4F>	0
<0x50>	0
<0x51>	0
<0x52>	0
<0x53>	0
<0x54>	0
<0x55>	0
<0x56>	0
<0x57>	0
<0x58>	0
<0x59>	0
<0x5A>	0
<0x5B>	0
<0x5C>	0
<0x5D>	0
<0x5E>	0
<0x5F>	0
<0x60>	0
<0x61>	0
<0x62>	0
<0x63>	0
<0x64>	0
<0x65>	0
<0x66>	0
<0x67>	0
<0x68>	0
<0x69>	0
<0x6A>	0
<0x6B>	0
<0x6C>	0
<0x6D>	0
<0x6E>	0
<0x6F>	0
<0x70>	0
<0x71>	0
<0x72>	0
<0x73>	0
<0x74>	0
<0x75>	0
<0x76>	0
<0x77>	0
<0x78>	0
<0x79>	0
<0x7A>	0
<0x7B>	0
<0x7C>	0
<0x7D>	0
<0x7E>	0
<0x7F>	0
<0x80>	0
<0x81>	0
<0x82>	0
<0x83>	0
<0x84>	0
<0x85>	0
<0x86>	0
<0x87>	0
<0x88>	0
<0x89>	0
<0x8A>	0
<0x8B>	0
<0x8C>	0
<0x8D>	0
<0x8E>	0
<0x8F>	0
<0x90>	0
<0x91>	0
<0x92>	0
<0x93>	0
<0x94>	0
<0x95>	0
<0x96>	0
<0x97>	0
<0x98>	0
<0x99>	0
<0x9A>	0
<0x9B>	0
<0x9C>	0
<0x9D>	0
<0x9E>	0
<0x9F>	0
<0xA0>	0
<0xA1>	0
<0xA2>	0
<0xA3>	0
<0xA4>	0
<0xA5>	0
<0xA6>	0
<0xA7>	0
<0xA8>	0
<0xA9>	0
<0xAA>	0
<0xAB>	0
<0xAC>	0
<0xAD>	0
<0xAE>	0
<0xAF>	0
<0xB0>	0
<0xB1>	0
<0xB2>	0
<0xB3>	0
<0xB4>	0
<0xB5>	0
<0xB6>	0
<0xB7>	0
<0xB8>	0
<0xB9>	0
<0xBA>	0
<0xBB>	0
<0xBC>	0
<0xBD>	0
<0xBE>	0
<0xBF>	0
<0xC0>	0
<0xC1>	0
<0xC2>	0
<0xC3>	0
<0xC4>	0
<0xC5>	0
<0xC6>	0
<0xC7>	0
<0xC8>	0
<0xC9>	0
<0xCA>	0
<0xCB>	0
<0xCC>	0
<0xCD>	0
<0xCE>	0
<0xCF>	0
<0xD0>	0
<0xD1>	0
<0xD2>	0
<0xD3>	0
<0xD4>	0
<0xD5>	0
<0xD6>	0
<0xD7>	0
<0xD8>	0
<0xD9>	0
<0xDA>	0
<0xDB>	0
<0xDC>	0
<0xDD>	0
<0xDE>	0
<0xDF>	0
<0xE0>	0
<0xE1>	0
<0xE2>	0
<0xE3>	0
<0xE4>	0
<0xE5>	0
<0xE6>	0
<0xE7>	0
<0xE8>	0
<0xE9>	0
<0xEA>	0
<0xEB>	0
<0xEC>	0
<0xED>	0
<0xEE>	0
<0xEF>	0
<0xF0>	0
<0xF1>	0
<0xF2>	0
<0xF3>	0
<0xF4>	0
<0xF5>	0
<0xF6>	0
<0xF7>	0
<0xF8>	0
<0xF9>	0
<0xFA>	0
<0xFB>	0
<0xFC>	0
<0xFD>	0
<0xFE>	0
<0xFF>	0
।	-3.56574
▁के	-3.69353
▁	-3.90144
▁में	-3.98849
▁है	-3.99487
,	-4.03343
▁की	-4.22057
▁से	-4.46915
▁को	-4.50119
▁और	-4.54349
▁का	-4.63652
ी	-4.81061
ों	-4.89454
▁पर	-4.95214
▁ने	-4.96384
▁हैं	-5.04534
न	-5.0579
.	-5.09549
ल	-5.10848
▁कि	-5.13898
र	-5.15018
ा	-5.22374
-	-5.26989
0	-5.27596
▁भी	-5.31063
क	-5.31633
2	-5.32671
1	-5.33594
▁एक	-5.34648
म	-5.36925
▁लिए	-5.55163
स	-5.58674
▁कर	-5.5933
▁इस	-5.60615
▁नहीं	-5.68535
▁हो	-5.69221
ने	-5.70376
े	-5.70662
त	-5.7448
▁किया	-5.75868
ट	-5.76482
ता	-5.77253
▁ही	-5.77609
ं	-5.78605
▁था	-5.82272
▁(	-5.82818
▁यह	-5.87666
▁गया	-5.90835
ना	-5.91119
प	-5.92879
)	-5.96622
▁अ	-6.01289
ज	-6.01658
व	-6.07528
▁तो	-6.07948
▁करने	-6.0914
▁साथ	-6.11109
▁आ	-6.13126
▁न	-6.13319
द	-6.15842
ह	-6.17398
5	-6.17597
ो	-6.19146
▁स	-6.22423
3	-6.24074
ि	-6.2548
▁कहा	-6.26215
▁बाद	-6.29067
▁जा	-6.29151
▁जो	-6.31289
9	-6.33359
य	-6.38134
4	-6.38139
ला	-6.38347
कर	-6.39636
▁अपने	-6.43815
▁दिया	-6.44161
▁तक	-6.45616
6	-6.45969
रा	-6.4602
ग	-6.47682
का	-6.48136
श	-6.48743
▁'	-6.49049
ित	-6.49552
▁वह	-6.51594
▁रहे	-6.52144
▁थी	-6.52729
▁-	-6.53616
▁गई	-6.53807
▁हुए	-6.5396
▁प	-6.55035
ते	-6.55568
ब	-6.55927
▁थे	-6.56307
▁प्र	-6.57259
ड	-6.57349
▁व	-6.58089
▁रहा	-6.58393
िक	-6.59364
री	-6.5945
8	-6.59562
ियों	-6.61848
नी	-6.62193
7	-6.62307
▁ब	-6.62362
▁म	-6.62795
ु	-6.65092
'	-6.6598
▁रही	-6.67325
मा	-6.67654
ती	-6.69016
▁उन्होंने	-6.72834
▁"	-6.73651
▁या	-6.74509
▁रूप	-6.75334
ू	-6.77502
▁कुछ	-6.77894
ै	-6.78128
▁क	-6.78688
सी	-6.80584
के	-6.80764
वा	-6.80768
ण	-6.81462
ली	-6.8161
च	-6.81664
्य	-6.83013
▁दी	-6.84245
:	-6.85594
ओं	-6.85685
▁पहले	-6.85696
▁वि	-6.86467
ई	-6.86471
▁होने	-6.86489
▁लेकिन	-6.871
▁इसके	-6.88043
▁ग	-6.90054
ें	-6.90336
▁करते	-6.90557
िंग	-6.91819
▁जाता	-6.91964
्	-6.93413
फ	-6.93861
या	-6.9442
ड़	-6.94832
▁वे	-6.94992
▁गए	-6.95172
▁समय	-6.95393
्स	-6.95715
▁पुलिस	-6.96091
▁लोगों	-6.97743
ख	-6.97843
▁भारत	-6.97845
▁हुआ	-6.97884
▁अब	-6.98869
▁अपनी	-6.99356
▁कोई	-7.03446
▁वाले	-7.03944
▁दो	-7.04481
ले	-7.04913
▁किसी	-7.05856
▁ज	-7.06277
▁हुई	-7.07657
ए	-7.07939
▁कई	-7.08796
▁द्वारा	-7.09062
e	-7.10801
▁मे	-7.11894
▁उनके	-7.12292
से	-7.12364
▁बात	-7.12487
ंग	-7.12839
को	-7.13653
▁आप	-7.14758
ौ	-7.14817
▁सरकार	-7.14994
▁इन	-7.15459
▁होता	-7.15732
▁जब	-7.15848
▁तरह	-7.16254
▁इ	-7.16626
▁श	-7.16677
▁ये	-7.1677
▁कम	-7.17145
▁द	-7.1726
▁दिन	-7.17335
▁त	-7.18089
िया	-7.1856
सा	-7.1905
▁सं	-7.19768
जा	-7.19952
▁सकता	-7.20457
थ	-7.21045
▁लेकर	-7.21782
वि	-7.22366
▁नाम	-7.22552
▁साल	-7.2341
ः	-7.2368
रे	-7.23896
ंड	-7.24254
▁सिंह	-7.24364
▁बताया	-7.24424
▁तथा	-7.24999
की	-7.25375
▁नि	-7.25496
पुर	-7.25581
▁काम	-7.25972
▁उ	-7.26145
जी	-7.26497
▁ए	-7.27104
▁उन्हें	-7.27124
▁बार	-7.27292
दा	-7.27347
▁पा	-7.28926
▁ले	-7.28977
ीय	-7.2957
▁करना	-7.29767
▁सभी	-7.29899
▁कारण	-7.30455
▁आज	-7.30724
त्र	-7.30962
▁ह	-7.31814
▁देश	-7.32374
▁लोग	-7.32378
▁बहुत	-7.34751
स्त	-7.35488
ति	-7.35787
▁फिर	-7.35809
"	-7.36715
o	-7.37588
नि	-7.37628
▁सा	-7.37702
▁मु	-7.38232
गा	-7.39439
कार	-7.40103
▁क्षेत्र	-7.40251
▁अधिक	-7.4061
▁दौरान	-7.41565
▁घर	-7.41812
▁मा	-7.4205
▁हम	-7.42111
▁लिया	-7.42136
▁सबसे	-7.4225
▁बीच	-7.43085
▁हर	-7.43951
टी	-7.43995
▁उस	-7.44012
▁उसके	-7.44165
▁ना	-7.44736
स्ट	-7.44786
▁बा	-7.44833
▁सु	-7.44883
▁फिल्म	-7.45039
गी	-7.45427
हा	-7.45903
ाई	-7.46102
▁जाने	-7.46209
?	-7.46625
ॉ	-7.46847
▁सकते	-7.4695
ँ	-7.47713
▁अन्य	-7.47953
▁राज्य	-7.48115
▁क्या	-7.48133
भ	-7.48403
मी	-7.48585
▁होगा	-7.48976
▁एवं	-7.48999
s	-7.49
▁उसे	-7.49056
▁दोनों	-7.49398
▁ख	-7.49525
ष	-7.49549
▁च	-7.49574
a	-7.50212
▁उनकी	-7.51511
▁टीम	-7.51548
▁करें	-7.52242
०	-7.52349
प्र	-7.52498
▁सी	-7.52519
पी	-7.52895
▁पास	-7.54154
ज़	-7.54646
i	-7.55286
▁दे	-7.55445
बा	-7.5566
मे	-7.56421
▁भारतीय	-7.56511
▁प्रति	-7.5712
▁होती	-7.57852
▁बना	-7.58013
एं	-7.58035
▁शुरू	-7.58087
क्ष	-7.58377
▁करता	-7.58522
ंद	-7.58772
▁पूर्व	-7.60736
▁भ	-7.60788
▁उप	-7.61877
डी	-7.62239
▁चाहिए	-7.63104
▁प्रदेश	-7.64022
▁कार्य	-7.65408
▁कै	-7.66222
पा	-7.6641
ंस	-7.67156
र्	-7.67733
▁जी	-7.67852
▁ऐसे	-7.68132
▁वाली	-7.68194
▁ल	-7.68449
ध	-7.68617
▁मैं	-7.68795
▁शामिल	-7.68862
वी	-7.68991
▁वा	-7.69133
▁दिल्ली	-7.69214
▁ओर	-7.6923
▁फ	-7.69333
वर	-7.69645
t	-7.70134
ओ	-7.70978
▁पी	-7.71145
क्	-7.715
▁मामले	-7.71845
▁सब	-7.72087
▁बन	-7.72188
▁वहीं	-7.72626
▁आई	-7.73656
ाय	-7.74064
▁अनुसार	-7.74303
p	-7.74555
्या	-7.74861
▁सो	-7.75258
्यू	-7.75336
रण	-7.756
▁कुमार	-7.75979
▁छ	-7.76134
▁यहां	-7.76151
बी	-7.76337
▁लगा	-7.76497
▁अपना	-7.77256
▁प्रकार	-7.77491
▁भर	-7.77514
▁जाती	-7.776
▁वर्ष	-7.77803
न्	-7.78103
h	-7.78202
▁र	-7.78233
▁बता	-7.7842
रो	-7.78609
ृ	-7.78611
▁तीन	-7.78836
▁जैसे	-7.79172
ठ	-7.79278
स्	-7.79612
मान	-7.80145
▁रि	-7.80304
ंट	-7.80365
▁गु	-7.80382
लि	-7.80564
▁बे	-7.80802
त्	-7.814
▁श्री	-7.81448
▁राज	-7.81626
▁बढ़	-7.81803
दी	-7.81929
d	-7.81998
अ	-7.82531
टा	-7.8309
▁जानकारी	-7.83097
▁देने	-7.83937
▁उत्तर	-7.84006
▁किए	-7.84296
वे	-7.84836
▁कु	-7.84871
▁जान	-7.8507
▁इसी	-7.85619
घ	-7.86058
▁इससे	-7.86435
▁देख	-7.86524
▁होते	-7.86661
▁अगर	-7.8673
िका	-7.87447
▁खेल	-7.875
▁जारी	-7.87779
▁इसे	-7.87915
▁सामने	-7.88082
जन	-7.88293
▁सकती	-7.88476
▁ज्यादा	-7.8885
▁ऐसा	-7.88972
दार	-7.89221
॥	-7.8926
▁आदि	-7.89425
▁रुपये	-7.89427
▁काफी	-7.89609
▁चुनाव	-7.89634
त्त	-7.89927
▁गो	-7.89965
▁जाएगा	-7.90264
▁मिल	-7.90283
र्स	-7.90448
▁चल	-7.90769
▁खिलाफ	-7.90779
▁जीवन	-7.90899
▁प्राप्त	-7.91017
▁तब	-7.91365
शा	-7.91572
िन	-7.91956
▁आपको	-7.9214
▁मान	-7.92185
▁राम	-7.92338
▁कह	-7.92338
न्द	-7.92782
▁सि	-7.93259
▁चार	-7.93381
ड़ा	-7.93556
▁वो	-7.94303
▁जांच	-7.94553
▁महा	-7.94832
▁विभाग	-7.95055
▁ई	-7.95112
S	-7.95297
▁दर्ज	-7.95458
":"	-7.95666
▁बि	-7.95678
I	-7.95873
ल्	-7.95961
शन	-7.95983
▁बारे	-7.96006
उ	-7.96219
िल	-7.96253
▁पार्टी	-7.97274
▁शहर	-7.97281
▁जिसमें	-7.97733
▁रे	-7.979
▁पूरी	-7.98078
हि	-7.98624
▁मह	-7.99708
▁विशेष	-7.99869
▁भाग	-7.99918
▁ला	-7.99976
▁उनका	-8.00076
y	-8.00361
▁लाख	-8.00377
▁इसका	-8.00774
▁करोड़	-8.00852
▁रो	-8.00877
धा	-8.00942
इ	-8.0103
▁उसकी	-8.01134
ाव	-8.01303
ंत	-8.01441
▁कांग्रेस	-8.01501
पर	-8.01712
▁स्व	-8.0173
m	-8.01771
ियां	-8.02383
▁धर्म	-8.02737
g	-8.03032
▁परिवार	-8.03249
c	-8.03272
छ	-8.03281
A	-8.03295
▁मांग	-8.03599
▁दा	-8.03845
▁गांव	-8.03937
▁उन	-8.04036
▁विकास	-8.04532
▁क्योंकि	-8.04597
▁इसमें	-8.04705
्र	-8.04712
C	-8.04726
▁केवल	-8.04775
▁अनु	-8.05079
क्स	-8.05503
▁मन	-8.06126
रि	-8.06168
▁बड़ी	-8.06204
▁मुख्य	-8.06477
▁ध	-8.06502
▁करीब	-8.06576
▁पानी	-8.06682
▁बी	-8.07215
▁घ	-8.07408
▁आगे	-8.07422
ेट	-8.07443
▁होगी	-8.07716
ान	-8.07724
▁मो	-8.07814
▁S	-8.07979
▁आने	-8.08091
मि	-8.08249
;	-8.08681
▁चि	-8.08866
▁ली	-8.09225
ेश	-8.09351
▁हाथ	-8.09591
ाया	-8.0967
टे	-8.09731
ंज	-8.09773
","	-8.09833
लो	-8.09895
▁बाहर	-8.09919
ये	-8.1009
▁जल	-8.1023
▁पद	-8.10691
▁चा	-8.1104
▁अभी	-8.11069
ंच	-8.11328
▁डि	-8.11624
▁रा	-8.12174
▁जाते	-8.12199
▁गा	-8.12353
▁हालांकि	-8.12378
र्ज	-8.12555
▁दूसरे	-8.12574
में	-8.12662
▁महिला	-8.12814
म्	-8.12922
▁स्थित	-8.13239
▁मंत्री	-8.13612
▁अलग	-8.13721
▁जहां	-8.13777
▁जिस	-8.14123
पाल	-8.14144
▁:	-8.14328
▁यदि	-8.14686
▁A	-8.14688
१	-8.14909
u	-8.14914
▁नगर	-8.1494
▁रह	-8.14985
▁मैच	-8.15182
▁अलावा	-8.15347
▁)	-8.154
▁घटना	-8.15436
झ	-8.15534
यर	-8.15623
आ	-8.1569
▁मि	-8.1638
▁इसलिए	-8.16813
आई	-8.16839
▁ओ	-8.16912
k	-8.1709
▁लिये	-8.17188
़	-8.17297
▁दें	-8.1743
▁व्यक्ति	-8.17501
▁आया	-8.17659
▁कभी	-8.18034
ास	-8.18151
▁अन	-8.18154
▁ता	-8.18373
▁स्थिति	-8.18927
▁बड़े	-8.19013
▁आए	-8.19189
▁मिला	-8.19271
ar	-8.19296
▁उसने	-8.19545
▁अध्यक्ष	-8.19586
▁आरोप	-8.19747
▁हि	-8.1981
ंक	-8.19919
▁नई	-8.20415
▁हा	-8.20505
ब्	-8.20606
▁करती	-8.20716
स्क	-8.20877
▁जबकि	-8.20916
▁मीडिया	-8.21586
▁रात	-8.21939
▁खा	-8.22353
वन	-8.22429
▁बंद	-8.22767
▁बु	-8.22839
▁समझ	-8.2292
▁चला	-8.22947
▁तैयार	-8.22947
▁उपयोग	-8.22994
राज	-8.23133
ढ़	-8.23442
ष्ट	-8.23482
ही	-8.23538
ड़ी	-8.23612
▁बनाने	-8.23703
an	-8.24008
▁पिछले	-8.24232
▁मै	-8.24344
▁कंपनी	-8.24503
▁केंद्र	-8.24629
▁पु	-8.24679
▁दिए	-8.25428
मो	-8.2544
र्ड	-8.25533
▁जीत	-8.25864
P	-8.25914
▁उसका	-8.26077
▁टी	-8.26116
ेंट	-8.26192
▁बड़ा	-8.26524
टर	-8.2662
फ़	-8.26643
रिया	-8.27211
यों	-8.27669
▁जिसके	-8.27714
▁स्थान	-8.27728
▁मुझे	-8.27812
▁रहने	-8.27906
▁रिपोर्ट	-8.27918
▁C	-8.27977
▁करके	-8.28035
▁दिनों	-8.28087
▁वै	-8.28389
▁परि	-8.28446
▁वाला	-8.28499
▁स्कूल	-8.28603
▁जिससे	-8.28617
▁हजार	-8.28708
वाद	-8.28727
▁पहुंच	-8.29051
ग्र	-8.29306
▁नजर	-8.29597
b	-8.29647
▁जिला	-8.29681
▁सर	-8.29925
▁विचार	-8.30151
n	-8.30175
▁जाए	-8.30204
▁जगह	-8.30582
▁जिले	-8.30627
▁योजना	-8.30713
हार	-8.30727
चा	-8.3075
▁लगभग	-8.30762
हर	-8.30875
▁कुल	-8.30968
▁ऑ	-8.31051
▁डाल	-8.31077
▁बै	-8.31189
▁वीडियो	-8.31273
▁निर्माण	-8.31369
▁अस	-8.31458
▁सह	-8.31499
▁ट्र	-8.31575
▁विश्व	-8.31697
ण्ड	-8.31742
▁ध्यान	-8.31929
▁आधार	-8.31989
▁इसकी	-8.32026
ेड	-8.32053
शि	-8.32088
▁निकल	-8.32234
▁डे	-8.32281
▁संख्या	-8.32624
▁झ	-8.32733
रु	-8.331
/	-8.33139
द्ध	-8.33192
खा	-8.33234
ाइ	-8.33256
▁P	-8.33352
▁शिक्षा	-8.33384
▁सू	-8.3365
▁बैंक	-8.33729
▁कार्यक्रम	-8.33825
▁शो	-8.33879
▁मौत	-8.34069
▁संबंध	-8.34269
M	-8.3433
▁दूर	-8.34396
▁बस	-8.34585
▁कहना	-8.34612
▁बदल	-8.34624
न्त	-8.34641
न्द्र	-8.34821
▁पूरा	-8.3499
ेशन	-8.35231
▁मार	-8.35357
▁सम	-8.35418
▁हे	-8.35689
▁ड	-8.35746
▁पता	-8.36092
▁दुनिया	-8.36353
▁मुख्यमंत्री	-8.36374
▁सेवा	-8.36484
रू	-8.36648
वार	-8.36696
▁मंदिर	-8.36838
शी	-8.36939
▁अस्पताल	-8.37116
्व	-8.37221
▁सन्दर्भ	-8.37295
▁जाना	-8.37339
▁तहत	-8.37481
गर	-8.37556
▁यू	-8.37593
आर	-8.37675
!	-8.37815
▁प्रमुख	-8.38179
▁बजे	-8.38307
सु	-8.38403
▁शेयर	-8.38451
▁वजह	-8.38509
▁रन	-8.38587
▁पड़	-8.38716
चर	-8.38831
▁निर्देश	-8.38972
▁अव	-8.39075
▁भाषा	-8.39139
र्क	-8.39154
▁लगे	-8.39288
▁देते	-8.3931
र्ट	-8.39425
▁आर	-8.39575
in	-8.39582
▁रख	-8.39882
▁मदद	-8.40268
al	-8.40283
T	-8.40388
मन	-8.40391
सं	-8.40631
▁भाजपा	-8.40646
▁राष्ट्रीय	-8.408
▁?	-8.40865
▁बाल	-8.40929
त्य	-8.40947
▁खान	-8.41166
▁कल	-8.41204
ोर	-8.41401
▁मुताबिक	-8.41759
▁एस	-8.4177
्म	-8.4198
▁गिर	-8.42317
▁मिली	-8.4253
▁नए	-8.43035
▁अधिकारी	-8.43186
मेंट	-8.43197
एस	-8.43228
ार	-8.43369
on	-8.43458
▁लिख	-8.43812
िस	-8.43872
द्	-8.4399
▁बोल	-8.44005
बे	-8.44266
▁सुरक्षा	-8.44379
▁थ	-8.44427
▁अप	-8.44459
कों	-8.44521
▁खुद	-8.44581
▁आम	-8.44719
राम	-8.44915
▁बच्चों	-8.451
▁ऐसी	-8.45167
▁१	-8.45245
भा	-8.45294
ाने	-8.454
▁पहली	-8.45472
▁पांच	-8.45529
▁शि	-8.45825
▁डॉ	-8.45922
▁पि	-8.4593
यो	-8.45941
▁स्	-8.46105
▁जे	-8.46133
▁हमारे	-8.46465
सि	-8.46637
▁लेने	-8.46794
▁बैठक	-8.46862
नो	-8.47057
▁सै	-8.47105
▁कार्रवाई	-8.47244
▁भा	-8.4737
बल	-8.4751
▁देव	-8.47797
७	-8.47911
▁समाज	-8.47937
युक्त	-8.47954
त्व	-8.47986
▁प्रदर्शन	-8.48106
▁मोदी	-8.48131
णा	-8.48157
▁एन	-8.48216
▁सिर्फ	-8.48413
er	-8.48515
▁लो	-8.48596
▁शिव	-8.48775
▁देखा	-8.48902
▁वहां	-8.48998
▁पाकिस्तान	-8.49048
▁शरीर	-8.49101
▁सर्व	-8.49133
▁विभिन्न	-8.49246
मु	-8.49303
▁M	-8.49533
▁स्वास्थ्य	-8.498
▁२	-8.49805
िए	-8.49869
जे	-8.49971
▁लगातार	-8.50142
▁कॉ	-8.50166
▁स्तर	-8.5038
▁उठा	-8.50513
▁जन्म	-8.507
▁तरफ	-8.51087
▁सड़क	-8.51118
▁सूचना	-8.51219
▁ऑफ	-8.51265
▁पूरे	-8.51473
ियो	-8.51614
ड़े	-8.51639
▁सुबह	-8.51806
वाह	-8.5181
▁कहते	-8.52096
▁मध्य	-8.52135
▁चौ	-8.52173
कृत	-8.52285
नाथ	-8.52324
at	-8.5233
f	-8.5246
▁आपके	-8.52572
▁थीं	-8.52664
▁डी	-8.52667
▁B	-8.52681
▁यादव	-8.52704
▁कोरोना	-8.52706
▁बिना	-8.52714
▁यही	-8.52824
था	-8.52859
फा	-8.52921
ेंद्र	-8.53166
▁डा	-8.53289
▁जाएगी	-8.53353
▁मौजूद	-8.53397
▁माना	-8.53431
...	-8.5344
▁दूसरी	-8.53843
▁प्रभाव	-8.53949
▁लोक	-8.53949
▁मौके	-8.54048
▁शादी	-8.54218
▁क्यों	-8.54236
▁होना	-8.54279
तर	-8.5438
▁छोड़	-8.54428
ौर	-8.5465
चार	-8.5467
▁जिन	-8.54671
▁पार	-8.54905
l	-8.55042
▁सके	-8.55053
▁इं	-8.55076
▁व्यवस्था	-8.55122
ग्	-8.55173
म्ब	-8.55319
▁परीक्षा	-8.55384
▁सम्	-8.55463
ाइट	-8.55511
▁तेज	-8.55531
D	-8.55566
▁विषय	-8.55681
▁पिता	-8.55868
दर	-8.5594
%	-8.55958
▁पै	-8.55979
▁खबर	-8.56174
▁हाल	-8.5622
▁लड़	-8.56223
गु	-8.56334
द्र	-8.56367
▁देखने	-8.56369
or	-8.564
सन	-8.56409
▁मेरे	-8.56515
▁प्रा	-8.56591
▁मां	-8.5667
धि	-8.56752
▁आग	-8.56832
▁अभि	-8.56908
▁रखा	-8.57173
r	-8.57243
▁उपलब्ध	-8.57304
▁जन	-8.57443
▁बाजार	-8.57569
लू	-8.57596
▁विरोध	-8.57739
▁अधिकारियों	-8.57932
▁क्रिकेट	-8.58077
▁शुरुआत	-8.58174
र्म	-8.58303
▁धन	-8.58399
रूप	-8.58403
धार	-8.58729
▁जिसे	-8.58747
बू	-8.58777
▁टे	-8.59208
▁लाभ	-8.59233
▁होकर	-8.59268
कि	-8.59447
▁कप	-8.59615
▁क्र	-8.59627
गे	-8.59667
▁गिरफ्तार	-8.59726
▁माध्यम	-8.5974
▁तौर	-8.59943
जि	-8.60002
▁शर्मा	-8.60082
▁लिखा	-8.60178
▁ऊपर	-8.60191
श्	-8.60333
▁बो	-8.60662
व्य	-8.60739
गो	-8.60766
),	-8.60849
▁अर्थ	-8.60937
▁दल	-8.60982
R	-8.61031
▁महीने	-8.61359
▁लग	-8.61383
▁करेंगे	-8.61625
▁नेता	-8.61668
▁पो	-8.61789
रों	-8.61835
न्न	-8.62103
E	-8.62146
▁गये	-8.623
स्थ	-8.6236
दे	-8.62398
▁सहित	-8.62475
▁सौ	-8.62637
ुल	-8.6295
▁प्रधानमंत्री	-8.62991
▁राजा	-8.6306
B	-8.63107
ेंगे	-8.63169
▁कैसे	-8.63303
३	-8.63357
▁सोशल	-8.6338
▁तुम	-8.63382
▁बल्कि	-8.63499
▁स्क	-8.63719
▁रंग	-8.6378
ढ	-8.64025
▁य	-8.64043
▁राशि	-8.64058
वान	-8.64097
ेज	-8.6413
▁प्रशासन	-8.64134
▁प्रेम	-8.64186
डे	-8.64228
्रा	-8.64331
▁बनाया	-8.64381
२	-8.64611
४	-8.64627
योग	-8.64762
ूर	-8.6484
▁करा	-8.64853
▁दक्षिण	-8.64896
▁जनता	-8.64899
▁कीमत	-8.64947
▁चर्चा	-8.65028
▁कोर्ट	-8.65068
▁खास	-8.65078
कल	-8.65284
▁यात्रा	-8.65392
८	-8.65428
▁पत्र	-8.65512
▁पक्ष	-8.65584
देव	-8.65663
▁उसी	-8.65727
▁लाल	-8.65866
स्व	-8.65889
ंगी	-8.65903
ंप	-8.66163
पूर्ण	-8.66391
▁भाव	-8.66441
▁रुपए	-8.66557
ंब	-8.66577
▁भेज	-8.66799
जू	-8.6695
w	-8.66989
एँ	-8.67127
▁पे	-8.67151
▁उच्च	-8.67267
▁सुन	-8.6729
▁प्रतिशत	-8.673
▁जाय	-8.67526
▁मं	-8.67644
्रे	-8.67673
▁इस्तेमाल	-8.67817
▁!	-8.67842
▁वापस	-8.67876
तु	-8.68054
कु	-8.68275
▁बल	-8.68432
यी	-8.6845
र्द	-8.68748
▁कानून	-8.68762
वीं	-8.68865
▁ज्ञान	-8.6891
▁हत्या	-8.69011
▁व्य	-8.69084
▁चुके	-8.69121
▁यहाँ	-8.69273
▁अच्छा	-8.69428
▁हूं	-8.69501
▁स्प	-8.69765
▁रु	-8.69829
▁शब्द	-8.69847
▁समान	-8.70132
▁खरीद	-8.70143
म्प	-8.70168
▁महत्वपूर्ण	-8.70225
्री	-8.70264
▁मी	-8.70283
र्ग	-8.70406
िय	-8.70445
ार्थ	-8.70611
स्था	-8.70753
प्त	-8.70785
तन	-8.70801
▁शक्ति	-8.7093
▁गंभीर	-8.71233
▁लगाया	-8.71243
▁बिहार	-8.71325
▁सवाल	-8.7142
▁दर	-8.71556
▁जि	-8.71659
▁दु	-8.71705
▁भाई	-8.71743
देश	-8.71744
▁कार	-8.71859
▁पुत्र	-8.71881
▁जून	-8.71942
यू	-8.72049
▁एम	-8.72435
▁मिलने	-8.72439
ेन	-8.72486
▁दिख	-8.72491
ra	-8.7254
शु	-8.72596
▁गांधी	-8.72871
▁जीव	-8.72973
▁बनाए	-8.72985
ल्ल	-8.73049
▁लगी	-8.73222
▁थाना	-8.73288
U	-8.73409
▁नही	-8.73425
▁बारिश	-8.73431
६	-8.7365
वाल	-8.73681
▁सदस्य	-8.73753
ग्रह	-8.73797
दि	-8.73915
▁हमें	-8.73941
िट	-8.73971
भाव	-8.73987
▁अमेरिका	-8.74137
▁पत्नी	-8.74215
५	-8.74294
▁शिकायत	-8.74375
ष्ठ	-8.74495
णी	-8.74497
▁बच्चे	-8.74537
▁गयी	-8.74932
▁कोशिश	-8.74936
क़	-8.74941
▁समस्या	-8.75135
प्प	-8.75165
▁मामला	-8.75238
▁प्रयास	-8.75239
▁पीछे	-8.75288
▁इतिहास	-8.75439
▁ठीक	-8.75513
▁सोच	-8.75637
▁प्रक्रिया	-8.75776
▁रखने	-8.75918
स्ट्र	-8.75938
▁विधायक	-8.76087
बर	-8.76158
▁फा	-8.7617
▁बढ़ा	-8.76258
▁स्ट	-8.76272
▁फ़	-8.76365
निक	-8.76858
▁ज़	-8.77017
गत	-8.77079
गढ़	-8.77229
ियाँ	-8.77256
▁बच	-8.77417
▁हूँ	-8.77439
▁रहते	-8.7754
काल	-8.77717
▁पड़ा	-8.78033
▁देता	-8.78305
▁जरूरत	-8.78322
्रि	-8.78357
▁कर्म	-8.78412
एफ	-8.78806
हे	-8.78833
▁प्रयोग	-8.78881
▁कं	-8.78884
▁पेश	-8.78894
▁युद्ध	-8.78919
र्थ	-8.78952
N	-8.79149
पन	-8.79271
▁मार्ग	-8.79279
▁निवासी	-8.79304
▁सीट	-8.79354
▁सीमा	-8.79388
▁आरोपी	-8.79526
▁प्रो	-8.79528
it	-8.79799
स्प	-8.79936
पे	-8.80019
▁होंगे	-8.80114
्वा	-8.80184
ान्त	-8.80259
धी	-8.80268
क्र	-8.80418
च्छ	-8.80426
वास	-8.80442
सार	-8.80525
शास्त्र	-8.80542
▁चुकी	-8.80604
▁रहता	-8.80676
भर	-8.80722
▁फे	-8.80948
▁निर्	-8.8101
▁सेना	-8.81115
es	-8.81169
▁दिल	-8.81209
▁इंडिया	-8.81249
▁छात्र	-8.81306
▁चुका	-8.81344
▁प्रकाश	-8.8154
डा	-8.81549
▁ब्र	-8.81604
▁टेस्ट	-8.81609
▁प्रदान	-8.81612
ल्ड	-8.81712
_	-8.81874
▁अच्छी	-8.81909
▁बने	-8.82038
▁निकाल	-8.82355
▁भारी	-8.82414
ंगा	-8.82435
▁जोड़	-8.82598
एम	-8.828
▁नीचे	-8.82997
▁पढ़	-8.83051
ची	-8.83127
बि	-8.83388
▁फ्र	-8.83438
▁विधानसभा	-8.83509
▁भगवान	-8.8352
चित	-8.83537
▁आदेश	-8.83683
▁सुविधा	-8.83824
▁मूल	-8.83833
▁भू	-8.83937
▁अगस्त	-8.83955
▁युवक	-8.84096
▁मार्च	-8.84113
▁मैंने	-8.84134
▁पूर्ण	-8.84292
करण	-8.84428
▁ति	-8.84481
▁लि	-8.84502
▁मई	-8.84745
सर	-8.84805
▁वर्ग	-8.84906
▁पहचान	-8.84952
▁संगठन	-8.85033
▁बह	-8.8509
▁मत	-8.8518
▁अंक	-8.85209
दान	-8.85304
िता	-8.85318
फी	-8.85469
ियन	-8.85474
▁देखते	-8.85778
▁मुंबई	-8.85943
िश	-8.85948
▁ऐ	-8.85959
रत	-8.86038
पु	-8.8605
ट्ट	-8.86055
गल	-8.861
▁चलते	-8.86122
िप	-8.86144
▁मजबूत	-8.86217
▁T	-8.86298
जर	-8.86401
▁पहुंचे	-8.86437
▁साहित्य	-8.86475
▁देर	-8.86582
▁व्यापार	-8.86662
ूल	-8.86674
वें	-8.86745
नगर	-8.87003
डि	-8.87055
▁बनी	-8.87277
▁अवसर	-8.87296
▁शा	-8.87301
▁सरकारी	-8.87424
▁पति	-8.87561
▁स्पष्ट	-8.87703
▁पकड़	-8.87847
तः	-8.87951
▁बयान	-8.88008
बंध	-8.88066
▁आयोजित	-8.8814
v	-8.88166
▁सही	-8.88176
९	-8.88196
▁देशों	-8.88249
शे	-8.88289
▁सामान्य	-8.88548
▁राय	-8.8867
▁ग्राम	-8.88711
ॉल	-8.88729
▁बैठ	-8.88981
▁D	-8.8903
▁दिखा	-8.89105
टो	-8.89137
क्षण	-8.89169
▁नव	-8.89347
▁ठ	-8.89413
▁मौसम	-8.89618
ठा	-8.89628
▁महिलाओं	-8.89753
▁हिस्सा	-8.89816
ेंस	-8.89816
▁स्थानीय	-8.8992
▁कहीं	-8.90151
▁दिखाई	-8.90154
▁भूमिका	-8.90265
▁शाह	-8.90369
▁जल्द	-8.90444
▁पुरुष	-8.90534
▁R	-8.90574
पि	-8.9064
ल्स	-8.90781
▁बेहतर	-8.91053
▁किसानों	-8.91139
▁चाहते	-8.91337
▁शाम	-8.91526
▁नौ	-8.91551
▁लगता	-8.91644
▁मोह	-8.91844
▁सुख	-8.91847
क्त	-8.91928
िम	-8.92019
▁मानव	-8.92266
च्च	-8.92278
ियम	-8.92299
▁एड	-8.92333
दु	-8.92488
▁जवाब	-8.92507
▁रोक	-8.92577
▁घायल	-8.92885
▁देना	-8.92909
▁बर्	-8.92971
▁लौट	-8.92992
▁आर्थिक	-8.93041
▁चे	-8.93233
▁इतना	-8.93278
र्ण	-8.93474
ांत	-8.93529
श्व	-8.93621
▁साफ	-8.93649
▁संबंधित	-8.93949
▁अधिकार	-8.94145
ri	-8.9415
पति	-8.94204
am	-8.94204
▁पंजाब	-8.94211
▁लें	-8.94257
▁बिजली	-8.94325
▁गुरु	-8.94482
▁घंटे	-8.94649
▁मेरी	-8.94693
▁३	-8.94854
िस्ट	-8.95155
▁I	-8.95203
ाइड	-8.9528
यु	-8.95478
▁नदी	-8.95508
▁चीन	-8.95585
▁तेल	-8.95655
▁चीज	-8.95705
▁रू	-8.95781
▁राष्ट्र	-8.96136
and	-8.9616
title	-8.96205
O	-8.96254
▁जमा	-8.96352
▁उससे	-8.96395
प्ल	-8.9648
▁राजस्थान	-8.96484
▁अभियान	-8.96587
▁अनेक	-8.96613
▁रोग	-8.9666
▁जरूरी	-8.97029
▁सात	-8.97128
▁विज्ञापन	-8.97152
कारी	-8.97178
दास	-8.97259
पो	-8.97271
▁N	-8.973
▁सलाह	-8.9738
चे	-8.97401
▁नंबर	-8.97586
▁आवश्यक	-8.97594
▁ऊ	-8.97654
▁कमी	-8.97734
▁चु	-8.97753
▁तेजी	-8.97758
▁छोटे	-8.97911
▁हवा	-8.97916
बार	-8.97958
▁जुलाई	-8.98141
G	-8.98346
▁कराया	-8.98347
▁फि	-8.98465
▁सिद्ध	-8.98495
▁पंचायत	-8.98596
▁एल	-8.98656
▁मिले	-8.987
स्म	-8.98728
ुक	-8.98793
एच	-8.98841
▁अप्रैल	-8.98874
▁फल	-8.98915
▁विवाद	-8.9894
▁सत्य	-8.9904
कू	-8.9917
▁पाया	-8.99221
▁सोमवार	-8.9926
क्टर	-8.9939
▁उठ	-8.99399
▁सहयोग	-8.99595
ड्ड	-8.99811
▁आवश्यकता	-8.99835
▁रहती	-9.00158
re	-9.00413
▁मनुष्य	-9.00478
▁पोस्ट	-9.0053
श्र	-9.00663
हरा	-9.00671
वत	-9.00714
▁ताकि	-9.00729
खे	-9.0079
वल	-9.00791
▁संयुक्त	-9.00836
▁यानी	-9.0085
▁विजय	-9.00891
▁पूजा	-9.00906
▁गि	-9.00927
▁रस	-9.01073
ज़ा	-9.01345
▁याद	-9.0139
▁प्रभावित	-9.01641
▁जु	-9.01645
▁उम्मीद	-9.01748
▁माता	-9.01841
र्न	-9.01894
ल्ट	-9.01903
सू	-9.01958
▁फै	-9.02052
नु	-9.02189
▁सिर	-9.02213
▁गुण	-9.02235
▁पसंद	-9.02243
▁फैसला	-9.02261
▁किस	-9.02325
▁समिति	-9.02413
ाबाद	-9.02519
र्व	-9.02532
▁हासिल	-9.02541
▁जुड़े	-9.02698
▁पहुंचा	-9.02885
▁मू	-9.03117
▁१९	-9.03235
▁ट्रेन	-9.03246
▁वालों	-9.03297
▁आय	-9.03331
▁वन	-9.03521
▁जिसका	-9.03551
▁देवी	-9.03686
▁डॉक्टर	-9.03878
▁सन्	-9.03889
▁अंत	-9.03925
▁दिशा	-9.03963
▁संघ	-9.04008
en	-9.0403
निया	-9.04232
ादि	-9.04247
▁प्रधान	-9.0425
▁जनवरी	-9.04346
▁स्वयं	-9.04404
▁क्षेत्रों	-9.0449
▁निवेश	-9.04497
▁फीसदी	-9.04504
▁हमेशा	-9.04578
▁घोषणा	-9.04668
▁संभावना	-9.04703
▁फोन	-9.04786
▁तय	-9.04795
ज्ञान	-9.04967
▁सामाजिक	-9.04984
▁जमीन	-9.05002
▁लेख	-9.05094
ंदा	-9.05134
ंध	-9.05146
▁वस्तु	-9.05176
▁कट	-9.05206
क्शन	-9.05222
लिया	-9.05262
क्षित	-9.05427
▁वर्तमान	-9.05487
▁नया	-9.05754
▁K	-9.05823
▁ढ	-9.05943
▁पहला	-9.05976
ज्ज	-9.0602
▁बीजेपी	-9.0604
भी	-9.06078
▁पू	-9.06105
▁प्रत्येक	-9.06118
दीप	-9.06225
▁बेहद	-9.06234
▁F	-9.06316
▁सूर्य	-9.06448
क्ति	-9.0657
▁पड़ता	-9.06652
क्षा	-9.06853
▁राजनीतिक	-9.06871
▁अनुभव	-9.06945
▁जैसी	-9.06959
अप	-9.07061
ट्स	-9.0707
▁किसान	-9.07123
ेगा	-9.07135
▁वक्त	-9.0725
▁वही	-9.0726
▁राहुल	-9.0733
▁हटा	-9.07396
कर्म	-9.07437
▁अंदर	-9.07516
ंडे	-9.07685
▁बोर्ड	-9.07742
भूत	-9.07774
टन	-9.08017
▁प्यार	-9.08021
▁अल	-9.08119
▁जय	-9.08189
▁News	-9.08316
▁G	-9.08396
हु	-9.08535
▁लगाने	-9.08573
▁कराने	-9.08605
तो	-9.08634
▁सुधार	-9.08635
▁कौन	-9.08666
िटी	-9.08811
▁समेत	-9.08819
▁टा	-9.08993
▁गलत	-9.09
▁योग	-9.09
▁बिल	-9.09067
ंद्र	-9.0923
▁अतिरिक्त	-9.0929
एल	-9.09321
ed	-9.09345
▁करवा	-9.09376
▁मंगलवार	-9.09505
▁आयोजन	-9.09591
▁आपकी	-9.09678
▁केंद्रीय	-9.09682
▁माल	-9.09769
▁चरण	-9.09917
▁विकेट	-9.09974
▁मर	-9.10255
ic	-9.10431
ऊ	-9.10454
▁क्लिक	-9.10486
▁कॉलेज	-9.10498
▁गाय	-9.10522
▁तु	-9.10541
▁H	-9.10646
ल्ला	-9.10656
▁बुधवार	-9.10833
▁विश्वविद्यालय	-9.10862
्वे	-9.10988
▁राष्ट्रपति	-9.10998
▁दिवस	-9.11096
▁क्ल	-9.11097
लाल	-9.11134
▁जेल	-9.11156
सो	-9.11286
धु	-9.11421
लैंड	-9.11511
▁एक्स	-9.11578
▁रहेगा	-9.11755
स्त्र	-9.1179
ीकरण	-9.11997
भव	-9.12121
्रो	-9.12134
▁रचना	-9.12198
▁शुक्रवार	-9.12238
▁समूह	-9.12256
धे	-9.12256
क्रम	-9.12433
▁रक्षा	-9.12471
▁किये	-9.12496
▁अमर	-9.12655
▁शव	-9.12672
L	-9.12681
▁बल्लेबाज	-9.12787
▁चित्र	-9.12837
▁अंतिम	-9.12879
▁स्टेशन	-9.12899
फो	-9.13114
id	-9.13282
▁उम्र	-9.13431
ेश्वर	-9.1344
▁रेलवे	-9.13477
▁नीति	-9.1352
ॉर्	-9.13618
▁भर्ती	-9.13745
▁भविष्य	-9.13813
▁स्थापित	-9.13813
▁निर्णय	-9.14099
▁लागू	-9.14176
▁अथवा	-9.14201
▁अगले	-9.14203
▁हमारी	-9.1436
▁चले	-9.14399
फ्	-9.14487
ुआ	-9.14533
▁नागरिक	-9.14859
▁घट	-9.15071
▁सभा	-9.15093
▁फोटो	-9.15222
वेद	-9.1537
▁अपराध	-9.15453
▁E	-9.15559
चन	-9.15768
ha	-9.15799
्न	-9.1605
▁न्याय	-9.16146
▁प्रथम	-9.16182
▁दुकान	-9.16234
साथ	-9.16284
▁आते	-9.16457
स्ता	-9.16634
द्व	-9.16744
▁हाई	-9.16796
▁रोड	-9.16833
पोर्ट	-9.16841
▁वर्	-9.16917
▁राज्यों	-9.17002
▁शासन	-9.17031
▁आवेदन	-9.1707
▁भूमि	-9.17194
ाइल	-9.17228
▁हिन्दी	-9.17284
▁बावजूद	-9.17387
F	-9.17398
▁प्रवेश	-9.17478
▁खर्च	-9.17528
ur	-9.17557
▁छा	-9.17646
ियर	-9.17691
मू	-9.17721
▁प्रस्ताव	-9.17739
▁पश्चिम	-9.17761
▁छात्रों	-9.17801
▁सचिव	-9.17852
ad	-9.18062
▁दूसरा	-9.18084
▁देकर	-9.18106
▁कार्यालय	-9.18183
▁टाइ	-9.18262
▁पहन	-9.18301
▁रिलीज	-9.18325
▁उम्मीदवार	-9.18411
▁शिक्षक	-9.18488
▁पैदा	-9.18514
▁दर्शन	-9.18542
▁वहाँ	-9.18572
▁इलाज	-9.18607
▁किन्तु	-9.1869
▁काल	-9.18895
▁रविवार	-9.18905
▁ब्रह्म	-9.18947
▁इनमें	-9.18953
▁मिलता	-9.18969
▁आता	-9.18982
▁कदम	-9.19113
▁हमला	-9.19335
्ड	-9.19476
▁मंत्रालय	-9.1948
▁दावा	-9.19487
▁अमेरिकी	-9.19548
▁पहुँच	-9.19556
▁उद्देश्य	-9.19597
▁खुल	-9.19619
▁छह	-9.19656
▁दृष्टि	-9.19715
▁कहानी	-9.19738
▁हु	-9.19754
▁दवा	-9.19819
▁करेगा	-9.20261
▁उसमें	-9.20322
अलग	-9.20487
▁दौर	-9.20531
्यु	-9.20586
▁परिणाम	-9.20705
फर	-9.20846
▁असर	-9.20927
▁कला	-9.21048
▁ख़	-9.2113
▁बहु	-9.21225
यां	-9.21267
▁शनिवार	-9.215
▁पीड़ित	-9.21554
▁एंड	-9.21963
▁मामलों	-9.21983
फल	-9.2213
मय	-9.22167
le	-9.2224
ro	-9.2224
▁समर्थन	-9.22346
▁सीएम	-9.22348
▁गृह	-9.22352
वादी	-9.22409
▁नेतृत्व	-9.22502
▁जाति	-9.22542
▁विज्ञान	-9.22563
▁मौ	-9.22581
▁बॉलीवुड	-9.22637
▁कृष्ण	-9.22761
▁नुकसान	-9.23016
▁दोस्त	-9.2306
▁बेटी	-9.23069
▁परन्तु	-9.23128
▁निजी	-9.23286
▁चै	-9.23304
्यो	-9.23343
जो	-9.23347
▁खोल	-9.23413
▁अध्ययन	-9.2343
धर	-9.23453
ूँ	-9.2354
▁भीतर	-9.23703
ोड	-9.23704
मर	-9.23878
▁लक्ष्य	-9.23889
द्य	-9.23916
▁तरीके	-9.23934
▁मिनट	-9.23945
▁सामना	-9.23975
▁हार	-9.2408
▁आठ	-9.24102
▁मेरा	-9.24119
▁सांसद	-9.24163
▁विश्वास	-9.24348
▁टो	-9.24353
▁फरवरी	-9.24393
▁वी	-9.24394
स्य	-9.24512
▁जै	-9.24532
▁श्र	-9.24627
▁बदलाव	-9.24811
is	-9.2488
▁सहायता	-9.24908
ंडर	-9.24975
फ्ट	-9.25144
ेक्ट	-9.25184
▁कृषि	-9.25252
▁जैन	-9.25363
▁जाएंगे	-9.25513
▁खत्म	-9.25513
▁बंगाल	-9.2555
शील	-9.25556
वंश	-9.25668
▁छि	-9.25714
ध्य	-9.25865
▁लेते	-9.25951
▁वायरल	-9.25974
ंडा	-9.26007
▁देखकर	-9.26021
▁भावना	-9.26084
▁खो	-9.26106
▁आसपास	-9.26119
▁बातचीत	-9.26137
▁निभा	-9.26175
▁नियम	-9.26309
▁खराब	-9.2642
▁गीत	-9.2648
▁पाए	-9.26593
hn	-9.26609
▁चंद्र	-9.26681
बो	-9.26772
▁जैसा	-9.26828
▁इनके	-9.26896
▁कवि	-9.26903
जित	-9.2693
हो	-9.27021
दो	-9.27022
ंगे	-9.27084
▁बर	-9.27099
▁सम्बन्ध	-9.27129
ाइज	-9.27239
इस	-9.27411
▁अक्सर	-9.27421
र्च	-9.2744
▁सम्मान	-9.27616
▁माह	-9.27645
जीव	-9.27708
▁फ्ल	-9.27737
▁उत्पाद	-9.27754
र्ष	-9.27761
▁चुन	-9.27766
त्ता	-9.27803
▁धारा	-9.27828
▁उनसे	-9.27861
▁पुस्तक	-9.27862
▁समाप्त	-9.27963
▁ईरान	-9.27981
▁सफलता	-9.27984
यन	-9.27998
ालय	-9.28053
▁सीरीज	-9.28143
▁पाल	-9.28156
▁स्वीकार	-9.28162
ol	-9.28195
▁इन्हें	-9.28356
▁राजधानी	-9.28365
लिंग	-9.28403
धान	-9.28489
क्क	-9.28559
▁कप्तान	-9.28641
▁प्रसिद्ध	-9.28801
▁क्षमता	-9.28816
▁सुर	-9.28835
ुष	-9.28843
▁वृद्धि	-9.28927
▁धो	-9.29246
एन	-9.29547
▁खिलाड़ी	-9.296
ब्र	-9.29606
▁पदार्थ	-9.29629
▁आदमी	-9.2973
▁विदेश	-9.29735
▁संस्थान	-9.29766
▁क्ष	-9.29807
▁वाहन	-9.29811
as	-9.29922
▁समा	-9.29946
▁वीर	-9.30009
▁स्थल	-9.30086
▁पैर	-9.30105
न्ना	-9.30176
▁निगम	-9.30204
▁झा	-9.30206
▁युवा	-9.30214
▁जहाँ	-9.30276
▁देती	-9.30282
▁रै	-9.30345
▁शुभ	-9.30369
▁कर्मचारियों	-9.30397
ॉट	-9.30403
▁वर्षों	-9.30464
▁राजनीति	-9.30605
न्ह	-9.30685
▁४	-9.3076
▁तस्वीर	-9.30796
▁L	-9.30797
ing	-9.30846
▁प्रस्तुत	-9.30889
▁मुख	-9.31006
▁फु	-9.31104
H	-9.31144
▁नेताओं	-9.31281
▁दरअसल	-9.31457
▁कपूर	-9.31458
▁ओवर	-9.3146
ch	-9.31461
कर्ता	-9.31493
▁जरिए	-9.31532
▁लंबे	-9.31568
▁आयोग	-9.31736
’	-9.31751
▁तकनीक	-9.31882
▁गुरुवार	-9.31933
▁पुरस्कार	-9.31945
▁मैदान	-9.32093
▁बेच	-9.3223
▁तोड़	-9.32598
▁रिकॉर्ड	-9.32602
▁गुजरात	-9.3273
▁उत्	-9.32804
▁दिसंबर	-9.33068
भि	-9.33115
▁करे	-9.33162
भक्त	-9.33172
फे	-9.33398
डो	-9.33475
▁मोबाइल	-9.33489
▁घो	-9.3352
▁फो	-9.33556
▁सूची	-9.33589
{"	-9.33605
▁गति	-9.33677
▁सुरक्षित	-9.33726
ेन्द्र	-9.33768
न्स	-9.3385
ठी	-9.33873
चल	-9.33884
▁विद्यालय	-9.33934
▁आंदोलन	-9.33939
▁जाकर	-9.33951
▁कार्ड	-9.33952
▁आवाज	-9.34
▁परिषद	-9.34164
st	-9.34171
नू	-9.34175
▁उद्योग	-9.34197
▁अदालत	-9.34279
▁माँ	-9.34347
▁उतर	-9.34481
ाइन	-9.34498
▁दि	-9.34587
वै	-9.34642
कुल	-9.34781
▁बनने	-9.34799
एसपी	-9.34932
▁शानदार	-9.35067
▁प्रश्न	-9.35069
▁बेटे	-9.35325
▁डिग्री	-9.35334
▁पालन	-9.35546
▁भोजन	-9.35618
slug	-9.35757
▁संगीत	-9.35778
▁पहुंची	-9.35781
▁वैज्ञानिक	-9.35783
▁डर	-9.35822
चि	-9.35825
▁मुक्त	-9.3585
दू	-9.35859
ॉन	-9.35875
▁स्टार	-9.35941
▁तलाश	-9.35958
▁उदाहरण	-9.35994
▁विस्तार	-9.36053
▁उत्पन्न	-9.3626
▁रूस	-9.36436
▁शराब	-9.36437
▁प्रसाद	-9.3647
▁मुश्किल	-9.36476
हित	-9.36766
▁सजा	-9.36796
▁फिलहाल	-9.36853
▁हिंदी	-9.36884
गंज	-9.36896
▁श्रद्धा	-9.3696
ृत	-9.36974
▁दस	-9.37017
▁परेशान	-9.37108
▁वोट	-9.37176
hi	-9.37195
▁of	-9.37196
हू	-9.372
▁योग्य	-9.37206
एंगे	-9.37306
▁तापमान	-9.37339
▁सफल	-9.37369
▁मनो	-9.37458
▁पीएम	-9.3748
il	-9.37484
▁जानते	-9.37677
▁जिसकी	-9.37694
द्वार	-9.377
▁प्राथमिक	-9.3771
▁आत्म	-9.37743
▁अरब	-9.37744
भाग	-9.3777
▁ब्रा	-9.37776
▁उत्पादन	-9.37852
▁यूपी	-9.37998
▁दोष	-9.38053
▁प्राचीन	-9.38102
▁मृत्यु	-9.38155
▁पॉ	-9.38262
▁अच्छे	-9.38398
▁खाने	-9.38444
▁खुश	-9.38462
▁मात्रा	-9.38493
▁लखनऊ	-9.38662
▁समुद्र	-9.38702
▁इलाके	-9.39119
एक	-9.39203
▁सत्ता	-9.39207
▁प्रमाण	-9.39289
▁फ़िल्म	-9.39316
▁‘	-9.39386
▁बाइक	-9.3956
वां	-9.39573
▁ग्रामीण	-9.39575
िक्स	-9.39618
▁मूल्य	-9.39635
▁विवाह	-9.3981
▁जुट	-9.39878
र्त	-9.39974
▁संकेत	-9.40059
▁आती	-9.40187
▁परियोजना	-9.40275
ैया	-9.40323
V	-9.40379
▁जिनमें	-9.40436
पात	-9.40567
▁अली	-9.40605
▁स्थापना	-9.40707
गार	-9.40793
▁राहत	-9.4083
▁आपका	-9.4084
▁मिलेगा	-9.40885
▁विधि	-9.40926
ज्ञा	-9.40966
▁पहल	-9.40999
▁लगाए	-9.41084
ड्र	-9.41382
ग्राम	-9.41394
us	-9.41425
ाउंड	-9.41557
▁घाट	-9.41649
स्टर	-9.41724
▁तुलना	-9.41753
▁अक्टूबर	-9.41801
▁सितंबर	-9.41821
▁नरेंद्र	-9.41824
देह	-9.4186
▁विकसित	-9.41882
▁संभव	-9.41946
▁सिं	-9.42238
जीत	-9.42396
▁कब	-9.42447
पाद	-9.42551
▁खु	-9.42641
ात्मक	-9.4268
▁रखते	-9.42836
▁प्ले	-9.42877
▁वरिष्ठ	-9.42917
▁भवन	-9.43103
▁ऑस्ट्रेलिया	-9.43144
म्भ	-9.43155
states	-9.43175
▁मना	-9.43178
▁एयर	-9.43242
ेयर	-9.43295
▁चौक	-9.433
▁त्रि	-9.43369
▁छोटी	-9.43434
▁बुला	-9.43491
▁गंगा	-9.43544
▁भि	-9.43694
▁चाहता	-9.43698
▁उनमें	-9.43702
▁भय	-9.43715
▁गेंदबाज	-9.43813
▁परिवर्तन	-9.4389
▁W	-9.4409
▁पैसे	-9.44125
▁हमने	-9.44447
▁तैयारी	-9.44491
▁धार्मिक	-9.44537
▁अंतर	-9.44558
▁लाइन	-9.44603
श्च	-9.44681
▁कारोबार	-9.44705
णि	-9.44753
▁लड़की	-9.44813
▁टूट	-9.44832
▁महाराष्ट्र	-9.44946
▁नाग	-9.44969
▁इतनी	-9.45099
▁लॉ	-9.4512
x	-9.45209
▁शांति	-9.4521
ात्म	-9.45292
▁खोज	-9.45351
▁तुरंत	-9.45462
▁देखें	-9.45485
लेट	-9.45598
▁तभी	-9.45738
▁डो	-9.45814
तक	-9.45818
▁कही	-9.45823
▁गेंद	-9.45894
▁दू	-9.45903
▁सारे	-9.45988
▁लै	-9.4603
वाई	-9.46099
म्म	-9.4617
▁प्रकाशित	-9.46177
▁कथा	-9.46255
▁नामक	-9.46331
बद्ध	-9.46395
]	-9.4646
▁अहम	-9.46533
▁चिंता	-9.46668
▁साध	-9.46728
▁आखिर	-9.4678
▁सौंप	-9.46821
▁पड़े	-9.46956
▁साइ	-9.47049
▁चिकित्सा	-9.47081
▁फर्	-9.47134
▁अनुमति	-9.47211
▁चाहे	-9.47222
▁५	-9.47256
▁आत्मा	-9.4731
▁मगर	-9.47382
▁फूल	-9.47418
▁हॉ	-9.47446
▁उनको	-9.47458
▁करियर	-9.47658
बु	-9.47659
j	-9.47662
रोह	-9.47683
▁न्यू	-9.477
ांक	-9.47807
▁संत	-9.47818
▁सुना	-9.47853
▁the	-9.47888
रात	-9.4793
पुरा	-9.47953
▁अचानक	-9.47954
▁व्यवहार	-9.47954
▁संस्था	-9.48001
▁भग	-9.48056
▁वैसे	-9.48208
et	-9.48259
▁अवधि	-9.48289
द्द	-9.4843
▁सामग्री	-9.48541
▁स्टोरीज	-9.48596
षा	-9.48717
▁भेजा	-9.48834
वाला	-9.48902
▁सां	-9.4891
▁आधुनिक	-9.48923
▁अनुमान	-9.49033
▁कू	-9.49078
▁जग	-9.49094
▁बनाई	-9.49159
ज्ञ	-9.49264
▁टीवी	-9.49335
▁निर्धारित	-9.4934
▁बढ़ाने	-9.4938
▁प्राण	-9.49562
▁परिजनों	-9.4966
रियल	-9.49866
▁साबित	-9.49937
▁पट	-9.49985
मुख	-9.50003
▁हरि	-9.50052
▁अन्त	-9.50186
▁भो	-9.50273
▁पूछ	-9.50273
▁राव	-9.50358
सिंह	-9.50367
▁नौकरी	-9.5057
▁बातें	-9.50736
ख्या	-9.50803
वृत्ति	-9.50835
▁बचा	-9.50863
▁बहन	-9.50876
न्ध	-9.50901
▁उपस्थित	-9.50918
िये	-9.50932
▁दबाव	-9.51081
▁कविता	-9.51204
▁दोपहर	-9.51214
▁₹	-9.51234
▁शायद	-9.51293
(	-9.51354
ऊँ	-9.51397
▁&	-9.51398
▁पत्रकार	-9.51515
el	-9.51522
▁लेना	-9.51594
▁एशिया	-9.51596
▁आधारित	-9.51888
▁घोषित	-9.5191
वर्त	-9.52036
un	-9.52155
▁डॉलर	-9.52227
▁सप्ताह	-9.5227
▁मुकाबले	-9.52304
▁६	-9.52393
▁ऑनलाइन	-9.52474
▁धीरे	-9.52572
▁संसद	-9.52608
ग्न	-9.52672
▁अंग	-9.52687
लोक	-9.52774
▁वेद	-9.52778
▁प्रभारी	-9.52828
न्या	-9.52835
li	-9.52893
▁इंग्लैंड	-9.52974
ce	-9.52981
th	-9.52998
▁ऊर्जा	-9.53123
▁वायु	-9.53201
▁कंपनियों	-9.53248
▁सवार	-9.53277
टिव	-9.53345
ध्या	-9.53401
▁तर	-9.53428
▁प्रतिनिधि	-9.53467
गण	-9.5351
▁मार्	-9.53567
▁बजट	-9.53605
ाधिकार	-9.53631
K	-9.53677
▁बद	-9.53773
▁चू	-9.53847
▁मिलकर	-9.53935
▁चाहिये	-9.54033
▁वेबसाइट	-9.54039
▁फैल	-9.54061
▁किलोमीटर	-9.54085
झा	-9.54091
▁समारोह	-9.54141
▁युग	-9.54173
▁फिल्मों	-9.54214
▁संपर्क	-9.54224
▁नोट	-9.54276
श्त	-9.54319
▁कर्मचारी	-9.54339
▁आयु	-9.54357
प्ट	-9.54387
भार	-9.54409
▁गिरावट	-9.54466
▁चोट	-9.545
घर	-9.54596
ag	-9.54604
शंकर	-9.54622
पत्ति	-9.54671
▁संस्कृति	-9.54696
▁नवंबर	-9.54755
▁वायरस	-9.54802
इन	-9.54911
▁वृ	-9.54959
▁मिलती	-9.54988
वेश	-9.55109
▁हमले	-9.55117
▁आइ	-9.55236
▁जिन्होंने	-9.55278
▁चयन	-9.55492
▁ग्रामीणों	-9.55514
▁परिसर	-9.55565
▁विशेषज्ञ	-9.55581
ir	-9.55707
ब्ब	-9.55789
▁विमान	-9.55805
▁लु	-9.55878
▁लेखक	-9.55995
▁मेडिकल	-9.56003
▁स्वरूप	-9.5601
▁पारी	-9.56036
▁सच	-9.56071
▁हृदय	-9.56121
▁[	-9.56205
▁अर्	-9.56293
▁रखना	-9.56389
▁आरोपियों	-9.56468
▁हरियाणा	-9.56628
▁पुराने	-9.56637
▁महाराज	-9.56673
▁स्वामी	-9.567
▁जिन्हें	-9.5671
▁चोरी	-9.56754
▁दर्द	-9.56785
▁सत्र	-9.56795
▁सदस्यों	-9.5682
▁वर्षीय	-9.56844
▁गर्म	-9.56846
▁/	-9.56948
▁सिस्टम	-9.5695
▁संघर्ष	-9.56975
पत्र	-9.57
▁तत्व	-9.57015
▁दम	-9.57051
▁कार्यों	-9.57132
▁उम	-9.57174
▁पौ	-9.57222
▁खड़े	-9.57251
▁V	-9.57298
▁मौका	-9.57324
दर्श	-9.57442
▁चीनी	-9.57623
▁हेतु	-9.57662
▁प्रणाली	-9.57673
▁बताते	-9.57901
ॅ	-9.57911
▁खूब	-9.57914
▁मॉ	-9.57985
▁फैंस	-9.58008
▁पशु	-9.58055
▁गोल	-9.58078
▁करेगी	-9.58083
▁वित्त	-9.58148
द्वीप	-9.58156
▁मतलब	-9.58165
▁साम	-9.58179
▁इच्छा	-9.58224
डर	-9.58237
▁उपचार	-9.5828
▁रखी	-9.58331
▁प्रचार	-9.5854
▁पेट	-9.58571
▁मिश्र	-9.5862
शाला	-9.58759
▁पृथ्वी	-9.58801
▁मीटर	-9.58824
▁कश्मीर	-9.58862
ियत	-9.59019
▁महत्व	-9.59068
▁मॉडल	-9.59094
▁डिजिटल	-9.59127
▁पंच	-9.5914
▁जरूर	-9.59303
▁आधिकारिक	-9.59479
▁पूछा	-9.59503
▁मान्यता	-9.59594
▁ऑफिस	-9.59597
▁मार्केट	-9.59663
▁आवास	-9.59679
▁वर्णन	-9.5969
लाइ	-9.59732
▁सुनिश्चित	-9.59747
▁हल	-9.59793
▁संक्रमण	-9.5982
▁उपाय	-9.59824
▁संग	-9.59856
▁न्यायालय	-9.5992
▁सहायक	-9.59945
ाचार्य	-9.5999
▁बनाकर	-9.60064
▁सार्वजनिक	-9.60077
▁रखें	-9.60086
▁हालत	-9.60213
वाली	-9.6031
▁O	-9.60326
▁पहाड़	-9.60389
▁शैल	-9.60457
▁कल्याण	-9.60567
शाली	-9.60623
▁जंगल	-9.60925
▁हमारा	-9.60935
▁विकल्प	-9.61016
▁दूध	-9.61065
थि	-9.6111
▁महसूस	-9.61159
िनी	-9.61245
▁भु	-9.61337
▁पूछताछ	-9.61443
म्बर	-9.61465
▁कठिन	-9.61481
▁जवान	-9.61492
फॉर्म	-9.61501
▁इनका	-9.61535
▁समझा	-9.61574
▁आनंद	-9.61666
▁गैस	-9.61853
▁मिलते	-9.61859
▁ग्रे	-9.61974
▁अपील	-9.62137
▁गर्मी	-9.62179
क्का	-9.62208
▁श्रा	-9.62247
▁भुगतान	-9.6239
▁मंडल	-9.62478
▁सामान	-9.62478
▁चौधरी	-9.62553
▁चली	-9.62647
▁गोली	-9.62769
▁श्रम	-9.6282
▁अभिनेता	-9.62894
▁अर्थात्	-9.62903
=	-9.63042
▁ठाकुर	-9.63118
▁टैक्स	-9.63238
▁संजय	-9.63251
▁एक्ट्रेस	-9.63295
िकल	-9.63318
▁सक्रिय	-9.63459
▁स्वतंत्रता	-9.6352
ॉय	-9.63547
▁विदेशी	-9.63576
भाष	-9.63715
▁दिला	-9.63715
▁कोविड	-9.63738
▁बैठे	-9.63762
▁बरामद	-9.63918
z	-9.63928
▁हादसे	-9.63954
इयों	-9.64074
▁तीनों	-9.64087
▁प्रकृति	-9.6411
▁जिलों	-9.64122
▁मजदूर	-9.64259
sh	-9.64375
▁कौ	-9.64386
▁उचित	-9.64396
▁सोने	-9.6454
▁ग्रहण	-9.64546
▁गाँव	-9.64553
▁ट्वीट	-9.64593
▁आउट	-9.6462
▁घरेलू	-9.64681
▁कमजोर	-9.64686
▁लोकसभा	-9.64694
▁शीर्ष	-9.64708
▁अहमद	-9.64775
▁जुड़ी	-9.6481
▁लाइफ	-9.64845
मैन	-9.64862
ग़	-9.64899
▁उतार	-9.64953
▁उद्	-9.64986
▁J	-9.65214
जनक	-9.65223
▁तैनात	-9.65336
▁प्रबंधन	-9.65379
▁चालक	-9.65475
▁विपक्ष	-9.65506
▁शुद्ध	-9.65544
▁काव्य	-9.6558
▁बाकी	-9.65921
▁योगी	-9.65967
▁पेट्रोल	-9.66008
▁अल्	-9.66081
▁रेल	-9.66219
▁अंतरराष्ट्रीय	-9.66346
▁स्टोर	-9.66606
▁गैर	-9.6662
ानु	-9.66731
्टी	-9.6674
▁इस्लाम	-9.66816
▁साधन	-9.67004
▁दुख	-9.67098
▁सुप्रीम	-9.67196
▁मृतक	-9.67277
▁तीसरे	-9.67288
▁चलने	-9.67299
▁दशक	-9.67346
▁समाधान	-9.67499
▁महान	-9.67576
▁बढ़ने	-9.67579
▁श्रेणी	-9.6763
▁आर्	-9.67646
▁झु	-9.67713
▁पेड़	-9.67725
▁जिसने	-9.67835
▁संकट	-9.67839
▁याचिका	-9.67869
▁क्रिया	-9.6806
▁पार्क	-9.68134
▁सुंदर	-9.68207
▁रवि	-9.68244
▁सुपर	-9.68256
▁आसान	-9.68256
▁मित्र	-9.68333
बन्ध	-9.68456
▁गरीब	-9.68469
▁गुप्ता	-9.68545
▁पैसा	-9.68692
▁सीधे	-9.68812
लाई	-9.68858
▁नियंत्रण	-9.68917
▁बीते	-9.68933
व्या	-9.69067
▁पड़ी	-9.69173
▁खाना	-9.6925
▁हिंदू	-9.69252
▁रज	-9.6938
▁समुदाय	-9.69426
▁दान	-9.69556
्टर	-9.69563
▁गाड़ी	-9.69606
▁डाय	-9.69622
▁भेद	-9.69691
▁एव	-9.69705
पन्न	-9.69725
▁पर्याप्त	-9.69844
▁खेत	-9.69856
▁मधु	-9.69912
▁क्रम	-9.6994
▁अवैध	-9.69952
▁नाटक	-9.69991
रोध	-9.70016
▁होटल	-9.70253
▁Re	-9.70263
▁फसल	-9.70519
▁पाई	-9.70616
▁समीक्षा	-9.70657
▁ईश्वर	-9.70697
▁रास्ते	-9.70739
▁स्त्री	-9.70787
▁क्वा	-9.709
▁स्थानों	-9.70903
▁रुक	-9.70985
▁तनाव	-9.71023
▁हित	-9.71055
▁इन्	-9.7115
▁थोड़ा	-9.7116
▁रहेगी	-9.71232
har	-9.71286
▁संग्रह	-9.71377
डीए	-9.7142
▁निश्चित	-9.71529
▁इलाकों	-9.7153
▁औ	-9.71542
pur	-9.71576
व्ह	-9.71591
▁लोकप्रिय	-9.71653
▁पर्वत	-9.71751
▁पुल	-9.7185
भारत	-9.71934
नारायण	-9.71942
▁कड़ी	-9.71972
▁मकान	-9.72001
▁व्यक्त	-9.72055
▁भूल	-9.72088
शहर	-9.7215
▁सुनवाई	-9.72158
योजन	-9.7216
▁विशाल	-9.72163
▁निष्	-9.7217
▁रॉ	-9.72214
▁जिम्मेदारी	-9.72299
▁आंख	-9.72619
▁मालिक	-9.72652
▁इनकी	-9.72871
र्ब	-9.72888
▁प्रशिक्षण	-9.72951
▁मुस्लिम	-9.72965
▁सारी	-9.73147
दृश्य	-9.73202
▁उपकरण	-9.73269
▁मानना	-9.73297
▁बेस	-9.73297
▁पात्र	-9.73473
▁इतने	-9.7351
ृष्ट	-9.7356
▁कमरे	-9.73592
la	-9.73703
▁लाने	-9.73824
han	-9.73842
▁दूरी	-9.73866
्‍	-9.74082
▁कलाकार	-9.74084
▁उल्लेख	-9.74182
▁बीमारी	-9.74198
▁योगदान	-9.74212
▁मंत्र	-9.74374
di	-9.74442
▁हथियार	-9.74479
▁टिकट	-9.74494
▁अमित	-9.74514
W	-9.74518
▁पुष्टि	-9.7455
▁इंटर	-9.74651
▁सलमान	-9.74799
▁आकर	-9.74858
▁धारण	-9.74903
▁मिलेगी	-9.74947
▁खड़ा	-9.74963
तू	-9.74967
▁मात्र	-9.74999
▁घूम	-9.75154
पूर्वक	-9.75201
▁तार	-9.75203
▁समस्याओं	-9.75204
▁ग्राहक	-9.75344
कल्प	-9.75351
▁पश्चिमी	-9.75422
▁फैसले	-9.7553
▁२०	-9.75543
ऑ	-9.7562
▁कराई	-9.75625
▁समाचार	-9.75833
▁बीमार	-9.75836
▁संसार	-9.75872
▁चलता	-9.75875
▁गुजर	-9.75924
▁वास्तव	-9.75937
▁त्याग	-9.76057
Y	-9.76073
▁लागत	-9.76079
▁पाने	-9.76079
▁टै	-9.76217
▁व्यापक	-9.76332
दर्शन	-9.7634
▁भिन्न	-9.76367
मंडल	-9.76368
▁बाबा	-9.7642
▁यथा	-9.76516
कालीन	-9.76664
▁अधि	-9.76712
▁रहना	-9.76722
▁चंद	-9.76725
▁लक्षण	-9.76747
▁ठंड	-9.76822
▁लड़ाई	-9.7684
▁नील	-9.76853
▁रक्त	-9.76946
लाइन	-9.76967
▁असम	-9.77027
▁देंगे	-9.77088
▁परेशानी	-9.77182
▁आखिरी	-9.77258
▁शोध	-9.77333
▁सेंटर	-9.77428
▁छूट	-9.77442
भाषा	-9.77457
त्मक	-9.77516
▁वर्मा	-9.77545
▁जल्दी	-9.77587
▁आये	-9.77603
बै	-9.77625
▁आपने	-9.77644
▁मुलाकात	-9.77664
▁संपत्ति	-9.77703
▁युवाओं	-9.77775
▁कथित	-9.77857
▁नो	-9.77862
ध्व	-9.78024
▁विद्या	-9.78031
कृति	-9.78053
▁ऐतिहासिक	-9.78175
▁नियमों	-9.78207
▁रेखा	-9.78276
▁पढ़ाई	-9.78382
नेवाले	-9.78462
▁समर्थ	-9.78588
▁रोकने	-9.78623
▁अंतर्गत	-9.78854
▁बहा	-9.78929
शाह	-9.78934
▁टू	-9.78986
▁रखे	-9.79003
▁खंड	-9.79013
यंत्र	-9.7907
▁वर्ल्ड	-9.7916
▁जम्मू	-9.79162
▁शिकार	-9.7924
▁रहेंगे	-9.79282
▁संस्कृत	-9.79282
▁मरीजों	-9.79292
▁इंतजार	-9.79355
▁प्रतिक्रिया	-9.79355
ैक्ट	-9.79385
िस्तान	-9.79423
स्कर	-9.79448
▁जगत	-9.79466
▁चक्र	-9.79652
▁मानसिक	-9.797
▁तट	-9.7973
▁बुद्धि	-9.79834
▁छु	-9.8
▁प्रेस	-9.8001
▁नेशनल	-9.80016
▁प्लान	-9.80088
▁तू	-9.8009
एसए	-9.80101
▁अतः	-9.80129
▁चाहती	-9.80163
▁छोड़कर	-9.80292
▁मशीन	-9.80334
▁शब्दों	-9.80339
▁मतदान	-9.80468
X	-9.80608
▁प्रतियोगिता	-9.80638
▁नियमित	-9.8068
▁बढ़कर	-9.80736
बोध	-9.80747
▁जाये	-9.80749
▁कार्यकर्ताओं	-9.80781
▁उसको	-9.81062
▁रोज	-9.81236
▁कितना	-9.81263
▁बढ़ती	-9.81267
▁अति	-9.8141
▁रेट	-9.81446
पूर्व	-9.81503
▁पाठ	-9.81602
▁अधिकांश	-9.81669
▁लगने	-9.81676
▁मौजूदा	-9.81841
▁खिलाड़ियों	-9.81862
▁हिंसा	-9.81934
भोग	-9.8195
वॉ	-9.81966
▁सूत्रों	-9.81971
▁अशोक	-9.81984
▁रिश्ते	-9.82014
▁सीजन	-9.82115
▁पाप	-9.82124
▁|	-9.82401
▁चढ़	-9.82582
▁वास्तविक	-9.82665
▁सीख	-9.82762
▁वार्ड	-9.82848
▁एजेंसी	-9.8287
▁सागर	-9.83029
बाजी	-9.83058
▁लॉन्च	-9.83224
▁ढा	-9.83331
▁बजाय	-9.83415
मैं	-9.83463
▁माहौल	-9.83487
▁उत्साह	-9.83504
▁पहुंचने	-9.83513
▁चाह	-9.83651
▁ब्राह्मण	-9.83703
▁सिनेमा	-9.83753
▁मिश्रा	-9.83772
ul	-9.83816
▁जिनके	-9.83878
▁पटना	-9.83942
▁सैन्य	-9.83962
▁सारा	-9.84128
▁संदर्भ	-9.842
▁अजय	-9.84221
▁न्यूज	-9.84286
मिन	-9.84303
▁जमकर	-9.84353
▁तहसील	-9.84356
▁देवता	-9.84458
▁फाइनल	-9.84513
▁मानते	-9.84576
▁खतरा	-9.8469
परि	-9.84742
▁चेहरे	-9.84809
▁किशोर	-9.84814
▁Update	-9.84981
▁आईपीएल	-9.84981
▁आपूर्ति	-9.85017
▁वाहनों	-9.85028
▁फायदा	-9.85092
ङ्ग	-9.85119
ut	-9.85138
▁लिस्ट	-9.85161
▁मूर्ति	-9.85311
▁क्रि	-9.85384
▁टॉ	-9.85453
▁पुरानी	-9.85458
▁हिन्दू	-9.855
▁जापान	-9.85565
▁रूसी	-9.85737
ख़	-9.8575
▁आकार	-9.8579
▁किनारे	-9.85823
▁प्राकृतिक	-9.85927
▁कक्षा	-9.85942
▁सख्त	-9.85956
▁समस्त	-9.85968
हाँ	-9.85989
▁ग्रुप	-9.86007
▁उड़	-9.86111
▁यूक्रेन	-9.86212
▁अवस्था	-9.86222
▁सफाई	-9.86231
om	-9.86374
▁यात्रियों	-9.86437
▁अपेक्षा	-9.86549
▁तमाम	-9.86572
▁अग्नि	-9.86643
▁खाद्य	-9.86722
▁आसानी	-9.8678
ख्त	-9.86866
▁मोहम्मद	-9.86881
▁तारीख	-9.87005
▁पर्यावरण	-9.87025
▁झारखंड	-9.87201
▁हाउस	-9.87315
ेक्शन	-9.87354
▁विराट	-9.87453
▁छोटा	-9.87523
▁हिमाचल	-9.87539
टेल	-9.87541
▁हवाई	-9.87569
▁१८	-9.87629
▁जिंदगी	-9.87636
▁आचार्य	-9.87653
▁कोहली	-9.87671
▁दौड़	-9.87716
ation	-9.87797
▁वित्तीय	-9.87971
▁तथ्य	-9.88008
▁ट्रांस	-9.88089
▁पटेल	-9.88103
▁प्रतिबंध	-9.88163
▁नेटवर्क	-9.88217
▁उदय	-9.88305
▁संचालन	-9.88314
▁तत्काल	-9.88358
▁१०	-9.88373
क्षेप	-9.88476
▁डिजाइन	-9.88818
▁रोहित	-9.88822
▁मंच	-9.88899
–	-9.88998
ष्ण	-9.89008
कृष्ण	-9.89099
▁प्रतिभा	-9.89101
िष्	-9.89215
▁स्वागत	-9.89539
▁जर्मन	-9.8954
▁ट्विटर	-9.89604
ma	-9.89627
▁संदेश	-9.89787
▁बोले	-9.89874
▁कहने	-9.8996
खण्ड	-9.89961
▁बाग	-9.89965
ऋ	-9.90059
ot	-9.90086
▁दिये	-9.9016
▁अंग्रेजी	-9.90171
▁हिस्से	-9.9018
▁संभाल	-9.90226
क्ख	-9.90394
▁ब्रिटिश	-9.90395
▁शुक्ल	-9.90429
▁व्यक्तिगत	-9.90436
▁स्टाइल	-9.90647
▁सपा	-9.90713
▁लुक	-9.90785
▁कपड़े	-9.91054
▁कितने	-9.91156
▁बीज	-9.91207
▁नवीन	-9.91275
▁मरीज	-9.91424
▁दुर्ग	-9.9148
पिता	-9.91492
▁टॉप	-9.9151
र्प	-9.91536
ऽ	-9.91544
▁गुणवत्ता	-9.91611
▁कुं	-9.91714
▁ट्रैक	-9.91746
▁फंस	-9.91802
▁चेक	-9.9188
▁चैनल	-9.91997
▁साझा	-9.92196
नायक	-9.9221
▁किरदार	-9.92226
ter	-9.92261
ak	-9.92291
▁सीमित	-9.92327
▁दायर	-9.9238
▁दिखाया	-9.92425
▁लंबी	-9.92575
▁खुशी	-9.92597
▁आर्य	-9.92654
▁रानी	-9.9285
▁प्रकट	-9.92878
मंत्री	-9.92881
▁मिट्टी	-9.92945
▁परंपरा	-9.9296
▁सम्मानित	-9.92982
▁मुद्दे	-9.93013
र्पण	-9.93117
▁गहरा	-9.93137
▁चुनौती	-9.93148
▁पत्थर	-9.932
▁उक्त	-9.93397
▁पुनर्	-9.93455
+	-9.93541
▁अधिनियम	-9.93609
▁लीग	-9.93609
story	-9.93734
▁खाते	-9.93917
▁आतंकवाद	-9.93969
▁छत्तीसगढ़	-9.93986
▁ग्ल	-9.94039
▁रोजगार	-9.94064
▁दर्शकों	-9.9409
▁घेर	-9.94177
▁फैला	-9.94204
▁व्यवसाय	-9.94209
▁खुलासा	-9.94331
▁आशा	-9.94349
▁विशिष्ट	-9.94364
▁ठहर	-9.94423
▁आकाश	-9.94448
बुद्ध	-9.9445
घात	-9.94487
▁ग्रंथ	-9.94536
चु	-9.94537
ab	-9.94557
▁कितनी	-9.94578
▁सिटी	-9.94581
▁सकें	-9.94602
▁तिवारी	-9.94607
ia	-9.9462
▁बचाने	-9.94668
▁विद्युत	-9.94692
▁खाली	-9.94697
भूमि	-9.9478
र्ध	-9.94821
▁थोड़ी	-9.94831
▁परीक्षण	-9.9509
▁कर्नाटक	-9.95125
▁घुस	-9.95275
▁ग्रन्थ	-9.95316
▁खूबसूरत	-9.95369
▁वैश्विक	-9.95577
▁कॉल	-9.95604
▁सम्मेलन	-9.95734
▁लूट	-9.95762
▁लगाई	-9.9592
▁अमृत	-9.96087
▁स्थिर	-9.9612
▁मालूम	-9.96245
राष्ट्र	-9.96275
▁इंजीनियर	-9.96383
▁निर्भर	-9.96432
▁लगाकर	-9.96476
▁चढ़ा	-9.96672
▁निरीक्षण	-9.96718
धीरे	-9.96772
▁भक्ति	-9.96776
▁उर्फ	-9.96876
▁निकाला	-9.96917
वर्ती	-9.97056
▁योजनाओं	-9.97096
▁चेतावनी	-9.97106
▁अभिनेत्री	-9.97142
▁pm	-9.97165
▁भले	-9.97193
▁निकट	-9.97404
क्की	-9.97487
ay	-9.97554
▁अफ्रीका	-9.97568
▁विष्णु	-9.9771
ss	-9.97739
▁प्रतीक	-9.97748
▁बांग्लादेश	-9.97906
▁बराबर	-9.98014
▁मुसलमान	-9.98031
धू	-9.98068
▁उधर	-9.98146
▁खेती	-9.98176
▁साहब	-9.98233
▁गाने	-9.98286
▁बौद्ध	-9.98336
▁दस्तावेज	-9.98371
▁श्रीलंका	-9.98515
▁आबादी	-9.98516
▁शताब्दी	-9.98533
▁आदर्श	-9.98639
▁नष्ट	-9.98652
▁गठन	-9.98704
▁नाराज	-9.98788
भेद	-9.98798
वासियों	-9.98827
▁सिख	-9.98881
याँ	-9.99
कुमार	-9.99028
▁निदेशक	-9.99075
धर्म	-9.9925
▁प्रोजेक्ट	-9.9929
▁निर्माता	-9.99346
▁रणनीति	-9.99417
▁नियुक्त	-9.99461
▁मिशन	-9.99669
▁आराम	-9.99726
▁गोल्ड	-9.99739
▁निधन	-9.99785
▁लगती	-9.998
▁बिल्कुल	-9.99871
▁पवित्र	-9.99964
▁उठाया	-9.99972
ट्ठ	-9.99976
▁वनडे	-9.99979
▁जयपुर	-10.0001
▁बदमाश	-10.0002
▁परिवहन	-10.0005
▁कल्पना	-10.0007
▁एक्ट	-10.0009
▁विरुद्ध	-10.0009
▁टूर्नामेंट	-10.0011
▁औसत	-10.0011
type	-10.0011
▁फंड	-10.0029
status	-10.0051
▁द्वितीय	-10.0062
▁तिथि	-10.0062
▁देगा	-10.0062
▁फेंक	-10.0069
*	-10.0071
▁इंडियन	-10.0077
▁शेष	-10.0089
▁संबोधित	-10.0091
publish	-10.0112
▁साधारण	-10.0119
▁दुर्घटना	-10.0123
▁इधर	-10.0125
na	-10.0142
▁ऋषि	-10.0149
▁एक्सप्रेस	-10.0162
▁वैक्सीन	-10.0162
▁जताई	-10.0164
▁कमाई	-10.0166
▁महामारी	-10.0167
्हे	-10.0171
▁बिक्री	-10.0173
▁ड्राइव	-10.0184
ुअल	-10.0209
▁मिस	-10.0211
▁शाखा	-10.0215
▁मनाया	-10.0231
▁रास्ता	-10.0238
▁किताब	-10.0252
▁कमेटी	-10.0254
▁अधिकतम	-10.0264
▁लहर	-10.0286
▁दाखिल	-10.0286
▁१६	-10.0291
▁ज्यादातर	-10.0293
▁अर्जुन	-10.0303
▁ऑटो	-10.0308
▁हिसाब	-10.0318
▁खड़ी	-10.0322
▁बांध	-10.0322
▁दर्शा	-10.0324
▁ट्रक	-10.0326
▁वजन	-10.0333
▁बढ़ावा	-10.035
um	-10.0366
▁फ्रांस	-10.0368
▁फरार	-10.0388
▁झूठ	-10.04
▁संरक्षण	-10.0415
▁अग्रवाल	-10.0415
▁अनिल	-10.0416
▁नोटिस	-10.0422
▁पड़ेगा	-10.0424
▁पाँच	-10.0429
▁हफ्ते	-10.0436
▁मुख्यालय	-10.0437
▁भट्ट	-10.0441
▁स्वच्छ	-10.0447
▁कार्यकर्ता	-10.0448
▁यूरोप	-10.0452
▁जड़	-10.0455
▁आशंका	-10.0459
▁दीपक	-10.0464
▁निशान	-10.0465
ya	-10.0473
▁विवरण	-10.0476
▁प्रताप	-10.0479
▁बुरा	-10.0485
▁इंडस्ट्री	-10.0487
▁कोलकाता	-10.0505
▁धमकी	-10.0512
▁मारपीट	-10.0535
▁हालात	-10.0538
▁प्रभु	-10.0539
इंट	-10.0543
▁स्टे	-10.0544
▁वेतन	-10.0547
▁चोर	-10.0556
“	-10.056
▁अंदाज	-10.0571
▁संस्कार	-10.0574
वृत्त	-10.0578
▁इंजन	-10.0588
▁उत्तराखंड	-10.0593
▁जहाज	-10.0598
▁जुड़ा	-10.06
प्शन	-10.0602
▁दुष्	-10.0606
▁एक्सपर्ट	-10.061
▁पाठक	-10.0623
▁विद्वान	-10.0625
▁ढंग	-10.0625
▁जिम्मेदार	-10.0634
ct	-10.0639
▁दिव्य	-10.0642
▁श्रृंखला	-10.0643
▁सिद्धांत	-10.0645
▁त्वचा	-10.0646
▁प्रबंध	-10.0654
▁प्रगति	-10.0683
▁सक्षम	-10.0684
मोह	-10.0687
मिट	-10.0688
lo	-10.0688
ग्राफ	-10.0691
▁In	-10.0694
▁गतिविधियों	-10.0694
▁अग्र	-10.071
▁यूजर्स	-10.0714
▁दीवार	-10.0715
▁गौरतलब	-10.0718
▁यश	-10.0727
▁जनरल	-10.0727
▁आलोचना	-10.0729
॰	-10.0731
▁अनिवार्य	-10.0739
▁मेहनत	-10.0741
▁निवास	-10.0749
▁केरल	-10.0749
▁संस्करण	-10.0782
▁गर्भ	-10.0788
▁शांत	-10.0794
▁सांस्कृतिक	-10.0794
▁स्वतंत्र	-10.0814
मन्त्र	-10.0816
city	-10.0816
▁निगरानी	-10.082
▁अवश्य	-10.082
▁स्कोर	-10.0824
▁मंगल	-10.0827
▁एंटी	-10.0836
भूषण	-10.0848
category	-10.0856
▁चिकित्सक	-10.086
▁यूनिवर्सिटी	-10.086
▁दौरे	-10.0864
"}}	-10.0877
▁रच	-10.0884
▁चमक	-10.0895
▁सावधान	-10.0913
▁संविधान	-10.0931
▁वकील	-10.0975
▁अकाउंट	-10.0978
▁अंतर्राष्ट्रीय	-10.0979
▁हिस्सों	-10.0982
▁महिलाएं	-10.0992
▁दुःख	-10.0994
City	-10.0996
▁मचा	-10.1003
▁बाबू	-10.1013
▁स्रोत	-10.1015
▁लक्ष्मी	-10.1016
▁डेटा	-10.1027
ावली	-10.1027
▁बढ़ोतरी	-10.103
▁बचाव	-10.1033
▁मुद्रा	-10.1035
▁खींच	-10.1036
▁ऐलान	-10.1036
▁भगवान्	-10.1062
बीएस	-10.1075
सूर	-10.1095
पीएस	-10.1095
▁विद्यार्थियों	-10.1103
ोत्तर	-10.1106
▁तस्वीरें	-10.1107
▁निशाना	-10.1114
▁This	-10.1117
कॉम	-10.1121
▁शारीरिक	-10.1127
▁साम्राज्य	-10.1127
▁विविध	-10.1133
बंदी	-10.1144
”	-10.1152
चित्र	-10.1155
▁अक्षय	-10.1157
▁कौशल	-10.1172
▁अर्थव्यवस्था	-10.1187
▁मुकाबला	-10.1195
▁विस्तृत	-10.1195
▁सुन्दर	-10.1198
▁सुनकर	-10.1201
▁अंध	-10.1201
▁बिग	-10.1205
▁आगामी	-10.121
▁एक्टर	-10.122
▁जागरूक	-10.1222
▁मजबूर	-10.1226
▁चौहान	-10.124
ानुसार	-10.1243
ल्फ	-10.1257
▁लंबा	-10.1258
▁लगते	-10.1264
▁विष	-10.1287
▁पंडित	-10.1288
▁इंटरनेट	-10.1292
▁उड़ान	-10.1322
▁पीठ	-10.1325
▁तीर्थ	-10.1326
▁खून	-10.1329
▁गेम	-10.1332
est	-10.1336
▁घटनाओं	-10.1341
▁व्यक्तियों	-10.1341
▁शासक	-10.1343
▁क्लब	-10.1347
▁मुकदमा	-10.1352
िणी	-10.1357
▁ताकत	-10.1359
▁वितरण	-10.1365
▁कंट्रोल	-10.1367
▁टक्कर	-10.1367
▁भरोसा	-10.1369
▁जितना	-10.1378
▁स्टेट	-10.1379
▁व्याख्या	-10.1386
▁चेन्नई	-10.139
▁परंतु	-10.1392
▁तुम्हारे	-10.1394
ल्ले	-10.1396
▁website	-10.1398
▁पार्ट	-10.1404
▁प्रसन्न	-10.1414
▁अभ्यास	-10.1423
▁इत्यादि	-10.1426
▁गौरव	-10.1437
▁राह	-10.145
▁चाय	-10.1451
▁ब्लॉक	-10.147
▁सूख	-10.1474
▁विधान	-10.1476
▁पावर	-10.1479
गांव	-10.149
▁खुले	-10.1491
▁महत्त्व	-10.1493
▁इंस्टाग्राम	-10.1497
▁राजकुमार	-10.1519
▁लाया	-10.1524
▁स्वस्थ	-10.1536
▁दोबारा	-10.1563
▁भ्रम	-10.1571
▁हिरासत	-10.158
▁ट्रेड	-10.159
▁ज़्यादा	-10.1602
प्ला	-10.1614
डब्ल्यू	-10.1616
ja	-10.1632
▁भोपाल	-10.1637
▁अपडेट	-10.1647
▁राजेश	-10.1647
▁उपभोक्ता	-10.1649
▁बॉक्स	-10.1653
ا	-10.1681
▁निफ्टी	-10.1688
▁विवेक	-10.171
एमसी	-10.172
▁माइ	-10.1727
▁सर्विस	-10.1731
▁प्रिय	-10.1734
▁हैदराबाद	-10.1737
▁प्रियंका	-10.1752
J	-10.1776
▁चार्ज	-10.1779
▁नीतीश	-10.1787
▁डूब	-10.1798
▁सकेंगे	-10.1804
▁अरुण	-10.1807
▁संक्रमित	-10.1813
▁स्वभाव	-10.1817
▁ट्रंप	-10.1823
▁टु	-10.1824
एसटी	-10.1835
▁मनोज	-10.1836
▁शर्त	-10.1842
▁विपरीत	-10.1844
▁पोस्टमार्टम	-10.1851
▁जुड़	-10.1854
▁प्रार्थना	-10.1856
▁राजीव	-10.1864
▁हंस	-10.1872
▁बाढ़	-10.1891
काउंट	-10.1894
▁संचालित	-10.1901
▁उपन्यास	-10.1903
▁दिलचस्प	-10.1906
▁प्रत्यक्ष	-10.1913
tion	-10.1919
▁सुनील	-10.1921
▁स्टेडियम	-10.1921
▁इंसान	-10.1933
एनए	-10.1934
ूंगा	-10.1952
up	-10.1953
▁द्रव्य	-10.1964
▁गुप्त	-10.1966
▁बेहतरीन	-10.1967
▁उपस्थिति	-10.1979
ाध्यक्ष	-10.1985
▁शूटिंग	-10.199
▁संरचना	-10.1992
▁नज़र	-10.1994
▁महीनों	-10.2001
▁यात्री	-10.2005
▁आमतौर	-10.2005
▁युवती	-10.2008
▁गौतम	-10.2021
▁संसाधन	-10.2023
▁न्यूनतम	-10.2023
▁स्वीकृत	-10.2026
▁तर्क	-10.2028
▁फार्म	-10.2028
इंग	-10.203
▁शुल्क	-10.2037
▁तीसरी	-10.2043
▁चरित्र	-10.2046
▁स्मृति	-10.2057
▁पर्यटन	-10.2057
▁सफेद	-10.2068
▁पुनः	-10.2079
▁हनुमान	-10.2086
▁यद्यपि	-10.209
▁गेट	-10.2097
▁अन्तर	-10.2117
▁मृत	-10.2118
शियल	-10.2121
▁बिजनेस	-10.2124
▁फायदे	-10.2129
▁मिलियन	-10.2132
com	-10.2133
भ्र	-10.2136
▁निर्मित	-10.2147
▁अफसर	-10.2158
▁कुर्	-10.217
▁स्टॉक	-10.2189
▁कानपुर	-10.2193
▁ममता	-10.2195
क्षेत्र	-10.2196
▁रफ्तार	-10.2208
▁कोतवाली	-10.2209
▁मतदाता	-10.2222
▁दुर्	-10.2223
▁अनुकूल	-10.224
▁शहीद	-10.2242
▁मुद्दों	-10.2247
▁प्रेरित	-10.2258
ानंद	-10.2259
▁अखिलेश	-10.2265
▁ज्ञात	-10.2285
▁लिमिटेड	-10.229
▁शिविर	-10.2299
▁हाईकोर्ट	-10.2304
▁संकल्प	-10.2309
▁क्लास	-10.2315
गुण	-10.2316
▁निर्वाचन	-10.232
▁पेंशन	-10.232
▁Code	-10.2331
▁स्क्रीन	-10.2331
▁May	-10.2334
विध	-10.2338
▁ब्याज	-10.2361
▁परमाणु	-10.2373
▁बेटा	-10.2385
▁ड्रा	-10.239
▁जोखिम	-10.2396
▁अनुसंधान	-10.2408
▁इंटरनेशनल	-10.2412
▁जायेगा	-10.2439
▁गठबंधन	-10.2442
▁संतोष	-10.2445
▁प्रवक्ता	-10.2447
▁सिद्धान्त	-10.2457
▁आइए	-10.2462
▁बच्ची	-10.2464
▁वृक्ष	-10.2468
▁इंडेक्स	-10.247
▁मशहूर	-10.2473
▁रैली	-10.2484
▁डांस	-10.2511
▁निकाय	-10.2512
▁सिविल	-10.2522
▁रद्द	-10.2526
भद्र	-10.2529
▁केजरीवाल	-10.2536
ङ्	-10.2536
▁१२	-10.2537
दूसरे	-10.2543
▁Ethics	-10.2552
▁कैंसर	-10.2558
▁DNPA	-10.2566
▁शीघ्र	-10.2569
▁follows	-10.2571
▁ऑपरेशन	-10.2571
▁तुम्हें	-10.2581
▁मनीष	-10.2582
▁अधीन	-10.26
▁प्रत्याशी	-10.2616
▁डीएम	-10.262
▁पढ़ें	-10.2628
▁वसूल	-10.2639
▁परिचय	-10.264
▁अभिषेक	-10.2659
ent	-10.2666
av	-10.2668
▁सफर	-10.2675
▁संवाददाता	-10.2675
▁प्रेरणा	-10.2676
▁सर्वश्रेष्ठ	-10.268
▁शीत	-10.2688
ोदय	-10.2688
▁हैरान	-10.2691
▁मुंह	-10.2697
▁श्याम	-10.2713
▁भ्रष्टाचार	-10.2718
▁फीस	-10.2738
▁वातावरण	-10.2762
▁नियुक्ति	-10.2775
▁जनसंख्या	-10.2778
▁टर्	-10.2781
▁शतक	-10.2781
▁किंतु	-10.2787
▁जिनकी	-10.2787
▁नमक	-10.2818
▁उद्घाटन	-10.2846
▁लड़कियों	-10.2846
▁बिगड़	-10.285
▁साउथ	-10.2865
—	-10.287
▁भूख	-10.2886
▁कन्या	-10.289
ل	-10.2904
▁अंजाम	-10.2907
▁अंश	-10.2917
▁सकारात्मक	-10.2926
▁इसलिये	-10.2932
▁फॉर	-10.2933
▁तिमाही	-10.2946
▁ब्रिटेन	-10.2948
एमए	-10.2953
▁कालेज	-10.296
▁अधीक्षक	-10.2963
▁कब्जे	-10.2978
▁ऋण	-10.2981
▁अज्ञात	-10.299
▁पुष्प	-10.2997
▁पेपर	-10.3
▁प्रदूषण	-10.3002
▁प्लेटफॉर्म	-10.3007
▁उल्लेखनीय	-10.301
▁तुलसी	-10.3017
▁भंडार	-10.302
▁जॉन	-10.3033
▁प्रांत	-10.3043
▁बच्चा	-10.3049
▁सीबीआई	-10.3054
▁सदन	-10.3083
▁प्रावधान	-10.3089
▁वाराणसी	-10.3099
त्थ	-10.31
▁मन्दिर	-10.3106
▁गणेश	-10.3113
▁सपना	-10.3121
▁फर्जी	-10.3132
▁राइ	-10.3137
▁सुझाव	-10.3139
ऐ	-10.3143
▁भौतिक	-10.3146
▁सैनिकों	-10.3146
▁शत्रु	-10.3151
▁स्पेशल	-10.3166
▁लीटर	-10.3166
▁तमिलनाडु	-10.3179
▁नृत्य	-10.3179
▁भाषण	-10.3197
▁पत्रिका	-10.32
▁स्वर्ग	-10.3208
▁चावल	-10.321
पोषण	-10.322
▁शख्स	-10.3237
एसआई	-10.3243
▁रहस्य	-10.3243
▁धूम	-10.3253
▁अभिनय	-10.3255
औ	-10.3277
प्रीत	-10.3284
▁प्रतीत	-10.3286
▁वार्ता	-10.3287
▁इमारत	-10.3317
▁परिस्थितियों	-10.3319
▁प्रारम्भ	-10.3327
▁कृपा	-10.3332
▁जनपद	-10.3338
▁फेसबुक	-10.3366
▁ब्लैक	-10.3368
▁रवाना	-10.3369
▁चैंपियन	-10.3373
▁बधाई	-10.3376
▁अतिथि	-10.3384
▁१५	-10.3384
▁दिक्कत	-10.3401
▁वारदात	-10.3407
ment	-10.3409
▁मोटर	-10.3417
▁उपाध्यक्ष	-10.342
▁मस्जिद	-10.3422
▁निवेशकों	-10.3442
▁संशोधन	-10.3445
▁दृष्टिकोण	-10.3448
▁हर्ष	-10.3474
▁तीसरा	-10.3484
▁गैंग	-10.3484
▁राकेश	-10.3491
▁ज्योतिष	-10.3493
▁विजेता	-10.3505
▁सूरज	-10.351
▁लॉकडाउन	-10.3523
▁संदिग्ध	-10.3523
▁निश्चय	-10.3528
▁इन्होंने	-10.353
▁उत्कृष्ट	-10.3538
▁अनुवाद	-10.354
▁प्रारंभिक	-10.3555
▁गेहूं	-10.3556
▁प्रयत्न	-10.3559
▁प्रखंड	-10.3559
▁चर्च	-10.3566
▁उन्होने	-10.3572
▁क्रांति	-10.3575
vi	-10.3579
▁ओपन	-10.358
▁उत्तम	-10.3612
▁न्यूजीलैंड	-10.3616
प्रकाश	-10.3635
▁धूप	-10.3639
▁एयरपोर्ट	-10.3643
▁हाइ	-10.3656
▁रत्न	-10.3658
▁नींद	-10.3661
▁दैनिक	-10.3664
२००	-10.367
▁ज्योति	-10.3673
▁दूसरों	-10.3677
▁उन्नत	-10.3686
▁इलेक्ट्रिक	-10.3694
▁Jul	-10.3702
▁स्वर्ण	-10.3707
▁पद्म	-10.3711
▁अकेले	-10.372
▁अंग्रेज	-10.3721
▁स्थायी	-10.3722
▁तरीका	-10.3725
▁अरविंद	-10.3727
▁सप्लाई	-10.3732
▁रुचि	-10.3737
▁न्यायाधीश	-10.374
|	-10.3742
▁फीचर	-10.3762
▁उल्लंघन	-10.3764
▁पदाधिकारी	-10.3767
▁जबरदस्त	-10.3769
▁महात्मा	-10.3777
▁आंकड़ों	-10.3783
▁अक्षर	-10.3784
▁पर्यटक	-10.3788
▁नामांकन	-10.3793
▁स्टाफ	-10.3807
▁पुराण	-10.3837
▁प्राइवेट	-10.3844
ांश	-10.3847
▁हुये	-10.386
▁दिग्गज	-10.386
▁ग्रीन	-10.3863
▁यूरोपीय	-10.3864
▁समाजवादी	-10.3872
▁पारंपरिक	-10.3881
▁आनन्द	-10.3885
▁कब्जा	-10.3887
▁स्नान	-10.3895
▁प्रतिष्ठा	-10.3898
▁विश्लेषण	-10.39
ow	-10.3927
▁धातु	-10.3928
▁छाया	-10.3928
▁यज्ञ	-10.3945
▁कमांड	-10.3956
▁औद्योगिक	-10.396
▁निम्न	-10.3977
▁यूनिट	-10.3986
▁गतिविधि	-10.3994
▁धरती	-10.4002
ुद्दीन	-10.4006
▁इंटरव्यू	-10.4036
▁प्रायः	-10.4055
ver	-10.4061
▁निराश	-10.4064
▁लिंक	-10.4066
▁मास्टर	-10.4073
ive	-10.4088
▁घंटों	-10.4105
▁एसोसिएशन	-10.411
▁टकरा	-10.4114
▁निर्यात	-10.4151
▁अयोध्या	-10.4162
▁तारीफ	-10.4164
▁मैनेजमेंट	-10.4165
▁रिसर्च	-10.4201
▁रकम	-10.4226
▁शाहरुख	-10.424
▁कार्यवाही	-10.4257
▁खतरनाक	-10.4262
▁तत्कालीन	-10.4266
▁डायरेक्टर	-10.4268
▁पुराना	-10.4284
▁बॉस	-10.4288
▁महंगाई	-10.4296
▁बुजुर्ग	-10.4298
▁मेट्रो	-10.4309
▁एकमात्र	-10.4314
▁वाक्य	-10.4317
▁कामयाब	-10.432
▁इंदौर	-10.4321
▁संभावित	-10.4321
▁सहमति	-10.4324
दायक	-10.4335
▁सर्वाधिक	-10.4336
wa	-10.4356
▁अफगानिस्तान	-10.4357
▁अलर्ट	-10.4365
▁समीप	-10.4372
▁खतरे	-10.4372
▁झील	-10.4374
▁शेर	-10.4383
▁पश्चात्	-10.4385
▁सूक्ष्म	-10.4414
▁इसीलिए	-10.4417
▁पैमाने	-10.4426
▁डीजल	-10.4429
▁आत्महत्या	-10.4445
▁आश्चर्य	-10.4445
▁यातायात	-10.4459
▁समझौते	-10.4462
▁शिखर	-10.4466
रक्षक	-10.4468
▁बनर्जी	-10.4477
▁दिमाग	-10.4486
▁सचिन	-10.4496
▁to	-10.4497
▁बच्चन	-10.4503
▁आदित्यनाथ	-10.4505
▁शेख	-10.453
▁चतुर	-10.4538
▁जमानत	-10.455
▁अनुरोध	-10.4552
▁राजपूत	-10.4562
▁परम्परा	-10.4571
छात्राओं	-10.4578
▁ख़बर	-10.4594
▁चौथे	-10.46
▁स्मार्टफोन	-10.4614
▁मानसून	-10.4647
▁हेल्थ	-10.4661
योजक	-10.4671
▁निम्नलिखित	-10.4672
▁लापरवाही	-10.469
▁अगली	-10.4704
ist	-10.4711
▁तीव्र	-10.4713
▁अत्यन्त	-10.4722
▁जिक्र	-10.4723
▁धाम	-10.4724
▁स्टूडेंट	-10.4728
▁अत्यधिक	-10.4731
▁उतना	-10.4733
▁भीषण	-10.4735
ट्रिक	-10.4745
▁अस्तित्व	-10.476
▁रमेश	-10.4764
▁कर्तव्य	-10.4775
▁कंप्यूटर	-10.4789
▁विनोद	-10.4796
▁अध्याय	-10.4802
▁बचपन	-10.4809
▁नोएडा	-10.4816
▁शपथ	-10.4822
िंदर	-10.4838
▁रॉयल	-10.4845
▁कागज	-10.4875
▁तालाब	-10.4882
▁फॉलो	-10.4886
▁बहादुर	-10.4917
▁लटक	-10.4917
▁प्रतिनिधित्व	-10.4919
▁आरंभ	-10.4929
पूर्ति	-10.4932
▁मिसाइल	-10.4939
▁जिलाधिकारी	-10.4941
▁सैकड़ों	-10.4941
▁स्नातक	-10.495
▁जब्त	-10.4966
▁श्रेय	-10.497
▁टैंक	-10.4979
▁खारिज	-10.498
▁आश्वासन	-10.4989
▁उन्हीं	-10.4992
▁विस्फोट	-10.5013
▁सेल्सियस	-10.5019
▁समझौता	-10.5022
हाइड्र	-10.5024
▁आतंकी	-10.5046
▁उद्यम	-10.5095
▁ड्यूटी	-10.5112
▁हँस	-10.5121
▁उत्सव	-10.5129
ञ्च	-10.5151
▁समर्पित	-10.5155
▁नक्सल	-10.5157
▁कटौती	-10.5164
▁शिल्प	-10.5169
▁तत्त्व	-10.5173
▁लंदन	-10.5183
▁त्योहार	-10.5192
कश्मीर	-10.5198
▁चंडीगढ़	-10.5198
▁कथन	-10.5221
▁रांची	-10.5247
▁तुम्हारी	-10.5262
▁पुण्य	-10.5272
▁महासचिव	-10.5275
▁एक्टिव	-10.5288
▁अब्दुल	-10.5296
▁कैबिनेट	-10.5303
▁कच्चे	-10.5303
श्रुत	-10.5305
▁जितनी	-10.5326
स्तरीय	-10.5331
▁विद्रोह	-10.5346
▁मोर्चा	-10.5346
▁चपेट	-10.5346
▁श्रीवास्तव	-10.5349
▁बुनियादी	-10.5349
▁छुट्टी	-10.5352
▁कार्तिक	-10.5359
▁हस्ताक्षर	-10.5371
▁विटामिन	-10.5377
▁रिजल्ट	-10.5377
पंथ	-10.5384
▁मछली	-10.5396
▁निर्मल	-10.5399
$	-10.5415
Q	-10.5563
ळ	-10.5688
Z	-10.5736
•	-10.5962
#	-10.6261
о	-10.7103
@	-10.7423
q	-10.7778
م	-10.7794
ن	-10.7842
и	-10.9054
و	-10.9109
ي	-10.9292
а	-10.9454
°	-11.0074
е	-11.0174
…	-11.1406
н	-11.1927
ر	-11.2024
॒	-11.2313
с	-11.2439
ه	-11.2682
`	-11.3387
>	-11.3422
ب	-11.3597
р	-11.3654
ऩ	-11.3806
т	-11.4077
ॐ	-11.4349
॑	-11.4574
ऱ	-11.4739
~	-11.5691
в	-11.584
‍	-11.5851
ङ	-11.5894
ع	-11.6038
‌	-11.637
л	-11.6435
ت	-11.7058
[	-11.7087
к	-11.723
&	-11.7389
د	-11.8467
ા	-11.8796
}	-11.888
س	-11.8928
\	-11.9199
ऍ	-11.9412
ف	-11.9527
ك	-11.9813
‘	-12
м	-12.0163
ق	-12.0726
д	-12.1035
у	-12.1201
●	-12.1354
ञ	-12.1486
<	-12.1844
я	-12.2056
·	-12.2106
أ	-12.2393
п	-12.2444
ı	-12.2618
ح	-12.292
ે	-12.3476
া	-12.4065
ર	-12.4228
ы	-12.4248
્	-12.4269
{	-12.4304
ة	-12.431
×	-12.5686
ન	-12.571
ج	-12.5902
й	-12.6074
్	-12.6898
з	-12.6952
વ	-12.7006
₹	-13.1152
