<pad>	0
<unk>	0
<s>	0
</s>	0
???	-3.2366
?????????	-3.31967
,	-3.47563
????????????	-3.52817
?????????	-3.60508
?????????	-4.0216
?????????	-4.10951
?????????	-4.17189
?????????	-4.21059
?????????	-4.57861
????????????	-4.5874
???(	-4.89444
-	-4.91552
?????????	-4.92516
)	-4.94393
?????????	-4.98352
?????????	-5.20724
?????????	-5.2108
?????????	-5.42683
???????????????	-5.42835
?????????	-5.49082
?????????	-5.56477
????????????	-5.5741
???	-5.5884
????????????	-5.60021
.	-5.66855
????????????	-5.78526
???????????????	-5.82764
?????????	-5.83011
?????????	-5.83748
?????????	-5.84471
???????????????	-5.90754
????????????	-6.00069
?????????	-6.08895
????????????	-6.1028
?????????????????????	-6.12908
?????????	-6.16527
????????????	-6.18318
?????????	-6.19703
?????????	-6.19747
????????????	-6.2005
???????????????	-6.21601
???????????????	-6.28198
:	-6.28941
????????????	-6.29743
??????	-6.31609
????????????	-6.31713
?????????	-6.33114
????????????????????????	-6.33257
??????????????????	-6.34431
???????????????	-6.34988
???	-6.35338
?????????	-6.41002
???????????????	-6.41456
???"	-6.43392
???????????????	-6.45687
???-	-6.46314
'	-6.4878
??????????????????	-6.52073
???'	-6.55309
???????????????	-6.5549
???????????????	-6.56031
???????????????	-6.5706
"	-6.57224
?????????	-6.57463
???????????????	-6.59772
?????????????????????	-6.6133
????????????	-6.62193
????????????	-6.67728
????????????	-6.67977
???	-6.69077
????????????	-6.69826
???????????????	-6.7074
??????????????????	-6.71564
?????????	-6.74982
???????????????	-6.75915
????????????	-6.76735
?????????????????????	-6.78655
???????????????	-6.80122
???????????????	-6.83356
???????????????	-6.84142
??????	-6.87667
????????????	-6.8943
????????????	-6.92361
????????????	-6.93106
?????????	-6.94492
???????????????	-6.95496
???????????????	-6.95567
???????????????	-6.95601
????????????	-6.96552
?????????	-6.96567
?????????????????????	-6.96701
?????????	-6.97036
???????????????	-6.98841
????????????	-6.99238
???????????????	-6.99465
?????????	-6.99971
???????????????????????????	-6.99993
??????????????????	-7.01011
???	-7.0114
???????????????	-7.0164
???????????????	-7.01709
?????????	-7.02354
),	-7.02635
??????????????????	-7.02955
?????????????????????	-7.05586
???????????????	-7.05673
??????????????????	-7.06558
?????????	-7.0801
???????????????	-7.08342
?????????????????????	-7.0884
???????????????	-7.09863
???????????????	-7.10052
???????????????	-7.10263
??????????????????	-7.10534
???????????????	-7.10702
???????????????	-7.11251
????????????	-7.12133
?????????	-7.12171
????????????	-7.16065
??????????????????	-7.16435
?????????????????????	-7.17362
????????????	-7.18102
???	-7.18495
????????????	-7.20699
?????????	-7.21025
??????????????????	-7.21792
???????????????	-7.23025
???	-7.23514
?????????	-7.24998
???	-7.26261
??????????????????	-7.27235
????????????	-7.27621
??????????????????	-7.27871
?????????	-7.2802
??????	-7.28438
???	-7.28882
????????????????????????	-7.28938
???????????????????????????	-7.28981
????????????????????????	-7.29018
????????????	-7.30215
???????????????	-7.30403
???????????????	-7.30595
??????????????????????????????	-7.3064
???????????????	-7.32072
???	-7.3223
??????	-7.32445
;	-7.32568
??????????????????	-7.32991
??????????????????	-7.34
?????????????????????	-7.34575
?????????????????????	-7.34673
???????????????	-7.35347
????????????????????????	-7.35529
???????????????	-7.36527
????????????	-7.3695
???????????????	-7.37615
?????????????????????	-7.37629
???	-7.39481
????????????	-7.40139
?????????	-7.40477
?????????????????????	-7.40917
???????????????	-7.42561
????????????	-7.43044
????????????	-7.43163
??????	-7.43165
???	-7.43745
???????????????	-7.45114
????????????????????????	-7.45344
?????????	-7.45353
???????????????	-7.45752
?????????	-7.49463
????????????	-7.49799
???????????????	-7.50687
???????????????	-7.50767
???????????????	-7.50873
?????????????????????	-7.51376
???????????????	-7.51628
???????????????	-7.51646
??????????????????	-7.51918
????????????????????????	-7.53223
???:	-7.53413
???????????????????????????	-7.53489
??????????????????????????????????????????	-7.53973
???????????????	-7.55675
???????????????	-7.5577
??????????????????	-7.55776
???????????????	-7.56363
?????????	-7.56836
??????????????????	-7.57111
????????????	-7.59456
?????????	-7.59516
???????????????	-7.59803
????????????	-7.59846
???????????????	-7.59885
????????????????????????	-7.60716
??????	-7.62872
???????????????????????????	-7.63535
????????????	-7.6376
????????????????????????	-7.63829
????????????????????????	-7.63951
???????????????	-7.64436
????????????	-7.64483
??????????????????	-7.64601
?????????????????????	-7.65279
???	-7.66423
????????????	-7.66851
?????????	-7.67243
???????????????	-7.67605
????????????????????????	-7.67731
??????	-7.67889
?????????????????????	-7.68013
????????????	-7.68693
?????????????????????	-7.69082
?????????????????????	-7.69257
????????????	-7.69671
???????????????	-7.69739
?????????????????????????????????	-7.71151
???????????????	-7.71364
??????????????????	-7.71451
?????????	-7.71894
???????????????	-7.72104
???????????????	-7.72104
s	-7.72201
/	-7.72957
???????????????	-7.73239
%	-7.74476
????????????????????????	-7.7499
???????????????	-7.75198
????????????	-7.7527
??????	-7.76529
????????????	-7.76946
????????????	-7.77706
??????????????????	-7.7787
???????????????	-7.78551
???	-7.7894
??????????????????	-7.79047
????????????????????????	-7.8
???????????????	-7.80105
??????????????????	-7.80958
?????????	-7.81852
????????????	-7.8254
????????????????????????	-7.82705
?????????????????????	-7.8273
??????????????????????????????	-7.82813
?????????	-7.82915
?????????	-7.83253
????????????	-7.83464
???????????????	-7.8361
??????????????????	-7.84136
???????????????	-7.85089
????????????	-7.85708
???????????????	-7.85789
????????????	-7.86138
?????????????????????	-7.86899
??????????????????	-7.86904
???,	-7.87307
???????????????	-7.87365
?????????????????????	-7.87593
????????????	-7.88028
??????	-7.88071
???????????????	-7.8872
?????????????????????	-7.8989
???	-7.9029
??????????????????	-7.90457
??????????????????	-7.9052
????????????????????????	-7.90705
???????????????	-7.91082
????????????	-7.91127
???????????????	-7.92396
????????????	-7.9241
??????????????????	-7.93216
????????????????????????	-7.93885
??????????????????	-7.9418
??????	-7.94307
?????????????????????	-7.94689
??????	-7.95661
????????????	-7.95935
???	-7.95948
???????????????	-7.96427
??????????????????	-7.96848
????????????	-7.97102
????????????????????????	-7.98039
???????????????	-7.98147
???????????????	-7.98685
???????????????	-7.98763
???????????????	-7.98903
??????????????????	-7.99113
?????????????????????	-7.99155
????????????	-7.9931
??????????????????	-7.99498
???????????????	-7.99505
??????????????????	-7.99962
?????????	-8.00645
????????????	-8.00911
????????????????????????	-8.01487
???	-8.01762
???????????????	-8.01887
???	-8.02452
??????????????????????????????	-8.0318
????????????????????????	-8.03389
??????????????????	-8.03552
???	-8.03762
???????????????????????????	-8.03843
????????????????????????	-8.0452
?????????????????????	-8.04812
????????????	-8.04933
?????????	-8.04939
???	-8.05127
????????????	-8.05377
????????????	-8.05546
?????????????????????	-8.06259
??????????????????	-8.06271
???	-8.06493
?????????????????????	-8.06789
???????????????	-8.07315
???????????????	-8.07554
??????????????????	-8.07696
????????????????????????	-8.0799
?????????????????????	-8.08083
???????????????	-8.08146
???????????????	-8.08225
????????????	-8.08552
???????????????	-8.08758
????????????????????????	-8.08771
????????????	-8.09366
???????????????	-8.10173
??????????????????	-8.11414
????????????????????????	-8.11581
?????????	-8.11808
?????????????????????	-8.11882
???????????????	-8.12795
???	-8.12845
???????????????	-8.13417
???????????????	-8.1352
????????????	-8.13816
???????????????????????????	-8.1416
????????????	-8.14189
???????????????????????????	-8.1477
????????????????????????	-8.14915
???????????????	-8.14985
?????????????????????	-8.15302
????????????????????????	-8.15528
??????????????????????????????	-8.15781
?????????????????????	-8.16496
???????????????	-8.16549
????????????????????????	-8.16679
???????????????	-8.16683
????????????	-8.17196
???????????????????????????	-8.17439
?????????????????????	-8.17669
????????????	-8.17732
????????????????????????	-8.17905
?????????????????????	-8.1795
??????????????????	-8.18486
??????????????????	-8.18522
?????????????????????	-8.18726
???????????????	-8.18941
????????????	-8.19173
?????????????????????	-8.19215
??????????????????	-8.19266
??????????????????	-8.19291
??????????????????	-8.2007
??????	-8.20106
??????	-8.20173
??????????????????	-8.2079
???????????????????????????	-8.22353
??????	-8.22592
??????????????????	-8.22689
?????????	-8.22964
?????????????????????	-8.22968
????????????	-8.23134
????????????	-8.23152
???????????????	-8.23612
????????????????????????	-8.23728
?????????????????????	-8.23947
?????????????????????	-8.24473
??????????????????	-8.24756
???????????????	-8.24828
????????????????????????	-8.25292
?????????????????????	-8.25309
????????????	-8.25314
?????????????????????	-8.25392
??????????????????	-8.25464
??????	-8.26288
??????????????????	-8.26381
??????????????????????????????	-8.26444
???????????????	-8.26664
????????????	-8.27143
????????????	-8.27548
?????????	-8.27796
???????????????	-8.28338
???	-8.29247
????????????????????????	-8.29751
??????	-8.30104
??????	-8.30391
???	-8.30561
????????????	-8.31114
?????????	-8.31329
??????	-8.31384
???????????????????????????	-8.31465
??????	-8.31533
(	-8.31569
?????????????????????	-8.31745
??????????????????	-8.31778
???????????????????????????	-8.31783
??????????????????	-8.31871
??????	-8.32385
???????????????	-8.32458
??????????????????	-8.32631
???????????????	-8.33226
???????????????	-8.33274
?????????	-8.3369
?????????????????????????????????	-8.3381
???1	-8.34205
???????????????	-8.34369
??????????????????	-8.34396
?????????????????????	-8.344
??????????????????	-8.34522
?????????	-8.348
???????????????	-8.34874
???????????????????????????	-8.34936
???????????????	-8.35301
???????????????????????????	-8.35312
????????????	-8.35417
???????????????	-8.35636
??????	-8.35874
??????	-8.35874
????????????????????????	-8.36033
?????????	-8.3607
????????????	-8.36115
??????????????????	-8.36143
????????????	-8.36268
???=	-8.36386
???????????????	-8.36506
????????????	-8.36769
?????????????????????	-8.36808
?????????????????????	-8.36813
???????????????	-8.37136
???	-8.37162
???of	-8.37225
????????????	-8.37783
???	-8.38203
??????	-8.38317
?????????	-8.38323
???????????????	-8.38425
?????????????????????	-8.38697
???????????????	-8.38956
????????????	-8.39081
?????????????????????????????????	-8.39086
??????	-8.39397
??????????????????	-8.39435
???????????????	-8.39636
??????????????????	-8.3973
?????????	-8.40199
??????????????????	-8.40214
??????????????????	-8.4056
???	-8.40561
????????????	-8.40562
?????????????????????	-8.40574
???????????????	-8.40589
????????????	-8.40693
?????????????????????	-8.40729
????????????	-8.40771
???????????????	-8.41099
????????????	-8.41174
????????????	-8.41263
????????????????????????	-8.41498
??????	-8.41584
???	-8.41694
??????	-8.42077
????????????	-8.42265
?????????????????????	-8.42481
???????????????	-8.42811
????????????	-8.43036
????????????	-8.43122
???	-8.4349
????????????	-8.4374
???????????????	-8.43801
????????????	-8.43806
???	-8.43914
?????????	-8.44007
???????????????	-8.44085
????????????????????????	-8.44101
??????????????????	-8.44423
???????????????	-8.44442
??????????????????	-8.44752
???????????????	-8.44779
???????????????	-8.44843
?????????????????????	-8.4493
????????????	-8.45014
???????????????	-8.45091
???????????????	-8.451
??????	-8.45294
??????????????????	-8.45313
??????????????????	-8.45447
???I	-8.45524
????????????????????????	-8.45591
???????????????	-8.45706
????????????	-8.4589
????????????	-8.45959
??????????????????????????????	-8.46429
???????????????????????????	-8.46571
???????????????	-8.47131
??????????????????	-8.47155
???????????????????????????	-8.47521
?????????????????????	-8.47767
??????????????????	-8.48047
??????	-8.48402
????????????????????????	-8.4877
?????????????????????	-8.48811
??????????????????	-8.48814
??????????????????	-8.49142
??????????????????	-8.49156
???????????????	-8.49221
???????????????	-8.49849
??????????????????	-8.49883
?????????????????????	-8.50225
???????????????	-8.50246
?????????	-8.50516
???????????????	-8.50934
????????????????????????	-8.51034
?????????????????????	-8.51073
????????????	-8.5131
?????????	-8.51513
???????????????	-8.5201
??????	-8.52227
????????????????????????	-8.52296
??????????????????	-8.52308
?????????	-8.52555
??????????????????	-8.52659
???????????????	-8.52674
?????????????????????	-8.53023
??????????????????	-8.53034
?????????????????????????????????	-8.5337
???????????????	-8.53434
?????????????????????	-8.53442
??????????????????	-8.53501
?????????????????????	-8.53522
?????????????????????	-8.53525
?????????	-8.53603
??????????????????	-8.5374
???????????????????????????	-8.53755
??????????????????	-8.53801
?????????????????????	-8.53921
???????????????	-8.54094
???????????????	-8.54494
????????????????????????	-8.546
???????????????	-8.5521
???	-8.55269
?????????????????????????????????	-8.55277
????????????	-8.55577
????????????????????????	-8.55589
??????????????????	-8.55779
?????????????????????	-8.56324
?????????	-8.56398
???????????????	-8.56416
????????????	-8.56777
???10	-8.56897
?????????????????????	-8.56961
?????????	-8.57076
?????????????????????	-8.57257
????????????	-8.57347
????????????	-8.57807
??????	-8.57836
??????	-8.58333
??????	-8.58872
???????????????	-8.58935
?????????????????????????????????????????????	-8.5894
????????????	-8.58941
??????????????????????????????	-8.58943
???????????????????????????	-8.58991
??????????????????	-8.59324
??????????????????	-8.59368
???????????????	-8.59618
???20	-8.59696
??????????????????	-8.59831
??????	-8.59981
?????????????????????	-8.60082
????????????????????????	-8.6009
????????????	-8.60104
???????????????	-8.60109
????????????	-8.60114
2	-8.60456
???????????????	-8.6048
????????????????????????	-8.60536
???.	-8.60613
?????????????????????	-8.60681
??????????????????????????????	-8.60711
??????????????????	-8.61035
?????????????????????	-8.61174
??????	-8.61267
??????????????????	-8.61269
??????????????????	-8.61542
??????????????????	-8.61632
?????????????????????	-8.61681
??????????????????	-8.61682
??????????????????	-8.61857
??????????????????	-8.6201
?????????????????????	-8.62249
???????????????????????????????????????	-8.62466
???3	-8.62602
??????	-8.62638
???????????????	-8.62644
?????????	-8.62692
????????????	-8.62737
???16	-8.62851
a	-8.62911
?????????????????????	-8.63043
???????????????	-8.63296
??????????????????????????????	-8.63427
????????????	-8.63556
???????????????	-8.63622
????????????	-8.63745
????????????	-8.64089
???????????????	-8.64439
???	-8.64751
??????????????????	-8.64779
???	-8.64882
???2	-8.65083
???????????????	-8.65304
???????????????????????????	-8.65477
??????????????????	-8.65651
?????????????????????	-8.659
??????	-8.6592
??????????????????	-8.65928
?????????????????????	-8.65985
???????????????????????????	-8.66071
????????????	-8.66089
??????	-8.66373
??????????????????	-8.66396
?????????????????????	-8.6653
???	-8.66833
????????????????????????????????????	-8.66836
??????????????????	-8.6686
???????????????	-8.6689
????????????	-8.66922
????????????	-8.66989
???????????????	-8.67249
???????????????	-8.67283
??????	-8.67306
???????????????	-8.67325
?????????	-8.67386
???????????????	-8.67715
???????????????	-8.67745
?????????	-8.67775
??????????????????	-8.67859
???????????????	-8.67914
???????????????	-8.68184
???????????????	-8.6835
?????????????????????	-8.68465
????????????	-8.68533
e	-8.68725
???5	-8.68777
?????????	-8.69002
???????????????	-8.69301
???????????????????????????	-8.69476
???????????????	-8.69547
?????????????????????	-8.69641
]	-8.69674
???????????????????????????????????????	-8.69771
?????????????????????	-8.69821
???????????????	-8.69831
??????????????????	-8.69857
???	-8.7043
????????????	-8.70475
???????????????	-8.70644
?????????	-8.708
??????????????????	-8.70885
??????????????????	-8.7106
?????????????????????	-8.71071
????????????????????????	-8.71077
??????????????????	-8.71087
???	-8.71316
?????????	-8.71497
??????????????????	-8.71518
?????????	-8.72063
??????	-8.72282
??????????????????	-8.72318
??????????????????	-8.72817
???????????????????????????????????????	-8.73251
??????????????????	-8.73535
??????????????????	-8.74001
????????????	-8.74005
??????	-8.74024
???	-8.74283
???????????????????????????	-8.74395
???12	-8.74508
?????????????????????????????????	-8.74645
???????????????	-8.7472
???????????????	-8.7472
????????????	-8.74921
??????	-8.75183
???15	-8.75189
???????????????	-8.75199
????????????	-8.75271
??????	-8.75411
???????????????	-8.75479
??????????????????	-8.75484
????????????????????????	-8.75489
????????????????????????	-8.75501
????????????	-8.75596
????????????????????????????????????	-8.75731
?????????	-8.76011
?????????	-8.7626
????????????????????????	-8.76369
????????????????????????	-8.7638
??????	-8.76731
?????????????????????	-8.77141
???	-8.7724
??????	-8.77263
????????????????????????	-8.7728
?????????	-8.77377
??????	-8.77462
????????????????????????	-8.7755
??????????????????	-8.77748
?????????????????????	-8.77752
??????????????????	-8.77817
????????????????????????	-8.78216
???????????????????????????	-8.78667
???????????????	-8.78669
??????????????????	-8.78688
?????????	-8.78825
???????????????????????????	-8.78878
?????????????????????	-8.79111
?????????	-8.79132
?????????????????????	-8.79144
?????????????????????	-8.79146
??????????????????	-8.79383
????????????????????????	-8.79622
???????????????	-8.79623
????????????	-8.79805
??????????????????	-8.80049
????????????????????????	-8.80073
???????????????	-8.80078
??????????????????	-8.80191
??????????????????	-8.80358
????????????????????????	-8.80516
?????????????????????	-8.80539
???????????????	-8.80558
?????????????????????	-8.8083
???????????????????????????	-8.81005
????????????	-8.81021
?????????????????????	-8.81027
?????????	-8.81058
???9	-8.81216
????????????	-8.81397
????????????	-8.81418
??????	-8.81492
?????????????????????	-8.81492
???	-8.81494
?????????	-8.81523
?????????????????????	-8.81942
?????????????????????	-8.81965
?????????????????????	-8.81975
?????????	-8.82117
?????????	-8.82204
???????????????	-8.82442
?????????	-8.8249
??????????????????	-8.82942
????????????	-8.82984
???8	-8.83184
???????????????????????????	-8.83246
???????????????	-8.83267
?????????????????????	-8.83374
???????????????	-8.83415
????????????????????????	-8.83426
y	-8.83615
???6	-8.83751
????????????	-8.83904
???????????????????????????	-8.84215
?????????????????????	-8.84452
?????????	-8.84551
??????????????????	-8.84849
?????????????????????	-8.84852
????????????????????????	-8.84885
?????????	-8.85052
??????????????????????????????	-8.85207
?????????????????????	-8.85392
??????????????????	-8.85696
?????????????????????	-8.85709
???????????????	-8.85842
?????????????????????	-8.85855
??????????????????	-8.85875
????????????????????????	-8.85886
???[	-8.85934
??????	-8.85985
??????	-8.86174
????????????	-8.8629
??????????????????	-8.86379
?????????	-8.86507
???????????????????????????	-8.86707
????????????????????????	-8.8688
??????????????????	-8.86887
?????????????????????	-8.86887
???????????????	-8.86895
?????????????????????	-8.87225
???????????????????????????	-8.87282
????????????????????????	-8.8733
???	-8.87807
?????????????????????	-8.87988
?????????????????????	-8.88229
?????????????????????	-8.88249
???????????????	-8.88423
?????????????????????	-8.88745
???18	-8.88766
??????	-8.88924
????????????????????????	-8.88934
?????????????????????	-8.88946
????????????	-8.88962
????????????????????????	-8.89246
???????????????	-8.89294
????????????????????????	-8.89395
??????????????????????????????	-8.89431
???17	-8.89434
????????????????????????	-8.8945
???11	-8.89471
???????????????	-8.89828
??????????????????	-8.89851
???????????????	-8.89947
????????????????????????	-8.89962
?????????	-8.9
??????????????????	-8.9001
??????????????????	-8.90094
????????????????????????	-8.90106
??????????????????	-8.90299
?????????	-8.90351
?????????????????????	-8.90715
???	-8.9075
?????????????????????	-8.90798
????????????	-8.91085
????????????	-8.91186
???	-8.91261
???????????????	-8.91563
?????????????????????	-8.91568
???????????????	-8.91582
????????????	-8.91845
???????????????	-8.91948
???????????????	-8.92057
??????????????????????????????	-8.92158
????????????	-8.92428
?????????	-8.92573
??????????????????	-8.92588
??????????????????	-8.92593
??????????????????	-8.9261
????????????	-8.92813
?????????????????????	-8.93086
??????????????????	-8.93116
?????????	-8.93566
??????????????????	-8.93639
??????????????????	-8.9366
???????????????	-8.93671
??????????????????	-8.93672
?????????????????????	-8.93675
9	-8.93721
???????????????	-8.93826
?????????	-8.94048
??????????????????	-8.94196
????????????????????????	-8.94199
????????????	-8.94202
?????????????????????	-8.94211
???13	-8.9435
??????	-8.94359
????????????	-8.94392
???????????????	-8.94511
???????????????????????????	-8.94555
?????????	-8.94562
??????????????????	-8.94692
??????????????????	-8.94743
???????????????	-8.94773
???4	-8.949
???	-8.94976
???????????????	-8.9509
????????????????????????	-8.95109
???????????????	-8.95322
??????	-8.95358
???????????????????????????	-8.95479
???--	-8.9554
t	-8.95642
??????????????????	-8.95655
??????????????????	-8.95676
???????????????	-8.95794
????????????????????????	-8.95832
???????????????	-8.95912
???????????????	-8.96194
??????????????????	-8.96226
???????????????	-8.96292
?????????	-8.96304
??????????????????	-8.96394
????????????????????????	-8.96399
??????????????????	-8.9641
????????????????????????	-8.96436
??????	-8.96548
??????????????????	-8.96776
???7	-8.96953
?????????????????????	-8.96953
??????????????????	-8.96967
???	-8.96976
???????????????????????????	-8.96977
??????????????????????????????	-8.9698
???????????????	-8.97017
???	-8.97139
?????????????????????	-8.97218
?????????????????????	-8.97243
?????????	-8.97403
????????????	-8.97498
???????????????	-8.97516
???????????????	-8.9764
???????????????	-8.97739
????????????????????????	-8.98005
????????????????????????	-8.98062
???????????????	-8.98151
????????????	-8.98254
???19	-8.98403
????????????????????????	-8.98574
???????????????????????????	-8.99195
??????????????????????????????	-8.99205
?????????????????????	-8.99205
???????????????	-8.99214
??????????????????	-8.99263
??????	-8.99277
?????????	-8.99285
?????????	-8.99878
????????????	-9.00058
?????????????????????	-9.00155
????????????	-9.00172
????????????	-9.00239
???????????????	-9.00318
???????????????	-9.00343
???and	-9.00387
?????????	-9.00691
???????????????	-9.00884
???	-9.00898
???????????????	-9.00903
?????????????????????	-9.0092
??????????????????	-9.00958
????????????????????????	-9.00959
????????????	-9.01101
??????	-9.01218
?????????????????????	-9.01228
????????????	-9.01327
??????????????????	-9.01474
????????????	-9.01474
??????????????????	-9.01498
??????????????????	-9.01501
????????????????????????	-9.01506
???	-9.01698
??????????????????	-9.02093
????????????????????????	-9.02097
???????????????	-9.02106
????????????	-9.022
???????????????	-9.02514
???????????????	-9.02544
??????????????????	-9.0258
?????????????????????	-9.02656
????????????????????????	-9.02674
?????????????????????	-9.02675
???????????????????????????	-9.02767
????????????????????????	-9.0277
????????????	-9.02867
???????????????	-9.02962
???????????????	-9.03091
????????????	-9.03155
????????????	-9.03297
???????????????	-9.03354
?????????	-9.03543
???	-9.03561
?????????	-9.03755
??????????????????????????????	-9.03847
????????????????????????	-9.03871
????????????????????????	-9.03878
?????????????????????	-9.03975
???/	-9.0406
?????????????????????	-9.04266
????????????????????????	-9.04272
????????????????????????	-9.04347
???????????????????????????	-9.04459
o	-9.04503
????????????	-9.0461
???????????????	-9.04851
?????????????????????	-9.04875
?????????????????????	-9.04876
??????????????????	-9.04918
???????????????	-9.0506
???????????????	-9.0507
??????????????????	-9.05077
??????????????????	-9.0521
???????????????	-9.05228
??????	-9.05256
??????????????????????????????	-9.05501
?????????????????????	-9.05692
??????????????????	-9.05705
??????	-9.05716
??????	-9.05898
??????????????????	-9.06123
??????????????????	-9.06131
5	-9.06256
??????????????????	-9.06289
?????????????????????	-9.0629
??????	-9.07476
????????????????????????	-9.07508
???????????????	-9.07511
??????????????????	-9.07523
??????????????????	-9.07533
???	-9.07831
?????????	-9.07995
????????????	-9.08108
??????????????????	-9.08123
???????????????	-9.08124
_	-9.08127
??????????????????	-9.08132
??????????????????	-9.08135
????????????????????????	-9.08143
??????	-9.08408
??????????????????????????????	-9.08756
???????????????	-9.08778
??????????????????	-9.08782
????????????	-9.08931
???????????????????????????	-9.08936
8	-9.09296
??????????????????	-9.09311
???????????????	-9.09338
???????????????????????????????????????	-9.09388
??????????????????????????????????????????	-9.09393
????????????????????????	-9.09403
?????????????????????	-9.0957
???14	-9.09676
???????????????	-9.09785
???????????????	-9.09876
??????	-9.09884
?????????????????????	-9.10019
??????	-9.10029
?????????????????????	-9.10032
?????????	-9.10146
0	-9.10153
??????	-9.10176
???????????????	-9.10187
????????????	-9.10283
??????????????????	-9.10395
?????????????????????	-9.10466
???????????????	-9.10598
??????????????????	-9.10658
????????????	-9.1079
6	-9.10868
?????????????????????	-9.1107
?????????	-9.11109
?????????	-9.11125
??????????????????	-9.11294
??????????????????	-9.11305
???25	-9.11414
???the	-9.11887
????????????????????????	-9.12069
????????????	-9.12483
???????????????	-9.12589
???????????????	-9.12593
???????????????	-9.126
??????	-9.12892
???????????????	-9.13372
??????????????????	-9.13533
??????	-9.1358
??????????????????	-9.13902
??????????????????	-9.13911
?????????????????????	-9.13914
????????????????????????	-9.13976
??????????????????	-9.14408
??????????????????	-9.14544
???????????????	-9.14579
????????????	-9.14587
??????????????????	-9.14589
?????????????????????	-9.14604
???????????????	-9.14633
?????????????????????	-9.14678
??????????????????	-9.15069
????????????	-9.15222
???????????????????????????	-9.15238
???????????????????????????	-9.15238
??????????????????	-9.15262
?????????????????????	-9.15346
?????????	-9.15527
???????????????	-9.15823
???????????????	-9.1591
?????????????????????	-9.1591
???????????????????????????	-9.15912
??????????????????	-9.1594
????????????	-9.15963
??????????????????	-9.15973
??????????????????	-9.16404
??????????????????	-9.16467
???????????????	-9.16577
???????????????????????????	-9.16585
???;	-9.16914
????????????????????????	-9.17047
?????????????????????????????????	-9.17076
????????????	-9.17094
???30	-9.17122
??????????????????	-9.17269
???????????????????????????	-9.17272
????????????	-9.1729
????????????	-9.17391
???????????????	-9.17765
?????????????????????	-9.17882
???)	-9.17904
?????????????????????	-9.17941
????????????	-9.17941
???????????????????????????	-9.17976
?????????	-9.18029
?	-9.18077
??????	-9.18099
?????????	-9.18251
??????????????????	-9.18581
????????????	-9.18582
???????????????????????????	-9.1864
?????????	-9.18828
??????	-9.18953
??????	-9.19013
??????	-9.19021
??????????????????	-9.19119
??????????????????	-9.1914
?????????????????????	-9.19214
?????????????????????	-9.19229
?????????????????????	-9.19329
?????????????????????	-9.19332
????????????	-9.19345
?????????????????????	-9.19467
????????????	-9.19776
?????????	-9.19949
????????????????????????	-9.19986
?????????????????????	-9.20019
????????????????????????	-9.20024
??????????????????	-9.20025
?????????????????????	-9.20055
????????????????????????	-9.20061
???????????????	-9.20098
?????????	-9.20099
?????????	-9.20145
???????????????	-9.20192
????????????????????????	-9.20501
?????????????????????	-9.20601
???????????????	-9.2062
???????????????	-9.20651
?????????????????????	-9.20712
?????????	-9.2072
???????????????????????????	-9.2073
??????????????????	-9.20741
????????????????????????	-9.20746
???????????????	-9.20795
???????????????	-9.20802
????????????	-9.21202
?????????	-9.21318
???????????????????????????	-9.21384
??????	-9.21402
????????????????????????????????????	-9.21442
?????????????????????	-9.21443
???????????????????????????	-9.21445
??????????????????	-9.2145
?????????????????????	-9.21493
??????	-9.21763
??????	-9.21773
???????????????	-9.21974
??????????????????	-9.21977
????????????????????????	-9.22156
?????????????????????	-9.22173
??????????????????	-9.22202
???????????????????????????	-9.22673
?????????????????????	-9.22691
???????????????	-9.22831
?????????????????????	-9.22849
????????????	-9.22878
??????????????????	-9.22886
??????????????????	-9.22888
??????	-9.23169
?????????	-9.23193
???????????????????????????	-9.23401
????????????	-9.23509
???????????????????????????	-9.23604
????????????	-9.23608
???2011	-9.23634
?????????????????????	-9.2365
??????	-9.24064
?????????	-9.24129
???????????????	-9.24274
????????????????????????	-9.24328
???Microsoft	-9.2435
????????????	-9.24398
??????????????????	-9.24403
????????????	-9.24472
????????????	-9.24552
??????	-9.24564
????????????????????????	-9.2465
?????????????????????	-9.24828
4	-9.24879
???????????????????????????	-9.25059
????????????????????????	-9.25062
?????????????????????	-9.25074
?????????	-9.25079
???????????????	-9.25202
???????????????????????????	-9.25406
??????	-9.25428
?????????	-9.25439
???????????????	-9.25535
??????????????????	-9.25626
???????????????	-9.25676
????????????????????????	-9.25789
????????????	-9.25806
???????????????	-9.25808
???????????????	-9.25832
???????????????????????????	-9.25835
?????????	-9.26052
???	-9.26351
??????????????????	-9.26382
?????????????????????	-9.26383
?????????????????????	-9.2654
???????????????????????????	-9.26548
??????????????????	-9.26549
?????????????????????	-9.2655
????????????	-9.27093
????????????????????????	-9.27287
????????????	-9.27301
???????????????????????????	-9.27304
??????????????????	-9.2731
???????????????	-9.2732
???????????????	-9.27384
??????????????????	-9.27814
??????????????????	-9.27878
??????	-9.27907
??????????????????	-9.27931
????????????	-9.27934
?????????	-9.27988
???????????????????????????	-9.28065
?????????????????????	-9.28065
?????????????????????	-9.28068
???????????????	-9.28121
??????????????????	-9.28161
?????????????????????	-9.28646
7	-9.28756
??????????????????	-9.28842
?????????????????????	-9.28845
???????????????	-9.28852
?????????????????????	-9.28864
????????????????????????	-9.28928
???????????????	-9.29338
????????????????????????	-9.29417
?????????????????????	-9.29482
???????????????????????????	-9.29547
?????????????????????	-9.29559
??????????????????????????????	-9.29579
????????????????????????	-9.29585
??????????????????	-9.29609
?????????????????????	-9.2973
???????????????	-9.29956
?????????????????????	-9.30184
??????????????????	-9.30222
????????????????????????	-9.30227
????????????	-9.30257
?????????????????????	-9.30366
??????????????????	-9.30373
???????????????	-9.30373
??????????????????	-9.30382
????????????????????????	-9.30409
???S	-9.30448
????????????	-9.30467
????????????	-9.30558
?????????????????????	-9.30928
???????????????	-9.30986
???????????????	-9.30991
???????????????	-9.31038
????????????	-9.3112
???	-9.31124
i	-9.31157
?????????????????????	-9.3116
??????????????????????????????	-9.31171
????????????????????????	-9.31279
???2000	-9.31351
????????????	-9.31611
?????????????????????	-9.31669
???????????????????????????	-9.3178
??????	-9.31924
?????????????????????	-9.3195
????????????	-9.31951
???????????????????????????	-9.31951
??????????????????	-9.31951
??????????????????	-9.31975
??????????????????????????????	-9.31975
???????????????	-9.3198
??????????????????	-9.31982
n	-9.32059
???????????????	-9.32096
????????????????????????	-9.3228
????????????	-9.32353
??????????????????	-9.32418
??????	-9.32676
??????????????????	-9.32692
?????????????????????	-9.32736
???????????????????????????????????????	-9.32741
??????????????????	-9.32802
!	-9.3281
????????????????????????	-9.32843
??????	-9.32877
??????	-9.32969
??????????????????	-9.33144
??????????????????	-9.33158
???????????????	-9.33168
???????????????	-9.33189
??????	-9.33477
??????????????????	-9.33523
???????????????????????????	-9.33528
????????????????????????	-9.33529
??????????????????	-9.3353
???2005	-9.33538
????????????	-9.33542
??????????????????	-9.33548
??????????????????	-9.3359
???	-9.3379
????????????	-9.33821
A	-9.33857
?????????????????????	-9.34177
????????????????????????	-9.34334
???????????????????????????	-9.34334
??????????????????	-9.34351
????????????????????????	-9.34364
?????????????????????	-9.34365
???????????????	-9.3448
??????????????????????????????	-9.34513
3	-9.34852
??????	-9.34868
??????????????????	-9.34946
?????????	-9.35002
???????????????	-9.35095
?????????????????????	-9.35147
????????????????????????	-9.35147
???????????????	-9.35229
???????????????	-9.35287
???	-9.3529
???????????????	-9.35294
????????????????????????	-9.35581
????????????	-9.35712
?????????????????????	-9.35735
?????????????????????	-9.358
?????????	-9.35936
???????????????	-9.35975
?????????????????????	-9.35986
???????????????????????????	-9.35991
??????????????????	-9.35999
???????????????	-9.36004
???????????????	-9.36012
????????????	-9.36302
?????????????????????	-9.36419
???????????????	-9.36764
???????????????????????????	-9.36771
????????????????????????	-9.36794
??????????????????????????????	-9.36794
??????????????????	-9.36794
???????????????	-9.36795
?????????????????????	-9.36798
???????????????	-9.36803
????????????????????????	-9.36805
????????????	-9.36808
?????????????????????	-9.36809
??????????????????	-9.36818
??????????????????????????????	-9.36857
??????????????????????????????	-9.36924
????????????	-9.37092
?????????	-9.37185
????????????????????????	-9.37204
????????????	-9.37314
?????????????????????	-9.37435
????????????	-9.37441
??????????????????????????????	-9.37445
???????????????	-9.37495
?????????	-9.37569
???????????????	-9.37588
????????????????????????	-9.37616
?????????????????????	-9.37627
??????????????????	-9.37644
???2007	-9.37653
??????	-9.37877
???????????????	-9.38271
???????????????????????????	-9.38468
????????????????????????	-9.38468
?????????????????????	-9.38472
?????????????????????	-9.38482
??????????????????	-9.38486
???????????????	-9.38512
??????	-9.38539
??????	-9.38653
?????????????????????	-9.38737
?????????????????????	-9.38742
?????????	-9.38903
C	-9.38905
??????	-9.38963
??????????????????	-9.39119
????????????????????????	-9.39296
???????????????	-9.39314
????????????????????????????????????	-9.39324
?????????????????????	-9.39326
???????????????????????????	-9.39329
???????????????	-9.39342
???????????????	-9.39378
????????????	-9.39437
?????????	-9.39646
?????????????????????	-9.39688
????????????????????????	-9.3974
????????????????????????	-9.39956
???A	-9.40015
?????????	-9.40153
????????????????????????	-9.40171
???????????????	-9.40173
???2006	-9.40176
??????????????????	-9.40191
?????????	-9.40287
??????	-9.40302
?????????	-9.40367
??????	-9.40472
c	-9.40494
???in	-9.40673
???????????????	-9.40853
??????????????????	-9.40906
?????????	-9.40937
???????????????????????????	-9.41032
?????????????????????	-9.4104
????????????????????????	-9.41043
??????????????????	-9.41048
????????????????????????	-9.4105
???????????????	-9.41109
??????	-9.41146
??????????????????????????????	-9.41167
????????????	-9.41204
?????????	-9.41469
????????????????????????	-9.41685
????????????????????????	-9.41689
????????????	-9.41829
ing	-9.4185
???2004	-9.41857
???????????????????????????	-9.41879
????????????????????????	-9.41902
?????????????????????	-9.41909
??????????????????	-9.41916
???????????????	-9.4192
?????????????????????	-9.41933
????????????????????????	-9.41966
?????????????????????	-9.42019
????????????	-9.42031
??	-9.42076
??????	-9.4217
1	-9.4218
???	-9.42283
???????????????????????????	-9.42378
???????????????????????????	-9.42457
???????????????	-9.42496
???????????????	-9.42541
?????????????????????	-9.42567
?????????????????????	-9.4266
???????????????	-9.42674
?????????????????????	-9.42753
???????????????????????????????????????	-9.42784
??????????????????	-9.42787
????????????????????????????????????????????????	-9.42787
??????????????????	-9.42791
??????????????????	-9.42793
?????????	-9.42799
??????????????????????????????	-9.42816
???????????????	-9.42817
S	-9.42827
??????????????????	-9.42831
?????????	-9.42977
????????????	-9.43206
??????	-9.43269
????????????????????????	-9.43492
???????????????	-9.43612
???????????????????????????	-9.43649
?????????????????????	-9.43663
???????????????	-9.4369
??????????????????	-9.43696
?????????????????????	-9.43709
????????????	-9.43731
??????????????????	-9.4374
???????????????	-9.43757
???	-9.43842
????????????	-9.43844
m	-9.43902
??????	-9.43966
?????????	-9.44189
????????????	-9.44307
???	-9.44362
??????????????????????????????	-9.44411
??????????????????	-9.44559
???????????????????????????	-9.44568
??????????????????	-9.44739
????????????	-9.44854
???	-9.45048
?????????	-9.45081
?????????	-9.45142
????????????	-9.45227
????????????????????????	-9.45275
???????????????	-9.45322
????????????????????????	-9.45458
???????????????	-9.45458
??????????????????	-9.45478
??????????????????????????????	-9.45481
??????	-9.45493
?????????????????????	-9.45501
????????????????????????	-9.45806
??????????????????	-9.45911
??????	-9.45937
????????????????????????	-9.45939
?????????????????????	-9.4599
??????	-9.46023
??????	-9.46208
??????	-9.46241
??????????????????	-9.46279
????????????????????????	-9.46343
???????????????	-9.46362
????????????	-9.46369
???????????????	-9.46371
??????????????????	-9.46376
?????????	-9.46438
?????????????????????	-9.46512
er	-9.46596
?????????	-9.46709
????????????????????????	-9.4682
??????????????????	-9.469
?????????????????????	-9.47098
?????????????????????????????????	-9.47284
???????????????	-9.47285
????????????????????????	-9.47289
????????????????????????	-9.47305
??????????????????	-9.47308
????????????????????????	-9.47324
?????????	-9.47466
?????????	-9.47759
???????????????	-9.47875
???????????????	-9.47926
???????????????	-9.48004
???a	-9.4816
??????????????????	-9.48194
?????????????????????	-9.48229
??????????????????????????????	-9.4831
????????????	-9.48312
?????????	-9.48569
?????????????????????	-9.48606
??????	-9.48712
???????????????	-9.48952
???"	-9.49001
????????????	-9.49021
???????????????	-9.49054
??????????????????	-9.49146
??????????????????	-9.49146
?????????????????????	-9.49146
???????????????????????????????????????	-9.49147
????????????????????????	-9.49156
??????????????????	-9.4916
??????????????????	-9.49162
???????????????????????????	-9.49164
???????????????	-9.49254
r	-9.49261
????????????	-9.49497
d	-9.49625
???P	-9.49694
????????????	-9.49721
????????????	-9.4979
????????????????????????????????????	-9.49876
????????????????????????	-9.49885
???????????????	-9.49902
???????????????????????????	-9.49909
?????????????????????	-9.49951
?????????????????????	-9.49953
?????????????????????	-9.50071
???????????????????????????	-9.50087
????????????????????????	-9.50087
?????????????????????	-9.50089
????????????	-9.50094
???????????????????????????	-9.50102
???????????????	-9.50123
????????????	-9.50159
????????????	-9.50426
??????????????????	-9.50571
?????????????????????	-9.50861
???C	-9.5087
???????????????	-9.50962
??????????????????	-9.51002
??????????????????	-9.5104
????????????????????????	-9.51053
?????????????????????	-9.51054
??????????????????	-9.5108
?????????	-9.51293
?????????????????????	-9.51348
???????????????	-9.51377
???	-9.51622
????????????????????????	-9.51825
?????????????????????	-9.52001
?????????????????????	-9.52002
??????????????????	-9.52029
???????????????	-9.52048
??????	-9.52127
????????????	-9.5213
???????????????	-9.52516
????????????	-9.52563
????????????	-9.5259
??????????????????????????????	-9.52817
??????????????????	-9.52823
??????????????????	-9.52927
?????????????????????	-9.52948
?????????????????????	-9.52972
??????????????????	-9.52972
?????????????????????????????????	-9.52973
???????????????	-9.52976
????????????	-9.5298
???????????????????????????	-9.5301
????????????	-9.53036
h	-9.53051
??????????????????	-9.53106
????????????	-9.53378
?????????	-9.53438
??????	-9.53552
???????????????	-9.53558
?????????????????????	-9.53771
???????????????	-9.53875
??????????????????	-9.53925
?????????	-9.53944
???????????????	-9.53953
?????????????????????	-9.53954
???????????????????????????	-9.53954
??????????????????	-9.53958
????????????	-9.53959
?????????????????????	-9.53966
??????????????????	-9.53981
???????????????	-9.54051
?????????	-9.54173
???	-9.54247
????????????	-9.54458
????????????	-9.54471
????????????	-9.5471
?????????	-9.54749
????????????	-9.54756
?????????	-9.54873
??????????????????	-9.54876
??????	-9.54876
?????????????????????	-9.54944
???????????????	-9.54946
?????????????????????????????????	-9.54948
?????????????????????	-9.54952
???????????????	-9.54953
???????????????	-9.54954
??????????????????	-9.54963
????????????	-9.54973
??????????????????????????????	-9.54976
??????????????????	-9.54978
????????????	-9.54983
?????????????????????	-9.54995
??????????????????	-9.55009
?????????????????????	-9.55018
???The	-9.55094
?????????	-9.55509
?????????	-9.5551
?????????????????????	-9.55524
????????????????????????	-9.55558
??????	-9.55783
???????????????	-9.55843
?????????????????????	-9.5588
??????	-9.5588
???????????????	-9.55887
?????????	-9.55889
??????????????????????????????	-9.55949
?????????????????????	-9.55954
????????????????????????	-9.56001
???24	-9.56006
???????????????????????????	-9.56145
????????????	-9.5626
?????????????????????	-9.56471
???????????????	-9.56494
????????????	-9.56495
M	-9.56851
?????????????????????	-9.56879
???????????????	-9.56896
??????????????????????????????	-9.56928
??????????????????	-9.56959
??????????????????	-9.5697
???????????????????????????	-9.5697
??????????????????	-9.56973
??????????????????????????????	-9.56974
???2008	-9.57001
?????????????????????	-9.57006
???????????????	-9.5717
???????????????	-9.5741
??????	-9.57495
??????????????????	-9.578
?????????	-9.57833
????????????????????????	-9.57977
????????????????????????	-9.57984
???$	-9.57987
????????????????????????????????????	-9.57989
?????????????????????????????????	-9.58007
??????????????????	-9.58031
??????????????????	-9.58068
???????????????????????????	-9.58093
?????????	-9.58152
?????????	-9.5829
??????	-9.58307
????????????????????????	-9.585
??????????????????	-9.5862
???????????????????????????	-9.58654
??????????????????	-9.58808
???????????????	-9.59006
???????????????????????????	-9.5901
??????????????????	-9.59013
???2001	-9.59014
??????????????????	-9.59015
??????????????????	-9.59042
??????????????????????????????	-9.59061
???????????????	-9.59066
???	-9.59079
?????????????????????	-9.59163
ed	-9.592
p	-9.59338
??????	-9.59407
????????????	-9.59764
???	-9.59841
??????????????????	-9.59986
?????????????????????	-9.60007
?????????????????????	-9.60033
????????????????????????	-9.60047
???????????????	-9.6005
??????????????????	-9.60066
?????????????????????	-9.60072
??????	-9.6008
???????????????	-9.60102
?????????	-9.60144
???????????????	-9.60285
???????????????????????????	-9.60326
??????????????????	-9.60454
????????????	-9.60515
?????????????????????	-9.60889
?????????????????????	-9.60913
????????????	-9.6109
?????????????????????	-9.61098
????????????????????????	-9.61099
???????????????	-9.61105
????????????	-9.61118
???????????????	-9.61119
?????????????????????	-9.61204
????????????	-9.61269
?????????	-9.61296
???26	-9.61304
b	-9.61602
.)	-9.61648
??????????????????	-9.61775
??????	-9.61875
??????????????????	-9.61985
??????????????????	-9.62011
?????????	-9.62012
????????????????????????	-9.62068
??????????????????	-9.62106
???????????????	-9.62121
??????	-9.62121
????????????????????????	-9.62145
????????????????????????	-9.62156
??????????????????	-9.62158
??????????????????	-9.62162
??????????????????	-9.62162
??????????????????	-9.62162
???????????????????????????	-9.62163
???????????????	-9.62165
????????????????????????	-9.62172
???????????????????????????	-9.62173
????????????????????????	-9.622
????????????	-9.62236
?????????????????????	-9.62271
????????????	-9.62299
???????????????	-9.6279
?????????????????????	-9.62824
??????	-9.6284
????????????????????????	-9.62886
????????????	-9.63191
????????????	-9.63217
???????????????	-9.63219
????????????????????????	-9.63234
??????????????????	-9.63238
?????????????????????????????????	-9.63238
???????????????	-9.6324
??????????????????	-9.63246
?????????????????????	-9.63252
????????????????????????	-9.6326
???????????????	-9.63318
??????	-9.63463
?????????????????????	-9.63477
??????????????????	-9.63675
???	-9.6382
-1	-9.64069
?????????????????????	-9.6414
???????????????	-9.64194
????????????	-9.64289
????????????????????????	-9.64296
???23	-9.64311
????????????	-9.64329
???????????????????????????????????????	-9.64335
??????????????????	-9.64339
??????????????????????????????	-9.6435
??????	-9.64363
???????????????	-9.64394
u	-9.64429
?????????	-9.649
?????????????????????	-9.65094
????????????	-9.65212
????????????????????????	-9.65243
????????????	-9.65244
?????????????????????	-9.65259
???????????????	-9.65405
???????????????	-9.65423
????????????????????????	-9.65426
?????????????????????	-9.65427
??????????????????	-9.65427
???????????????????????????	-9.65451
?????????????????????	-9.65453
??????	-9.65629
?????????????????????	-9.65691
??????	-9.65734
????????????????????????	-9.65834
???40	-9.65855
??????????????????	-9.65875
??????????????????	-9.66317
????????????	-9.66391
??????	-9.66411
in	-9.66443
??????????????????	-9.66456
?????????????????????????????????	-9.6649
???????????????????????????	-9.66556
?????????????????????	-9.66558
???????????????????????????	-9.66566
?????????	-9.66567
??????????????????	-9.66585
???????????????	-9.666
???????????????	-9.66703
????????????	-9.66854
?????????????????????	-9.66889
??????	-9.67055
???????????????????????????	-9.67155
????????????????????????	-9.67329
al	-9.67427
????????????????????????????????????	-9.67445
????????????????????????	-9.67479
?????????????????????	-9.675
??????	-9.67516
???????????????	-9.6753
????????????????????????	-9.67632
',	-9.67646
??????????????????	-9.67647
?????????????????????	-9.67654
????????????????????????	-9.67665
?????????????????????	-9.67665
??????????????????	-9.67666
???????????????	-9.67673
?????????????????????	-9.67682
??????????????????	-9.67686
???????????????	-9.67688
?????????????????????	-9.67689
???????????????	-9.67693
???????????????	-9.67728
??????	-9.68125
w	-9.68199
??????	-9.68252
?????????	-9.68312
??????????????????	-9.68594
???????????????????????????	-9.68622
??????????????????????????????	-9.68661
???????????????	-9.68672
??????????????????	-9.68695
???21	-9.68732
?????????????????????	-9.68739
???2003	-9.68777
???????????????	-9.68788
?????????????????????	-9.68794
???????????????	-9.68794
??????????????????	-9.68798
??????????????????????????????	-9.68837
???????????????	-9.68949
?????????	-9.69142
???????????????	-9.69372
?????????	-9.6938
?????????	-9.69483
??????????????????	-9.6977
???22	-9.69832
?????????	-9.69844
???????????????	-9.69883
????????????	-9.69899
?????????????????????	-9.69918
?????????????????????	-9.69922
???????????????????????????	-9.69938
??????????????????????????????????????????	-9.69944
????????????????????????????????????	-9.69944
???2015	-9.69955
???????????????	-9.69958
??????????????????	-9.69985
??????	-9.69997
????????????	-9.70027
??????	-9.70089
???????????????	-9.70216
????????????	-9.70242
???????????????	-9.7026
??????	-9.70514
??????	-9.70766
??????????????????	-9.70804
??????	-9.70822
??????	-9.70853
??????????????????	-9.70929
????????????	-9.71
?????????????????????	-9.71074
???????????????	-9.71107
??????????????????????????????	-9.71107
?????????????????????	-9.71122
????????????????????????	-9.71158
???????????????	-9.71158
???50	-9.71194
???????????????	-9.71196
???????????????	-9.71202
?????????	-9.71278
?????????	-9.71497
????????????	-9.71505
???27	-9.71804
?????????	-9.7191
??????	-9.71916
????????????	-9.71936
?????????	-9.7198
??????????????????	-9.72099
??????????????????	-9.72125
?????????????????????	-9.72154
:-	-9.72191
??????????????????	-9.722
?????????????????????	-9.72245
????????????	-9.72269
?????????????????????	-9.7229
???????????????????????????	-9.72296
????????????????????????	-9.72297
?????????????????????	-9.72317
??????	-9.72338
?????????????????????	-9.72363
???(19	-9.72368
?????????????????????	-9.72417
??????????????????	-9.72433
?????????	-9.72642
???????????????	-9.72668
?????????	-9.72722
?????????	-9.72925
????????????	-9.731
??????	-9.7316
????????????????????????	-9.7329
??????	-9.73385
????????????????????????	-9.7345
??????????????????	-9.73474
????????????????????????	-9.73474
??????????????????????????????	-9.73474
?????????????????????	-9.73474
?????????????????????	-9.73478
??????????????????	-9.73481
???2014	-9.73487
??????????????????	-9.73493
???????????????	-9.73508
???????????????	-9.73512
???????????????	-9.73521
???1999	-9.73529
?????????????????????	-9.7353
??????	-9.73532
????????????	-9.73534
?????????????????????	-9.73543
??????????????????	-9.73588
???100	-9.73758
?????????????????????	-9.73841
on	-9.73908
???????????????	-9.74179
???	-9.74197
?????????	-9.74243
="	-9.7429
???????????????	-9.74486
??????????????????	-9.74559
????????????????????????	-9.74614
?????????????????????????????????	-9.74655
???	-9.74663
??????	-9.74667
??????	-9.74671
?????????????????????	-9.74679
?????????????????????	-9.74679
??????	-9.74681
????????????????????????	-9.74705
??????	-9.74708
???????????????	-9.74709
?????????????????????	-9.74745
???????????????	-9.74762
???????????????????????????????????????	-9.74788
???????????????	-9.7485
?????????????????????	-9.74963
?????????????????????	-9.75046
???28	-9.75084
??????????????????	-9.75202
??????	-9.75229
????????????????????????	-9.7524
????????????	-9.753
???????????????	-9.75338
?????????	-9.7534
?????????	-9.75392
???????????????	-9.75509
???	-9.75516
?????????????????????	-9.75611
????????????????????????	-9.7567
?????????	-9.75674
?????????????????????	-9.75687
???????????????	-9.75705
???????????????	-9.75755
??????????????????	-9.75847
??????????????????????????????	-9.75879
????????????????????????	-9.75898
?????????????????????	-9.75898
??????????????????	-9.75899
???1996	-9.75901
?????????????????????	-9.75928
??????????????????	-9.75978
??????????????????	-9.76008
????????????	-9.7601
???????????????	-9.76095
????????????	-9.76146
??????	-9.76376
????????????	-9.765
?????????	-9.76622
??????????????????	-9.7676
?????????????????????	-9.76918
??????????????????	-9.76943
???????????????????????????	-9.76945
??????????????????	-9.76949
???????????????	-9.76951
?????????????????????	-9.76958
??????????????????	-9.77117
?????????????????????	-9.77125
?????????????????????????????????	-9.77133
????????????????????????	-9.7714
???2009	-9.77143
??????????????????????????????	-9.77145
???B	-9.77174
?????????????????????????????????	-9.77216
????????????	-9.77381
D	-9.77383
???????????????????????????	-9.77544
?????????	-9.77555
??????	-9.77619
??????	-9.77708
??????????????????	-9.77837
??????????????????	-9.77954
??????????????????	-9.78232
?????????????????????	-9.78332
?????????????????????	-9.78382
???2013	-9.78389
???????????????	-9.78395
????????????????????????	-9.78396
???????????????	-9.78401
??????????????????????????????	-9.78403
??????????????????	-9.78409
??????????????????	-9.78428
????????????	-9.78433
???????????????	-9.78441
???????????????	-9.78458
??????	-9.78636
????????????	-9.78746
T	-9.78896
?????????	-9.78928
k	-9.78959
????????????????????????	-9.79107
??????	-9.79127
????????????	-9.79267
??????	-9.79286
?????????	-9.79331
??????????????????	-9.79504
??????????????????	-9.79517
????????????	-9.79527
???????????????	-9.79609
???????????????	-9.79618
????????????????????????	-9.7964
?????????????????????	-9.79648
??????????????????????????????	-9.79649
?????????????????????	-9.79652
?????????????????????????????????	-9.79653
???2010	-9.79658
?????????????????????	-9.79659
??????????????????	-9.79664
?????????????????????	-9.79665
????????????????????????	-9.7973
????????????	-9.79842
???????????????	-9.79846
?????????	-9.79847
??????	-9.79848
??????????????????	-9.79888
????????????	-9.80012
??????	-9.80044
???????????????	-9.80218
????????????????????????	-9.803
?????????	-9.80358
??????????????????	-9.80619
?????????????????????	-9.80762
????????????	-9.80786
???????????????????????????	-9.80933
???1980	-9.80937
???2002	-9.80956
???????????????????????????	-9.80972
???????????????	-9.80982
??????????????????	-9.80982
????????????	-9.81057
???????????????	-9.81135
??????	-9.81188
????????????	-9.81237
???????????????	-9.81319
???????????????	-9.81443
?????????????????????	-9.8156
?????????????????????	-9.81653
????????????	-9.81686
????????????????????????	-9.82014
????????????????????????	-9.82172
?????????	-9.82183
??????????????????????????????	-9.82229
????????????????????????	-9.82229
?????????????????????	-9.8223
??????????????????	-9.82231
???????????????????????????	-9.82238
?????????????????????	-9.82246
?????????????????????	-9.8225
????????????????????????	-9.8225
???????????????	-9.82251
???????????????	-9.82258
f	-9.8259
???????????????	-9.8273
???????????????	-9.83195
????????????????????????	-9.83372
??????????????????	-9.83403
???????????????	-9.83452
?????????????????????	-9.83457
?????????????????????	-9.83512
????????????????????????	-9.83527
????????????????????????????????????	-9.83547
???????????????	-9.83549
???1990	-9.83551
????????????????????????	-9.83655
????????????	-9.83843
???	-9.83965
?????????	-9.8426
%)	-9.8457
?????????????????????	-9.84571
????????????	-9.84699
??????????????????	-9.84708
????????????	-9.84724
????????????????????????	-9.84732
?????????	-9.84764
??????	-9.84823
?????????	-9.84828
???????????????????????????	-9.84878
?????????????????????	-9.84878
?????????????????????	-9.84879
?????????????????????	-9.84879
?????????????????????????????????????????????	-9.84881
?????????	-9.84881
????????????	-9.84883
???????????????	-9.84883
?????????????????????	-9.84884
???????????????	-9.84888
?????????????????????	-9.84888
?????????????????????	-9.8489
???????????????????????????	-9.84891
???????????????	-9.84922
??????????????????	-9.84932
??????????????????????????????	-9.84971
??????????????????	-9.85089
?????????	-9.85222
????????????	-9.85306
???????????????	-9.85427
????????????	-9.85618
???????????????	-9.85767
R	-9.85991
).	-9.86093
????????????????????????	-9.8623
??????????????????????????????	-9.8623
??????	-9.86231
?????????????????????	-9.86233
??????????????????????????????	-9.86233
?????????????????????	-9.86238
??????????????????	-9.86243
???????????????	-9.86245
??????????????????	-9.86277
???????????????	-9.86283
??????????????????????????????	-9.86319
??????	-9.86578
???????????????	-9.86886
?????????	-9.86889
????????????	-9.86985
?????????	-9.8717
???????????????	-9.8738
????????????	-9.87471
????????????????????????	-9.87569
????????????	-9.87597
?????????????????????	-9.87599
??????????????????	-9.87602
???????????????????????????	-9.87604
????????????	-9.87605
??????????????????	-9.87606
?????????????????????	-9.87607
?????????????????????	-9.87614
??????????????????????????????	-9.87618
?????????????????????	-9.8762
???????????????????????????	-9.87628
???????????????	-9.87658
???????????????	-9.87665
????????????	-9.87696
00	-9.87729
???????????????	-9.87782
???????????????????????????	-9.88175
??????????????????	-9.88303
??????	-9.88402
?????????	-9.88414
???????????????	-9.88418
??????	-9.8859
????????????	-9.88614
????????????	-9.88614
??????	-9.88619
???????????????????????????????????????	-9.88806
E	-9.88959
????????????????????????	-9.88984
????????????????????????	-9.88987
????????????????????????????????????	-9.88988
???????????????????????????	-9.88992
?????????????????????	-9.88994
????????????????????????	-9.88998
?????????????????????	-9.89002
??????????????????	-9.89003
?????????????????????	-9.89006
??????????????????	-9.89023
????????????????????????	-9.89061
??????	-9.89065
???????????????	-9.89086
????????????	-9.89096
????????????	-9.89098
?????????	-9.89139
???????????????????????????	-9.89241
?????????	-9.89259
??????	-9.89342
?????????	-9.8941
???????????????	-9.89439
????????????????????????	-9.89476
?????????	-9.89514
??????	-9.89657
an	-9.89665
??????????????????	-9.89683
???????????????	-9.89779
???	-9.89869
?????????	-9.89968
B	-9.89999
??????????????????	-9.90055
or	-9.90066
???	-9.90174
???????????????	-9.9021
????????????	-9.90213
?????????????????????	-9.90213
??????????????????????????????	-9.90215
??????????????????	-9.90221
?????????	-9.9026
??????????????????	-9.9026
???????????????	-9.90271
??????	-9.90305
://	-9.90396
??????????????????????????????	-9.90397
?????????????????????	-9.90397
??????????????????	-9.90399
????????????????????????	-9.90401
?????????????????????	-9.90401
???????????????	-9.90406
???2012	-9.90408
?????????	-9.90495
???????????????	-9.90516
????????????	-9.90521
???????????????	-9.90546
???????????????	-9.90549
???????????????????????????	-9.90559
?????????????????????	-9.90568
?????????????????????	-9.90582
??????????????????	-9.90714
?????????????????????	-9.90721
??????	-9.90882
??????	-9.90949
????????????	-9.91213
????????????	-9.91398
??????????????????	-9.91455
???????????????????????????	-9.91641
??????	-9.9173
???1948	-9.91764
??????????????????	-9.91783
?????????????????????	-9.91811
??????????????????????????????	-9.91825
??????????????????	-9.91825
???????????????????????????	-9.91836
???????????????	-9.91838
??????????????????????????????	-9.91839
???????????????????????????	-9.91867
???????????????	-9.91877
???????????????????????????	-9.91925
?????????	-9.91983
?????????????????????	-9.92057
???????????????????????????	-9.92333
?????????	-9.92354
????????????	-9.92374
?????????	-9.92458
???????????????	-9.92467
????????????????????????	-9.92491
??????	-9.92591
????????????	-9.9261
????????????	-9.92734
?????????	-9.92913
??????????????????	-9.9297
?????????????????????	-9.93093
??????	-9.93111
??????????????????	-9.93186
??????????????????	-9.93232
??????????????????	-9.93244
??????????????????	-9.9327
??????????????????	-9.93272
??????????????????	-9.93275
??????????????????	-9.93275
web	-9.93276
???????????????	-9.9328
???????????????	-9.93282
???????????????????????????	-9.93283
???????????????????????????	-9.93284
?????????????????????	-9.93289
????????????????????????	-9.9329
????????????????????????	-9.9329
???????????????	-9.93292
???1947	-9.93309
???????????????	-9.93313
?????????????????????	-9.93316
????????????????????????????????????	-9.93321
???ISBN	-9.93327
??????????????????	-9.93353
????????????????????????	-9.93354
?????????????????????	-9.93367
????????????	-9.934
?????????	-9.93446
?????????	-9.93706
????????????	-9.93843
??????????????????????????????	-9.94116
?????????	-9.94121
??????????????????	-9.94377
???????????????	-9.94434
???????????????	-9.94549
??????????????????	-9.94641
????????????????????????	-9.94745
????????????????????????	-9.94746
???psychology	-9.94746
??????????????????????????????	-9.94746
???????????????	-9.94746
?????????????????????	-9.94749
???1972	-9.94754
??????????????????	-9.94754
?????????????????????	-9.94755
???????????????	-9.9476
??????????????????????????????	-9.94766
??????????????????	-9.94768
?????????????????????	-9.94768
??????????????????	-9.94782
??????????????????	-9.94792
?????????	-9.94795
??????????????????	-9.94795
???????????????????????????	-9.94809
???????????????	-9.94821
?????????????????????	-9.94821
??????????????????	-9.94839
?????????????????????	-9.94859
???????????????????????????	-9.94874
???????????????	-9.94884
?????????????????????	-9.94933
?????????	-9.95034
???????????????	-9.95093
??????	-9.9526
??????????????????	-9.95262
??????	-9.95356
????????????	-9.9546
?????????????????????	-9.95567
?????????	-9.95759
??????????????????	-9.96103
????????????	-9.96179
???????????????	-9.96198
?????????	-9.96206
????????????????????????	-9.96213
?????????	-9.96231
??????????????????	-9.96238
??????????????????	-9.96238
?????????????????????	-9.96238
???????????????????????????	-9.96239
??????????????????	-9.96239
???????????????	-9.96241
????????????????????????	-9.96241
???????????????	-9.96244
??????????????????	-9.96252
?????????????????????	-9.96301
???????????????????????????	-9.96305
??????????????????	-9.96314
????????????????????????	-9.96314
??????????????????	-9.96348
????????????	-9.96383
???????????????	-9.96414
?????????	-9.96421
??????	-9.96444
?????????????????????	-9.96467
??????????????????	-9.96512
????????????	-9.96588
???????????????????????????	-9.96725
??????????????????	-9.96822
??????????????????	-9.96978
????????????	-9.97239
??????????????????	-9.97441
??????	-9.97462
?????????	-9.97487
???????????????	-9.97599
??????????????????	-9.97602
??????????????????????????????	-9.97612
????????????	-9.97706
????????????????????????	-9.97739
????????????????????????	-9.97748
????????????????????????	-9.97753
?????????????????????	-9.97753
???????????????	-9.97753
??????????????????	-9.97753
???????????????????????????	-9.97757
?????????????????????	-9.97759
??????????????????????????????	-9.9776
???2019	-9.97765
????????????????????????	-9.97768
?????????????????????	-9.97768
???1960	-9.97783
???????????????	-9.97828
????????????	-9.979
????????????	-9.97976
???????????????	-9.98096
?????????????????????	-9.98347
???????????????	-9.98464
???????????????	-9.98498
P	-9.98532
????????????????????????	-9.98561
??????????????????	-9.98731
??????	-9.98762
????????????	-9.98883
???st	-9.9907
??????	-9.99085
??????????????????	-9.99107
???????????????	-9.99108
??????	-9.99286
???????????????	-9.99291
????????????	-9.99292
????????????????????????	-9.99295
??????????????????	-9.99296
???????????????	-9.99296
??????????????????????????????	-9.99298
??????????????????	-9.99299
???????????????????????????	-9.99306
??????????????????	-9.99307
?????????????????????	-9.99308
??????????????????????????????	-9.99311
????????????????????????	-9.99312
???????????????	-9.9933
?????????????????????	-9.99341
???????????????	-9.99347
?????????	-9.99362
??????????????????	-9.99369
?????????	-9.99389
???????????????	-9.99446
???????????????	-9.99447
?????????	-9.99468
????????????????????????	-9.9951
??????	-9.99575
???????????????	-9.99774
O	-9.99778
????????????????????????????????????	-9.99858
????????????	-9.99903
????????????	-9.99928
???????????????	-9.99939
);	-9.99958
????????????	-10.0003
????????????	-10.0034
???29	-10.0037
?????????	-10.0038
?????????????????????	-10.004
???(1	-10.0042
????????????	-10.0051
???200	-10.0065
??????????????????????????????	-10.0066
???????????????	-10.0067
?????????????????????	-10.0085
?????????????????????????????????	-10.0085
??????????????????	-10.0085
???by	-10.0086
??????????????????	-10.0086
????????????	-10.0087
?????????????????????	-10.0088
??????????????????	-10.0089
?????????????????????	-10.009
??????????????????	-10.009
???????????????	-10.009
?????????????????????	-10.009
???????????????	-10.009
????????????	-10.009
????????????????????????	-10.0091
???????????????	-10.0092
??????????????????	-10.0098
??????????????????????????????	-10.0101
re	-10.0101
??????	-10.0103
????????????	-10.0106
????????????	-10.012
??????	-10.012
g	-10.0144
??????	-10.0153
?????????????????????	-10.0153
??????	-10.0203
?????????	-10.021
I	-10.0216
???	-10.0218
??????????????????????????????	-10.0225
??????????????????	-10.0226
????????????	-10.0232
???????????????????????????	-10.0237
???????????????	-10.0244
?????????????????????	-10.0244
???????????????	-10.0245
????????????????????????	-10.0245
??????????????????	-10.0245
??????????????????	-10.0245
?????????????????????	-10.0245
?????????????????????	-10.0246
??????????????????	-10.0246
?????????????????????	-10.0247
?????????????????????????????????	-10.0248
???????????????	-10.0248
???????????????????????????	-10.0249
???????????????	-10.0251
???????????????	-10.0251
???????????????????????????	-10.0259
???????????????	-10.0263
????????????	-10.0268
???????????????	-10.0298
???????????????????????????	-10.0301
??????	-10.0305
L	-10.0308
???????????????????????????	-10.0324
??????	-10.0326
???K	-10.0333
10	-10.0335
??????	-10.0339
????????????	-10.0361
???	-10.0376
?????????????????????	-10.0388
????????????	-10.0392
??????	-10.0394
??????????????????	-10.0395
????????????	-10.0396
?????????????????????	-10.0397
?????????	-10.0398
?????????????????????????????????	-10.0399
???????????????????????????	-10.04
???????????????	-10.0402
???????????????	-10.0403
???????????????	-10.0403
??????????????????	-10.0405
????????????????????????	-10.0405
??????	-10.0405
?????????????????????	-10.0405
??????????????????	-10.0406
???????????????	-10.0406
???1998	-10.0406
???2018	-10.0406
???1991	-10.0407
?????????????????????	-10.0407
???????????????	-10.0408
?????????????????????	-10.0408
???????????????	-10.0409
???????????????	-10.041
??????????????????	-10.0411
??????????????????	-10.0412
???????????????	-10.0413
30	-10.0414
???????????????	-10.043
???to	-10.0434
?????????	-10.044
?????????????????????????????????	-10.0464
????????????	-10.0464
???31	-10.047
??????	-10.0475
?????????	-10.0479
?????????	-10.0481
",	-10.0485
-19	-10.0503
????????????	-10.0512
??????????????????	-10.0514
?????????	-10.053
??????????????????	-10.0555
?????????	-10.056
??????????????????	-10.0563
???????????????????????????	-10.0567
????????????????????????	-10.0568
?????????????????????	-10.0569
?????????????????????????????????	-10.0569
?????????????????????	-10.0569
?????????????????????????????????	-10.0569
?????????????????????????????????	-10.0569
??????????????????	-10.0569
???????????????????????????	-10.0569
?????????????????????	-10.057
??????????????????	-10.057
????????????????????????	-10.0571
?????????????????????????????????	-10.0571
?????????????????????	-10.0571
???????????????????????????	-10.0571
??????????????????	-10.0571
??????????????????????????????	-10.0571
??????????????????????????????????????????	-10.0572
???????????????	-10.0576
?????????????????????	-10.0576
??????????????????	-10.0576
???????????????	-10.0577
????????????	-10.0581
???????????????	-10.0603
????????????	-10.0623
25	-10.0624
14	-10.0626
???????????????	-10.0638
?????????	-10.0658
????????????????????????????????????	-10.0659
?????????	-10.0662
??????????????????	-10.0702
?????????????????????	-10.0719
???????????????	-10.0721
???????????????	-10.0726
?????????	-10.0726
???????????????	-10.073
??????????????????	-10.073
????????????	-10.0732
?????????????????????	-10.0734
?????????????????????	-10.0736
??????????????????	-10.0736
??????????????????	-10.0736
?????????????????????	-10.0736
????????????????????????	-10.0737
???????????????????????????	-10.0737
?????????????????????????????????	-10.0737
????????????	-10.0737
???????????????????????????	-10.0737
???1970	-10.0738
????????????????????????	-10.0738
??????????????????	-10.0741
???????????????????????????	-10.0745
???????????????	-10.0745
???????????????	-10.0749
?????????	-10.0761
?????????	-10.0768
?????????	-10.0771
??????????????????	-10.0777
????????????	-10.0779
????????????	-10.0779
????????????	-10.0779
???????????????	-10.0781
????????????	-10.0782
???G	-10.0785
????????????	-10.0789
?????????????????????	-10.0809
??????????????????	-10.0812
??????????????????	-10.084
???????????????	-10.0841
???????????????	-10.0843
?????????????????????	-10.0864
?????????	-10.087
?????????	-10.0873
??????	-10.0878
??????	-10.0883
??????	-10.0884
th	-10.0885
???????????????	-10.0893
??????????????????	-10.0905
???????????????	-10.0905
?????????????????????	-10.0905
????????????????????????	-10.0905
???????????????	-10.0906
???????????????????????????	-10.0906
??????????????????	-10.0906
????????????????????????	-10.0908
????????????????????????	-10.0908
???????????????????????????	-10.0908
???????????????????????????	-10.0909
??????????????????	-10.091
???????????????	-10.0912
?????????????????????	-10.0913
???????????????????????????	-10.0915
???????????????	-10.0921
?????????	-10.0923
????????????	-10.0926
?????????	-10.0932
yle	-10.0932
=	-10.0945
??????????????????	-10.0951
??????????????????	-10.096
???????????????	-10.0962
N	-10.0966
??????	-10.0977
???H	-10.0983
?????????	-10.0993
???60	-10.1018
???2.	-10.1023
??????	-10.1034
?????????????????????	-10.1059
?????????????????????	-10.106
????????????	-10.1062
??????????????????	-10.1064
???????????????	-10.1066
????????????	-10.1066
????????????	-10.1072
?????????????????????	-10.1074
????????????????????????	-10.1075
??????????????????	-10.1077
??????????????????	-10.1078
???????????????????????????	-10.1078
??????????????????	-10.1078
?????????????????????	-10.1078
???????????????????????????	-10.1078
???????????????????????????	-10.1078
??????????????????	-10.1079
??????????????????	-10.108
???????????????????????????	-10.108
????????????????????????	-10.1083
?????????????????????	-10.1084
???2017	-10.1084
?????????????????????	-10.1084
???????????????????????????	-10.1085
?????????????????????	-10.1086
?????????????????????	-10.1086
??????	-10.109
??????????????????	-10.109
??????????????????	-10.109
50	-10.1092
??????????????????	-10.1104
??????	-10.1116
??????????????????	-10.1119
????????????	-10.113
?????????????????????	-10.1143
??????	-10.1147
60	-10.1148
??????????????????	-10.1151
????????????????????????	-10.1159
???????????????	-10.1171
?????????	-10.1174
????????????	-10.118
??????	-10.1188
??????	-10.1212
?????????	-10.1214
?????????????????????	-10.1215
??????	-10.1217
?????????	-10.1221
?????????	-10.1233
????????????????????????	-10.1236
????????????	-10.1246
???????????????	-10.1246
??????????????????	-10.1249
???????????????	-10.1251
??????????????????????????????	-10.1252
?????????????????????????????????	-10.1253
????????????????????????	-10.1253
???????????????????????????	-10.1253
???????????????	-10.1253
???????????????	-10.1253
?????????????????????????????????	-10.1253
???????????????	-10.1253
???????????????	-10.1254
???????????????	-10.1254
???????????????????????????	-10.1254
???1950	-10.1255
??????????????????????????????	-10.1255
????????????????????????	-10.1256
?????????????????????	-10.1256
?????????????????????	-10.1256
??????????????????????????????	-10.1257
???????????????	-10.1258
???????????????	-10.126
??????????????????	-10.1266
????????????????????????	-10.128
????????????????????????	-10.1284
????????????????????????	-10.1332
????????????	-10.1334
????????????	-10.1345
??????????????????	-10.1351
?????????	-10.1353
???????????????	-10.1364
????????????	-10.1366
??????	-10.1371
????????????	-10.1377
?????????	-10.1391
??????????????????	-10.1405
??????	-10.1409
??????????????????	-10.141
????????????????????????	-10.1414
????????????????????????	-10.1415
???????????????	-10.1415
?????????????????????	-10.1429
???????????????	-10.1431
????????????????????????	-10.1431
???????????????	-10.1431
???????????????	-10.1431
?????????????????????	-10.1432
???????????????????????????	-10.1432
??????????????????	-10.1432
????????????	-10.1432
???????????????	-10.1432
?????????????????????	-10.1432
???????????????	-10.1432
??????????????????	-10.1432
??????????????????	-10.1432
?????????????????????	-10.1432
?????????????????????	-10.1433
???????????????????????????	-10.1433
?????????????????????	-10.1433
???????????????	-10.1434
????????????????????????	-10.1434
?????????????????????	-10.1434
?????????	-10.1434
???????????????????????????	-10.1435
???????????????????????????	-10.1437
???????????????	-10.1439
????????????????????????	-10.1441
?????????????????????	-10.1441
???1000	-10.1441
????????????????????????????????????	-10.1452
??????????????????	-10.146
??????	-10.1463
????????????????????????	-10.1468
?????????????????????	-10.1473
???????????????	-10.1505
?????????	-10.1534
?????????	-10.1542
ar	-10.1559
????????????	-10.1574
????????????????????????	-10.1576
??????	-10.1577
l	-10.1588
??????????????????	-10.1595
???????????????	-10.1596
???T	-10.1598
????????????????????????	-10.1599
ic	-10.1604
????????????	-10.1607
????????????????????????	-10.1608
??????????????????????????????	-10.1609
????????????????????????	-10.1612
???????????????????????????	-10.1614
????????????????????????????????????	-10.1614
??????????????????	-10.1614
????????????????????????	-10.1614
?????????????????????	-10.1614
????????????	-10.1615
?????????????????????	-10.1615
??????????????????	-10.1615
???????????????	-10.1615
??????????????????	-10.1615
???????????????	-10.1617
???????????????	-10.1617
?????????????????????	-10.1619
?????????	-10.1619
???????????????	-10.162
?????????????????????	-10.1622
????????????	-10.1623
????????????	-10.1625
?????????	-10.1626
?????????	-10.1629
??????????????????	-10.164
?????????	-10.1641
???????????????	-10.1647
????????????????????????	-10.1648
???D	-10.1661
?????????	-10.1666
?????????????????????	-10.1681
????????????	-10.1692
z	-10.1707
????????????	-10.173
??????????????????	-10.174
????????????	-10.1745
??????	-10.1745
??????	-10.1749
F	-10.1759
15	-10.1759
??????????????????	-10.177
?????????	-10.1773
???????????????	-10.1779
?????????????????????	-10.1783
??????????????????	-10.1783
?????????	-10.1785
?????????	-10.1787
??????????????????????????????	-10.1793
?????????	-10.1795
???????????????	-10.1796
???????????????	-10.1797
??????????????????????????????	-10.1797
?????????	-10.1797
???????????????	-10.1798
?????????????????????	-10.1799
???????????????	-10.1799
??????????????????	-10.1799
???????????????	-10.1799
???1989	-10.1799
???????????????	-10.18
??????????????????	-10.18
???????????????????????????	-10.18
?????????????????????	-10.18
???2016	-10.1801
??????????????????	-10.1803
???1997	-10.1804
?????????????????????????????????	-10.1804
???????????????	-10.1806
???????????????	-10.1806
?????????????????????	-10.1807
??????????????????	-10.1809
??????????????????	-10.181
???????????????	-10.181
?????????????????????????????????	-10.1813
???????????????????????????	-10.1822
???????????????????????????	-10.183
?????????????????????	-10.1835
???W	-10.1839
????????????????????????????????????	-10.1844
???????????????????????????	-10.1845
????????????	-10.1846
??????????????????	-10.185
??????????????????	-10.1853
??????????????????	-10.1859
?????????	-10.186
en	-10.1869
??????	-10.1877
?????????	-10.1886
??????	-10.1888
???70	-10.1889
??????	-10.1894
?????????	-10.1916
???????????????	-10.1926
??????	-10.1939
20	-10.1941
???F	-10.1945
?????????????????????	-10.1968
???????????????	-10.1971
??????????????????	-10.1979
?????????	-10.1981
??????????????????	-10.1982
???????????????	-10.1987
????????????????????????	-10.1988
?????????????????????	-10.1988
??????????????????	-10.1988
????????????????????????	-10.1988
???????????????????????????	-10.1988
????????????????????????	-10.1988
???????????????	-10.1988
?????????????????????????????????	-10.1988
??????????????????	-10.1988
????????????????????????	-10.1988
align	-10.1988
???????????????	-10.1988
???1995	-10.1988
???????????????	-10.1989
??????????????????	-10.199
????????????	-10.199
??????????????????	-10.199
?????????	-10.199
??????????????????	-10.1991
??????????????????	-10.1992
??????????????????	-10.1992
??????????????????????????????	-10.1992
???????????????	-10.1996
???????????????	-10.1997
??????????????????	-10.1998
????????????	-10.1998
???????????????	-10.2
???????????????	-10.2001
el	-10.2004
??????????????????	-10.2009
???????????????????????????	-10.201
??????	-10.2029
?????????????????????	-10.203
?????????????????????	-10.2032
???????????????	-10.2044
????????????????????????	-10.2046
????????????	-10.205
??????	-10.2052
??????????????????	-10.2053
???????????????????????????	-10.2057
????????????????????????	-10.2061
???p	-10.2068
??????	-10.2089
??????????????????	-10.2089
??????	-10.2092
???%	-10.2092
???????????????	-10.21
??????????????????	-10.2103
????????????	-10.2105
es	-10.2106
????????????	-10.2121
???????????????	-10.2124
??????	-10.2129
?????????	-10.2136
?????????	-10.214
?????????	-10.214
????????????????????????	-10.2141
???????????????????????????	-10.2141
???????????????	-10.2161
????????????????????????	-10.2163
??????	-10.2165
?????????????????????	-10.2168
??????????????????	-10.2178
????????????????????????	-10.218
???????????????????????????	-10.218
?????????????????????	-10.218
????????????	-10.218
???????????????	-10.218
????????????????????????	-10.218
?????????????????????	-10.218
????????????????????????????????????	-10.2181
????????????????????????????????????	-10.2181
???????????????	-10.2182
????????????????????????	-10.2182
??????????????????	-10.2182
??????????????????	-10.2182
??????????????????	-10.2183
?????????????????????	-10.2183
???????????????	-10.2184
???????????????	-10.2185
???????????????	-10.2185
?????????	-10.2185
??????	-10.2188
???????????????????????????????????????	-10.2192
????????????????????????	-10.2194
??????????????????	-10.2198
x	-10.2198
????????????	-10.2199
????????????	-10.22
??????????????????	-10.2202
?????????????????????	-10.2208
?????????????????????	-10.2215
??????????????????????????????	-10.2226
???????????????	-10.2251
???1.	-10.2251
??????????????????	-10.2259
?????	-10.2264
?????????	-10.227
??????	-10.2273
??????	-10.2275
???????????????????????????	-10.2275
?????????	-10.2319
????????????	-10.2321
[	-10.2337
??????	-10.2341
?????????	-10.2342
?????????	-10.2351
?????????	-10.2353
??????????????????????????????	-10.2356
????????????????????????	-10.2357
???????????????????????????	-10.2358
?????????	-10.2358
??????	-10.2359
???????????????	-10.2361
??????	-10.2362
?????????????????????	-10.2364
??????	-10.2364
??????????????????	-10.2368
???????????????	-10.2374
?????????????????????	-10.2376
?????????????????????	-10.2376
?????????????????????	-10.2376
????????????????????????	-10.2376
???????????????	-10.2376
???????????????????????????	-10.2376
?????????????????????	-10.2376
??????????????????????????????	-10.2376
??????????????????	-10.2376
???????????????????????????	-10.2376
???????????????	-10.2376
???1975	-10.2377
?????????????????????	-10.2377
???3.	-10.2377
?????????????????????	-10.2377
??????????????????????????????	-10.2377
??????????????????????????????	-10.2377
???1987	-10.2378
???????????????	-10.2379
???????????????????????????	-10.2379
???????????????	-10.238
????????????????????????	-10.2384
??????????????????	-10.2385
???????????????	-10.2386
???????????????	-10.2386
??????????????????	-10.2387
??????????????????	-10.2392
???????????????	-10.2393
????????????????????????	-10.2404
?????????	-10.2412
???????????????	-10.2415
????????????????????????????????????	-10.2421
?????????	-10.2425
???????????????	-10.243
??????	-10.2445
???????????????	-10.2446
?????????	-10.2476
?????????????????????	-10.2484
??????	-10.2504
??????	-10.2512
??????	-10.2523
????????????	-10.2531
??????	-10.254
??????????????????	-10.2553
??????????????????	-10.2558
??????????????????	-10.2561
??????????????????	-10.2561
???	-10.2562
?????????????????????	-10.2565
??????????????????	-10.2576
???????????????????????????	-10.2576
??????????????????????????????	-10.2576
??????????????????????????????	-10.2576
????????????????????????????????????	-10.2576
???????????????	-10.2576
?????????????????????	-10.2576
???????????????	-10.2576
??????????????????	-10.2576
?????????????????????	-10.2576
????????????????????????????????????	-10.2576
?????????????????????????????????	-10.2577
?????????????????????	-10.2577
??????????????????	-10.2577
???1962	-10.2577
??????????????????	-10.2577
??????????????????	-10.2579
???????????????????????????	-10.2579
??????????????????	-10.258
???????????????	-10.258
?????????????????????	-10.2581
????????????????????????	-10.2582
?????????????????????	-10.2582
????????????????????????	-10.2583
??????????????????	-10.2584
?????????????????????	-10.2595
?????????????????????	-10.2595
??????	-10.2598
???????????????	-10.2599
????????????????????????	-10.2604
???35	-10.2611
?????????????????????	-10.2621
????????????	-10.2636
?????????	-10.2638
?????????	-10.2658
???????????????	-10.2659
??????	-10.2666
????????????	-10.2673
????????????	-10.2687
?????????????????????	-10.2688
??????????????????	-10.2692
????????????	-10.2694
??????	-10.2704
?????????	-10.271
??????	-10.2711
????????????????????????	-10.2716
??????	-10.2736
?????????	-10.275
????????????	-10.2751
??????	-10.2751
?????????	-10.2757
????????????	-10.276
??????????????????	-10.2761
????????????	-10.2774
????????????????????????	-10.2776
??????	-10.2776
????????????????????????	-10.2777
??????????????????????????????	-10.2779
??????????????????	-10.278
?????????????????????	-10.278
????????????????????????	-10.278
?????????????????????????????????	-10.278
????????????????????????	-10.278
???????????????????????????	-10.278
????????????????????????	-10.278
?????????????????????	-10.278
????????????????????????	-10.2781
??????????????????	-10.2781
???1992	-10.2781
????????????????????????	-10.2781
???????????????????????????	-10.2781
?????????????????????	-10.2781
????????????	-10.2781
???????????????????????????	-10.2782
???????????????	-10.2782
??????????????????	-10.2782
org	-10.2782
?????????????????????	-10.2782
??????????????????	-10.2783
??????????????????????????????	-10.2784
??????????????????????????????	-10.2784
???????????????	-10.2784
?????????????????????	-10.2784
??????????????????	-10.2785
???????????????	-10.2786
???????????????	-10.2786
???????????????	-10.2786
??????????????????	-10.2787
???????????????????????????	-10.2787
????????????	-10.2789
???????????????	-10.2794
????????????????????????	-10.2794
?????????????????????	-10.2795
???????????????	-10.2797
????????????	-10.2798
??????????????????	-10.2801
?????????	-10.2801
????????????	-10.2804
?????????	-10.2806
?????????	-10.2806
??????????????????	-10.2808
??????	-10.2809
????????????????????????	-10.2813
???????????????	-10.2814
???????????????	-10.2818
???????????????	-10.282
????????????	-10.2825
??????	-10.2835
?????????	-10.2848
???????????????	-10.2877
???on	-10.2897
??????	-10.2898
??????	-10.2916
?????????????????????????????????	-10.2921
??????	-10.2946
???????????????	-10.2947
?????????????????????	-10.2951
????????????	-10.2958
??????	-10.2964
??????	-10.297
????????????????????????	-10.2979
?????????	-10.2979
???????????????	-10.298
??????????????????	-10.2984
?????????????????????	-10.2985
???????????????	-10.2985
ri	-10.2986
???????????????	-10.2988
????????????????????????	-10.2988
?????????????????????????????????	-10.2988
???????????????????????????	-10.2988
??????????????????	-10.2989
??????????????????	-10.299
???2020	-10.299
?????????????????????????????????	-10.2991
???????????????	-10.2991
???????????????	-10.2992
??????????????????	-10.2992
?????????????????????	-10.2993
??????????????????	-10.2994
???????????????	-10.2996
???????????????	-10.3003
?????????????????????	-10.3008
???????????????	-10.301
???????????????	-10.3014
????????????	-10.3021
??????	-10.3026
??????????????????	-10.3037
????????????	-10.3042
???????????????	-10.3043
?????????	-10.3043
??????	-10.3044
??????????????????	-10.3047
??????	-10.3049
????????????????????????	-10.3051
H	-10.3053
???????????????	-10.3054
????????????	-10.3068
???????????????	-10.3082
???????????????	-10.3083
????????????	-10.3085
?????????	-10.309
16	-10.3098
?????????????????????	-10.3108
?????????	-10.3127
???????????????	-10.3146
???????????????	-10.3153
??????????????????	-10.3163
??????????????????	-10.3181
???????????????	-10.3182
?????????????????????	-10.3187
-2	-10.3197
?????????????????????	-10.3198
??????????????????	-10.3198
???????????????????????????	-10.32
???????????????	-10.3201
????????????????????????	-10.3201
??????????????????	-10.3201
???????????????????????????	-10.3201
????????????????????????	-10.3201
???????????????????????????	-10.3201
?????????????????????	-10.3201
??????????????????	-10.3201
?????????????????????	-10.3201
?????????????????????????????????	-10.3201
?????????????????????	-10.3202
??????	-10.3202
?????????????????????	-10.3202
???????????????	-10.3202
??????????????????	-10.3204
??????????????????	-10.3204
??????????????????	-10.3205
???????????????????????????	-10.3205
???????????????	-10.3205
????????????????????????	-10.3206
??????????????????	-10.3207
?????????	-10.3207
???????????????????????????	-10.3209
????????????????????????	-10.3209
??????????????????	-10.321
?????????????????????	-10.321
?????????????????????	-10.3211
???????????????	-10.3212
??????	-10.3215
?????????	-10.3216
???!	-10.3216
?????????????????????	-10.3221
?????????	-10.3221
????????????	-10.3221
???N	-10.3224
??????	-10.3227
????????????	-10.3229
?????????	-10.3232
????????????????????????	-10.3233
???????????????	-10.3233
?????????	-10.325
??????	-10.325
?????????????????????	-10.3252
???????????????????????????	-10.327
???????????????????????????	-10.3281
???????????????	-10.3283
??????	-10.3286
??????????????????	-10.3287
????????????????????????	-10.3305
?????????	-10.3309
???de	-10.3315
????????????	-10.3325
?????????	-10.3338
?????????	-10.3341
?????????	-10.3344
???c	-10.3346
?????????	-10.3346
?????????	-10.3354
???(18	-10.336
?????????????????????????????????	-10.3369
?????????	-10.3379
?????????????????????	-10.339
??????	-10.3394
????????????	-10.3397
?????????	-10.3399
??????????????????	-10.34
??????????????????????????????	-10.34
??????????????????	-10.3403
????????????	-10.341
?????????????????????	-10.3412
????????????	-10.3412
???????????????	-10.3415
?????????????????????????????????	-10.3415
????????????????????????????????????	-10.3415
????????????????????????	-10.3416
???????????????	-10.3418
????????????????????????	-10.3418
??????????????????	-10.3419
????????????????????????	-10.3419
??????????????????????????????	-10.3419
???????????????	-10.3419
?????????????????????	-10.3419
????????????????????????	-10.3419
??????????????????	-10.3419
???????????????????????????	-10.3419
???????????????	-10.3419
????????????????????????	-10.3419
???1971	-10.3419
???????????????	-10.342
??????????????????	-10.342
??????????????????????????????	-10.3422
??????????????????????????????	-10.3423
??????????????????	-10.3423
????????????????????????	-10.3423
???????????????	-10.3424
?????????	-10.3424
??????????????????	-10.3427
??????????????????	-10.3427
???????????????????????????	-10.3429
????????????	-10.3432
????????????	-10.3436
??????????????????	-10.3455
????????????????????????	-10.3457
?????????	-10.3462
72	-10.347
?????????????????????	-10.3481
???m	-10.3491
?????????	-10.3494
at	-10.3494
??????????????????	-10.3495
????????????????????????????????????????????????	-10.3497
?????????	-10.3505
???????????????	-10.3514
???	-10.3514
????????????	-10.3524
????????????	-10.3524
???????????????	-10.3532
????????????	-10.3537
???+	-10.3545
??????	-10.3551
?????????	-10.3558
???????????????	-10.3565
?????????	-10.3573
??????????????????	-10.3573
???????????????????????????	-10.3573
????????????????????????	-10.3576
?????????	-10.3578
???????????????	-10.3591
????????????	-10.3594
?????????	-10.3595
?????????	-10.3598
??????????????????	-10.3614
??????????????????	-10.3622
???????????????????????????	-10.3624
??????????????????	-10.3625
??????????????????	-10.3629
???????????????	-10.363
???????????????	-10.3634
???J	-10.3635
????????????????????????	-10.3638
ra	-10.3639
??????????????????	-10.3639
???????????????	-10.364
????????????????????????????????????	-10.3641
?????????????????????	-10.3641
?????????????????????	-10.3641
??????????????????	-10.3641
?????????????????????	-10.3641
??????????????????	-10.3641
????????????????????????	-10.3641
?????????????????????	-10.3641
???????????????????????????	-10.3641
??????????????????????????????	-10.3641
????????????????????????	-10.3641
???????????????????????????????????????	-10.3642
??????????????????	-10.3643
?????????????????????	-10.3643
?????????????????????	-10.3643
???????????????	-10.3643
????????????????????????	-10.3644
????????????????????????	-10.3644
?????????????????????	-10.3645
??????????????????	-10.3645
?????????????????????	-10.3645
?????????????????????????????????	-10.3645
???????????????????????????????????????	-10.3646
????????????	-10.3646
????????????????????????	-10.3646
?????????????????????	-10.3647
?????????	-10.3647
?????????????????????	-10.365
???????????????????????????	-10.3651
???????????????	-10.3651
??????????????????	-10.3653
??????	-10.3653
????????????????????????	-10.3657
??????????????????	-10.3661
??????????????????	-10.3668
???????????????	-10.3672
????????????	-10.3686
?????????????????????	-10.369
???500	-10.3697
?????????????????????	-10.3698
?????????????????????	-10.37
????????????????????????	-10.3702
K	-10.3715
??????	-10.3734
??????	-10.3744
????????????????????????	-10.3749
??????	-10.3785
12	-10.3805
???????????????????????????	-10.3813
???????????????	-10.3815
????????????????????????	-10.3815
???????????????	-10.3826
????????????	-10.3839
??????	-10.384
????????????	-10.3844
?????????	-10.3849
??????????????????	-10.385
?????????	-10.3853
????????????????????????	-10.3865
?????????	-10.3866
????????????????????????	-10.3867
??????????????????	-10.3868
??????????????????	-10.3868
???????????????????????????	-10.3868
??????????????????????????????	-10.3868
???????????????????????????	-10.3868
???????????????	-10.3868
??????????????????	-10.3868
???????????????	-10.3868
??????????????????	-10.3869
?????????????????????	-10.3869
?????????????????????????????????	-10.3869
???????????????	-10.387
???????????????	-10.387
????????????????????????	-10.387
????????????????????????	-10.3872
???????????????	-10.3872
???????????????	-10.3873
?????????	-10.3874
????????????????????????????????????	-10.3876
????????????????????????	-10.3877
??????	-10.3877
????????????	-10.3877
??????????????????	-10.3877
????????????	-10.3879
?????????????????????	-10.3891
?????????????????????	-10.3893
??????????????????	-10.3895
????????????????????????	-10.3898
???????????????	-10.39
???80	-10.3904
?????????????????????	-10.3914
?????????????????????	-10.392
?????????????????????	-10.3921
????????????????????????	-10.3931
???E	-10.3938
?????????	-10.3939
div	-10.3946
????????????	-10.3948
????????????	-10.3952
?????????????????????	-10.3954
ur	-10.3955
??????????????????	-10.3963
??????	-10.3968
???????????????	-10.3973
80	-10.3974
?????????	-10.3981
??????	-10.3997
us	-10.401
?????????	-10.4025
?????????????????????????????????	-10.4032
?????????	-10.4043
ir	-10.4054
11	-10.406
???????????????	-10.4061
???????????????	-10.4063
40	-10.4063
???????????????	-10.4072
???O	-10.4075
?????????	-10.408
??????????????????	-10.4083
???India	-10.4088
???????????????	-10.4089
???s	-10.4099
???????????????	-10.41
???????????????????????????	-10.41
?????????????????????	-10.4101
????????????????????????	-10.4101
??????????????????????????????	-10.4101
???????????????????????????	-10.4101
???????????????????????????	-10.4101
?????????????????????	-10.4101
???????????????	-10.4101
??????????????????	-10.4101
?????????????????????	-10.4101
????????????????????????	-10.4101
?????????????????????????????????	-10.4102
???????????????	-10.4102
??????????????????	-10.4102
???????????????????????????	-10.4102
?????????????????????	-10.4102
?????????????????????	-10.4102
??????????????????	-10.4102
????????????????????????	-10.4103
??????????????????????????????	-10.4103
?????????????????????	-10.4103
???????????????	-10.4104
??????	-10.4104
??????????????????	-10.4105
??????????????????	-10.4105
????????????	-10.4105
????????????	-10.4106
?????????????????????	-10.4107
????????????	-10.411
st	-10.411
??????????????????	-10.4111
????????????????????????	-10.4111
??????????????????	-10.4114
????????????	-10.4117
????????????????????????	-10.4117
??????????????????	-10.4119
???????????????	-10.4124
??????????????????	-10.4127
???????????????	-10.4128
???1994	-10.4139
?????????????????????????????????	-10.4148
????????????	-10.4156
????????????	-10.4157
????????????	-10.418
????????????	-10.4185
???????????????	-10.4187
??????	-10.4187
is	-10.4208
?????????	-10.4208
??????	-10.4224
?????????	-10.4228
ch	-10.4231
??????	-10.4241
????????????	-10.4258
???????????????	-10.4261
?????????	-10.4266
???????????????	-10.4277
19	-10.4289
??????????????????	-10.429
????????????	-10.4297
????????????	-10.4315
?????????????????????	-10.4319
??????????????????	-10.4321
31	-10.4327
???????????????	-10.433
?????????????????????????????????	-10.4333
???1973	-10.4333
???????????????	-10.4334
??????????????????	-10.4336
?????????????????????????????????	-10.4336
??????????????????	-10.4338
?????????????????????	-10.4339
????????????????????????	-10.4339
???????????????????????????	-10.4339
??????????????????????????????	-10.4339
??????????????????	-10.4339
???????????????????????????	-10.4339
??????????????????????????????	-10.4339
??????????????????	-10.4339
???1956	-10.434
?????????????????????	-10.434
??????????????????	-10.434
????????????????????????	-10.434
???????????????????????????	-10.434
???????????????	-10.434
????????????	-10.434
???????????????	-10.4341
?????????	-10.4341
??????????????????????????????	-10.4341
?????????	-10.4341
?????????????????????	-10.4341
???????????????	-10.4341
?????????????????????????????????	-10.4341
???????????????	-10.4341
?????????????????????	-10.4342
????????????	-10.4342
?????????????????????	-10.4342
???????????????	-10.4342
????????????????????????	-10.4342
????????????????????????	-10.4342
?????????????????????	-10.4343
?????????????????????	-10.4343
???????????????????????????????????????	-10.4343
????????????	-10.4344
??????????????????????????????	-10.4344
??????????????????	-10.4345
????????????????????????????????????	-10.4348
???????????????????????????	-10.4349
??????????????????	-10.4351
???????????????	-10.4352
???????????????	-10.4352
la	-10.4356
???????????????	-10.4358
???V	-10.4362
????????????	-10.4363
???????????????	-10.4388
???32	-10.4396
????????????	-10.4405
???????????????	-10.4425
????????????	-10.4428
???????????????????????????	-10.4431
")	-10.4433
???(2)	-10.4436
?????????	-10.4441
???????????????	-10.4452
?????????	-10.4452
G	-10.4459
????????????	-10.4461
???(1)	-10.4463
????????????	-10.4473
?????????	-10.4476
????????????	-10.4482
?????????	-10.4497
???45	-10.4499
????????????	-10.45
??????	-10.4524
?????????	-10.4541
*	-10.4544
?????????????????????????????????	-10.4546
?????????????????????	-10.4546
??????????????????	-10.4551
?????????	-10.4563
???????????????	-10.4563
??????????????????	-10.4564
???????????????	-10.4564
?????????????????????	-10.4571
???1988	-10.4577
??????????????????????????????	-10.4579
??????	-10.4579
????????????????????????	-10.4582
??????????????????	-10.4583
?????????????????????	-10.4583
?????????????????????	-10.4583
??????????????????	-10.4583
?????????????????????	-10.4583
??????????????????	-10.4583
??????????????????????????????	-10.4583
????????????	-10.4583
????????????????????????	-10.4583
?????????????????????	-10.4583
???????????????????????????	-10.4583
???????????????	-10.4584
??????????????????	-10.4584
????????????	-10.4584
???????????????????????????	-10.4584
?????????????????????	-10.4585
??????????????????	-10.4585
???????????????????????????	-10.4586
??????????????????	-10.4586
????????????	-10.4587
???????????????	-10.4588
??????????????????	-10.4589
????????????????????????	-10.4589
???????????????	-10.4589
??????????????????	-10.4592
??????????????????	-10.4592
?????????????????????	-10.4592
???4.	-10.4592
???????????????	-10.4594
??????????????????	-10.4594
??????????????????	-10.4594
??????????????????	-10.4595
????????????	-10.4596
????????????	-10.4597
??????????????????	-10.4597
???????????????????????????	-10.4598
???????????????????????????	-10.4602
?????????	-10.4603
??????	-10.4604
000	-10.4608
??????????????????????????????	-10.4609
????????????????????????	-10.461
????????????	-10.4614
??????	-10.4617
???????????????	-10.4623
?????????	-10.4629
??????????????????	-10.4634
???M	-10.4639
???????????????	-10.4641
?????????	-10.4642
????????????	-10.4652
??????????????????????????????	-10.4655
37	-10.4658
?????????	-10.4674
????????????	-10.4675
???????????????	-10.4676
??????	-10.4679
?????????	-10.4691
???????????????	-10.4703
????????????	-10.4709
????????????	-10.4716
????????????	-10.4735
????????????	-10.4739
???????????????	-10.4742
?????????????????????	-10.4757
??????	-10.4771
??????????????????	-10.4772
?????????	-10.4772
18	-10.4775
???????????????	-10.4785
U	-10.4791
text	-10.4794
?????????	-10.4807
??????	-10.4808
??????????????????	-10.4814
????????????????????????	-10.4814
???for	-10.4817
???????????????	-10.4819
?????????	-10.482
?????????????????????	-10.482
?????????????????????	-10.4823
????????????	-10.4824
???????????????????????????	-10.4825
????????????	-10.4828
??????????????????????????????	-10.4832
?????????????????????	-10.4833
?????????????????????	-10.4833
?????????????????????	-10.4833
??????????????????????????????	-10.4833
??????????????????????????????	-10.4833
??????????????????????????????	-10.4833
???????????????	-10.4833
???????????????	-10.4833
?????????????????????	-10.4833
??????????????????	-10.4833
??????????????????	-10.4833
???????????????????????????	-10.4833
???1857	-10.4833
????????????????????????	-10.4834
??????????????????	-10.4834
63	-10.4834
??????????????????	-10.4834
????????????????????????	-10.4836
???????????????	-10.4836
https	-10.4837
???????????????	-10.4837
??????????????????	-10.4837
????????????	-10.4838
?????????????????????	-10.4838
????????????	-10.4838
?????????????????????	-10.4838
??????	-10.4839
???????????????????????????	-10.4839
?????????????????????	-10.484
??????????????????	-10.484
????????????????????????	-10.4847
???????????????	-10.4849
???????????????	-10.4851
????????????	-10.4853
????????????????????????????????????	-10.4854
???????????????????????????	-10.4859
...	-10.4862
??????	-10.4864
??????????????????	-10.4867
????????????	-10.4874
???33	-10.4874
?????????	-10.4889
????????????	-10.4907
?????????	-10.4928
?????????	-10.4929
????????????	-10.4933
?????????????????????	-10.4939
?????????	-10.4943
???????????????????????????	-10.4951
W	-10.4964
??????	-10.4972
????????????	-10.4983
????????????	-10.4983
??????????????????	-10.4988
?????????????????????	-10.502
????????????	-10.5026
>	-10.5033
V	-10.5044
??????	-10.5047
???????????????	-10.5049
?????????	-10.5049
?????????????????????	-10.5052
??????	-10.5053
????????????	-10.5055
?????????	-10.5063
??????????????????	-10.5069
?????????????????????????????????	-10.5071
??????????????????	-10.5071
???????????????????????????	-10.5072
??????????????????	-10.5073
????????????	-10.5081
?????????????????????	-10.5081
??????????????????	-10.5082
???????????????????????????	-10.5085
???????????????	-10.5086
????????????	-10.5088
?????????????????????	-10.5088
?????????????????????	-10.5089
?????????????????????	-10.5089
?????????????????????	-10.5089
?????????????????????	-10.5089
????????????????????????	-10.5089
?????????????????????	-10.5089
??????????????????	-10.5089
??????????????????	-10.5089
?????????????????????	-10.5089
????????????????????????	-10.5089
???????????????????????????	-10.5089
??????????????????????????????	-10.5089
???????????????????????????	-10.509
??????????????????????????????	-10.509
??????????????????	-10.509
???????????????????????????	-10.509
????????????????????????	-10.509
;">	-10.509
????????????????????????	-10.5091
???????????????????????????????????????	-10.5091
??????	-10.5091
???WHO	-10.5092
????????????	-10.5092
??????????????????	-10.5092
???????????????	-10.5092
??????????????????	-10.5092
?????????????????????	-10.5093
???????????????	-10.5093
??????????????????	-10.5093
??????????????????	-10.5093
????????????	-10.5093
????????????????????????	-10.5093
??????????????????	-10.5095
???????????????	-10.5095
????????????????????????	-10.5095
????????????	-10.5096
??????	-10.5097
???????????????	-10.5098
-8	-10.5099
??????????????????	-10.5101
??????????????????	-10.5101
????????????????????????	-10.5104
??????????????????	-10.5105
????????????	-10.5107
???????????????	-10.5114
????????????????????????	-10.5114
????????????????????????	-10.5126
???????????????	-10.5129
???????????????	-10.514
???????????????	-10.515
??????	-10.5151
???????????????	-10.5152
????????????????????????	-10.5154
??????	-10.5156
?????????	-10.5161
.4	-10.5167
?????????	-10.5171
???36	-10.5192
78	-10.5207
??????????????????	-10.521
????????????????????????????????????	-10.5211
?????????	-10.523
???????????????	-10.5237
??????	-10.5239
????????????	-10.5248
???????????????	-10.5275
??????	-10.5279
????????????	-10.5283
li	-10.5285
????????????	-10.5286
???????????????	-10.529
???????????????	-10.5293
???????????????	-10.5294
?????????	-10.5297
le	-10.53
???????????????	-10.5313
????????????	-10.5315
????????????	-10.5315
?????????	-10.5321
??????	-10.533
???????????????	-10.533
?????????	-10.5332
??????????????????	-10.5333
???????????????????????????	-10.5333
??????????????????	-10.5334
???1977	-10.5342
??????????????????	-10.5342
??????????????????	-10.5343
??????????????????????????????	-10.5345
????????????	-10.5346
?????????????????????	-10.5347
http	-10.5348
???????????????	-10.5349
29	-10.535
???????????????????????????	-10.5351
??????????????????	-10.5352
???????????????????????????	-10.5352
????????????????????????	-10.5352
?????????????????????????????????	-10.5352
???????????????????????????????????????	-10.5352
???????????????????????????????????????	-10.5353
???????????????	-10.5353
????????????????????????????????????	-10.5353
????????????	-10.5353
??????????????????	-10.5353
?????????????????????	-10.5353
????????????????????????	-10.5353
???????????????	-10.5353
??????????????????????????????	-10.5354
???????????????????????????	-10.5354
????????????????????????	-10.5354
???[[	-10.5354
?????????????????????	-10.5354
?????????????????????	-10.5354
??????????????????	-10.5355
???????????????????????????	-10.5355
??????????????????	-10.5355
??????????????????	-10.5355
???????????????????????????	-10.5356
????????????????????????	-10.5356
?????????????????????	-10.5357
???????????????	-10.5359
???1965	-10.5359
??????????????????	-10.536
??????????????????????????????	-10.5361
??????????????????	-10.5361
???????????????	-10.5362
???????????????????????????	-10.5364
??????????????????	-10.5364
??????????????????	-10.5366
????????????	-10.5383
?????????	-10.5386
?????????	-10.5397
??????	-10.5403
??????????????????	-10.5407
????????????	-10.5407
et	-10.5407
???????????????	-10.541
??????	-10.541
????????????	-10.5419
???48	-10.5422
??????	-10.5424
???????????????	-10.5429
????????????	-10.5438
????????????	-10.5447
??????	-10.5448
???R	-10.5451
???????????????????????????	-10.5464
??????	-10.5475
?????????	-10.5479
95	-10.5491
???(5	-10.5497
?????????	-10.5511
??????????????????	-10.5522
??????	-10.5526
???????????????	-10.5531
????????????	-10.5533
??????	-10.5539
???????????????	-10.5547
v	-10.5547
???????????????	-10.5554
???????????????	-10.5564
??????	-10.5565
????????????????????????????????????	-10.5576
34	-10.5581
???????????????	-10.5599
?????????????????????	-10.5603
??????????????????????????????	-10.5603
?????????????????????	-10.5605
?????????????????????	-10.5605
?????????????????????	-10.5609
???????????????	-10.5614
???????????????	-10.5617
????????????	-10.5621
??????????????????	-10.5621
??????????????????	-10.5622
?????????????????????	-10.5622
???????????????????????????	-10.5622
???????????????????????????	-10.5622
?????????????????????????????????	-10.5622
???????????????????????????	-10.5622
?????????????????????	-10.5622
??????????????????	-10.5622
??????????????????	-10.5623
?????????????????????	-10.5623
????????????????????????	-10.5623
????????????????????????	-10.5623
????????????????????????	-10.5623
???1993	-10.5623
???????????????	-10.5623
???????????????	-10.5624
?????????????????????	-10.5624
?????????????????????	-10.5624
????????????????????????	-10.5624
??????????????????	-10.5625
??????????????????	-10.5625
???????????????	-10.5625
???????????????????????????	-10.5626
??????????????????	-10.5626
??????????????????	-10.5626
????????????????????????????????????	-10.5626
?????????????????????	-10.5626
?????????????????????	-10.5627
?????????????????????	-10.5627
???Sanskrit	-10.5628
??????????????????	-10.5628
?????????????????????????????????	-10.5629
?????????????????????	-10.5629
????????????	-10.5629
???????????????	-10.5629
??????	-10.5631
?????????????????????	-10.5631
????????????????????????	-10.5632
???????????????	-10.5633
????????????????????????	-10.5634
????????????	-10.5635
????????????????????????	-10.5637
?????????????????????	-10.5638
?????????	-10.5639
????????????	-10.564
???????????????????????????	-10.564
???64	-10.5641
?????????	-10.5646
???????????????	-10.5648
?????????	-10.565
???????????????????????????	-10.5651
???????????????	-10.5654
???????????????	-10.5657
????????????	-10.5658
???????????????	-10.5663
????????????	-10.5675
???????????????	-10.5684
????????????	-10.5687
??????????????????	-10.5692
???????????????	-10.5699
???????????????	-10.57
???????????????	-10.5702
?????????????????????	-10.5714
?????????	-10.5716
??????????????????	-10.5724
?????????	-10.5729
33	-10.5729
????????????	-10.573
?????????	-10.5734
??????????????????????????????	-10.5741
?????????	-10.5742
22	-10.5763
??????	-10.5765
??????	-10.5772
????????????	-10.5786
??????	-10.5795
?????????	-10.5797
?????????	-10.5798
??????	-10.5799
??????????????????????????????	-10.5801
??????	-10.5802
?????????	-10.5802
??????	-10.5804
?????????	-10.5809
???????????????	-10.5824
il	-10.5828
??????????????????	-10.5838
??????	-10.5841
?????????	-10.585
???????????????	-10.5853
????????????	-10.5857
?????????	-10.5862
???????????????	-10.5868
?????????	-10.5869
62	-10.587
????????????	-10.5875
??????????????????????????????	-10.588
?????????????????????	-10.5881
????????????????????????	-10.5882
????????????	-10.5882
????????????	-10.5882
??????????????????	-10.5887
???????????????	-10.5888
???????????????	-10.5897
???1969	-10.59
?????????????????????	-10.59
??????????????????	-10.59
??????????????????	-10.59
????????????????????????????????????	-10.59
???????????????	-10.59
???????????????????????????????????????	-10.59
?????????????????????	-10.59
????????????????????????????????????	-10.59
??????????????????	-10.59
???????????????	-10.59
????????????????????????	-10.59
??????	-10.59
???????????????????????????	-10.59
????????????????????????????????????	-10.59
???????????????	-10.5901
??????????????????	-10.5901
??????????????????????????????	-10.5901
?????????	-10.5901
???:-	-10.5901
????????????????????????	-10.5901
???1945	-10.5901
???????????????????????????	-10.5902
???????????????	-10.5902
????????????????????????	-10.5902
?????????????????????????????????	-10.5902
??????????????????	-10.5903
??????????????????????????????	-10.5903
???????????????	-10.5904
???????????????????????????	-10.5904
?????????????????????	-10.5904
???????????????	-10.5904
????????????????????????	-10.5905
?????????????????????????????????	-10.5905
??????????????????	-10.5906
???????????????	-10.5907
???????????????????????????	-10.5908
??????????????????	-10.5909
???????????????	-10.5913
????????????????????????????????????	-10.5914
???????????????	-10.5914
???center	-10.5915
??????????????????	-10.5916
???150	-10.5924
???????????????	-10.5925
??????????????????	-10.5927
?????????	-10.5933
????????????	-10.5935
????????????	-10.5939
???????????????????????????	-10.5944
?????????	-10.596
?????????	-10.5962
???????????????????????????	-10.5967
????????????	-10.5973
?????????	-10.5978
?????????	-10.5979
?????????	-10.5982
???????????????	-10.5985
?????????	-10.5989
???????????????	-10.5997
?????????	-10.6
???????????????	-10.6001
17	-10.6004
???????????????	-10.6008
??????	-10.6008
90	-10.6019
????????????	-10.6049
????????????	-10.6057
??????????????????	-10.6069
???????????????	-10.6073
?????????	-10.6079
???????????????	-10.6084
??????????????????	-10.6085
????????????	-10.6092
?????????????????????	-10.61
???????????????	-10.6107
??????	-10.6131
?????????????????????	-10.6136
????????????????????????	-10.6138
?????????	-10.614
????????????	-10.6147
??????????????????	-10.6152
???????????????	-10.6156
???????????????	-10.6164
?????????	-10.6169
??????????????????	-10.6172
????????????????????????????????????	-10.6176
21	-10.6176
??????????????????	-10.6177
??????????????????	-10.6182
?????????????????????????????????	-10.6183
??????????????????	-10.6183
???????????????	-10.6184
????????????????????????	-10.6185
?????????????????????	-10.6186
?????????????????????	-10.6186
???????????????????????????	-10.6186
????????????????????????	-10.6186
???????????????????????????	-10.6186
????????????????????????	-10.6186
??????????????????????????????	-10.6186
??????????????????????????????	-10.6186
?????????????????????	-10.6186
??????????????????	-10.6186
archive	-10.6186
???????????????	-10.6186
??????????????????	-10.6186
?????????????????????????????????	-10.6186
?????????????????????	-10.6187
???1979	-10.6187
???????????????????????????	-10.6187
??????????????????????????????	-10.6187
??????????????????	-10.6187
????????????????????????	-10.6187
??????????????????	-10.6187
????????????????????????	-10.6187
?????????????????????	-10.6188
??????????????????????????????	-10.6188
???????????????	-10.6188
???????????????????????????	-10.6188
??????????????????????????????	-10.6188
?????????????????????	-10.6188
?????????????????????	-10.6188
???????????????	-10.6189
???????????????	-10.619
???????????????????????????	-10.619
???????????????	-10.619
??????????????????	-10.6191
????????????????????????????????????	-10.6191
???????????????	-10.6191
????????????????????????????????????	-10.6191
?????????????????????	-10.6191
???????????????	-10.6191
???????????????	-10.6193
???????????????	-10.6193
???????????????	-10.6194
??????????????????	-10.6198
????????????	-10.6199
???????????????	-10.6199
??????????????????	-10.6202
??????	-10.6203
?????????	-10.6205
?????????????????????	-10.6207
?????????????????????	-10.6209
?????????	-10.6218
??????	-10.6219
???????????????	-10.6236
??????	-10.6259
?????????	-10.6266
ation	-10.6267
????????????????????????	-10.6268
?????????????????????	-10.6276
????????????	-10.6299
??????	-10.6316
????????????	-10.6329
???????????????	-10.6339
?????????	-10.6341
?????????	-10.6351
??????	-10.6357
????????????	-10.6379
????????????	-10.6386
??????	-10.639
????????????	-10.6404
?????????	-10.6427
????????????????????????	-10.6436
?????????????????????	-10.644
??????????????????	-10.644
?????????????????????	-10.6442
The	-10.6443
???????????????	-10.6443
????????????	-10.6444
?????????	-10.6454
????????????	-10.6456
???????????????	-10.6458
????????????????????????	-10.6459
???????????????????????????	-10.6461
???????????????	-10.6461
??????????????????	-10.6461
???????????????	-10.6462
?????????	-10.6463
???????????????	-10.6465
??????????????????	-10.6466
?????????????????????	-10.6467
?????????	-10.6473
????????????????????????	-10.6478
???????????????	-10.6478
???????????????????????????	-10.6479
????????????	-10.648
????????????????????????????????????	-10.648
?????????????????????	-10.648
?????????????????????	-10.648
???????????????	-10.648
????????????????????????	-10.648
????????????	-10.648
??????????????????	-10.648
??????????????????	-10.648
?????????????????????	-10.648
????????????	-10.648
???1961	-10.6481
???????????????????????????	-10.6481
????????????????????????????????????	-10.6481
?????????????????????	-10.6481
??????????????????	-10.6482
???????????????????????????	-10.6482
???????????????????????????	-10.6482
??????????????????	-10.6482
???????????????	-10.6482
?????????	-10.6483
??????????????????????????????	-10.6483
???????????????	-10.6483
???????????????	-10.6483
???????????????	-10.6483
??????????????????	-10.6484
??????????????????	-10.6484
???	-10.6485
?????????????????????	-10.6486
???????????????	-10.6486
???????????????	-10.6486
????????????????????????	-10.6486
??????????????????	-10.6487
??????????????????	-10.6487
??????????????????	-10.6489
?????????????????????	-10.6491
??????????????????	-10.6491
???????????????	-10.6492
???????????????	-10.6493
??????????????????????????????	-10.6493
?????????????????????	-10.65
????????????	-10.6501
?????????????????????	-10.6506
????????????	-10.6507
???????????????	-10.6507
?????????????????????	-10.651
????????????	-10.6515
??????	-10.6515
????????????????????????	-10.6522
?????????	-10.653
??????	-10.6531
?????????	-10.6537
???????????????	-10.6541
?????????	-10.6544
???????????????????????????	-10.6547
??????	-10.655
???????????????	-10.6555
??????	-10.6557
??????	-10.6559
??????	-10.6563
?????????????????????	-10.6565
??????	-10.6573
?????????	-10.6575
??????	-10.6587
?????????	-10.6591
?????????	-10.6599
????????????	-10.66
?????????	-10.6606
?????????	-10.6611
???????????????	-10.6621
??????	-10.6622
?????????	-10.663
?????????????????????	-10.6632
????????????	-10.6638
na	-10.6644
??????	-10.6647
????????????	-10.665
????????????	-10.6651
???1900	-10.6665
26	-10.6666
??????????????????	-10.6671
???????????????	-10.6677
???????????????????????????	-10.6686
?????????	-10.67
??????	-10.6712
???0	-10.6713
????????????	-10.6718
????????????	-10.6729
???????????????	-10.6732
????????????	-10.6744
??????????????????	-10.6745
???????????????	-10.6747
????????????	-10.6748
????????????	-10.6749
???????????????????????????	-10.676
???????????????????????????	-10.6762
?????????????????????	-10.6765
????????????	-10.6765
um	-10.6768
?????????	-10.6769
???????????????	-10.6771
??????????????????	-10.678
??????????????????	-10.6782
??????????????????	-10.6782
???????????????	-10.6782
?????????????????????	-10.6782
???????????????	-10.6783
????????????????????????	-10.6783
?????????????????????	-10.6783
??????????????????????????????	-10.6783
?????????????????????	-10.6783
??????????????????????????????	-10.6783
????????????????????????	-10.6783
???????????????	-10.6783
?????????????????????	-10.6783
????????????????????????	-10.6783
??????????????????????????????	-10.6783
?????????????????????	-10.6783
??????????????????????????????	-10.6783
????????????	-10.6783
??????????????????????????????	-10.6783
?????????????????????	-10.6784
?????????????????????	-10.6784
????????????????????????	-10.6784
?????????????????????????????????	-10.6784
???????????????????????????????????????	-10.6784
??????????????????????????????	-10.6785
????????????????????????	-10.6785
???????????????????????????	-10.6785
??????????????????	-10.6785
???????????????????????????	-10.6786
??????????????????	-10.6786
???????????????????????????	-10.6786
??????????????????	-10.6787
??????????????????	-10.6787
???????????????????????????????????????	-10.6787
??????????????????????????????	-10.6787
??????????????????	-10.6788
????????????????????????	-10.6788
??????????????????	-10.6789
?????????????????????	-10.6789
???????????????	-10.679
?????????????????????????????????	-10.6792
???????????????	-10.6795
?????????	-10.6796
???????????????	-10.6796
???????????????	-10.6798
?????????	-10.6799
??????????????????	-10.6801
???????????????????????????	-10.6802
???????????????	-10.6802
???????????????	-10.6802
???????????????	-10.6808
???????????????????????????	-10.6811
??????????????????	-10.6812
??????????????????	-10.6814
????????????	-10.6819
????????????	-10.6832
??????	-10.6835
?????????	-10.6836
???????????????????????????	-10.684
ta	-10.685
???(3)	-10.6852
???d	-10.6854
?????????????????????	-10.686
?????????	-10.686
?????????	-10.6879
?????????	-10.6882
?????????????????????????????????	-10.6886
?????????	-10.6888
??????????????????	-10.6889
?????????	-10.6909
????????????	-10.6912
??????	-10.6913
?????????	-10.6929
????????????	-10.6935
????????????	-10.6944
.1	-10.696
??????	-10.6968
????????????	-10.6968
?????????	-10.6978
?????????	-10.6983
????????????????????????	-10.6994
????????????	-10.6996
??????????????????	-10.7005
?????????	-10.701
????????????	-10.7015
????????????	-10.7019
ol	-10.7026
?????????	-10.7037
????????????	-10.7053
???1967	-10.7055
??????????????????	-10.7058
???????????????????????????	-10.7058
?????????	-10.7071
??????????????????	-10.7074
?????????????????????	-10.7076
????????????	-10.7076
???????????????	-10.7077
????????????	-10.7077
???????????????	-10.7077
??????	-10.7078
??????????????????	-10.7078
??????	-10.708
?????????	-10.7081
????????????	-10.7085
????????????	-10.7089
??????????????????	-10.709
???????????????????????????	-10.7091
??????????????????	-10.7094
??????????????????	-10.7095
????????????	-10.7095
????????????????????????	-10.7096
??????????????????????????????	-10.7096
???????????????????????????	-10.7096
??????????????????????????????	-10.7096
??????????????????	-10.7096
??????????????????	-10.7096
??????????????????	-10.7096
???????????????????????????????????????	-10.7096
??????????????????	-10.7096
???????????????????????????	-10.7096
?????????????????????	-10.7096
??????????????????????????????	-10.7096
?????????????????????????????????	-10.7096
?????????????????????	-10.7096
?????????????????????????????????	-10.7096
??????????????????	-10.7096
?????????????????????	-10.7096
?????????????????????	-10.7096
??????????????????	-10.7096
???????????????????????????	-10.7096
??????????????????	-10.7096
???????????????????????????	-10.7096
?????????????????????	-10.7096
????????????	-10.7096
??????????????????????????????	-10.7096
??????????????????	-10.7097
??????????????????????????????	-10.7097
??????????????????	-10.7097
??????????????????	-10.7097
???????????????????????????	-10.7097
???1983	-10.7098
??????????????????	-10.7098
?????????????????????	-10.7098
??????????????????	-10.7098
????????????????????????	-10.7099
??????????????????	-10.7099
??????????????????	-10.7099
?????????????????????	-10.7099
???1986	-10.7101
????????????????????????	-10.7101
????????????????????????	-10.7101
???????????????????????????	-10.7102
????????????	-10.7102
????????????	-10.7102
?????????????????????	-10.7102
?????????????????????	-10.7102
?????????????????????	-10.7102
???&	-10.711
????????????	-10.7111
de	-10.7111
????????????	-10.7112
??????????????????	-10.7114
??????	-10.7122
?????????	-10.7123
????????????????????????	-10.7125
???????????????	-10.7129
????????????	-10.7129
???????????????	-10.7131
??????????????????	-10.7131
?????????	-10.7141
????????????????????????	-10.7148
?????????	-10.7149
??????????????????	-10.7151
???	-10.7159
???????????????	-10.716
]]	-10.7173
???????????????????????????	-10.7176
ter	-10.7178
?????????	-10.718
am	-10.7188
??????	-10.7189
??????	-10.719
23	-10.72
03	-10.7202
????????????	-10.721
?????????????????????????????????	-10.7214
??????	-10.7252
??????????????????	-10.7256
???(12	-10.726
?????????	-10.7263
????????????	-10.7267
?????????	-10.7279
???L	-10.7286
??????????????????	-10.7288
??????????????????	-10.73
??????????????????	-10.731
???300	-10.732
te	-10.7328
?????????	-10.7332
??????	-10.7338
??????	-10.7343
???44	-10.7351
????????????	-10.7354
???	-10.736
???????????????	-10.7368
?????????	-10.7368
??????????????????	-10.7369
??????????????????	-10.7369
????????????????????????	-10.7371
???????????????	-10.7375
????????????	-10.7378
???????????????	-10.7389
????????????	-10.739
??????????????????	-10.7399
????????????	-10.7401
??????	-10.7401
??????????????????	-10.7407
???????????????	-10.7408
????????????	-10.741
????????????	-10.741
???????????????????????????	-10.7413
????????????	-10.7413
?????????????????????	-10.7414
????????????	-10.7415
?????????????????????	-10.7415
???????????????	-10.7416
?????????????????????	-10.7418
???????????????????????????	-10.7418
?????????????????????	-10.7418
???????????????????????????????????????	-10.7418
??????????????????????????????	-10.7418
??????????????????	-10.7418
??????????????????	-10.7418
??????????????????????????????	-10.7418
??????????????????????????????	-10.7418
?????????????????????	-10.7418
??????????????????	-10.7418
????????????????????????	-10.7418
??????????????????	-10.7418
???????????????	-10.7418
?????????????????????	-10.7418
????????????????????????	-10.7418
?????????????????????	-10.7418
????????????????????????	-10.7418
?????????????????????????????????	-10.7418
????????????????????????	-10.7419
????????????????????????????????????	-10.7419
??????????????????	-10.7419
???1957	-10.7419
???1974	-10.7419
?????????????????????	-10.7419
?????????????????????	-10.742
???2023	-10.742
???????????????????????????	-10.7421
?????????	-10.7421
?????????????????????????????????	-10.7421
???????????????	-10.7421
???????????????	-10.7422
???2021	-10.7422
?????????????????????	-10.7423
?????????????????????????????????	-10.7423
????????????	-10.7423
???????????????	-10.7423
?????????????????????	-10.7424
??????????????????	-10.7424
???????????????????????????	-10.7424
??????????????????	-10.7425
?????????????????????	-10.7426
??????????????????	-10.7428
??????????????????	-10.7429
?????????????????????	-10.7433
???laser	-10.7436
???????????????	-10.7437
???95	-10.7437
???????????????	-10.7437
??????????????????	-10.7438
??????????????????	-10.7444
??????	-10.7444
?????????	-10.7445
???????????????	-10.7445
?????????????????????	-10.7445
????????????????????????	-10.7446
??????	-10.7446
????????????????????????	-10.7448
?????????	-10.7453
??????	-10.7462
????????????	-10.7471
??????????????????	-10.7472
??????????????????	-10.7474
?????????????????????	-10.7482
??????????????????????????????	-10.7484
???????????????	-10.7486
????????????	-10.7499
??????????????????	-10.7503
???????????????	-10.7504
27	-10.7535
?????????	-10.7543
???????????????	-10.7548
???(3	-10.7554
???43	-10.7563
??????????????????	-10.7563
?????????????????????????????????	-10.7568
????????????????????????	-10.7571
?????????	-10.7576
???????????????	-10.7592
??????????????????	-10.7594
???34	-10.7594
J	-10.7599
13	-10.7602
?????????	-10.7604
?????????	-10.7606
????????????	-10.7616
??????	-10.7616
????????????	-10.7619
???????????????	-10.7621
?????????	-10.7623
?????????	-10.7626
??????????????????	-10.7636
?????????	-10.7663
???e	-10.7665
????????????	-10.767
????????????	-10.7681
38	-10.7681
?????????	-10.7685
???????????????	-10.7688
???????????????????????????????????????	-10.7691
com	-10.7707
?????????	-10.7709
????????????	-10.7716
??????	-10.7719
?????????	-10.772
??????	-10.7721
???????????????????????????	-10.7732
????????????	-10.7732
????????????	-10.7733
??????????????????????????????	-10.7733
??????????????????	-10.7733
????????????	-10.7734
????????????????????????	-10.7734
????????????????????????	-10.7739
?????????	-10.7739
?????????????????????	-10.7744
???????????????	-10.7746
??????????????????	-10.7749
?????????????????????	-10.7749
52	-10.775
24	-10.7751
????????????????????????	-10.7752
??????????????????	-10.7752
????????????????????????	-10.7752
??????????????????????????????	-10.7752
?????????????????????	-10.7752
??????????????????	-10.7752
????????????????????????	-10.7752
????????????????????????	-10.7752
????????????????????????	-10.7752
??????????????????	-10.7752
?????????????????????	-10.7752
???????????????	-10.7752
????????????????????????	-10.7752
?????????????????????	-10.7752
?????????????????????	-10.7752
??????????????????	-10.7752
????????????????????????	-10.7752
??????????????????????????????	-10.7752
???????????????	-10.7752
??????????????????	-10.7752
????????????????????????	-10.7752
??????????????????	-10.7752
??????????????????????????????	-10.7752
???????????????	-10.7752
??????????????????	-10.7752
????????????????????????????????????	-10.7752
??????????????????	-10.7752
?????????????????????	-10.7752
???????????????	-10.7752
??????????????????????????????	-10.7753
??????????????????????????????	-10.7753
????????????	-10.7753
????????????????????????	-10.7753
???1949	-10.7753
????????????????????????	-10.7753
?????????????????????	-10.7753
?????????????????????	-10.7753
??????????????????	-10.7753
??????????????????	-10.7753
????????????	-10.7754
??????????????????	-10.7754
?????????????????????	-10.7755
??????????????????????????????	-10.7755
????????????????????????	-10.7755
?????????????????????????????????????????????	-10.7755
??????????????????	-10.7755
???????????????	-10.7755
????????????????????????	-10.7756
????????????????????????	-10.7756
?????????????????????	-10.7756
??????????????????	-10.7757
??????????????????	-10.7757
??????????????????	-10.7757
???????????????	-10.7758
??????????????????	-10.7758
???????????????	-10.776
???????????????	-10.7761
?????????????????????	-10.7762
????????????	-10.7763
???1958	-10.7764
????????????	-10.7765
??????????????????	-10.7768
?????????	-10.7775
??????????????????	-10.7776
???????????????	-10.778
??????????????????	-10.7782
??????????????????	-10.7786
?????????	-10.7791
???????????????	-10.7801
??????????????????	-10.7802
?????????????????????	-10.7802
???????????????	-10.7803
??????	-10.7803
???????????????	-10.7806
76	-10.7807
???????????????	-10.7808
????????????	-10.7809
???????????????????????????	-10.7817
??????????????????	-10.7818
????????????	-10.7822
??????	-10.7823
????????????	-10.7827
????????????????????????	-10.7833
??????	-10.784
??????	-10.7855
????????????	-10.7857
????????????????????????	-10.7871
?????????	-10.7895
?????????	-10.79
???????????????	-10.7903
???(15	-10.7915
????????????	-10.7937
??????????????????	-10.7938
????????????	-10.7944
??????	-10.7948
????????????????????????	-10.7949
?????????	-10.7954
????????????	-10.7957
.9	-10.7973
05	-10.7973
?????????	-10.798
??????????????????????????????	-10.7997
%),	-10.8014
??????????????????	-10.8016
????????????????????????	-10.8025
??????	-10.8028
????????????	-10.8031
???????????????	-10.8039
70	-10.8044
?????????????????????	-10.8052
????????????	-10.8054
??????????????????	-10.8055
???????????????????????????	-10.8057
?????????????????????	-10.8058
?????????????????????	-10.8059
?????????	-10.8061
???????????????	-10.8062
??????	-10.8063
?????????	-10.8069
?????????	-10.8074
?????????????????????	-10.8076
???????????????	-10.8077
??????????????????	-10.8079
????????????????????????	-10.8088
????????????????????????	-10.8089
????????????	-10.8089
??????	-10.8093
?????????	-10.8094
?????????	-10.8094
??????????????????	-10.8095
????????????????????????	-10.8095
???????????????	-10.8095
?????????????????????	-10.8096
??????????????????	-10.8096
????????????????????????	-10.8096
?????????????????????????????????	-10.8096
??????????????????	-10.8096
???????????????????????????	-10.8096
??????????????????	-10.8096
????????????????????????	-10.8096
?????????????????????	-10.8096
?????????????????????	-10.8096
???????????????	-10.8097
????????????????????????????????????	-10.8097
?????????????????????	-10.8097
????????????????????????????????????	-10.8097
?????????????????????????????????	-10.8097
?????????????????????	-10.8097
??????????????????	-10.8097
???????????????????????????	-10.8097
??????????????????	-10.8097
???????????????	-10.8097
?????????????????????????????????	-10.8097
??????????????????????????????	-10.8097
???1954	-10.8097
?????????????????????	-10.8098
???1951	-10.8098
??????????????????	-10.8098
??????????????????????????????	-10.8098
???????????????	-10.8098
??????????????????	-10.8098
??????????????????	-10.8098
????????????????????????	-10.8098
???????????????	-10.8099
????????????????????????	-10.8099
??????????????????????????????	-10.8099
?????????????????????	-10.8099
????????????	-10.8099
????????????????????????	-10.81
????????????????????????	-10.81
???????????????	-10.81
???????????????	-10.81
????????????????????????	-10.81
??????????????????	-10.81
???????????????	-10.8101
??????????????????	-10.8101
???????????????	-10.8101
??????????????????	-10.8104
?????????????????????	-10.8104
?????????	-10.8105
????????????	-10.8106
????????????????????????	-10.8108
???????????????	-10.8109
?????????????????????	-10.8109
?????????????????????	-10.811
????????????????????????	-10.811
???????????????????????????	-10.8111
??????	-10.8111
????????????????????????	-10.8112
???????????????	-10.8112
?????????????????????	-10.8112
????????????	-10.8113
???????????????????????????	-10.8113
??????	-10.8114
0,000	-10.8117
???????????????	-10.8121
??????????????????	-10.8122
???5.	-10.8128
???????????????????????????	-10.8128
???51	-10.8129
?????????????????????	-10.8131
??????????????????	-10.8134
?????????????????????	-10.8137
????????????????????????	-10.814
???????????????	-10.8143
???(2	-10.8144
????????????????????????????????????	-10.8153
??????????????????	-10.817
-3	-10.8173
??????	-10.8175
to	-10.8178
??????????????????????????????	-10.818
?????????	-10.8198
?????????	-10.8208
???????????????	-10.8213
???????????????	-10.8219
???????????????	-10.8225
41	-10.8226
???????????????	-10.8227
???????????????	-10.8233
51	-10.8247
?????????	-10.8253
28	-10.8255
????????????	-10.8256
??????????????????	-10.8258
????????????????????????	-10.8266
????????????	-10.8267
????????????	-10.8274
??????????????????	-10.8275
???	-10.8282
?????????	-10.8284
???????????????	-10.8297
???????????????	-10.8316
????????????	-10.832
????????????	-10.8349
?????????	-10.8353
64	-10.8358
??????	-10.8383
????????????	-10.8396
?????????	-10.8398
???????????????	-10.8401
???????????????????????????	-10.8406
?????????	-10.8413
??????????????????	-10.8414
??????	-10.8414
??????????????????	-10.8414
?????????????????????	-10.8415
??????????????????	-10.8426
????????????????????????	-10.8432
?????????????????????	-10.8432
?????????????????????	-10.8433
??????????????????????????????	-10.8436
??????????????????	-10.8436
???????????????	-10.8436
?????????	-10.8436
????????????	-10.8437
????????????	-10.8437
ve	-10.8438
?????????	-10.844
???????????????	-10.8444
?????????	-10.8448
???at	-10.845
???400	-10.845
?????????????????????	-10.8451
????????????????????????	-10.8451
??????????????????	-10.8451
?????????	-10.8452
????????????	-10.8452
?????????????????????	-10.8453
?????????????????????	-10.8453
??????????????????	-10.8453
?????????????????????	-10.8453
???????????????????????????	-10.8453
????????????????????????	-10.8453
??????????????????	-10.8453
????????????????????????	-10.8453
???????????????????????????????????????	-10.8453
??????????????????	-10.8453
??????????????????	-10.8454
??????????????????	-10.8454
???????????????????????????	-10.8454
?????????????????????	-10.8454
?????????????????????	-10.8454
?????????????????????????????????	-10.8454
??????????????????	-10.8454
???????????????	-10.8454
?????????????????????????????????	-10.8454
?????????????????????	-10.8454
???????????????	-10.8454
????????????????????????	-10.8454
??????????????????	-10.8454
???????????????????????????	-10.8454
????????????????????????	-10.8454
?????????????????????	-10.8454
???????????????	-10.8455
????????????????????????	-10.8455
??????????????????	-10.8455
???????????????????????????????????????	-10.8456
??????????????????	-10.8456
??????????????????????????????	-10.8457
????????????????????????	-10.8457
????????????	-10.8457
??????????????????	-10.8458
????????????????????????????????????	-10.8458
???from	-10.8458
???????????????	-10.8458
????????????	-10.8459
???????????????	-10.846
??????????????????????????????	-10.846
?????????	-10.8461
?????????????????????	-10.8461
???????????????	-10.8461
??????????????????	-10.8461
?????????????????????	-10.8461
???????????????	-10.8462
????????????	-10.8463
???????????????	-10.8464
?????????	-10.8465
???6.	-10.8467
???????????????	-10.8469
????????????	-10.8472
??????????????????	-10.8472
???????????????	-10.8473
??????????????????	-10.8477
?????????????????????	-10.8487
??????????????????	-10.8493
?????????	-10.8498
???????????????	-10.8504
????????????	-10.8507
??????	-10.8509
?????????????????????	-10.851
?????????	-10.8511
???????????????	-10.8513
???????????????	-10.8514
???????????????????????????	-10.8516
????????????	-10.8518
???????????????	-10.853
?????????	-10.8532
?????????	-10.8538
?????????	-10.8539
???????????????	-10.8541
???????????????	-10.8545
???????????????	-10.8563
?????????	-10.8569
??????	-10.8569
?????????	-10.8572
???????????????	-10.859
??????	-10.86
?????????????????????	-10.8603
??????	-10.8604
??????	-10.8611
???????????????????????????	-10.8621
????????????	-10.8636
????????????	-10.8637
ak	-10.8652
??????	-10.8655
????????????????????????	-10.8674
?????????	-10.8675
?????????	-10.8678
???????????????	-10.8679
49	-10.8681
????????????	-10.8685
55	-10.8696
46	-10.8701
+	-10.8706
?????????	-10.8715
????????????	-10.8715
??????????????????	-10.8718
?????????	-10.8733
????????????	-10.8734
??????	-10.8745
??????	-10.8752
????????????	-10.8769
45	-10.8774
???????????????	-10.8777
?????????	-10.879
??????	-10.879
????????????	-10.879
????????????????????????	-10.8802
??????????????????	-10.8805
????????????	-10.8806
?????????????????????????????????	-10.8806
?????????????????????????????????	-10.8806
?????????????????????	-10.8807
???????????????	-10.8809
????????????	-10.8811
ha	-10.8811
????????????	-10.8812
????????????	-10.8819
??????????????????	-10.882
?????????	-10.8821
???????????????	-10.8822
??????????????????????????????	-10.8822
????????????	-10.8822
???????????????	-10.8823
?????????????????????	-10.8823
???UTF	-10.8824
????????????????????????	-10.8824
???????????????????????????	-10.8824
?????????????????????	-10.8824
??????????????????	-10.8824
??????????????????	-10.8824
???????????????	-10.8824
??????????????????	-10.8824
????????????????????????	-10.8824
??????????????????	-10.8824
????????????????????????	-10.8824
??????????????????	-10.8824
??????????????????????????????	-10.8824
??????????????????????????????	-10.8824
??????????????????????????????	-10.8824
???????????????????????????	-10.8824
?????????????????????	-10.8824
????????????????????????	-10.8824
??????????????????	-10.8824
????????????????????????	-10.8824
?????????????????????	-10.8824
????????????????????????	-10.8824
????????????????????????	-10.8824
??????????????????	-10.8824
???????????????????????????	-10.8824
????????????????????????	-10.8824
??????????????????	-10.8824
???1984	-10.8824
????????????????????????	-10.8824
??????????????????	-10.8824
???????????????	-10.8824
?????????????????????????????????????????????	-10.8824
????????????????????????	-10.8824
????????????????????????	-10.8824
???????????????	-10.8824
????????????????????????	-10.8825
??????????????????????????????	-10.8825
??????????????????	-10.8825
?????????????????????????????????	-10.8825
??????????????????????????????	-10.8825
???????????????	-10.8825
???????????????	-10.8825
???????????????	-10.8826
?????????????????????	-10.8826
?????????????????????	-10.8826
????????????????????????	-10.8827
???1930	-10.8827
???????????????????????????	-10.8827
???????????????????????????	-10.8827
?????????????????????	-10.8828
??????????????????	-10.8828
???????????????	-10.8828
?????????????????????	-10.8828
???????????????????????????	-10.8828
??????????????????	-10.8829
??????????????????????????????	-10.8829
???????????????	-10.883
????????????	-10.883
??????????????????	-10.8832
???????????????????????????	-10.8832
??????????????????	-10.8833
???????????????????????????	-10.8834
??????????????????	-10.8834
??????????????????????????????	-10.8835
????????????	-10.8835
??????????????????	-10.8835
???????????????????????????	-10.8835
???????????????????????????	-10.8838
??????????????????	-10.8838
???????????????	-10.8849
??????????????????	-10.8852
56	-10.8855
?????????	-10.8861
??????????????????	-10.8861
????????????	-10.8865
???1966	-10.8869
???????????????????????????	-10.887
????????????	-10.8875
?????????	-10.8875
???(17	-10.8875
??????	-10.8879
?????????????????????	-10.8884
?????????????????????	-10.8885
???????????????	-10.889
???????????????	-10.889
???????????????????????????	-10.8895
35	-10.8896
53	-10.8901
???????????????	-10.8914
???????????????	-10.893
????????????????????????	-10.8932
???????????????	-10.8932
??????????????????	-10.8934
??????	-10.8943
?????????	-10.8945
????????????	-10.8955
??????	-10.8956
????????????	-10.8958
?????????	-10.8964
???????????????	-10.8966
????????????	-10.8967
?????????	-10.8969
32	-10.8969
?????????	-10.8971
??????	-10.8972
????????????????????????	-10.8981
??????	-10.8994
?????????	-10.9012
?????????	-10.9012
?????????	-10.9014
?????????	-10.9018
?????????	-10.9032
ma	-10.9049
?????????	-10.9067
????????????	-10.9069
????????????	-10.907
??????	-10.9072
?????????	-10.9074
??????	-10.908
?????????????????????	-10.9081
98	-10.9084
ly	-10.9105
?????????	-10.9117
??????????????????	-10.913
???(13	-10.9133
?????????	-10.9144
?????????	-10.9146
??????	-10.9148
??????????????????	-10.9156
????	-10.9156
????????????	-10.9161
07	-10.9168
???????????????	-10.9169
83	-10.917
???????????????	-10.9171
????????????	-10.9171
????????????	-10.9172
?????????	-10.9174
???????????????	-10.9179
??????	-10.9179
??????????????????	-10.9184
mo	-10.9184
??????????????????	-10.9188
?????????????????????	-10.9189
????????????????????????	-10.919
???????????????	-10.919
?????????????????????	-10.919
??????????????????	-10.9191
?????????????????????	-10.9195
?????????????????????	-10.9197
??????????????????	-10.9198
ry	-10.9201
?????????????????????	-10.9205
??????????????????	-10.9207
??????????????????	-10.9208
???????????????	-10.9208
??????????????????	-10.9208
????????????	-10.9208
??????????????????	-10.9208
?????????????????????	-10.9208
???????????????	-10.9208
?????????????????????	-10.9208
?????????????????????	-10.9208
??????????????????	-10.9208
?????????????????????	-10.9208
??????????????????	-10.9208
??????????????????	-10.9208
??????????????????	-10.9208
???????????????????????????	-10.9208
?????????????????????	-10.9208
?????????????????????	-10.9208
???????????????	-10.9208
??????????????????	-10.9208
?????????????????????	-10.9208
????????????????????????	-10.9208
????????????????????????????????????	-10.9209
???????????????????????????	-10.9209
?????????	-10.9209
????????????????????????	-10.9209
???????????????	-10.9209
???????????????	-10.9209
??????????????????????????????	-10.9209
?????????????????????	-10.9209
?????????????????????	-10.9209
?????????????????????	-10.9209
???????????????	-10.9209
????????????????????????????????????	-10.9209
??????????????????????????????	-10.9209
?????????????????????	-10.9209
??????????????????	-10.9209
???????????????	-10.9209
???????????????????????????	-10.9209
????????????	-10.921
?????????????????????	-10.921
???1942	-10.921
?????????????????????	-10.9211
????????????????????????	-10.9211
???????????????	-10.9211
???????????????????????????	-10.9211
????????????????????????	-10.9211
?????????????????????????????????	-10.9211
??????????????????	-10.9211
??????????????????	-10.9211
???????????????????????????	-10.9211
??????????????????	-10.9211
???1920	-10.9212
??????	-10.9212
????????????	-10.9212
???????????????	-10.9212
????????????????????????	-10.9212
???????????????	-10.9212
??????????????????????????????	-10.9213
?????????????????????	-10.9213
??????????????????????????????	-10.9213
?????????????????????	-10.9213
????????????????????????	-10.9214
????????????????????????	-10.9214
???????????????????????????	-10.9214
???????????????	-10.9214
???????????????????????????	-10.9214
???????????????	-10.9215
??????????????????	-10.9215
??????????????????	-10.9215
?????????????????????	-10.9215
??????????????????????????????	-10.9215
?????????????????????	-10.9217
??????????????????	-10.9217
????????????????????????	-10.9218
??????????????????	-10.9218
??????????????????	-10.9218
????????????	-10.9219
?????????????????????	-10.9219
???????????????	-10.922
???????????????	-10.9221
??????????????????	-10.9224
?????????????????????	-10.9225
??????????????????	-10.9225
????????????????????????	-10.9226
???????????????	-10.9226
54	-10.9227
???????????????	-10.9228
????????????????????????	-10.9229
??????	-10.923
??????????????????	-10.923
?????????????????????	-10.923
92	-10.9231
???38	-10.9237
???????????????	-10.9243
???????????????	-10.9243
?????????	-10.9245
???????????????????????????	-10.9247
??????????????????	-10.9256
????????????????????????	-10.9256
???(16	-10.9257
???????????????	-10.9259
97	-10.9261
?????????	-10.9263
??????	-10.9274
???is	-10.9274
???????????????	-10.9275
?????????	-10.9287
co	-10.9287
???????????????	-10.9292
????????????	-10.9294
?????????????????????????????????	-10.93
??????????????????	-10.9303
????????????	-10.9303
????????????????????????	-10.9305
???????????????????????????	-10.931
??????????????????	-10.9314
????????????	-10.9316
???????????????	-10.9325
??????	-10.9328
??????????????????????????????	-10.9347
???????????????	-10.9348
???????????????	-10.9358
???81	-10.9364
????????????	-10.9378
??????	-10.9382
???????????????	-10.9386
?????????	-10.94
?????????	-10.9405
????????????	-10.9416
???37	-10.9417
????????????	-10.9423
???65	-10.944
??????	-10.9445
????????????	-10.9475
???<	-10.9483
????????????	-10.9492
????????????	-10.9495
??????	-10.9499
???????????????	-10.9503
?????????	-10.9512
??????	-10.9513
????????????	-10.9513
???????????????????????????	-10.9527
??????	-10.9528
????????????	-10.9533
?????????	-10.9548
???	-10.9566
????????????	-10.9572
?????????	-10.9574
???????????????	-10.958
????????????	-10.958
???????????????	-10.9583
??????	-10.9585
????????????	-10.9585
?????????????????????	-10.9588
?????????????????????	-10.9589
???????????????????????????	-10.9589
?????????????????????	-10.959
???????????????	-10.9591
??????????????????	-10.9597
?????????????????????	-10.96
?????????	-10.96
????????????	-10.9605
?????????????????????	-10.9607
?????????????????????	-10.9607
?????????????????????	-10.9608
???1939	-10.9608
??????????????????	-10.9608
??????????????????	-10.9608
????????????????????????	-10.9608
???????????????????????????	-10.9608
?????????????????????	-10.9608
????????????????????????	-10.9608
??????????????????	-10.9608
??????????????????????????????	-10.9608
???????????????????????????	-10.9608
????????????????????????	-10.9608
???????????????????????????	-10.9608
???????????????	-10.9608
??????????????????	-10.9608
???????????????????????????????????????	-10.9608
???????????????????????????????????????	-10.9609
?????????????????????	-10.9609
?????????????????????	-10.9609
???????????????	-10.9609
?????????????????????	-10.9609
???????????????????????????	-10.9609
?????????????????????	-10.9609
?????????????????????	-10.9609
?????????????????????	-10.9609
??????????????????	-10.9609
Laser	-10.9609
?????????????????????????????????	-10.9609
????????????	-10.9609
????????????????????????	-10.9609
???????????????	-10.9609
???????????????	-10.9609
???????????????????????????	-10.9609
??????????????????	-10.9609
????????????????????????????????????	-10.961
?????????????????????????????????	-10.961
?????????????????????	-10.961
????????????????????????	-10.961
?????????????????????	-10.961
??????????????????	-10.961
??????????????????	-10.961
???????????????	-10.961
???1963	-10.9611
?????????????????????	-10.9611
????????????????????????	-10.9611
??????????????????	-10.9611
??????????????????	-10.9612
-20	-10.9612
????????????????????????	-10.9613
?????????????????????	-10.9613
????????????	-10.9613
????????????????????????	-10.9613
???????????????	-10.9613
????????????	-10.9614
???????????????????????????	-10.9614
?????????????????????	-10.9614
?????????????????????	-10.9615
??????????????????	-10.9616
??????????????????	-10.9616
???????????????	-10.9616
???????????????????????????	-10.9616
????????????????????????	-10.9616
?????????????????????	-10.9617
??????????????????	-10.9617
???????????????	-10.9617
???????????????????????????	-10.9618
????????????????????????	-10.9618
?????????????????????	-10.9619
??????????????????	-10.962
??????????????????	-10.962
?????????????????????	-10.9621
????????????????????????	-10.9621
????????????????????????	-10.9621
???Y	-10.9621
????????????????????????	-10.9622
?????????????????????????????????	-10.9622
?????????????????????????????????	-10.9623
pa	-10.9623
???????????????	-10.9624
???????????????	-10.9624
????????????	-10.9625
????????????	-10.9627
????????????????????????	-10.9629
???????????????	-10.963
???????????????	-10.9631
???????????????	-10.9634
????????????	-10.9638
?????????	-10.9638
????????????????????????	-10.9639
?????????	-10.9641
??????	-10.9644
-17	-10.9646
????????????????????????	-10.9648
???????????????	-10.9652
?????????????????????	-10.9667
????????????	-10.967
??????	-10.9672
????????????	-10.9678
??????	-10.9686
?????????????????????	-10.9688
??????????????????????????????	-10.9688
?????????????????????	-10.969
???????????????	-10.9697
???????????????	-10.9699
?????????????????????	-10.9699
???????????????	-10.9701
?????????????????????	-10.9703
??????	-10.9706
?????????	-10.9706
93	-10.9708
???b	-10.9709
he	-10.9715
???????????????	-10.9722
88	-10.9724
?????????	-10.9734
????????????	-10.9734
?????????????????????????????????	-10.9736
????????????	-10.9739
???(4	-10.9748
??????	-10.9757
??????	-10.9757
??????	-10.9759
36	-10.9769
??????	-10.9775
ne	-10.9782
??????	-10.9782
??????<	-10.9785
??????	-10.9808
????????????	-10.981
????????????	-10.9827
????????????????????????	-10.9828
?????????	-10.9837
???55	-10.9847
?????????	-10.985
????????????	-10.9852
???47	-10.9869
???la	-10.9875
ent	-10.9878
?????????	-10.9884
?????????	-10.9887
01	-10.989
02	-10.9893
???n	-10.9897
?????????	-10.9899
??????	-10.9902
ad	-10.9903
??????	-10.9903
???????????????	-10.9906
???????????????	-10.9909
58	-10.9914
ut	-10.9914
??????	-10.9915
?????????	-10.993
??????????????????????????????	-10.994
?????????	-10.9954
??????	-10.9955
???????????????????????????	-10.9958
??????	-10.9958
?????????	-10.9961
???ma	-10.9962
2)	-10.9963
???????????????	-10.9964
ree	-10.9968
???????????????????????????	-10.9971
??????	-10.9971
????????????	-10.9981
???????????????	-10.9983
?????????	-10.9987
?????????	-10.9987
????????????	-10.9998
????????????	-11
se	-11.0001
??????	-11.0004
??????????????????	-11.0005
??????????????????????????????	-11.0006
????????????	-11.0007
??????	-11.0007
????????????	-11.0008
?????????????????????	-11.0009
?????????????????????	-11.001
.8	-11.0011
?????????	-11.0011
?????????	-11.0015
????????????????????????	-11.002
??????????????????	-11.0021
??????	-11.0021
?????????????????????	-11.0022
???2022	-11.0022
??????????????????	-11.0022
????????????????????????	-11.0023
??????????????????	-11.0023
?????????????????????	-11.0023
?????????????????????	-11.0023
??????????????????	-11.0024
??????????????????????????????	-11.0024
??????????????????	-11.0025
?????????????????????	-11.0025
?????????????????????	-11.0025
???????????????????????????	-11.0025
??????????????????	-11.0025
????????????????????????	-11.0025
??????????????????	-11.0025
???????????????	-11.0025
????????????????????????	-11.0025
????????????????????????	-11.0025
???????????????????????????	-11.0025
????????????????????????	-11.0025
??????????????????????????????	-11.0025
??????????????????????????????	-11.0025
???1982	-11.0025
?????????????????????????????????	-11.0025
??????????????????????????????	-11.0025
?????????????????????	-11.0025
?????????????????????	-11.0025
???????????????	-11.0025
???????????????????????????	-11.0025
??????????????????	-11.0025
??????????????????????????????	-11.0025
?????????????????????	-11.0025
?????????????????????	-11.0025
???????????????	-11.0025
???1985	-11.0025
???????????????????????????	-11.0025
??????????????????	-11.0026
??????????????????	-11.0026
??????????????????	-11.0026
?????????	-11.0026
??????????????????	-11.0026
???????????????????????????	-11.0026
???????????????	-11.0026
???????????????????????????	-11.0026
??????????????????	-11.0026
????????????????????????	-11.0026
???????????????	-11.0026
???????????????	-11.0026
???????????????	-11.0026
???????????????????????????	-11.0027
?????????????????????	-11.0027
?????????????????????	-11.0027
???1918	-11.0027
???????????????	-11.0028
???????????????	-11.0028
???????????????	-11.0028
??????????????????	-11.0028
???????????????	-11.0028
??????????????????	-11.0028
??????????????????????????????	-11.0028
??????????????????	-11.0028
????????????????????????	-11.0029
???????????????????????????	-11.003
???????????????????????????	-11.003
????????????	-11.003
??????????????????	-11.003
???????????????	-11.003
??????????????????	-11.0031
?????????????????????	-11.0031
???????????????	-11.0032
??????????????????	-11.0033
?????????????????????	-11.0033
????????????	-11.0036
75	-11.0036
???????????????	-11.0037
????????????	-11.0038
?????????????????????	-11.0038
??????????????????	-11.0038
?????????????????????????????????	-11.004
???????????????????????????	-11.0041
???????????????	-11.0042
??????????????????	-11.0042
?????????????????????	-11.0042
???90	-11.0042
?????????????????????	-11.0044
?????????	-11.0045
???????????????	-11.0046
.6	-11.005
ity	-11.005
??????????????????	-11.0051
?????????	-11.0052
????????????????????????	-11.0052
????????????????????????????????????	-11.006
??????????????????	-11.006
????????????	-11.006
????????????	-11.0063
?????????	-11.0068
???????????????	-11.0069
???????????????	-11.0077
???????????????	-11.0077
?????????	-11.0088
?????????????????????	-11.0089
???("	-11.0093
?????????????????????	-11.0099
???????????????	-11.0116
????????????	-11.0117
???Re	-11.0118
??????????????????	-11.0123
???????????????	-11.0125
?????????????????????????????????	-11.0134
????????????????????????	-11.0141
??????????????????????????????	-11.0142
????????????	-11.0145
??????????????????	-11.0148
??????????????????	-11.0153
???46	-11.016
??????	-11.0172
ion	-11.0174
????????????	-11.0174
??????	-11.0182
????????????	-11.0183
id	-11.0191
??????????????????	-11.0206
???i	-11.0218
?????????	-11.0219
??????	-11.0221
?????????????????????????????????	-11.023
????????????	-11.0236
?????????	-11.0237
????????????????????????????????????	-11.0238
????????????	-11.0241
??????	-11.0242
89	-11.0263
??????	-11.0263
????????????	-11.0265
??????	-11.0268
ce	-11.0275
???????????????	-11.0276
</	-11.0281
??????	-11.0286
?????????	-11.0287
?????????	-11.0296
??????	-11.0301
??????	-11.0311
??????	-11.0315
?????????	-11.0326
????????????	-11.0329
?????????	-11.0331
????????????	-11.0349
??????	-11.0355
???l	-11.0363
????????????	-11.0366
ro	-11.0366
????????????	-11.0371
????????????	-11.0376
?????????	-11.0383
??????	-11.0388
?????????	-11.039
73	-11.0393
74	-11.0397
????????????	-11.0399
??????????????????	-11.0404
??????	-11.0413
???	-11.0418
??????????????????	-11.0419
???????????????	-11.042
??????	-11.0421
??????????????????	-11.0422
????????????	-11.0424
????????????	-11.0428
?????????	-11.0432
?????????	-11.0433
????????????	-11.0433
?????????	-11.0434
????????????	-11.0435
??????????????????	-11.0435
?????????????????????	-11.0437
???????????????	-11.0438
??????????????????	-11.0439
???????????????????????????????????????	-11.0441
???????????????????????????	-11.0441
??????????????????	-11.0441
??????????????????	-11.0442
?????????	-11.0444
???????????????	-11.0445
?????????????????????	-11.0447
????????????	-11.0452
???????????????????????????	-11.0455
???????????????	-11.0456
?????????????????????	-11.0456
??????	-11.0457
??????????????????	-11.0457
??????????????????????????????	-11.0458
???????????????	-11.0458
???????????????????????????	-11.046
????????????????????????	-11.046
??????????????????	-11.046
????????????????????????	-11.046
???????????????????????????	-11.046
???????????????????????????	-11.046
???????????????????????????	-11.046
??????????????????????????????	-11.046
?????????????????????	-11.046
?????????????????????	-11.046
??????????????????????????????	-11.046
????????????????????????	-11.046
??????????????????	-11.046
???????????????	-11.046
??????????????????	-11.046
?????????????????????????????????	-11.046
???????????????????????????	-11.046
?????????????????????	-11.046
?????????????????????	-11.046
??????????????????	-11.046
????????????????????????	-11.046
???????????????	-11.046
????????????????????????	-11.046
?????????????????????	-11.046
????????????????????????	-11.046
?????????????????????	-11.046
????????????	-11.046
??????????????????	-11.046
????????????????????????	-11.046
????????????????????????	-11.046
??????????????????????????????	-11.046
??????????????????????????????	-11.046
social	-11.0461
???????????????????????????	-11.0461
?????????????????????	-11.0461
?????????????????????	-11.0461
??????????????????????????????	-11.0461
???????????????	-11.0461
???????????????	-11.0461
????????????????????????	-11.0461
??????????????????	-11.0461
???????????????	-11.0462
???????????????	-11.0462
?????????????????????????????????	-11.0463
????????????????????????	-11.0463
????????????????????????	-11.0463
?????????????????????	-11.0463
???????????????????????????	-11.0463
??????????????????	-11.0463
?????????????????????	-11.0463
???????????????????????????	-11.0463
?????????????????????????????????	-11.0463
???????????????	-11.0464
????????????????????????	-11.0464
???????????????	-11.0464
?????????????????????	-11.0465
??????????????????	-11.0465
???????????????	-11.0466
???????????????	-11.0466
???????????????	-11.0466
???????????????	-11.0466
????????????????????????????????????	-11.0466
??????????????????	-11.0467
?????????????????????	-11.0467
?????????????????????	-11.0468
??????????????????	-11.0469
????????????	-11.0469
???????????????????????????	-11.0469
???????????????????????????	-11.047
???????????????	-11.047
??????	-11.0471
??????????????????	-11.0472
???????????????	-11.0473
????????????	-11.0474
????????????????????????	-11.0474
??????????????????	-11.0475
?????????????????????	-11.0475
?????????????????????	-11.0476
???????????????	-11.0476
???????????????	-11.0476
???????????????	-11.0477
?????????????????????	-11.0478
???????????????	-11.048
??????????????????	-11.0481
???85	-11.0482
??????????????????	-11.0484
??????????????????	-11.0485
??????????????????	-11.0488
?????????????????????	-11.0488
????????????	-11.0489
????????????	-11.0491
????????????	-11.0494
???????????????????????????	-11.0503
????????????	-11.0504
?????????	-11.0505
???????????????	-11.0505
??????????????????????????????	-11.0505
?????????????????????	-11.0505
?????????	-11.0506
...(	-11.051
?????????	-11.0513
???????????????	-11.0515
???????????????????????????	-11.0516
????????????????????????	-11.0516
??????	-11.052
???*	-11.0529
???????????????	-11.0533
????????????	-11.0533
?????????	-11.0537
??????????????????	-11.0544
????????????????????????	-11.0544
????????????	-11.0551
??????????????????	-11.0553
??????	-11.0559
???????????????????????????	-11.056
???(6	-11.0561
?????????????????????	-11.0563
??????	-11.0563
??????????????????	-11.0565
???52	-11.0569
???7.	-11.0572
??????????????????	-11.0572
??????????????????	-11.0574
??????	-11.0575
bo	-11.058
it	-11.0586
??????????????????	-11.0591
?????????	-11.0596
?????????????????????	-11.0597
?????????	-11.061
??????	-11.0611
??????????????????	-11.0622
??????	-11.0626
ers	-11.0639
?????????	-11.0646
ill	-11.0667
??????	-11.0673
?????????	-11.0675
ck	-11.0678
??????	-11.0693
???????????????	-11.0693
???3000	-11.0696
?????????	-11.0712
????????????	-11.0715
???????????????	-11.0723
??????	-11.0732
?????????	-11.0732
j	-11.074
???????????????	-11.0746
?????????	-11.0754
??????	-11.076
??????	-11.0772
???f	-11.0775
?????????	-11.0776
??????	-11.0777
????????????	-11.0777
?????????	-11.079
??????	-11.0791
?????????	-11.0797
????????????	-11.0799
???????????????	-11.0801
?????????	-11.0815
???(8	-11.0819
?????????	-11.0821
??????????????????	-11.0823
???72	-11.0824
??????	-11.083
????????????	-11.083
???????????????	-11.0833
??????	-11.0833
??????	-11.0838
???????????????	-11.084
?????????	-11.0846
???????????????	-11.0861
?????????	-11.087
????????????	-11.0873
?????????????????????	-11.0875
?????????????????????	-11.0877
??????	-11.0877
??????????????????	-11.0877
??????	-11.0879
???????????????	-11.0879
????????????	-11.0883
????????????	-11.0884
???????????????	-11.0887
???????????????	-11.089
??????????????????	-11.0891
???????????????	-11.0892
??????	-11.0894
????????????????????????	-11.0895
???????????????????????????	-11.0895
?????????????????????	-11.0895
???????????????????????????	-11.0895
????????????	-11.0896
??????????????????	-11.0898
??????????????????	-11.0899
???????????????????????????	-11.0902
???????????????????????????	-11.0905
??????????????????	-11.0911
???????????????	-11.0911
??????	-11.0911
???????????????	-11.0912
??????????????????????????????	-11.0913
?????????????????????	-11.0913
????????????????????????	-11.0913
???????????????	-11.0913
??	-11.0914
???1959	-11.0914
??????????????????	-11.0914
???????????????	-11.0914
??????????????????????????????	-11.0914
????????????????????????	-11.0914
????????????????????????	-11.0914
?????????????????????	-11.0914
??????????????????	-11.0914
????????????????????????	-11.0914
???????????????	-11.0914
?????????????????????	-11.0914
???????????????????????????	-11.0914
??????????????????	-11.0914
?????????????????????????????????	-11.0914
???????????????	-11.0914
?????????????????????	-11.0914
???????????????	-11.0914
??????????????????????????????	-11.0914
???????????????????????????	-11.0914
????????????????????????	-11.0914
???????????????	-11.0914
??????????????????	-11.0914
??????????????????????????????	-11.0914
???????????????	-11.0914
?????????????????????	-11.0914
??????????????????	-11.0914
????????????????????????	-11.0914
?????????????????????	-11.0914
??????????????????????????????	-11.0914
????????????????????????	-11.0914
???????????????????????????	-11.0914
?????????????????????	-11.0914
?????????????????????	-11.0915
????????????????????????	-11.0915
span	-11.0915
?????????????????????	-11.0915
??????????????????	-11.0915
???????????????	-11.0915
?????????????????????	-11.0915
???????????????	-11.0915
no	-11.0915
????????????	-11.0915
??????????????????	-11.0915
??????????????????????????????	-11.0915
????????????????????????	-11.0915
??????????????????	-11.0915
?????????????????????	-11.0915
?????????????????????	-11.0915
????????????????????????	-11.0915
??????????????????????????????????????????	-11.0915
????????????????????????	-11.0915
?????????????????????????????????	-11.0915
???????????????	-11.0915
?????????????????????????????????	-11.0916
?????????????????????	-11.0916
?????????????????????	-11.0916
??????????????????	-11.0916
????????????????????????	-11.0916
?????????????????????	-11.0916
????????????????????????	-11.0916
???1976	-11.0916
???1952	-11.0916
?????????????????????????????????	-11.0917
???with	-11.0917
????????????????????????	-11.0919
?????????????????????	-11.0919
?????????????????????	-11.0919
????????????????????????	-11.0919
?????????????????????????????????	-11.0919
???????????????????????????	-11.0919
????????????????????????	-11.0919
???????????????	-11.092
?????????????????????	-11.092
???????????????????????????	-11.092
?????????????????????	-11.092
?????????????????????	-11.092
???????????????????????????	-11.0921
??????	-11.0921
???????????????	-11.0921
???????????????????????????????????????	-11.0921
???????????????	-11.0921
????????????????????????	-11.0921
???????????????????????????	-11.0921
??????????????????????????????	-11.0922
????????????????????????	-11.0922
?????????????????????	-11.0922
?????????????????????	-11.0923
???????????????	-11.0923
???????????????	-11.0923
????????????????????????	-11.0924
??????????????????	-11.0924
???????????????????????????	-11.0924
???????????????????????????	-11.0924
???????????????	-11.0925
???km	-11.0925
?????????????????????????????????	-11.0925
?????????????????????	-11.0925
??????????????????	-11.0926
?????????????????????	-11.0926
??????????????????	-11.0926
???????????????	-11.0926
???????????????????????????	-11.0926
?????????????????????????????????	-11.0927
?????????????????????	-11.0927
ab	-11.093
????????????	-11.0931
??????????????????	-11.0931
??????????????????	-11.0933
???75	-11.0933
????????????	-11.0933
???????????????	-11.0933
???????????????????????????	-11.0935
?????????	-11.0935
??????????????????	-11.0939
????????????????????????	-11.094
?????????????????????	-11.0942
???????????????????????????	-11.0943
???????????????	-11.0943
42	-11.0944
????????????	-11.0947
?????????????????????	-11.0947
??????????????????	-11.0951
???????????????	-11.0959
????????????	-11.0967
???????????????	-11.097
????????????	-11.0971
?????????	-11.0973
?????????	-11.0975
????????????	-11.0977
??????	-11.0978
????????????	-11.0979
????????????	-11.0983
?????????	-11.0986
????????????	-11.0992
???????????????	-11.1003
????????????????????????	-11.1004
?????????	-11.1008
????????????	-11.1011
???????????????	-11.1019
ia	-11.1022
?????????	-11.1023
??????	-11.1023
????????????	-11.1025
???74	-11.1027
?????????????????????	-11.1028
????????????	-11.1032
??????	-11.1036
??????	-11.1042
?????????	-11.1048
?????????	-11.1049
???????????????	-11.1049
-4	-11.1057
?????????????????????	-11.1062
??????????????????	-11.1063
?????????????????????	-11.1065
ka	-11.1066
?????????	-11.1072
???250	-11.1074
?????????	-11.1082
????????????	-11.1088
?????????	-11.1088
???????????????	-11.1088
?????????	-11.109
??????	-11.1091
ji	-11.1103
?????????	-11.1126
??????	-11.1131
?????????	-11.1132
?????????	-11.1133
and	-11.1137
??????	-11.114
???????????????	-11.1155
??????	-11.1155
ig	-11.1156
????????????	-11.1159
?????????	-11.1167
?????????	-11.1167
??????	-11.1169
??????	-11.1172
???????????????	-11.1185
??????	-11.1204
????????????	-11.1205
da	-11.1215
??????	-11.1217
??????	-11.1219
???????????????	-11.1221
??????	-11.1228
????????????	-11.1228
43	-11.1233
??????	-11.1244
???????????????	-11.1248
?????????	-11.1252
????????????	-11.1256
??????????????????	-11.1266
???????????????????????????	-11.1266
?????????	-11.1268
????????????	-11.1277
??????	-11.1297
hi	-11.1302
?????????	-11.1302
?????????	-11.1304
??????	-11.1304
??????	-11.1305
??????????????????	-11.1313
96	-11.1314
?????????	-11.1317
??????	-11.1318
?????????	-11.1319
????????????	-11.1324
??????	-11.1337
????????????	-11.1346
?????????	-11.135
????????????	-11.1352
??????	-11.1352
????????????	-11.1353
??????????????????	-11.1354
????????????	-11.1355
??????	-11.1357
????????????	-11.1362
??????	-11.1363
??????????????????	-11.1364
????????????	-11.1368
??????????????????	-11.1372
?????????????????????	-11.1372
??????????????????????????????	-11.1377
??????????????????	-11.1377
???????????????	-11.1378
???????????????	-11.139
???hai	-11.139
????????????????????????	-11.1391
????????????????????????	-11.1391
?????????????????????	-11.1391
???????????????????????????	-11.1391
??????????????????????????????	-11.1391
??????????????????	-11.1391
????????????????????????	-11.1391
???????????????????????????????????????	-11.1391
??????????????????	-11.1391
????????????????????????	-11.1391
???????????????????????????	-11.1391
???????????????????????????	-11.1391
?????????????????????????????????	-11.1391
?????????????????????	-11.1391
??????????????????	-11.1391
???????????????????????????	-11.1391
????????????????????????	-11.1391
????????????????????????	-11.1391
?????????????????????	-11.1391
???????????????????????????	-11.1391
?????????????????????	-11.1391
??????????????????	-11.1391
??????????????????	-11.1391
????????????????????????	-11.1391
?????????????????????	-11.1391
???????????????????????????	-11.1391
????????????????????????	-11.1391
?????????????????????	-11.1391
???????????????????????????	-11.1391
????????????????????????	-11.1391
?????????????????????	-11.1391
??????????????????	-11.1391
??????????????????	-11.1391
?????????????????????	-11.1391
?????????????????????	-11.1391
???????????????	-11.1391
?????????????????????	-11.1391
?????????????????????	-11.1391
???1968	-11.1391
??????????????????	-11.1391
???????????????	-11.1391
?????????????????????????????????	-11.1391
????????????????????????	-11.1391
??????????????????	-11.1392
???????????????????????????	-11.1392
???????????????????????????????????????	-11.1392
???????????????????????????	-11.1392
?????????????????????????????????	-11.1392
???????????????	-11.1392
???????????????	-11.1392
??????????????????????????????	-11.1392
???1953	-11.1392
???1955	-11.1392
?????????????????????	-11.1392
???1946	-11.1393
????????????	-11.1393
??????????????????	-11.1393
???????????????????????????????????????	-11.1393
?????????????????????	-11.1393
????????????????????????????????????	-11.1393
???????????????	-11.1393
????????????????????????	-11.1393
??????????????????????????????	-11.1394
?????????????????????	-11.1394
??????????????????????????????	-11.1394
??????????????????????????????	-11.1394
??????????????????	-11.1394
???1940	-11.1394
?????????????????????	-11.1394
????????????????????????	-11.1394
??????????????????	-11.1394
??????????????????	-11.1394
?????????????????????	-11.1395
?????????????????????????????????	-11.1395
?????????????????????	-11.1395
????????????	-11.1395
????????????	-11.1395
???????????????	-11.1395
???Unicode	-11.1395
????????????????????????	-11.1395
???????????????	-11.1396
??????????????????	-11.1396
??????????????????	-11.1396
???????????????	-11.1397
??????????????????	-11.1398
????????????????????????	-11.1398
??????????????????	-11.1398
???????????????????????????	-11.1398
???????????????	-11.1399
?????????	-11.1399
?????????	-11.1399
?????????????????????????????????	-11.14
????????????????????????	-11.14
???????????????	-11.14
???????????????	-11.14
??????????????????	-11.1401
?????????	-11.1401
???????????????	-11.1402
?????????????????????	-11.1402
?????????????????????	-11.1402
??????????????????	-11.1402
??????	-11.1406
??????????????????????????????	-11.1407
??????????????????	-11.1407
????????????????????????	-11.1407
??????????????????	-11.1407
???????????????	-11.1408
??????????????????	-11.1408
???????????????	-11.141
???????????????	-11.1411
?????????????????????	-11.1415
???????????????	-11.1415
?????????????????????	-11.1416
??????????????????????????????	-11.1416
??????????????????????????????	-11.1416
??????????????????	-11.1417
????????????	-11.1418
?????????	-11.1418
-16	-11.1418
??????????????????	-11.1421
????????????????????????	-11.1425
????????????	-11.1426
????????????	-11.1427
?????????????????????????????????	-11.1436
???????????????	-11.1437
?????????????????????????????????	-11.144
?????????????????????	-11.144
???????????????	-11.1444
???76	-11.1447
????????????????????????	-11.145
???????????????????????????	-11.146
????????????	-11.1464
???????????????????????????	-11.1465
??????	-11.148
???(4)	-11.1481
????????????	-11.1481
???????????????	-11.1484
????????????	-11.1488
??????	-11.1495
????????????	-11.1496
???????????????	-11.1498
??????	-11.15
?????????????????????????????????	-11.15
???????????????	-11.1501
?????????	-11.1504
????????????????????????	-11.1504
??????????????????	-11.1505
?????????????????????	-11.1509
????????????	-11.1526
??????????????????	-11.1534
??????	-11.1535
?????????	-11.154
?????????	-11.1554
???62	-11.1559
??????????????????	-11.1561
???????????????	-11.1562
???w	-11.1566
??????????????????	-11.1568
???????????????	-11.1569
????????????	-11.1581
?????????	-11.1589
''	-11.1589
?????????????????????????????????	-11.1594
ti	-11.1595
???????????????	-11.1599
???????????????	-11.16
04	-11.1608
??????	-11.1609
??????????????????	-11.1609
??????	-11.162
??????	-11.1627
?????????	-11.1628
???600	-11.1629
??????????????????	-11.1632
???????????????	-11.1649
???g	-11.1657
????????????	-11.1659
??????????????????????????????	-11.1662
?????????	-11.1664
??????	-11.1675
?????????	-11.1676
??????	-11.1677
?????????	-11.1677
????????????	-11.168
?????????	-11.1684
??????	-11.1685
???86	-11.1697
??????	-11.171
ies	-11.1711
?????????	-11.1712
????????????	-11.1725
?????????	-11.1739
?????????	-11.174
???42	-11.1745
??????	-11.1746
?????????	-11.1748
?????????	-11.1758
????????????	-11.1784
??????	-11.1793
?????????????????????	-11.1795
?????????	-11.1796
??????	-11.1801
?????????	-11.1803
??????	-11.1804
?????????	-11.1805
??????????????????	-11.1809
61	-11.1809
???????????????	-11.1818
0)	-11.1821
??????????????????	-11.183
???????????????	-11.1836
67	-11.1839
?????????	-11.1842
44	-11.1849
??????????????????	-11.1852
???????????????????????????	-11.1853
??????????????????	-11.1853
??????????????????	-11.1854
???????????????	-11.1856
???????????????	-11.1857
???????????????	-11.1861
??????	-11.1861
?????????	-11.1865
????????????	-11.1869
???????????????	-11.1871
????????????????????????	-11.1872
??????	-11.1872
???????????????	-11.1874
???????????????	-11.1874
??????	-11.1875
???????????????	-11.1876
?????????????????????	-11.1879
????????????	-11.188
????????????????????????	-11.188
'''	-11.1884
???83	-11.1885
??????????????????	-11.1886
??????????????????????????????	-11.1887
??????????????????	-11.1888
????????????????????????	-11.1889
???????????????	-11.1889
?????????????????????	-11.189
??????????????????????????????	-11.1891
?????????????????????	-11.1891
????????????????????????	-11.1891
?????????????????????	-11.1891
????????????????????????	-11.1891
?????????????????????????????????	-11.1891
?????????????????????	-11.1891
????????????????????????	-11.1891
??????????????????????????????	-11.1891
?????????????????????	-11.1891
??????????????????????????????	-11.1891
????????????????????????	-11.1891
???????????????????????????????????????	-11.1891
??????????????????	-11.1891
????????????????????????	-11.1891
?????????????????????	-11.1891
?????????????????????	-11.1891
????????????????????????????????????	-11.1891
???????????????????????????	-11.1891
????????????????????????	-11.1891
??????????????????????????????	-11.1891
????????????????????????	-11.1891
??????????????????	-11.1891
??????????????????	-11.1891
??????????????????????????????	-11.1891
??????????????????????????????	-11.1891
???????????????????????????????????????	-11.1891
??????????????????	-11.1891
????????????????????????	-11.1891
????????????????????????	-11.1891
????????????????????????	-11.1891
??????????????????????????????????????????	-11.1891
?????????????????????	-11.1891
??????????????????	-11.1891
?????????????????????	-11.1891
?????????????????????	-11.1891
????????????	-11.1891
??????????????????	-11.1891
??????????????????	-11.1891
??????????????????	-11.1891
??????????????????	-11.1891
??????????????????	-11.1891
??????????????????	-11.1891
????????????????????????	-11.1891
???????????????	-11.1891
????????????????????????	-11.1891
?????????	-11.1891
??????????????????????????????	-11.1891
?????????????????????????????????	-11.1892
???????????????	-11.1892
??????????????????	-11.1892
????????????????????????	-11.1892
???????????????????????????	-11.1892
????????????????????????	-11.1892
?????????????????????	-11.1892
????????????????????????	-11.1892
??????????????????	-11.1892
?????????????????????	-11.1892
????????????????????????	-11.1892
?????????????????????	-11.1892
??????????????????????????????	-11.1892
????????????????????????????????????	-11.1892
?????????????????????	-11.1892
??????????????????	-11.1893
???????????????	-11.1893
??????????????????????????????	-11.1893
???????????????	-11.1893
???????????????	-11.1894
????????????????????????	-11.1894
?????????????????????	-11.1894
???????????????	-11.1894
?????????????????????	-11.1894
????????????????????????	-11.1894
?????????????????????????????????	-11.1894
?????????????????????????????????	-11.1895
?????????????????????	-11.1895
????????????	-11.1895
???????????????	-11.1895
????????????????????????	-11.1896
?????????????????????	-11.1896
??????????????????	-11.1896
?????????????????????	-11.1896
???????????????	-11.1896
???????????????	-11.1897
??????????????????	-11.1897
??????????????????????????????	-11.1897
??????????????????	-11.1898
??????????????????	-11.1898
?????????????????????	-11.1899
??????????????????	-11.1899
???????????????????????????	-11.19
?????????????????????	-11.19
???????????????	-11.19
??????	-11.19
???????????????	-11.19
???????????????	-11.19
????????????	-11.19
?????????????????????	-11.19
???????????????	-11.19
??????????????????	-11.19
???????????????	-11.19
?????????????????????	-11.19
?????????????????????????????????	-11.1901
??????????????????	-11.1901
??????	-11.1902
????????????	-11.1903
??????????????????	-11.1903
?????????????????????	-11.1903
???????????????	-11.1903
???????????????	-11.1904
???????????????	-11.1904
???????????????????????????	-11.1904
????????????	-11.1905
???????????????	-11.1906
????????????	-11.1906
???????????????	-11.1906
??????????????????	-11.1908
???????????????	-11.1908
????????????????????????	-11.191
??????????????????	-11.191
india	-11.1911
???????????????????????????	-11.1911
??????????????????	-11.1913
???????????????	-11.1914
???????????????	-11.1914
??????????????????	-11.1915
???????????????	-11.1916
?????????????????????	-11.1916
???????????????	-11.1916
??????????????????	-11.1917
???41	-11.192
?????????	-11.192
?????????	-11.1922
???????????????	-11.1925
???????????????	-11.1926
?????????????????????	-11.1927
so	-11.1929
???????????????????????????	-11.193
??????????????????	-11.1931
???????????????	-11.1934
???????????????	-11.1935
???????????????	-11.1935
??????????????????	-11.1939
???????????????	-11.194
???????????????	-11.194
????????????	-11.1941
???????????????????????????	-11.1941
???????????????	-11.1943
????????????????????????	-11.1945
????????????	-11.1946
???????????????	-11.1949
???????????????	-11.1954
?????????	-11.1954
???????????????	-11.196
???????????????????????????	-11.1961
?????????????????????	-11.1962
???????????????????????????	-11.1967
???????????????	-11.1968
??????	-11.1969
??????	-11.197
?????????	-11.1972
???????????????	-11.1974
??????	-11.1975
???????????????	-11.1977
??????	-11.1981
????????????	-11.1986
?????????????????????????????????	-11.1991
??????	-11.1992
??????????????????	-11.1992
??????????????????	-11.1997
??????????????????	-11.1999
????????????	-11.2002
????????????	-11.2003
??????	-11.2005
????????????	-11.2007
??????	-11.2009
?????????	-11.202
?????????	-11.2023
???99	-11.2032
??????	-11.2033
??????????????????	-11.2034
?????????	-11.2043
?????????????????????	-11.2054
??????	-11.2059
??????????????????????????????	-11.2062
????????????	-11.2065
??????	-11.2074
?????????	-11.208
??????	-11.2082
ph	-11.2087
??????	-11.2088
??????	-11.2098
?????????	-11.2103
????????????	-11.2104
????????????	-11.2108
???????????????	-11.2113
??????	-11.2114
???????????????	-11.2115
???(=	-11.2123
????????????	-11.2127
????????????	-11.2127
???1932	-11.213
????????????	-11.2131
?????????	-11.2139
??????????????????	-11.2162
?????????	-11.2162
?????????	-11.2181
???????????????	-11.2189
????????????????????????????????????	-11.219
net	-11.2194
???????????????	-11.2196
87	-11.2196
??????????????????	-11.2199
??????	-11.2211
?????????	-11.2211
?????????	-11.2213
?????????	-11.2215
?????????	-11.2218
66	-11.2222
????????????	-11.2236
??????	-11.2236
???????????????	-11.2238
???????????????	-11.2243
??????	-11.225
?????????	-11.2259
????????????	-11.226
????????????	-11.2261
?????????	-11.2264
???????????????	-11.2266
???(7	-11.2274
?????????	-11.2279
?????????	-11.2283
???8.	-11.2295
????????????	-11.2297
???????????????	-11.2299
?????????	-11.2299
??????	-11.23
????????????	-11.2302
???????????????	-11.2304
????????????	-11.2313
????????????	-11.2317
??????	-11.2318
ik	-11.232
????????????????????????????????????	-11.2321
?????????	-11.2323
?????????	-11.2326
?????????	-11.2327
81	-11.2332
71	-11.2353
??????	-11.2356
????????????	-11.2365
????????????	-11.2367
??????????????????	-11.2376
X	-11.2378
???????????????	-11.2378
??????????????????	-11.2379
??????????????????	-11.2379
?"	-11.2382
??????????????????	-11.2382
???????????????	-11.2384
????????????	-11.2387
???????????????	-11.2391
??????????????????	-11.2393
???????????????????????????	-11.2394
???????????????	-11.2395
???????????????????????????	-11.2397
??????????????????	-11.2398
?????????????????????	-11.2403
???67	-11.2405
??????????????????	-11.2405
?????????????????????	-11.2407
est	-11.2407
??????????????????	-11.2412
?????????????????????	-11.2414
????????????????????????	-11.2417
???Information	-11.2417
???Jerusalem	-11.2417
?????????????????????	-11.2417
?????????????????????	-11.2417
????????????????????????	-11.2417
????????????????????????????????????	-11.2417
??????????????????	-11.2417
????????????????????????	-11.2417
??????????????????	-11.2417
???????????????	-11.2417
?????????????????????	-11.2417
?????????????????????	-11.2417
?????????????????????	-11.2417
?????????????????????????????????	-11.2417
??????????????????	-11.2417
?????????????????????	-11.2417
??????????????????	-11.2417
?????????????????????????????????	-11.2417
????????????????????????	-11.2417
????????????????????????	-11.2417
?????????????????????	-11.2417
?????????????????????	-11.2417
?????????????????????	-11.2417
?????????????????????	-11.2417
?????????????????????	-11.2417
????????????????????????	-11.2417
????????????????????????	-11.2417
?????????????????????	-11.2417
?????????????????????????????????	-11.2417
????????????????????????	-11.2417
??????????????????????????????	-11.2417
??????????????????	-11.2417
??????????????????	-11.2417
???????????????	-11.2417
???????????????????????????	-11.2417
??????????????????	-11.2417
???????????????	-11.2417
???????????????????????????	-11.2417
?????????????????????	-11.2417
??????????????????	-11.2417
??????????????????	-11.2417
????????????????????????	-11.2417
????????????????????????	-11.2417
?????????????????????????????????	-11.2417
????????????????????????	-11.2417
??????????????????	-11.2417
????????????????????????	-11.2417
?????????????????????	-11.2417
?????????????????????	-11.2417
????????????????????????	-11.2417
?????????????????????	-11.2417
??????????????????????????????	-11.2417
???????????????	-11.2417
???????????????	-11.2417
?????????????????????	-11.2417
???????????????????????????	-11.2417
?????????????????????	-11.2417
???????????????	-11.2418
??????????????????	-11.2418
???????????????????????????	-11.2418
???????????????????????????	-11.2418
???????????????	-11.2418
?????????????????????	-11.2418
???nm	-11.2418
?????????????????????	-11.2418
?????????????????????????????????	-11.2418
??????????????????????????????	-11.2418
????????????????????????????????????	-11.2418
????????????????????????	-11.2418
?????????????????????	-11.2419
?????????????????????	-11.2419
?????????????????????	-11.2419
????????????????????????	-11.2419
???????????????	-11.2419
???aur	-11.2419
??????????????????	-11.2419
???1964	-11.2419
???1907	-11.2419
?????????????????????	-11.2419
???????????????????????????	-11.2419
???1941	-11.2419
???????????????????????????????????????	-11.2419
?????????????????????	-11.2419
?????????????????????	-11.242
????????????????????????	-11.242
???1912	-11.242
????????????????????????	-11.242
???????????????????????????	-11.242
???????????????????????????	-11.242
?????????????????????	-11.242
??????????????????	-11.242
???????????????	-11.2421
??????????????????	-11.2421
????????????????????????	-11.2421
???????????????	-11.2421
???????????????????????????????????????	-11.2421
?????????????????????????????????	-11.2421
?????????????????????	-11.2421
???1925	-11.2421
?????????????????????????????????	-11.2421
???????????????	-11.2421
??????????????????????????????	-11.2422
??????????????????	-11.2422
??????????????????	-11.2422
?????????????????????	-11.2422
????????????????????????	-11.2422
?????????????????????	-11.2422
???????????????	-11.2422
??????????????????	-11.2422
???????????????????????????	-11.2422
????????????	-11.2423
???????????????????????????	-11.2423
?????????????????????????????????	-11.2423
????????????????????????	-11.2424
???1922	-11.2424
?????????????????????	-11.2424
??????????????????	-11.2425
?????????	-11.2425
???????????????	-11.2425
??????????????????	-11.2425
???1500	-11.2426
???????????????	-11.2426
???????????????	-11.2426
???University	-11.2426
???????????????	-11.2426
?????????????????????	-11.2427
??????????????????	-11.2427
?????????????????????	-11.2428
??????	-11.2428
????????????????????????	-11.2429
????????????	-11.2429
???In	-11.2429
??????????????????	-11.2429
???????????????	-11.243
???????????????	-11.2431
??????	-11.2432
???????????????	-11.2432
????????????????????????	-11.2432
????????????????????????	-11.2432
???????????????	-11.2432
??????	-11.2432
??????????????????	-11.2432
????????????	-11.2432
??????????????????	-11.2433
??????????????????????????????	-11.2434
name	-11.2434
?????????	-11.2435
????????????	-11.2435
???????????????	-11.2437
???????????????	-11.2437
?????????	-11.2438
?????????????????????	-11.2439
??????????????????	-11.2439
???????????????	-11.2441
??????????????????????????????	-11.2443
??????????????????	-11.2443
?????????????????????	-11.2444
?????????????????????	-11.245
??????????????????????????????	-11.2451
??????	-11.2455
??????????????????	-11.2457
?????????????????????????????????	-11.2457
?????????	-11.2461
?????????????????????	-11.2465
??????????????????	-11.2466
?????????	-11.2468
???????????????	-11.2473
?????????	-11.2474
?????????????????????	-11.2475
????????????	-11.2475
?????????	-11.2476
??????	-11.2482
ref	-11.2482
???????????????	-11.2484
?????????????????????????????????	-11.2491
????????????	-11.2494
????????????	-11.2495
?????????	-11.2498
???(10	-11.25
??????????????????????????????	-11.25
????????????????????????	-11.2501
?????????	-11.2502
??????????????????	-11.2503
??????	-11.2509
????????????	-11.2511
????????????	-11.2513
??????????????????	-11.2517
di	-11.2519
???????????????	-11.2522
??????	-11.2523
???????????????	-11.2526
???????????????	-11.2537
???53	-11.254
???or	-11.2545
????????????????????????	-11.2557
?????????	-11.2591
??????	-11.2595
?????????	-11.26
???????????????	-11.2604
????????????	-11.2605
?????????	-11.2617
??????????????????	-11.263
????????????	-11.263
???????????????	-11.2631
??????????????????	-11.2631
?????????	-11.2647
???????????????	-11.2656
????????????????????????	-11.2657
????????????	-11.2667
?????????	-11.2676
????????????	-11.2678
????????????	-11.2682
????????????	-11.2686
?????????????????????	-11.2688
???????????????	-11.27
???????????????	-11.2707
????????????	-11.2714
????????????	-11.2727
??????	-11.273
???????????????	-11.2733
?????????	-11.2742
???96	-11.2754
?????????	-11.2758
???????????????	-11.2762
????????????	-11.2765
????????????????????????	-11.2768
??????	-11.277
?????????	-11.2774
????????????	-11.2778
??????	-11.2789
???????????????	-11.2792
?????????	-11.2805
???????????????	-11.2807
????????????	-11.2808
ology	-11.2814
????????????	-11.2815
??????????????????	-11.2841
?????????	-11.2844
???????????????	-11.2867
un	-11.287
????????????	-11.2872
????????????	-11.2873
?????????	-11.2874
???120	-11.2877
???Co	-11.2877
???An	-11.2884
????????????????????????	-11.2893
?????????	-11.2902
?????????	-11.2908
??????????????????	-11.2909
??????	-11.291
????????????	-11.2914
??????	-11.2919
??????????????????	-11.2922
??????????????????	-11.2924
???????????????	-11.2927
Tata	-11.2932
???????????????	-11.2933
?????????	-11.2933
????????????	-11.2934
????????????	-11.2934
??????????????????	-11.2938
????????????	-11.294
?????????	-11.2945
??????????????????	-11.2945
????????????	-11.2946
?????????	-11.295
?????????????????????	-11.295
????????????	-11.2951
??????????????????	-11.2952
????????????????????????	-11.2953
???????????????	-11.2954
??????????????????	-11.2954
???????????????	-11.2954
????????????????????????	-11.2954
???????????????	-11.2954
?????????????????????	-11.2955
???????????????	-11.2955
??????????????????	-11.2955
??????????????????????????????	-11.2956
??????????????????????????????	-11.2957
??????????????????	-11.2958
??????	-11.2961
??????????????????	-11.2963
??????????????????	-11.2964
??????????????????????????????	-11.2964
????????????	-11.2966
???????????????????????????	-11.2966
??????	-11.2967
????????????	-11.2968
????????????	-11.2969
??????????????????	-11.297
??????????????????	-11.297
?????????????????????	-11.2971
???????????????	-11.2972
??????????????????????????????	-11.2972
???????????????????????????	-11.2973
????????????????????????	-11.2973
?????????????????????	-11.2973
??????????????????	-11.2973
??????????????????	-11.2973
?????????????????????	-11.2973
??????????????????	-11.2973
?????????????????????	-11.2973
????????????????????????	-11.2973
???????????????????????????	-11.2973
?????????????????????????????????	-11.2973
?????????????????????	-11.2973
????????????????????????	-11.2973
?????????????????????	-11.2973
??????????????????	-11.2973
???????????????????????????	-11.2973
?????????????????????	-11.2973
???????????????	-11.2973
????????????????????????????????????	-11.2973
??????????????????????????????	-11.2973
?????????????????????????????????	-11.2973
????????????????????????	-11.2973
???????????????????????????	-11.2973
?????????????????????????????????	-11.2973
????????????????????????	-11.2973
????????????????????????	-11.2973
?????????????????????	-11.2973
???????????????????????????	-11.2973
???????????????????????????	-11.2973
??????????????????????????????	-11.2973
?????????????????????	-11.2973
??????????????????	-11.2973
???????????????	-11.2973
????????????	-11.2973
??????????????????	-11.2973
????????????????????????????????????	-11.2973
??????????????????	-11.2973
???????????????????????????	-11.2973
??????????????????????????????	-11.2973
????????????????????????	-11.2973
???????????????????????????	-11.2973
?????????????????????	-11.2973
??????????????????	-11.2973
??????????????????	-11.2973
????????????????????????	-11.2973
??????????????????	-11.2973
?????????????????????	-11.2973
??????????????????	-11.2973
????????????????????????	-11.2973
??????????????????	-11.2973
?????????????????????	-11.2973
????????????????????????	-11.2973
??????????????????	-11.2973
??????????????????	-11.2973
????????????????????????	-11.2973
?????????????????????	-11.2973
?????????????????????	-11.2973
????????????????????????	-11.2973
????????????????????????????????????	-11.2973
???????????????????????????????????????	-11.2973
?????????????????????	-11.2973
??????????????????????????????	-11.2973
??????????????????????????????	-11.2973
??????????????????	-11.2973
?????????????????????	-11.2973
??????????????????	-11.2973
????????????	-11.2973
???????????????	-11.2973
??????????????????	-11.2973
?????????????????????	-11.2973
?????????????????????	-11.2974
???????????????	-11.2974
?????????????????????????????????	-11.2974
????????????????????????	-11.2974
?????????????????????	-11.2974
???????????????	-11.2974
???1981	-11.2974
???????????????????????????	-11.2974
??????????????????	-11.2974
???1901	-11.2974
???????????????????????????	-11.2975
?????????????????????	-11.2975
????????????????????????	-11.2975
??????????????????????????????	-11.2975
?????????????????????	-11.2975
???????????????	-11.2975
??????????????????	-11.2975
????????????	-11.2976
???????????????	-11.2976
???????????????????????????	-11.2976
?????????????????????????????????	-11.2976
?????????????????????????????????	-11.2976
??????????????????	-11.2976
??????????????????	-11.2976
?????????????????????	-11.2976
??????????????????	-11.2976
???????????????	-11.2977
???10,000	-11.2977
??????????????????????????????	-11.2977
????????????????????????	-11.2978
?????????????????????	-11.2978
???????????????	-11.2978
???????????????	-11.2978
???1700	-11.2978
????????????????????????????????????	-11.2979
???????????????	-11.2979
?????????????????????	-11.2979
???????????????	-11.2979
??????	-11.2979
?????????????????????	-11.2979
???????????????	-11.298
??????????????????	-11.298
??????????????????	-11.2981
??????????????????	-11.2981
?????????????????????	-11.2981
???????????????	-11.2982
??????????????????????????????	-11.2982
????????????????????????	-11.2982
?????????????????????	-11.2982
??????????????????	-11.2982
?????????????????????	-11.2982
???1919	-11.2983
?????????????????????????????????	-11.2983
???????????????????????????	-11.2985
????????????	-11.2985
?????????????????????	-11.2985
???????????????	-11.2985
?????????	-11.2986
??????????????????????????????	-11.2986
?????????????????????	-11.2986
???????????????	-11.2987
?????????	-11.2987
??????????????????	-11.2988
???????????????	-11.2988
???????????????????????????	-11.2988
???????????????	-11.2989
???????????????	-11.2991
???73	-11.2991
???????????????	-11.2991
????????????	-11.2991
????????????	-11.2991
????????????????????????	-11.2993
?????????????????????	-11.2993
??????????????????	-11.2993
???????????????	-11.2994
????????????	-11.2995
??????????????????	-11.2995
??????????????????????????????	-11.2996
?????????????????????	-11.2997
???????????????	-11.2997
????????????????????????	-11.2997
????????????????????????	-11.3
??????????????????	-11.3
???II	-11.3
??????????????????	-11.3001
??????????????????	-11.3003
???????????????	-11.3007
????????????	-11.3009
???????????????????????????	-11.301
????????????	-11.301
????????????????????????	-11.3012
?????????????????????	-11.3013
???????????????	-11.3013
??????????????????????????????	-11.3013
???????????????	-11.3014
???????????????	-11.3014
???????????????	-11.3016
????????????????????????	-11.302
?????????	-11.3021
???????????????	-11.3022
-7	-11.3023
????????????	-11.3025
?????????	-11.3029
??????????????????	-11.303
????????????	-11.3034
79	-11.3035
???????????????	-11.3035
????????????????????????	-11.3035
?????????	-11.3039
???????????????	-11.3041
??????????????????	-11.3043
?????????	-11.3043
????????????????????????	-11.3045
??????????????????	-11.3046
???????????????????????????	-11.3047
?????????	-11.3051
?????????	-11.3052
???????????????	-11.3053
57	-11.3054
????????????	-11.3055
????????????????????????	-11.3059
??????	-11.3061
???????????????	-11.3061
?????????	-11.3063
???????????????????????????	-11.3069
????????????	-11.3075
??????	-11.3085
?????????????????????????????????	-11.3087
????????????????????????	-11.3089
?????????	-11.3092
??????????????????	-11.3092
????????????	-11.3098
????????????	-11.3104
?????????	-11.3106
??????	-11.3111
???????????????????????????	-11.3111
??????	-11.3113
???Mo	-11.312
???????????????	-11.3128
???????????????????????????	-11.313
???68	-11.3132
?????????	-11.3138
???????????????????????????	-11.3139
??????	-11.3146
?????????	-11.3149
????????????	-11.3153
em	-11.3164
?????????????????????	-11.3167
?????????	-11.3168
??????????????????	-11.3169
?????????	-11.3176
?????????????????????	-11.319
?????????	-11.3196
????????????	-11.3204
?????????	-11.3208
???re	-11.3232
?????????	-11.3233
????????????	-11.3234
?????????	-11.3235
ang	-11.3235
?????????	-11.3239
???????????????	-11.324
???????????????????????????????????????	-11.324
???????????????	-11.3243
????????????	-11.3252
ac	-11.3274
?????????	-11.3274
???Psycholog	-11.3274
??????	-11.3275
????????????	-11.3277
?????????	-11.328
????????????	-11.3296
????????????	-11.3301
??????????????????	-11.3301
?????????	-11.3303
????????????	-11.3305
?????????	-11.3306
??????	-11.3311
?????????	-11.3319
????????????	-11.3321
?????????	-11.3328
????????????	-11.3328
?????????	-11.333
?????????????????????	-11.3332
????????????	-11.3332
?????????	-11.3332
??????	-11.3336
????????????	-11.3346
??????????????????	-11.3364
?????????	-11.3367
?????????	-11.3381
???????????????	-11.3382
???????????????	-11.3385
???????????????	-11.339
??????	-11.3399
?????????	-11.3405
??????	-11.341
?????????	-11.3411
?????????	-11.3414
??????	-11.3417
????????????	-11.3418
ot	-11.3419
".	-11.3431
????????????	-11.344
????????????	-11.3442
????????????	-11.3445
???????????????	-11.3449
up	-11.3452
???????????????	-11.3453
????????????	-11.3454
?????????	-11.3459
????????????	-11.3475
??????	-11.3481
??????????????????	-11.3482
??????	-11.3489
ng	-11.3494
???93	-11.3503
????????????	-11.3504
??????	-11.3508
?????????	-11.3509
?????????	-11.3511
??????????????????	-11.3519
????????????????????????	-11.3519
????????????	-11.3523
???????????????????????????	-11.3523
???????????????	-11.3523
????????????????????????	-11.3523
??????????????????	-11.3524
????????????	-11.3525
???????????????	-11.3526
?????????	-11.3532
????????????	-11.3533
??????????????????	-11.3533
??????	-11.3536
?????????	-11.3536
??????	-11.3538
?????????????????????	-11.354
????????????????????????	-11.354
??????????????????	-11.3541
??????????????????	-11.3542
???????????????????????????	-11.3542
?????????????????????	-11.3542
?????????????????????	-11.3542
?????????????????????	-11.3542
????????????????????????	-11.3543
??????	-11.3543
???????????????	-11.3545
???????????????	-11.3546
?????????????????????	-11.3549
???????????????	-11.355
???????????????	-11.3551
?????????????????????	-11.3552
???????????????	-11.3554
???????????????????????????	-11.3554
????????????	-11.3557
????????????????????????????????????	-11.3558
???????????????	-11.3559
???????????????	-11.3559
?????????	-11.3559
????????????	-11.356
???????????????	-11.356
??????????????????	-11.3561
??????????????????	-11.3561
???Tehran	-11.3561
??????????????????	-11.3561
??????????????????????????????	-11.3561
??????????????????	-11.3561
?????????????????????	-11.3561
???????????????????????????????????????	-11.3561
???????????????????????????	-11.3561
???????????????????????????	-11.3561
?????????????????????	-11.3561
???????????????????????????	-11.3561
????????????????????????	-11.3561
????????????????????????	-11.3561
????????????????????????	-11.3561
????????????????????????	-11.3561
???????????????????????????	-11.3561
???????????????	-11.3561
????????????????????????	-11.3561
??????????????????	-11.3561
????????????????????????	-11.3561
?????????????????????	-11.3561
??????????????????????????????	-11.3561
??????????????????????????????	-11.3561
?????????????????????????????????	-11.3561
?????????????????????????????????	-11.3561
??????????????????	-11.3561
????????????????????????	-11.3561
????????????????????????	-11.3561
???????????????	-11.3561
?????????????????????	-11.3561
??????????????????	-11.3561
?????????????????????????????????	-11.3561
????????????????????????	-11.3561
?????????????????????	-11.3561
?????????????????????	-11.3561
??????????????????????????????	-11.3561
????????????????????????	-11.3561
???????????????????????????	-11.3561
??????????????????	-11.3561
????????????????????????	-11.3561
???????????????	-11.3561
??????????????????	-11.3561
????????????????????????	-11.3561
????????????????????????	-11.3561
?????????????????????	-11.3561
?????????????????????	-11.3561
???????????????????????????????????????	-11.3561
????????????????????????	-11.3561
?????????????????????????????????	-11.3561
??????????????????	-11.3561
??????????????????	-11.3561
??????????????????	-11.3561
???????????????????????????	-11.3561
?????????????????????????????????	-11.3561
????????????????????????	-11.3561
?????????????????????	-11.3561
???1,000	-11.3561
???????????????????????????	-11.3561
????????????????????????	-11.3561
?????????????????????	-11.3561
?????????????????????	-11.3561
???????????????????????????	-11.3561
?????????????????????	-11.3561
??????????????????	-11.3561
???????????????	-11.3562
????????????????????????	-11.3562
??????????????????	-11.3562
??????????????????	-11.3562
??????????????????	-11.3562
???????????????	-11.3562
????????????????????????	-11.3562
?????????????????????	-11.3562
????????????????????????????????????	-11.3562
?????????????????????????????????	-11.3562
????????????????????????	-11.3562
???????????????????????????	-11.3562
??????????????????	-11.3562
???????????????	-11.3562
ww	-11.3562
???????????????????????????	-11.3562
????????????????????????????????????	-11.3562
?????????????????????	-11.3562
?????????????????????	-11.3563
??????????????????	-11.3563
?????????????????????	-11.3563
???????????????????????????	-11.3563
??????????????????	-11.3563
???????????????	-11.3563
?????????????????????	-11.3563
???????????????	-11.3563
???1933	-11.3564
???????????????????????????	-11.3564
?????????????????????	-11.3564
????????????????????????	-11.3564
???????????????	-11.3564
?????????????????????	-11.3564
???100,000	-11.3564
??????????????????	-11.3564
?????????????????????	-11.3564
???????????????	-11.3564
?????????????????????	-11.3564
?????????????????????	-11.3564
???????????????????????????	-11.3564
???????????????????????????	-11.3564
????????????????????????	-11.3564
???????????????	-11.3564
????????????????????????????????????	-11.3564
?????????????????????	-11.3564
?????????????????????	-11.3564
??????????????????	-11.3565
??????????????????	-11.3565
??????????????????	-11.3565
?????????????????????	-11.3565
???????????????????????????	-11.3565
????????????????????????	-11.3565
????????????	-11.3565
??????????????????	-11.3565
??????????????????	-11.3565
???????????????	-11.3565
???????????????	-11.3565
??????????????????	-11.3566
??????????????????	-11.3566
????????????????????????	-11.3566
???????????????????????????	-11.3566
??????????????????	-11.3566
???????????????	-11.3566
????????????	-11.3567
??????????????????????????????	-11.3567
????????????????????????	-11.3567
???????????????	-11.3567
?????????????????????	-11.3567
????????????????????????	-11.3568
??????????????????	-11.3568
????????????????????????	-11.3569
In	-11.3569
???????????????	-11.3569
?????????????????????????????????	-11.3569
???????????????	-11.3569
????????????	-11.3569
?????????????????????	-11.357
?????????????????????	-11.3571
?????????????????????	-11.3571
???????????????????????????	-11.3571
????????????????????????	-11.3571
????????????????????????	-11.3571
?????????????????????	-11.3572
??????????????????	-11.3572
?????????????????????????????????	-11.3572
???????????????????????????	-11.3572
????????????????????????	-11.3573
????????????????????????	-11.3573
???????????????????????????	-11.3574
???????????????	-11.3576
???????????????	-11.3576
????????????????????????	-11.3576
????????????	-11.3576
??	-11.3577
???60%	-11.3577
?????????????????????????????????	-11.3577
??????????????????	-11.3578
??????????????????	-11.3578
???87	-11.3581
????????????	-11.3581
?????????????????????	-11.3581
????????????	-11.3582
???????????????	-11.3582
??????????????????	-11.3584
????????????	-11.3585
??????????????????	-11.3585
??????????????????	-11.3588
??????????????????	-11.3588
???????????????	-11.3592
????????????????????????	-11.3592
????????????	-11.3594
??????????????????	-11.3594
????????????	-11.3594
??????????????????	-11.3594
??????????????????	-11.3597
????????????	-11.3597
?????????????????????	-11.3603
?????????????????????????????????	-11.3603
[...]
