<pad>	0
<unk>	0
<s>	0
</s>	0
<0x00>	0
<0x01>	0
<0x02>	0
<0x03>	0
<0x04>	0
<0x05>	0
<0x06>	0
<0x07>	0
<0x08>	0
<0x09>	0
<0x0A>	0
<0x0B>	0
<0x0C>	0
<0x0D>	0
<0x0E>	0
<0x0F>	0
<0x10>	0
<0x11>	0
<0x12>	0
<0x13>	0
<0x14>	0
<0x15>	0
<0x16>	0
<0x17>	0
<0x18>	0
<0x19>	0
<0x1A>	0
<0x1B>	0
<0x1C>	0
<0x1D>	0
<0x1E>	0
<0x1F>	0
<0x20>	0
<0x21>	0
<0x22>	0
<0x23>	0
<0x24>	0
<0x25>	0
<0x26>	0
<0x27>	0
<0x28>	0
<0x29>	0
<0x2A>	0
<0x2B>	0
<0x2C>	0
<0x2D>	0
<0x2E>	0
<0x2F>	0
<0x30>	0
<0x31>	0
<0x32>	0
<0x33>	0
<0x34>	0
<0x35>	0
<0x36>	0
<0x37>	0
<0x38>	0
<0x39>	0
<0x3A>	0
<0x3B>	0
<0x3C>	0
<0x3D>	0
<0x3E>	0
<0x3F>	0
<0x40>	0
<0x41>	0
<0x42>	0
<0x43>	0
<0x44>	0
<0x45>	0
<0x46>	0
<0x47>	0
<0x48>	0
<0x49>	0
<0x4A>	0
<0x4B>	0
<0x4C>	0
<0x4D>	0
<0x4E>	0
<0x4F>	0
<0x50>	0
<0x51>	0
<0x52>	0
<0x53>	0
<0x54>	0
<0x55>	0
<0x56>	0
<0x57>	0
<0x58>	0
<0x59>	0
<0x5A>	0
<0x5B>	0
<0x5C>	0
<0x5D>	0
<0x5E>	0
<0x5F>	0
<0x60>	0
<0x61>	0
<0x62>	0
<0x63>	0
<0x64>	0
<0x65>	0
<0x66>	0
<0x67>	0
<0x68>	0
<0x69>	0
<0x6A>	0
<0x6B>	0
<0x6C>	0
<0x6D>	0
<0x6E>	0
<0x6F>	0
<0x70>	0
<0x71>	0
<0x72>	0
<0x73>	0
<0x74>	0
<0x75>	0
<0x76>	0
<0x77>	0
<0x78>	0
<0x79>	0
<0x7A>	0
<0x7B>	0
<0x7C>	0
<0x7D>	0
<0x7E>	0
<0x7F>	0
<0x80>	0
<0x81>	0
<0x82>	0
<0x83>	0
<0x84>	0
<0x85>	0
<0x86>	0
<0x87>	0
<0x88>	0
<0x89>	0
<0x8A>	0
<0x8B>	0
<0x8C>	0
<0x8D>	0
<0x8E>	0
<0x8F>	0
<0x90>	0
<0x91>	0
<0x92>	0
<0x93>	0
<0x94>	0
<0x95>	0
<0x96>	0
<0x97>	0
<0x98>	0
<0x99>	0
<0x9A>	0
<0x9B>	0
<0x9C>	0
<0x9D>	0
<0x9E>	0
<0x9F>	0
<0xA0>	0
<0xA1>	0
<0xA2>	0
<0xA3>	0
<0xA4>	0
<0xA5>	0
<0xA6>	0
<0xA7>	0
<0xA8>	0
<0xA9>	0
<0xAA>	0
<0xAB>	0
<0xAC>	0
<0xAD>	0
<0xAE>	0
<0xAF>	0
<0xB0>	0
<0xB1>	0
<0xB2>	0
<0xB3>	0
<0xB4>	0
<0xB5>	0
<0xB6>	0
<0xB7>	0
<0xB8>	0
<0xB9>	0
<0xBA>	0
<0xBB>	0
<0xBC>	0
<0xBD>	0
<0xBE>	0
<0xBF>	0
<0xC0>	0
<0xC1>	0
<0xC2>	0
<0xC3>	0
<0xC4>	0
<0xC5>	0
<0xC6>	0
<0xC7>	0
<0xC8>	0
<0xC9>	0
<0xCA>	0
<0xCB>	0
<0xCC>	0
<0xCD>	0
<0xCE>	0
<0xCF>	0
<0xD0>	0
<0xD1>	0
<0xD2>	0
<0xD3>	0
<0xD4>	0
<0xD5>	0
<0xD6>	0
<0xD7>	0
<0xD8>	0
<0xD9>	0
<0xDA>	0
<0xDB>	0
<0xDC>	0
<0xDD>	0
<0xDE>	0
<0xDF>	0
<0xE0>	0
<0xE1>	0
<0xE2>	0
<0xE3>	0
<0xE4>	0
<0xE5>	0
<0xE6>	0
<0xE7>	0
<0xE8>	0
<0xE9>	0
<0xEA>	0
<0xEB>	0
<0xEC>	0
<0xED>	0
<0xEE>	0
<0xEF>	0
<0xF0>	0
<0xF1>	0
<0xF2>	0
<0xF3>	0
<0xF4>	0
<0xF5>	0
<0xF6>	0
<0xF7>	0
<0xF8>	0
<0xF9>	0
<0xFA>	0
<0xFB>	0
<0xFC>	0
<0xFD>	0
<0xFE>	0
<0xFF>	0
।	-3.45886
▁के	-3.59203
▁में	-3.87871
▁है	-3.89356
,	-3.91996
▁	-4.01318
▁की	-4.11475
▁से	-4.38579
▁को	-4.41017
▁और	-4.43415
▁का	-4.5529
▁ने	-4.87543
▁पर	-4.87786
▁हैं	-4.93768
.	-5.02711
▁कि	-5.08048
-	-5.16022
0	-5.16457
2	-5.2143
1	-5.21723
▁भी	-5.21969
ी	-5.24507
▁एक	-5.24609
ों	-5.27943
▁लिए	-5.45164
▁इस	-5.52936
न	-5.53195
▁कर	-5.55683
▁नहीं	-5.58746
▁किया	-5.64706
▁हो	-5.64775
▁ही	-5.67322
ा	-5.68607
▁(	-5.70248
▁था	-5.73824
▁यह	-5.77961
▁गया	-5.80039
र	-5.81604
)	-5.84792
क	-5.89554
▁तो	-5.9812
▁करने	-5.99052
▁साथ	-6.011
ल	-6.03189
म	-6.04626
5	-6.06902
ता	-6.07571
3	-6.13536
स	-6.16159
े	-6.18871
9	-6.19911
▁बाद	-6.20179
▁कहा	-6.22745
ना	-6.23745
ने	-6.24494
4	-6.27077
▁जो	-6.2784
▁न	-6.33248
▁जा	-6.33718
▁दिया	-6.33759
▁अपने	-6.33797
6	-6.34414
ं	-6.35608
▁तक	-6.36435
▁'	-6.40019
▁वह	-6.40913
▁थी	-6.42048
▁-	-6.42293
▁हुए	-6.43992
▁थे	-6.45009
▁रहे	-6.45988
8	-6.4754
▁गई	-6.4757
▁रहा	-6.48696
ो	-6.50138
7	-6.50757
व	-6.54436
त	-6.56311
ज	-6.57848
▁अ	-6.59244
'	-6.60005
ट	-6.60614
▁रही	-6.60802
▁रूप	-6.618
▁आ	-6.62557
▁उन्होंने	-6.62704
प	-6.62882
▁"	-6.62947
▁या	-6.64672
कर	-6.66636
द	-6.66908
▁कुछ	-6.67752
▁व	-6.72598
▁होने	-6.75772
▁पहले	-6.76033
▁लेकिन	-6.77399
▁इसके	-6.78095
:	-6.79013
▁जाता	-6.7914
▁दी	-6.79755
▁करते	-6.80011
ते	-6.82211
का	-6.83617
▁समय	-6.84449
ला	-6.84608
▁गए	-6.8471
▁भारत	-6.85903
▁हुआ	-6.86147
▁पुलिस	-6.8807
ब	-6.88245
▁अब	-6.88419
▁लोगों	-6.88422
▁अपनी	-6.89247
रा	-6.90221
▁वे	-6.90553
श	-6.91369
के	-6.92254
▁कोई	-6.93923
▁वाले	-6.94236
▁स	-6.94321
्स	-6.94617
▁किसी	-6.95211
ग	-6.95215
▁द्वारा	-6.96379
य	-6.96426
▁हुई	-6.97366
▁कई	-6.98528
ह	-6.993
ियों	-6.99535
▁दो	-6.99586
▁उनके	-7.01677
री	-7.03029
ई	-7.03285
▁होता	-7.03598
ित	-7.04953
ि	-7.05302
▁सरकार	-7.05794
▁तरह	-7.06736
▁ये	-7.06824
ड	-7.07557
▁बात	-7.08145
▁आप	-7.08516
▁जब	-7.09068
▁म	-7.1014
▁सकता	-7.10295
ती	-7.10659
नी	-7.1114
▁नाम	-7.11576
▁इन	-7.12069
▁लेकर	-7.12136
▁दिन	-7.12997
▁तथा	-7.14947
▁बताया	-7.15067
▁सिंह	-7.15181
▁काम	-7.15546
▁उन्हें	-7.16426
▁वि	-7.16683
ें	-7.17487
▁करना	-7.19963
▁सभी	-7.20164
िंग	-7.20655
▁कम	-7.21312
सी	-7.21792
से	-7.22028
ः	-7.22294
ली	-7.23072
▁बार	-7.23151
▁साल	-7.23359
ओं	-7.24012
मा	-7.24022
वा	-7.2458
▁कारण	-7.24612
▁बहुत	-7.25208
▁लोग	-7.26232
▁फिर	-7.26996
ए	-7.27701
▁देश	-7.27884
▁मे	-7.28014
जी	-7.28576
को	-7.3004
▁सबसे	-7.30358
या	-7.30741
्य	-7.31144
▁लिया	-7.31206
▁दौरान	-7.31652
"	-7.31975
िक	-7.32354
▁बीच	-7.32458
▁आज	-7.32527
▁अधिक	-7.33533
▁उसके	-7.33925
▁जाने	-7.34402
▁उस	-7.34815
▁ब	-7.35195
ण	-7.35377
▁एवं	-7.3582
▁हम	-7.36367
की	-7.36993
▁सकते	-7.37328
▁क्षेत्र	-7.37754
▁क्या	-7.38448
▁अन्य	-7.38647
▁दोनों	-7.38664
▁उसे	-7.38935
▁घर	-7.39872
▁होगा	-7.40167
▁फिल्म	-7.40417
▁उनकी	-7.41021
?	-7.41147
▁प	-7.42455
▁ले	-7.42575
▁भारतीय	-7.43243
▁राज्य	-7.43447
▁प्र	-7.44044
▁होती	-7.45935
ले	-7.46151
▁करता	-7.46533
▁पास	-7.4664
▁शुरू	-7.47847
▁हर	-7.48194
▁करें	-7.48322
ु	-7.49024
ड़	-7.49379
पुर	-7.49995
▁टीम	-7.51897
फ	-7.53502
▁प्रदेश	-7.53618
▁चाहिए	-7.53632
ू	-7.53752
▁क	-7.53915
▁ए	-7.55895
्	-7.56505
िया	-7.56654
▁वाली	-7.57945
▁शामिल	-7.58097
▁ओर	-7.5812
च	-7.58464
▁ऐसे	-7.58592
▁मैं	-7.59431
सा	-7.59774
▁ग	-7.60436
▁दे	-7.61032
▁ना	-7.61088
▁मामले	-7.62809
▁जी	-7.63291
▁अनुसार	-7.63488
▁प्रति	-7.63678
▁द	-7.63926
▁वहीं	-7.64436
▁दिल्ली	-7.64993
▁जाती	-7.65293
रे	-7.65368
▁सु	-7.66089
▁यहां	-7.661
s	-7.66335
ंग	-7.66347
▁पूर्व	-7.66373
वि	-7.66664
▁नि	-7.66879
▁प्रकार	-7.67008
▁अपना	-7.67063
▁जैसे	-7.6738
▁तीन	-7.68217
मे	-7.68593
ख	-7.69015
▁कुमार	-7.70333
ीय	-7.71725
ै	-7.72849
▁कार्य	-7.73052
▁देने	-7.73177
▁इसे	-7.74051
थ	-7.74055
▁पा	-7.74061
▁किए	-7.7413
▁इसी	-7.74139
▁जानकारी	-7.74458
▁होते	-7.7515
e	-7.75303
०	-7.75464
▁उ	-7.7586
▁वर्ष	-7.75973
▁जारी	-7.76342
▁त	-7.76456
▁सब	-7.76531
कार	-7.7694
▁अगर	-7.77148
▁इससे	-7.77814
दा	-7.78242
▁सामने	-7.7838
▁सकती	-7.78427
॥	-7.79218
▁ऐसा	-7.79269
▁ज्यादा	-7.7947
जा	-7.79635
▁काफी	-7.79795
▁रुपये	-7.79993
ौ	-7.80316
एं	-7.80836
▁जीवन	-7.81206
▁खिलाफ	-7.82121
▁जाएगा	-7.8219
गा	-7.82222
टी	-7.8286
▁लगा	-7.82983
ओ	-7.83947
▁आदि	-7.84545
▁तब	-7.84973
▁बना	-7.85062
▁मिल	-7.85196
▁आपको	-7.8523
▁वो	-7.85415
▁जांच	-7.85658
डी	-7.86551
▁जिसमें	-7.86672
▁सी	-7.86934
▁राम	-7.87254
▁बारे	-7.8743
▁पार्टी	-7.87618
▁उत्तर	-7.87854
":"	-7.88447
▁आई	-7.88489
▁पूरी	-7.88701
अ	-7.88899
▁उनका	-7.88984
ति	-7.89051
▁इसका	-7.89333
▁मु	-7.89715
▁प्राप्त	-7.90038
▁उसकी	-7.90055
▁बन	-7.90205
▁इ	-7.90268
▁सा	-7.90603
▁कांग्रेस	-7.9134
बा	-7.91712
▁ज	-7.91715
▁चल	-7.92304
▁करोड़	-7.92598
नि	-7.93505
▁दर्ज	-7.93638
▁मुख्य	-7.93801
▁बता	-7.93889
▁केवल	-7.94042
▁श्री	-7.94225
▁क्योंकि	-7.94824
▁विकास	-7.94938
;	-7.95017
पी	-7.95081
▁इसमें	-7.95216
बी	-7.95241
▁बड़ी	-7.95441
▁पानी	-7.95663
▁आगे	-7.95796
▁आने	-7.96019
स्ट	-7.966
मी	-7.97262
▁विभाग	-7.97871
▁करीब	-7.979
▁च	-7.97915
▁चुनाव	-7.97946
▁राज	-7.9825
गी	-7.98339
वी	-7.98518
▁होगी	-7.98637
▁जाते	-7.99071
▁विशेष	-7.99511
▁उन	-7.99736
ज़	-8.00096
▁मन	-8.00156
▁स्थित	-8.00266
▁धर्म	-8.00324
▁मांग	-8.00859
वर	-8.0086
▁:	-8.00973
प्र	-8.01021
रो	-8.01148
ंड	-8.01643
▁अभी	-8.01723
▁लाख	-8.02048
▁हालांकि	-8.0212
▁कु	-8.02314
","	-8.02466
▁चार	-8.02612
▁ल	-8.02695
▁दूसरे	-8.02865
▁ला	-8.03085
पर	-8.03104
▁सं	-8.03155
▁अलग	-8.03483
▁परिवार	-8.03708
▁महिला	-8.03744
में	-8.03802
▁भाग	-8.03959
▁जहां	-8.04268
▁ह	-8.04833
▁गांव	-8.04855
o	-8.04982
▁अलावा	-8.05208
▁श	-8.05246
▁यदि	-8.05329
▁मंत्री	-8.05632
हा	-8.05797
▁नगर	-8.06588
▁)	-8.06785
▁कभी	-8.07078
▁इसलिए	-8.07293
▁स्थिति	-8.07414
▁बड़े	-8.07978
▁करती	-8.08077
▁उसने	-8.08223
रण	-8.08249
▁लिये	-8.08377
▁बे	-8.08629
▁ख	-8.09391
▁दें	-8.09647
▁जबकि	-8.09774
मान	-8.09814
इ	-8.09993
▁नई	-8.10558
ियां	-8.10951
पा	-8.11154
र्स	-8.11465
▁बाहर	-8.11577
वे	-8.1237
▁मीडिया	-8.13208
▁तैयार	-8.13408
▁बनाने	-8.13595
ँ	-8.13654
▁ली	-8.13745
▁शहर	-8.13958
▁पी	-8.14118
▁सो	-8.14194
▁रि	-8.14389
▁मा	-8.14676
▁आया	-8.14901
भ	-8.14903
ध	-8.14997
▁जल	-8.15069
▁पिछले	-8.15237
▁बड़ा	-8.15487
▁दिए	-8.15576
▁उसका	-8.15665
▁कंपनी	-8.15923
ष	-8.16057
र्	-8.16142
i	-8.16296
▁व्यक्ति	-8.16463
▁वा	-8.16742
▁घटना	-8.16898
शा	-8.17164
▁रहने	-8.17494
उ	-8.1755
▁भ	-8.17653
▁जिसके	-8.17957
▁करके	-8.18074
▁वाला	-8.18124
▁दिनों	-8.1816
▁जिले	-8.18672
▁जिससे	-8.18787
▁मुझे	-8.1907
▁लगभग	-8.19142
▁जिला	-8.19276
▁स्थान	-8.1944
म्	-8.19486
टा	-8.19756
त्र	-8.20111
▁रात	-8.20249
▁जिस	-8.20262
▁निर्माण	-8.20431
▁आधार	-8.20473
▁शिक्षा	-8.20527
▁इसकी	-8.20908
ाई	-8.21233
▁योजना	-8.21557
▁संख्या	-8.21753
▁ध्यान	-8.22269
▁बंद	-8.22446
▁उप	-8.22451
ठ	-8.22925
▁नजर	-8.23389
▁वीडियो	-8.2358
▁रह	-8.23606
▁सन्दर्भ	-8.23625
▁A	-8.24281
▁प्रमुख	-8.24361
▁मिला	-8.24388
▁जाना	-8.24541
▁मौत	-8.24705
!	-8.24714
▁मंदिर	-8.24892
▁र	-8.24932
▁पता	-8.25286
▁अध्यक्ष	-8.25555
▁पूरा	-8.25705
▁भर	-8.2604
▁मैच	-8.26041
▁दूर	-8.26224
▁कहना	-8.26412
ंट	-8.26817
▁बढ़	-8.26818
▁विश्व	-8.27004
▁ई	-8.2703
a	-8.27045
▁राष्ट्रीय	-8.27396
िका	-8.27429
▁तहत	-8.27523
▁रिपोर्ट	-8.27704
▁उपयोग	-8.27737
▁बस	-8.27814
आ	-8.28085
/	-8.28608
▁आए	-8.28896
▁हाथ	-8.29013
▁वजह	-8.29026
▁मुख्यमंत्री	-8.2933
▁देते	-8.29481
▁बजे	-8.29612
स्त	-8.30016
▁बा	-8.30474
y	-8.30528
▁आरोप	-8.30602
▁गो	-8.30744
▁खान	-8.3096
▁ओ	-8.31157
▁नए	-8.31794
A	-8.31893
▁दुनिया	-8.32231
▁मदद	-8.32276
▁बी	-8.32327
ंद	-8.32809
▁मिली	-8.32879
S	-8.32884
▁भाजपा	-8.32982
▁कुल	-8.33192
लि	-8.33213
▁खुद	-8.33593
▁मुताबिक	-8.33609
▁पद	-8.33653
▁?	-8.3368
▁अधिकारी	-8.3379
▁कार्यक्रम	-8.34103
▁हजार	-8.34142
▁केंद्र	-8.34302
▁विचार	-8.34314
▁सुरक्षा	-8.34416
▁पहली	-8.3462
▁ऐसी	-8.34646
g	-8.34794
▁लेने	-8.34974
▁चला	-8.35133
▁पांच	-8.35253
▁बच्चों	-8.35373
दी	-8.35394
▁जगह	-8.35673
रि	-8.35834
▁भाषा	-8.36035
▁विभिन्न	-8.36085
▁आम	-8.36224
▁समाज	-8.36669
▁हमारे	-8.36939
▁जाए	-8.37013
▁पहुंच	-8.37079
▁देखा	-8.37241
▁लगे	-8.37625
▁कह	-8.37835
▁कार्रवाई	-8.37863
▁S	-8.37976
▁जान	-8.3802
▁अस्पताल	-8.38097
▁वहां	-8.38716
▁डॉ	-8.39013
▁लगातार	-8.39364
▁सिर्फ	-8.39479
▁स्वास्थ्य	-8.3948
▁शरीर	-8.39571
▁स्कूल	-8.3965
ड़ा	-8.39811
दार	-8.39951
न्	-8.4
▁थीं	-8.4022
▁माना	-8.40326
▁कहते	-8.40417
▁बि	-8.40666
▁स्तर	-8.40743
नाथ	-8.41224
%	-8.41508
़	-8.41614
▁मोदी	-8.41645
▁देव	-8.41728
▁सूचना	-8.41855
▁महा	-8.41859
▁तरफ	-8.41895
▁पूरे	-8.41921
▁बिना	-8.41958
▁देख	-8.42598
यों	-8.42792
▁सुबह	-8.43036
▁प्रदर्शन	-8.43083
▁बैंक	-8.43199
▁पिता	-8.43327
▁होना	-8.43622
▁व्यवस्था	-8.43775
▁यादव	-8.4398
▁आपके	-8.44422
▁दूसरी	-8.44471
▁मौके	-8.45015
ar	-8.45416
▁मेरे	-8.45434
जन	-8.45461
▁जाएगी	-8.45569
ृ	-8.45724
t	-8.45743
▁रन	-8.4586
▁देखने	-8.46079
▁रखा	-8.4613
▁बैठक	-8.4628
▁हाल	-8.46308
क्	-8.46429
C	-8.46442
▁सि	-8.46688
▁जिसे	-8.46832
राज	-8.46944
▁क्यों	-8.47282
▁होकर	-8.47283
▁कोरोना	-8.47306
▁राजा	-8.47365
ॉ	-8.47595
h	-8.47827
),	-8.48278
▁जन	-8.48467
ाय	-8.48714
▁अधिकारियों	-8.4897
▁डि	-8.49003
▁शेयर	-8.4909
ंस	-8.49136
▁शादी	-8.4915
I	-8.49215
▁गा	-8.49274
...	-8.4931
▁C	-8.49316
▁लिखा	-8.49599
▁ऊपर	-8.49607
▁जे	-8.49643
ये	-8.49714
▁कल	-8.49717
▁तौर	-8.49878
▁नेता	-8.50134
▁मो	-8.50498
एँ	-8.50826
्या	-8.5086
▁शर्मा	-8.50892
al	-8.50944
▁महीने	-8.5104
▁जन्म	-8.51122
▁सहित	-8.51333
▁मान	-8.51386
▁पाकिस्तान	-8.51492
▁गये	-8.51609
मो	-8.51881
▁समझ	-8.52043
▁मै	-8.52086
▁खेल	-8.52255
▁करेंगे	-8.52344
▁यही	-8.52392
▁यू	-8.52529
▁बल्कि	-8.52589
खा	-8.52891
▁पत्र	-8.53206
ड़ी	-8.53372
▁लाभ	-8.53434
▁सेवा	-8.53477
▁बनाया	-8.5358
▁कै	-8.53651
n	-8.53933
▁मौजूद	-8.54024
▁गु	-8.54108
▁जीत	-8.5413
सु	-8.54133
▁कैसे	-8.54149
▁तेज	-8.54291
▁उसी	-8.54359
शन	-8.54478
▁B	-8.54668
ाव	-8.55018
गे	-8.55081
▁कोर्ट	-8.55098
▁यात्रा	-8.55114
▁यहाँ	-8.55153
▁प्रधानमंत्री	-8.55188
▁मध्य	-8.55214
▁रंग	-8.55596
▁सोशल	-8.55635
▁जनता	-8.56024
▁उपलब्ध	-8.56176
▁परीक्षा	-8.5651
▁२	-8.56585
क्ष	-8.56929
▁प्रतिशत	-8.56973
▁छ	-8.57094
▁टी	-8.57336
▁घ	-8.57408
▁चर्चा	-8.57412
ेट	-8.57457
वीं	-8.57503
▁शब्द	-8.57504
▁लोक	-8.57542
▁ज्ञान	-8.57574
टे	-8.57777
▁इस्तेमाल	-8.58005
▁हे	-8.58198
फ़	-8.58336
▁रुपए	-8.58438
▁छोड़	-8.58492
▁पि	-8.58507
▁महत्वपूर्ण	-8.58558
M	-8.58572
आई	-8.58623
▁धन	-8.58862
▁बाजार	-8.59159
▁बिहार	-8.59325
िन	-8.59568
▁चुके	-8.59595
▁ट	-8.59654
सं	-8.59748
▁क्रिकेट	-8.60089
▁!	-8.60146
▁राशि	-8.60211
▁खा	-8.60649
▁P	-8.60744
▁शिव	-8.60837
▁इतिहास	-8.6093
न्द	-8.61044
▁सदस्य	-8.61236
▁अच्छा	-8.61328
▁कार	-8.61347
▁सके	-8.61357
ही	-8.61373
▁माध्यम	-8.61422
▁भाई	-8.61589
b	-8.61737
▁मि	-8.6175
▁अमेरिका	-8.61778
k	-8.6178
▁थाना	-8.61825
तर	-8.62077
राम	-8.62298
▁लगाया	-8.62322
▁मिलने	-8.62406
मन	-8.62407
▁भाव	-8.62702
▁बारिश	-8.62706
▁सेना	-8.62722
▁भा	-8.62938
▁रे	-8.63067
▁सवाल	-8.63099
▁बनाए	-8.63125
▁सड़क	-8.63146
▁लगी	-8.63168
ार	-8.63543
्यू	-8.63592
▁लाल	-8.63724
▁प्रक्रिया	-8.63964
▁गांधी	-8.63974
▁हूं	-8.64041
▁पत्नी	-8.64114
▁बच्चे	-8.6438
▁संबंध	-8.64618
▁हूँ	-8.64877
▁रखने	-8.64955
▁कोशिश	-8.64979
▁पीछे	-8.65028
▁बल	-8.651
▁लग	-8.65157
▁सर	-8.65161
▁विषय	-8.6517
▁हमें	-8.65241
▁स्व	-8.65249
▁युद्ध	-8.6536
▁गयी	-8.65549
▁नही	-8.65564
▁पड़ा	-8.65638
▁ऑफ	-8.65698
R	-8.65828
ास	-8.65877
▁रो	-8.65908
▁देता	-8.66052
▁शिकायत	-8.66133
▁ठीक	-8.663
▁मामला	-8.665
▁शो	-8.66565
▁मां	-8.66631
▁रहते	-8.66715
u	-8.66919
हि	-8.66965
ेशन	-8.67309
▁दक्षिण	-8.67439
ंक	-8.67528
m	-8.67892
▁दु	-8.67937
▁तुम	-8.67988
▁प्रेम	-8.68007
▁एम	-8.68228
स्	-8.68324
▁परि	-8.68482
▁निवासी	-8.6874
त्	-8.68818
▁निर्देश	-8.68909
▁सीमा	-8.68918
दि	-8.69127
▁एस	-8.69161
▁रहता	-8.69188
▁अर्थ	-8.69284
▁हत्या	-8.69329
मु	-8.69344
ंज	-8.69433
▁अगस्त	-8.69601
▁शुरुआत	-8.69639
▁आरोपी	-8.69985
▁झ	-8.70096
▁गिरफ्तार	-8.70183
▁एन	-8.7023
कि	-8.70274
▁दर	-8.70349
▁अन	-8.70356
जे	-8.70439
छ	-8.70544
▁मूल	-8.70607
▁चुका	-8.7061
▁डे	-8.70672
वें	-8.70819
▁प्रदान	-8.70822
▁होंगे	-8.70901
▁विरोध	-8.70925
ण्ड	-8.71029
an	-8.71081
▁बदल	-8.71149
▁चुकी	-8.7146
वाद	-8.71502
▁टेस्ट	-8.7151
▁पक्ष	-8.71554
▁सम	-8.71555
▁इंडिया	-8.71985
▁भारी	-8.72039
▁पुत्र	-8.72081
▁नीचे	-8.72177
त्व	-8.72253
_	-8.72448
▁अच्छी	-8.725
▁पहचान	-8.72523
▁ता	-8.72556
▁आदेश	-8.7266
▁वर्ग	-8.72747
यर	-8.7298
िल	-8.72994
▁बनी	-8.73033
▁मैंने	-8.73048
▁प्रयोग	-8.73093
▁भगवान	-8.73122
हार	-8.73194
गत	-8.73295
▁मार्च	-8.7337
l	-8.73445
नो	-8.73454
▁विधानसभा	-8.73524
डा	-8.73559
▁ड	-8.73603
एम	-8.73622
▁काल	-8.73623
▁जून	-8.73625
▁प्रभाव	-8.73633
रिया	-8.73659
▁फ	-8.73694
r	-8.73936
गो	-8.74071
▁अनु	-8.74524
▁देखते	-8.74639
▁बने	-8.74663
देव	-8.74813
▁उच्च	-8.74921
▁गिर	-8.75004
p	-8.75168
कु	-8.75194
आर	-8.75238
ंत	-8.75254
शी	-8.75328
▁सरकारी	-8.7542
▁जरूरत	-8.75449
▁इं	-8.75622
▁देशों	-8.75937
D	-8.75962
यो	-8.76002
▁मई	-8.76069
ेश	-8.76237
ियाँ	-8.76261
घ	-8.76367
▁पार	-8.76383
▁प्रशासन	-8.76518
पाल	-8.76563
▁स्पष्ट	-8.76775
ेन	-8.77025
▁जिन	-8.77057
▁सही	-8.77099
चार	-8.771
िस	-8.77128
er	-8.77351
▁चलते	-8.77423
▁सामान्य	-8.77514
▁भूमिका	-8.77531
▁कहीं	-8.77705
▁हिस्सा	-8.77756
▁मुंबई	-8.77852
▁अवसर	-8.77915
▁पहुंचे	-8.77923
▁आयोजित	-8.77923
▁लो	-8.77977
P	-8.78046
▁ग्राम	-8.78051
ेड	-8.78102
▁पेश	-8.7817
बे	-8.78174
▁आग	-8.78212
▁गंभीर	-8.78304
▁मार	-8.78397
▁मौसम	-8.78418
▁मार्ग	-8.78493
ेज	-8.78901
▁समस्या	-8.78919
▁नदी	-8.7908
रु	-8.79143
▁स्थानीय	-8.79171
▁बयान	-8.79176
लो	-8.79527
▁प्रयास	-8.7954
वार	-8.7959
▁किसानों	-8.79749
▁खास	-8.79796
▁मह	-8.79825
▁दिखाई	-8.79836
▁डाल	-8.79961
▁सह	-8.80055
▁आर्थिक	-8.80201
▁पति	-8.80227
▁महिलाओं	-8.80282
मेंट	-8.80304
ियो	-8.80341
▁य	-8.80469
▁थ	-8.80474
▁डी	-8.80571
▁बेहतर	-8.80701
▁शक्ति	-8.80839
र्म	-8.80847
▁लगता	-8.80849
ष्ट	-8.80859
ड़े	-8.80883
▁सोच	-8.80943
▁सुख	-8.81104
फा	-8.81253
▁देना	-8.81417
▁शाम	-8.81569
▁साफ	-8.81927
▁चि	-8.82088
E	-8.82117
▁जल्द	-8.82173
▁अनेक	-8.82344
▁राष्ट्र	-8.8256
ंच	-8.82697
▁चाहते	-8.82773
बल	-8.82848
▁पूर्ण	-8.82914
▁जवाब	-8.82978
▁संबंधित	-8.83055
▁T	-8.83077
▁पु	-8.83202
धि	-8.83432
▁पंजाब	-8.83469
▁इतना	-8.83861
▁बाल	-8.83959
▁पड़	-8.84323
डे	-8.84394
ाने	-8.84432
▁खबर	-8.84659
▁चीन	-8.84828
▁समान	-8.84872
▁सात	-8.84897
▁जीव	-8.84932
▁निकल	-8.84971
▁बिजली	-8.85136
रू	-8.85146
d	-8.85207
▁घंटे	-8.85226
▁सौ	-8.85562
▁आर	-8.85681
▁मेरी	-8.85749
धा	-8.8587
▁दा	-8.86018
▁अभियान	-8.86161
▁छोटे	-8.86165
▁कप	-8.86282
▁पे	-8.86392
▁विधायक	-8.86454
सि	-8.86473
▁राजस्थान	-8.8648
झ	-8.86569
मि	-8.8658
▁जरूरी	-8.86638
▁१९	-8.86751
▁बढ़ा	-8.86759
न्त	-8.86808
▁जमा	-8.86947
सर	-8.87038
यू	-8.87046
T	-8.87076
▁वापस	-8.87095
▁ध	-8.87221
▁उससे	-8.87242
▁देर	-8.87261
▁जुलाई	-8.87263
▁संयुक्त	-8.87395
र्क	-8.87499
▁कराया	-8.876
▁अप्रैल	-8.87646
काल	-8.87655
▁नंबर	-8.87658
▁लें	-8.8784
▁तेजी	-8.87915
गर	-8.87928
B	-8.87971
२	-8.87982
▁किस	-8.88031
▁हा	-8.8819
िश	-8.88367
▁सर्व	-8.88426
title	-8.88764
▁सोमवार	-8.88956
्र	-8.8906
▁पंचायत	-8.89079
▁विज्ञापन	-8.89412
▁माता	-8.89437
▁आवश्यकता	-8.8948
▁विजय	-8.89595
▁M	-8.89598
▁रहती	-8.89626
▁पाया	-8.89689
▁कानून	-8.89754
▁आवश्यक	-8.89961
▁पो	-8.90038
▁समिति	-8.90163
▁दिल	-8.90241
▁मिले	-8.90252
▁News	-8.9029
▁यानी	-8.90428
▁याद	-8.9043
▁मनुष्य	-8.90436
c	-8.90496
३	-8.90575
▁जिसका	-8.90589
▁प्रभावित	-8.90649
४	-8.90668
▁संघ	-8.90755
▁ताकि	-8.90897
▁क्षेत्रों	-8.91086
ra	-8.91126
▁जुड़े	-8.91282
▁रख	-8.91288
▁फैसला	-8.91299
▁विवाद	-8.91299
or	-8.91408
हर	-8.91432
▁मजबूत	-8.91569
▁फल	-8.9164
ोर	-8.91787
▁दिख	-8.91791
▁सामाजिक	-8.91831
्म	-8.91862
भा	-8.91939
▁वर्तमान	-8.91943
त्त	-8.91978
▁सिर	-8.92081
▁भेज	-8.92085
क्स	-8.92144
चा	-8.92144
▁उम्मीद	-8.92152
गु	-8.92203
▁पूजा	-8.92374
यी	-8.92389
▁कर्म	-8.92576
▁देवी	-8.92601
▁सू	-8.92814
▁जमीन	-8.92843
▁दल	-8.92972
▁जय	-8.92995
▁दिशा	-8.93567
▁वै	-8.93601
▁हिन्दी	-8.93753
ेंगे	-8.93786
▁तय	-8.93928
▁सन्	-8.93955
▁पहला	-8.93989
▁हासिल	-8.93994
▁प्रकाश	-8.94085
▁संभावना	-8.94089
▁वालों	-8.94278
▁अनुभव	-8.94286
▁सूर्य	-8.94349
▁घोषणा	-8.94483
नगर	-8.94533
गढ़	-8.94535
▁वही	-8.94637
▁प्रत्येक	-8.94684
६	-8.94685
▁नया	-8.94771
▁साहित्य	-8.94834
▁पड़ता	-8.95008
▁युवक	-8.95208
वन	-8.95263
रों	-8.95378
▁फोन	-8.95458
▁तेल	-8.95516
▁कमी	-8.95558
दे	-8.95588
▁वन	-8.95636
बू	-8.95699
▁हमेशा	-8.95839
▁विश्वविद्यालय	-8.95925
▁जनवरी	-8.95954
▁फीसदी	-8.9596
▁गुरु	-8.95994
▁जैसी	-8.96047
▁नव	-8.96128
टर	-8.96242
▁निवेश	-8.96278
▁राजनीतिक	-8.9639
वास	-8.96546
एस	-8.9659
▁अतिरिक्त	-8.96786
▁बेहद	-8.96823
द्	-8.96949
▁भू	-8.96965
दु	-8.96972
पन	-8.97033
▁दिखा	-8.97041
ंगी	-8.972
▁कराने	-8.97266
ाया	-8.97289
▁आय	-8.97363
▁वक्त	-8.97626
▁संगठन	-8.97635
▁हि	-8.97653
▁अस	-8.97674
▁बोर्ड	-8.9774
▁किसान	-8.97883
▁लगाने	-8.97888
▁कॉलेज	-8.98137
▁योग	-8.982
ान	-8.98205
am	-8.9824
▁सुधार	-8.98425
▁मंगलवार	-8.98458
▁एल	-8.98561
▁१	-8.9874
▁कौन	-8.98823
ीकरण	-8.98948
▁कीमत	-8.98977
▁करा	-8.99023
▁समेत	-8.99049
▁किये	-8.99072
पे	-8.99126
िट	-8.99131
▁अंदर	-8.99211
▁केंद्रीय	-8.99231
▁छात्र	-8.99391
▁.	-8.99485
▁बीजेपी	-8.99536
▁अव	-8.99579
दर	-8.99588
तु	-8.99591
▁आयोजन	-8.996
लाल	-8.99611
▁हमारी	-8.99701
▁राहुल	-8.9971
दान	-8.99809
▁प्यार	-8.99823
रूप	-8.99848
▁शा	-8.99878
▁शव	-8.99926
on	-9.00062
धार	-9.00262
कों	-9.00342
▁सभा	-9.00568
▁अधिकार	-9.00672
▁स्वयं	-9.00745
▁आपकी	-9.00785
▁बुधवार	-9.00995
▁अंतिम	-9.01092
▁अंक	-9.01103
▁प्रथम	-9.01182
▁जेल	-9.01314
▁स्थापित	-9.01315
▁डा	-9.01337
▁रोक	-9.01418
▁सुन	-9.01622
▁अभि	-9.01721
▁मानव	-9.0175
▁रहेगा	-9.01831
▁राष्ट्रपति	-9.01882
▁अथवा	-9.02029
चर	-9.02202
ार्थ	-9.02225
at	-9.02267
७	-9.02286
ीन	-9.02377
▁विकेट	-9.02402
▁उम्र	-9.02715
▁मत	-9.02796
ेस	-9.02895
in	-9.03041
▁घायल	-9.03314
▁अगले	-9.03314
▁रक्षा	-9.03366
f	-9.03371
▁सलाह	-9.03388
▁उठ	-9.03426
ठा	-9.03487
▁स्टेशन	-9.03685
▁राय	-9.03693
G	-9.03793
▁वहाँ	-9.03839
▁आते	-9.0386
▁शुक्रवार	-9.03889
ाल	-9.03914
▁शासन	-9.03932
▁लागू	-9.04031
▁फा	-9.04038
▁राज्यों	-9.04162
▁उठा	-9.04215
▁रेलवे	-9.04394
▁खरीद	-9.04429
▁निर्णय	-9.04437
▁आता	-9.04511
▁दूसरा	-9.04553
▁भर्ती	-9.04616
▁कला	-9.04642
▁भूमि	-9.04744
▁प्रा	-9.04762
▁फ़	-9.04852
▁पसंद	-9.0492
जि	-9.04955
N	-9.05056
▁D	-9.05109
▁कं	-9.0512
▁पश्चिम	-9.05182
▁सहयोग	-9.05217
O	-9.05252
देश	-9.05427
सन	-9.05433
▁प्रवेश	-9.05492
L	-9.05732
▁लि	-9.05963
र्ट	-9.0603
▁दर्शन	-9.06031
▁G	-9.06221
▁अल	-9.06322
▁N	-9.06323
▁दृष्टि	-9.06324
ढ़	-9.06333
▁बावजूद	-9.0645
स्ट्र	-9.06473
▁कहानी	-9.0659
▁जु	-9.06775
बर	-9.07019
▁छात्रों	-9.0747
स्थ	-9.07536
▁स्ट	-9.07667
▁स्	-9.07711
▁अप	-9.07819
▁कार्यालय	-9.0787
▁उद्देश्य	-9.07939
योग	-9.07983
▁इनमें	-9.07994
▁निर्	-9.08034
▁अध्ययन	-9.08036
पि	-9.08105
▁पैदा	-9.08118
▁बै	-9.08125
▁बु	-9.08253
▁मिलता	-9.08302
▁कदम	-9.08359
▁देकर	-9.08438
▁छह	-9.08497
▁आवेदन	-9.08586
्न	-9.0873
▁विज्ञान	-9.08733
ेंट	-9.08737
ेल	-9.08787
▁माल	-9.08795
▁किन्तु	-9.08872
▁सै	-9.08881
▁असर	-9.09413
▁खर्च	-9.09446
▁एड	-9.09559
▁उसमें	-9.09589
▁इलाज	-9.09593
▁जाय	-9.09635
▁अमेरिकी	-9.09704
▁प्रधान	-9.09726
शि	-9.09726
▁रविवार	-9.09779
▁शाह	-9.09862
▁मामलों	-9.09893
र्ड	-9.09905
िए	-9.09924
▁दावा	-9.09929
पो	-9.10001
८	-9.10051
त्य	-9.10104
स्प	-9.10141
▁क्लिक	-9.10214
▁सत्य	-9.10222
अलग	-9.10262
वादी	-9.10324
▁ढ	-9.10327
▁परिणाम	-9.10437
re	-9.10557
▁बो	-9.1076
्वा	-9.10804
▁मंत्रालय	-9.10853
▁एक्स	-9.10862
▁जैन	-9.10891
ौर	-9.11011
▁जि	-9.11139
▁हार	-9.112
म्प	-9.11212
▁चा	-9.11334
▁भीतर	-9.11347
▁समर्थन	-9.11641
▁मेरा	-9.11675
▁नौ	-9.11741
▁रचना	-9.11744
▁नेतृत्व	-9.11819
▁अंत	-9.12036
▁गुण	-9.12069
▁बेटी	-9.12114
’	-9.12122
▁नुकसान	-9.12172
▁इन्हें	-9.12298
▁निजी	-9.12305
९	-9.12452
▁फरवरी	-9.12695
श्	-9.12717
▁आठ	-9.12788
▁रस	-9.12909
▁लौट	-9.12917
▁करेगा	-9.12925
▁एंड	-9.12927
▁परन्तु	-9.13022
▁प्रो	-9.13023
▁मी	-9.13117
▁शनिवार	-9.13148
पति	-9.13155
ढ	-9.13209
▁भविष्य	-9.13229
साथ	-9.13284
स्क	-9.1331
▁बॉलीवुड	-9.13383
▁H	-9.13507
▁तरीके	-9.13579
▁बंगाल	-9.13592
▁रा	-9.13632
▁बदलाव	-9.13641
▁इनके	-9.13644
▁ट्रेन	-9.13723
स्व	-9.13731
वाल	-9.1381
▁सहायता	-9.13913
टो	-9.13938
ल्ड	-9.14015
▁नियम	-9.14023
▁रोड	-9.14081
्रा	-9.14089
बार	-9.14277
▁विश्वास	-9.14514
▁वी	-9.14634
▁आसपास	-9.14637
▁कृषि	-9.14685
चे	-9.14732
▁प्रसिद्ध	-9.14788
ुआ	-9.14809
णा	-9.1481
व्य	-9.14838
▁व्यापार	-9.14865
▁लेते	-9.14909
▁जहाँ	-9.14929
▁सांसद	-9.14948
▁सीएम	-9.14966
ची	-9.15001
वल	-9.15018
▁F	-9.15157
▁सामना	-9.1516
▁माह	-9.1517
▁स्वीकार	-9.15213
पूर्ण	-9.15311
▁लक्ष्य	-9.15378
w	-9.15458
▁सम्मान	-9.15533
▁पुरुष	-9.1554
▁निकाल	-9.1576
चि	-9.15822
▁रोग	-9.15899
▁जैसा	-9.15902
▁देखकर	-9.15983
▁समाप्त	-9.16095
▁खराब	-9.16141
▁हवा	-9.16141
१	-9.16162
▁कट	-9.16302
▁खत्म	-9.16321
▁पोस्ट	-9.16336
ंडा	-9.1635
▁लेख	-9.16431
▁पुरस्कार	-9.16531
बि	-9.16534
ल्ल	-9.16754
it	-9.16771
▁बातचीत	-9.16795
▁उनसे	-9.16806
▁समूह	-9.16837
ियन	-9.16985
▁सम्बन्ध	-9.16993
▁वर्षों	-9.17009
डि	-9.17075
▁जाएंगे	-9.17203
▁क्र	-9.17251
▁मिनट	-9.17284
्ड	-9.17347
▁खो	-9.17405
▁कपूर	-9.17482
▁क्षमता	-9.17539
▁चले	-9.17595
द्र	-9.17602
▁चौ	-9.17754
ूर	-9.1787
▁अक्सर	-9.17903
▁सचिव	-9.18028
▁सीरीज	-9.18042
▁वृद्धि	-9.18225
एन	-9.18247
कारी	-9.18253
▁हिंदी	-9.18284
▁राजधानी	-9.18304
id	-9.18326
तः	-9.18488
▁वायरल	-9.18493
▁युवा	-9.18616
जो	-9.18623
▁देती	-9.18697
▁फोटो	-9.18714
▁आयोग	-9.18793
वान	-9.18986
ेश्वर	-9.19128
पु	-9.19134
▁मू	-9.19144
िम	-9.19174
▁नीति	-9.19179
▁ईरान	-9.19181
▁R	-9.19203
▁खिलाड़ी	-9.19209
▁‘	-9.19233
▁राजनीति	-9.19337
नों	-9.19475
िटी	-9.19541
▁निगम	-9.19567
▁चित्र	-9.19647
५	-9.19697
▁सुविधा	-9.19699
▁प्रस्तुत	-9.19783
ाइ	-9.20003
▁चरण	-9.20112
ुल	-9.20187
्व	-9.20194
▁कर्मचारियों	-9.20292
▁संगीत	-9.20397
▁L	-9.20398
▁मैदान	-9.20428
▁रिकॉर्ड	-9.20557
▁जाति	-9.2056
म्ब	-9.20596
निया	-9.20601
▁विद्यालय	-9.20604
and	-9.20714
▁सूची	-9.20764
ल्स	-9.20961
▁हु	-9.2101
▁आदमी	-9.21034
hn	-9.2104
▁आंदोलन	-9.2107
▁३	-9.21188
▁कार्ड	-9.21256
▁ऐ	-9.21281
▁बोल	-9.21283
▁पाए	-9.21328
▁लंबे	-9.21385
▁करे	-9.21403
▁नेताओं	-9.21415
▁शुभ	-9.21509
▁जरिए	-9.21735
▁वाहन	-9.21735
▁गति	-9.21777
▁ओवर	-9.21798
ॉल	-9.22164
▁सुरक्षित	-9.22369
एफ	-9.22412
▁उद्योग	-9.22568
ादि	-9.22601
▁विस्तार	-9.22618
▁मोबाइल	-9.2273
▁जाकर	-9.22827
F	-9.22975
▁उदाहरण	-9.2303
हे	-9.23177
▁दस	-9.23252
भाव	-9.23286
जर	-9.23394
▁दिवस	-9.23401
▁परिषद	-9.23473
गंज	-9.23485
▁भोजन	-9.23623
▁विदेश	-9.23817
▁डर	-9.23873
▁दरअसल	-9.23962
▁संदर्भ	-9.24
▁गुरुवार	-9.24239
▁उत्पन्न	-9.24248
▁बनने	-9.24335
गार	-9.24556
▁बेटे	-9.24557
▁प्राचीन	-9.24611
▁उतर	-9.24631
▁यूपी	-9.24636
ाह	-9.24884
▁I	-9.24917
▁गुजरात	-9.24961
▁दिसंबर	-9.25095
▁रूस	-9.25129
▁स्टार	-9.25256
ज़ा	-9.25363
▁शराब	-9.25646
▁पालन	-9.25697
▁देखें	-9.25717
▁सफल	-9.2575
▁मात्रा	-9.25785
वत	-9.25886
▁प्रश्न	-9.25961
▁of	-9.25995
न्न	-9.25998
र्न	-9.26062
▁पहुंची	-9.26088
▁आती	-9.26108
यन	-9.26193
ोल	-9.26255
▁अदालत	-9.26271
▁उत्पादन	-9.26341
▁गलत	-9.26342
▁अरब	-9.26377
▁स्थापना	-9.26483
H	-9.26535
▁जिसकी	-9.26575
▁प्रमाण	-9.26582
▁तापमान	-9.26802
▁स्प	-9.26824
▁प्रसाद	-9.26831
▁तलाश	-9.26916
▁डिग्री	-9.26919
▁स्क	-9.2694
en	-9.27073
▁मृत्यु	-9.27091
▁खाने	-9.27431
ed	-9.27466
▁प्रस्ताव	-9.27489
▁शानदार	-9.27606
▁बह	-9.27668
गन	-9.27678
▁लखनऊ	-9.27714
▁कवि	-9.27724
▁डॉक्टर	-9.27748
▁क्ल	-9.27804
ल्ट	-9.27806
ात्मक	-9.2789
▁जानते	-9.27999
▁जिनमें	-9.28173
▁ग्रामीण	-9.28312
▁परेशान	-9.28312
एल	-9.28408
slug	-9.28433
▁फिलहाल	-9.28533
च्छ	-9.28541
▁पुस्तक	-9.28689
▁विवाह	-9.28722
▁मूल्य	-9.28954
▁मुश्किल	-9.2897
▁संकेत	-9.29081
▁विधि	-9.29085
▁विकसित	-9.29189
ांक	-9.29197
शील	-9.29219
▁सफलता	-9.29287
सो	-9.29336
▁इलाके	-9.29379
▁वोट	-9.29673
▁तुलना	-9.29692
▁गंगा	-9.2975
▁नामक	-9.298
ाद	-9.29873
वाह	-9.29995
▁रिलीज	-9.30019
▁मं	-9.30051
▁अच्छे	-9.30073
▁मिलेगा	-9.30113
▁हमला	-9.30156
▁तभी	-9.30185
र्ज	-9.30228
▁धार्मिक	-9.30313
▁तु	-9.30342
▁चे	-9.30534
▁अक्टूबर	-9.30626
▁मर	-9.30844
▁उनमें	-9.309
एक	-9.30988
▁राहत	-9.3099
नु	-9.31071
le	-9.31249
▁पीएम	-9.31457
क्र	-9.31624
▁रखते	-9.31734
▁प्रकाशित	-9.3175
िता	-9.31842
▁खोज	-9.31891
▁सितंबर	-9.32134
▁आपका	-9.32232
▁ऑस्ट्रेलिया	-9.32536
ri	-9.32595
▁पहुंचा	-9.3268
तम	-9.32687
▁छोटी	-9.32705
▁महाराष्ट्र	-9.32787
खे	-9.32807
▁बाइक	-9.32847
▁परिवर्तन	-9.32981
हन	-9.33127
▁ऑ	-9.33153
▁तैयारी	-9.33246
▁बहु	-9.33466
▁लाइन	-9.33468
कल	-9.33474
इस	-9.33503
▁चाहता	-9.33531
▁व्यवहार	-9.3371
ing	-9.33848
▁भवन	-9.34049
▁वीर	-9.34076
▁टूट	-9.34087
र्थ	-9.34102
निक	-9.34117
▁कॉ	-9.34394
▁कथा	-9.34402
▁कही	-9.34407
▁वरिष्ठ	-9.34443
तक	-9.3455
▁चिंता	-9.3456
लर	-9.34655
▁हमने	-9.34707
▁सीट	-9.34719
▁पहुँच	-9.34808
▁वस्तु	-9.3484
▁हाई	-9.34872
▁बचा	-9.34909
▁पढ़	-9.34953
▁आधुनिक	-9.34989
▁पै	-9.35024
U	-9.35032
हु	-9.35144
▁४	-9.35173
▁दवा	-9.35179
▁इतनी	-9.35202
▁कृष्ण	-9.35275
▁पैसे	-9.3536
न्स	-9.35432
िस्ट	-9.35435
दास	-9.35515
▁तुरंत	-9.35562
▁नरेंद्र	-9.35665
सिंह	-9.35678
▁सारे	-9.35811
▁बर	-9.35824
▁पड़े	-9.35966
▁फ़िल्म	-9.35986
▁बहन	-9.36036
▁टीवी	-9.36122
सू	-9.36205
es	-9.36246
▁अंतर	-9.36397
ेंद्र	-9.36611
▁करियर	-9.36621
▁खुश	-9.3663
▁अनुमति	-9.3677
▁मगर	-9.36773
▁फूल	-9.36823
ाबाद	-9.36879
▁शि	-9.36945
is	-9.37045
िनी	-9.37049
▁आधारित	-9.3705
▁कविता	-9.37052
▁K	-9.37092
वां	-9.37135
▁हटा	-9.37152
णी	-9.37208
▁लड़की	-9.37232
▁अहम	-9.37296
▁[	-9.37529
▁निर्धारित	-9.37656
▁सजा	-9.37921
▁अनुमान	-9.38038
▁the	-9.38228
▁अवधि	-9.38344
ंगे	-9.38369
मुख	-9.38391
▁अचानक	-9.38397
(	-9.38434
▁छा	-9.38481
▁वैसे	-9.38481
▁प्राण	-9.38517
्यु	-9.38665
▁सत्ता	-9.387
▁भेजा	-9.38756
▁उनको	-9.3886
िक्स	-9.38864
प्प	-9.38868
▁बनाई	-9.38943
ाइड	-9.39106
ुर	-9.39148
▁वेद	-9.39187
▁री	-9.39201
▁फैल	-9.39214
▁डो	-9.39227
▁हों	-9.39255
▁अंग	-9.39322
▁पाल	-9.39324
▁चाहे	-9.39348
▁आत्मा	-9.3945
ोन	-9.39513
▁गीत	-9.39685
▁एयर	-9.39694
ग्र	-9.39785
▁बातें	-9.39795
▁संस्कृति	-9.39808
▁डॉलर	-9.39823
▁सामग्री	-9.39831
▁फिल्मों	-9.4003
▁पकड़	-9.40081
▁नौकरी	-9.40143
▁परिजनों	-9.40209
मल	-9.40282
▁कब	-9.40344
▁बढ़ाने	-9.40407
ha	-9.40464
▁दबाव	-9.40466
ोप	-9.40515
▁साबित	-9.40609
क़	-9.40942
▁शायद	-9.4099
▁घोषित	-9.41003
सार	-9.4102
▁युग	-9.4112
▁सिद्ध	-9.41122
▁गृह	-9.41199
ुक	-9.41278
र्त	-9.41288
▁गिरावट	-9.41349
▁किलोमीटर	-9.41406
▁अली	-9.41448
▁लेना	-9.41485
ट्स	-9.41488
▁दोपहर	-9.41552
▁जोड़	-9.4156
हो	-9.4161
लैंड	-9.41627
मर	-9.41699
▁सप्ताह	-9.41735
▁ऑनलाइन	-9.41859
▁₹	-9.41888
न्ध	-9.41995
र्द	-9.42081
▁उपस्थित	-9.42081
▁प्रभारी	-9.42232
ंगा	-9.42251
ंप	-9.4227
▁ऊर्जा	-9.42642
▁कार्यों	-9.42672
मय	-9.42691
▁&	-9.42711
यां	-9.42715
▁जिन्होंने	-9.42778
जू	-9.42827
गम	-9.42879
▁समझा	-9.42943
▁संपर्क	-9.42962
वाला	-9.42992
▁लगाए	-9.43044
▁कंपनियों	-9.43053
▁अमर	-9.43147
▁ग्रामीणों	-9.43161
ंध	-9.43255
▁वायरस	-9.43262
▁ज़	-9.43362
पत्र	-9.43419
▁मिलकर	-9.4359
▁सवार	-9.43647
▁विमान	-9.4366
▁इच्छा	-9.43667
▁स्थल	-9.43832
▁पृथ्वी	-9.43835
▁/	-9.43895
▁जिन्हें	-9.43985
▁लेखक	-9.4402
▁पुराने	-9.44025
▁पीड़ित	-9.44245
▁मिलती	-9.44253
▁संघर्ष	-9.44259
लिया	-9.44306
▁सत्र	-9.44312
ज्ञ	-9.44332
▁कप्तान	-9.44342
ic	-9.44365
▁नवंबर	-9.44384
▁गैस	-9.44385
▁वेबसाइट	-9.44414
▁समारोह	-9.44428
ूँ	-9.44469
▁इंग्लैंड	-9.44577
ऊ	-9.44625
▁आरोपियों	-9.44676
▁चोट	-9.44686
▁हमारा	-9.44767
धु	-9.44777
K	-9.44777
▁टो	-9.44827
▁बजट	-9.44864
▁मुकाबले	-9.44938
डर	-9.44971
स्टर	-9.45012
▁चू	-9.45015
▁प्रणाली	-9.45114
▁धीरे	-9.45127
ेन्द्र	-9.45167
कुल	-9.45199
▁आधिकारिक	-9.45254
▁परिसर	-9.45292
गल	-9.45378
▁ब्र	-9.45467
तो	-9.45497
करण	-9.45531
▁सदस्यों	-9.45539
▁स्वरूप	-9.45639
▁पट	-9.45809
▁निभा	-9.45879
▁मीटर	-9.45924
दो	-9.4594
▁हेतु	-9.46027
▁संभव	-9.46042
▁हृदय	-9.46049
▁स्वामी	-9.46072
▁माँ	-9.4617
▁चिकित्सा	-9.46289
ष्	-9.46343
▁६	-9.46471
धर	-9.46486
▁खड़े	-9.46517
▁दान	-9.46519
▁वर्षीय	-9.46618
▁डिजिटल	-9.46693
हू	-9.46766
▁रखना	-9.46778
▁पारी	-9.4682
▁गाँव	-9.46883
▁वर्णन	-9.46895
िय	-9.47022
▁आत्म	-9.47037
▁मेडिकल	-9.47098
▁कर्मचारी	-9.47157
ग्	-9.47324
▁स्वतंत्रता	-9.47369
ेंस	-9.47405
▁प्रचार	-9.47549
▁पल	-9.47566
▁चीनी	-9.47608
▁मतलब	-9.47673
▁लॉ	-9.47673
▁खूब	-9.47793
▁थाने	-9.47814
▁रू	-9.47897
▁पंच	-9.47928
▁मौका	-9.47943
▁उपचार	-9.47966
▁मॉडल	-9.47978
▁E	-9.47986
▁हरियाणा	-9.48033
▁सिस्टम	-9.48057
▁मना	-9.48163
था	-9.48272
▁रखी	-9.4839
ाना	-9.48486
▁संक्रमण	-9.48552
▁पूछा	-9.486
वेद	-9.48608
▁हमले	-9.48681
▁५	-9.48716
▁करेगी	-9.48825
ad	-9.4887
▁फै	-9.49045
हम	-9.49074
▁सार्वजनिक	-9.4911
▁चोरी	-9.49183
▁मार्केट	-9.49304
भर	-9.49334
▁रेल	-9.49337
ur	-9.49342
▁वित्त	-9.494
▁पेट	-9.49468
▁ऑफिस	-9.49516
ro	-9.49621
▁शांति	-9.49634
▁संस्थान	-9.49677
▁चंद्र	-9.49684
▁दूध	-9.4971
वाई	-9.49739
▁रखें	-9.49761
ेगा	-9.49815
▁भग	-9.49817
ॅ	-9.49843
▁बेच	-9.49918
▁न्यायालय	-9.49957
▁महसूस	-9.4999
▁फैंस	-9.50085
▁सक्रिय	-9.50104
▁दोस्त	-9.50293
▁सहायक	-9.50303
▁ति	-9.50316
▁मान्यता	-9.50338
▁उपाय	-9.50371
ाम	-9.50383
▁हालत	-9.50386
▁संजय	-9.50426
▁भु	-9.50476
us	-9.50527
▁चाहिये	-9.50538
▁बताते	-9.50539
▁झा	-9.50549
▁सोने	-9.50593
मत	-9.50597
रस	-9.50649
कृत	-9.50667
▁जंगल	-9.50707
धी	-9.50748
च्च	-9.50754
▁नागरिक	-9.50774
पत	-9.50841
▁बनाकर	-9.50899
▁सम्	-9.5091
मू	-9.50972
▁सुनिश्चित	-9.51015
लिंग	-9.51016
▁प्रकृति	-9.51108
▁बल्लेबाज	-9.51144
▁मिलते	-9.5124
▁तोड़	-9.51379
▁बरामद	-9.51438
▁चली	-9.51443
स्य	-9.5146
▁सामान	-9.51514
▁कश्मीर	-9.51562
▁अभिनेता	-9.51565
डो	-9.51569
▁अपील	-9.51593
▁टैक्स	-9.51712
▁कल्याण	-9.51771
▁टे	-9.51848
▁स्टोरीज	-9.51911
जल	-9.52031
▁न्याय	-9.52124
बद्ध	-9.52125
▁धारा	-9.52164
▁जरूर	-9.52241
▁तस्वीर	-9.52318
▁चौधरी	-9.52414
ल्	-9.52447
▁कमजोर	-9.52506
▁ठ	-9.52536
▁वायु	-9.52626
▁भावना	-9.52639
▁फि	-9.52671
▁आनंद	-9.52681
▁जोर	-9.52696
▁मंडल	-9.52702
▁पूछताछ	-9.5278
▁विकल्प	-9.5278
▁तीनों	-9.52804
▁दशक	-9.52908
▁लोकसभा	-9.52969
▁O	-9.53075
▁एक्ट्रेस	-9.53184
▁अर्थात्	-9.53273
हल	-9.533
▁बिल	-9.5333
भी	-9.53337
▁भुगतान	-9.53349
▁घरेलू	-9.534
▁हादसे	-9.53426
▁ग्रहण	-9.53437
▁बच	-9.53453
ch	-9.5347
▁२०	-9.5351
क्त	-9.53534
▁नर	-9.53543
ंब	-9.53552
▁बैठे	-9.53612
▁ऊ	-9.53644
▁तर	-9.53681
▁ठाकुर	-9.53795
्त	-9.5391
▁उतार	-9.53911
▁क्रम	-9.53929
▁सुना	-9.53987
▁गर्मी	-9.5404
▁गुप्ता	-9.54071
▁अंतरराष्ट्रीय	-9.54116
कर्ता	-9.54127
▁करनी	-9.54134
▁काव्य	-9.54165
▁त्रि	-9.5422
▁विदेशी	-9.54321
स्म	-9.54385
▁कोविड	-9.54391
रम	-9.54392
il	-9.54511
et	-9.54532
द्ध	-9.54562
▁ते	-9.54596
▁जिलों	-9.54692
▁ब्रह्म	-9.54753
िये	-9.54764
घर	-9.54828
▁गैर	-9.54875
षा	-9.54889
▁दौर	-9.54893
चित	-9.54898
▁गोल	-9.54973
▁इस्लाम	-9.54988
▁जिसने	-9.54989
st	-9.54993
▁अपराध	-9.55022
्यो	-9.5503
▁फे	-9.55137
▁उचित	-9.55329
ॉन	-9.55369
▁प्रबंधन	-9.55378
ir	-9.55399
ात	-9.55508
ाइट	-9.55527
ड्र	-9.55636
▁जुड़ी	-9.55711
र्व	-9.5576
▁योगी	-9.55858
एच	-9.56027
▁रै	-9.56324
▁चालक	-9.56327
▁हित	-9.5641
▁सीधे	-9.56445
▁संकट	-9.56447
▁चलने	-9.56511
▁बाकी	-9.56513
▁दुख	-9.56523
हित	-9.56567
▁श्रेणी	-9.56576
भाग	-9.56584
▁भीड़	-9.56591
▁गरीब	-9.566
▁समाधान	-9.56618
▁पड़ी	-9.56653
▁शुद्ध	-9.5668
ान्त	-9.56681
▁आस	-9.56685
त्ता	-9.56691
▁सुंदर	-9.56736
▁बढ़ने	-9.56754
▁तैनात	-9.56894
▁पुल	-9.56941
▁तीसरे	-9.56953
▁नियंत्रण	-9.56957
▁मित्र	-9.57003
▁W	-9.57127
▁पेड़	-9.57129
▁सुप्रीम	-9.57154
▁मृतक	-9.57301
▁चै	-9.57368
▁ट्वीट	-9.57405
▁पैर	-9.57423
तन	-9.57428
म्म	-9.5743
▁दुकान	-9.57477
▁खाना	-9.57482
▁फसल	-9.57569
▁समीक्षा	-9.57578
▁रवि	-9.57613
▁पू	-9.57649
▁नाग	-9.57682
▁लोकप्रिय	-9.57703
▁दि	-9.57707
▁अवैध	-9.57763
शे	-9.57845
▁मुक्त	-9.57872
▁दम	-9.57975
▁आवाज	-9.58274
▁समुदाय	-9.58416
▁विशाल	-9.58521
ल्ला	-9.5859
▁घट	-9.58612
▁एव	-9.58681
▁लड़	-9.58775
र्ग	-9.58789
▁दूरी	-9.58825
▁स्त्री	-9.58847
▁हिंदू	-9.58939
▁पाई	-9.59035
▁वैज्ञानिक	-9.59115
▁नाटक	-9.59179
▁भूल	-9.59282
▁परियोजना	-9.5934
▁ईश्वर	-9.59498
▁पर्याप्त	-9.59571
ानी	-9.59675
▁रास्ते	-9.59726
▁वर	-9.59828
कू	-9.59829
▁पैसा	-9.59881
▁महत्व	-9.59881
▁बीते	-9.59887
▁जग	-9.59945
▁पहन	-9.60022
टल	-9.60132
▁हरि	-9.60389
▁उल्लेख	-9.60396
याँ	-9.60507
अप	-9.60526
▁आकर	-9.60593
▁मुस्लिम	-9.60608
ट्ट	-9.60695
नू	-9.60744
▁तट	-9.60793
z	-9.60808
▁मात्र	-9.60824
▁आसान	-9.60842
▁इलाकों	-9.60905
जीत	-9.60945
▁स्थानों	-9.60975
▁याचिका	-9.61001
▁पदार्थ	-9.61001
▁व्यक्त	-9.61042
▁योगदान	-9.61065
th	-9.61091
▁गाड़ी	-9.61119
▁बैठ	-9.61178
▁योग्य	-9.61224
▁मानना	-9.61263
▁न्यू	-9.61291
▁रु	-9.61292
▁मकान	-9.61344
▁पश्चिमी	-9.61398
फे	-9.61414
▁सुनवाई	-9.61509
▁निश्चित	-9.61619
टन	-9.61687
▁रहेगी	-9.61772
▁जिम्मेदारी	-9.61833
▁शिक्षक	-9.61857
▁पर्वत	-9.62039
▁उम्मीदवार	-9.62075
▁प्रशिक्षण	-9.62075
▁ऐतिहासिक	-9.62089
▁टा	-9.62141
▁इनकी	-9.62164
▁बाबा	-9.62227
क्रम	-9.62247
▁कड़ी	-9.62291
तू	-9.62298
र्ण	-9.62338
▁नोट	-9.62414
▁मालिक	-9.62478
▁लाइफ	-9.62551
▁थोड़ा	-9.626
रिक	-9.6275
▁इन्	-9.62781
▁चौक	-9.62856
▁तनाव	-9.62857
ol	-9.62894
▁पुष्टि	-9.62915
▁करवा	-9.63055
j	-9.63111
इन	-9.63206
▁पात्र	-9.63215
भि	-9.63249
्ट	-9.63333
▁सारी	-9.63396
▁खोल	-9.63397
▁संसार	-9.63431
▁पाने	-9.63463
▁इतने	-9.63486
▁नो	-9.63509
▁|	-9.6359
▁होटल	-9.63785
▁समुद्र	-9.63925
▁एशिया	-9.63934
▁लाने	-9.64037
]	-9.64047
▁भिन्न	-9.64122
रत	-9.64128
ब्ब	-9.64138
▁अर	-9.64261
as	-9.64284
▁फैसले	-9.6436
▁युवाओं	-9.64374
▁कराई	-9.64464
कर्म	-9.64543
▁कमरे	-9.64551
▁आपने	-9.64556
▁गईं	-9.64608
▁बीमारी	-9.64701
ियर	-9.64726
▁आउट	-9.64738
िर	-9.64742
▁हल	-9.64829
▁सेंटर	-9.64857
क्का	-9.64894
▁चलता	-9.64933
▁व्यापक	-9.64986
▁गुजर	-9.64989
▁पाप	-9.65012
▁संस्कृत	-9.65025
▁लड़ाई	-9.65026
▁विद्या	-9.65027
▁समस्याओं	-9.65056
▁चयन	-9.6507
▁V	-9.651
▁शहरों	-9.65146
V	-9.65429
▁त्याग	-9.65552
▁नियमों	-9.65567
▁चंद	-9.65727
ां	-9.6578
स्त्र	-9.65815
▁तू	-9.65821
न्ना	-9.65852
▁वर्मा	-9.65881
▁कारोबार	-9.65891
▁समाचार	-9.65901
▁मॉ	-9.6596
▁लक्षण	-9.65964
▁खड़ा	-9.66058
▁वास्तव	-9.66128
▁सलमान	-9.66135
▁खंड	-9.66186
▁जल्दी	-9.66187
▁सुपर	-9.66214
▁रुक	-9.6626
▁मिलेगी	-9.66296
▁औ	-9.66315
▁चाह	-9.66371
▁अंतर्गत	-9.66398
जनक	-9.6641
▁दर्द	-9.66467
▁परेशानी	-9.66529
▁रहना	-9.66557
▁फ्ल	-9.66566
▁सच	-9.66568
▁प्राथमिक	-9.66568
▁अमित	-9.66625
▁शास्त्र	-9.6663
▁अधिकांश	-9.66686
▁करो	-9.66715
▁महान	-9.66733
▁पढ़ाई	-9.66754
स्ता	-9.66913
▁मरीजों	-9.6695
▁प्रतियोगिता	-9.67018
िड	-9.67058
▁रोकने	-9.67143
▁आये	-9.6715
लों	-9.67215
ाइन	-9.67229
▁मानसिक	-9.67233
▁बद	-9.67252
ष्ठ	-9.67314
▁मुलाकात	-9.67368
▁संसद	-9.67431
▁सागर	-9.67511
▁आखिर	-9.6754
▁दोष	-9.67546
▁लागत	-9.67644
▁संस्था	-9.67701
▁हाथों	-9.67714
चल	-9.67879
▁छोड़कर	-9.6788
न्य	-9.67907
दीप	-9.6792
▁जू	-9.67922
▁प्रेस	-9.67939
▁प्रतिक्रिया	-9.67996
▁कितना	-9.68088
▁नियमित	-9.6812
▁शिकार	-9.68189
▁संपत्ति	-9.68225
▁शब्दों	-9.68255
मार	-9.6827
▁केन्द्र	-9.68271
▁वर्ल्ड	-9.6836
▁मोह	-9.68374
▁on	-9.6838
श्च	-9.68457
▁छूट	-9.6854
क्क	-9.68554
ैन	-9.68706
गि	-9.68718
▁मतदान	-9.6879
▁बुद्धि	-9.68832
▁डाय	-9.68866
▁ब्राह्मण	-9.68884
▁टिकट	-9.68916
लेट	-9.69009
▁चारों	-9.69072
▁पूछ	-9.69102
ेक्ट	-9.6911
ॉट	-9.69181
▁कथित	-9.69256
▁क्रिया	-9.69348
▁सीजन	-9.6943
▁वास्तविक	-9.69532
▁आखिरी	-9.69709
▁पाठ	-9.69765
▁खिलाड़ियों	-9.69914
▁बढ़कर	-9.69951
▁बाग	-9.69977
▁अन्त	-9.7
ज्ञान	-9.70018
▁सुर	-9.70115
▁नेशनल	-9.70131
▁आवास	-9.70149
▁घाट	-9.70204
▁अतः	-9.70211
▁रहेंगे	-9.70223
ट्र	-9.7025
िप	-9.703
द्द	-9.70316
▁जम्मू	-9.70424
▁रखे	-9.70459
▁गाय	-9.70489
▁मशीन	-9.70518
▁चाहती	-9.70541
▁देंगे	-9.70551
▁मूर्ति	-9.70595
बु	-9.70641
▁दाम	-9.70646
▁लिख	-9.70856
▁सौंप	-9.70871
▁सैन्य	-9.70881
▁नेपाल	-9.71025
▁बढ़ती	-9.71041
▁जापान	-9.71111
▁इनका	-9.71111
▁पेट्रोल	-9.71265
▁उत्साह	-9.71363
▁मिश्रा	-9.7139
▁गर्म	-9.71392
▁महाराज	-9.71451
ाइल	-9.71488
▁J	-9.71537
▁किशोर	-9.71646
▁कार्यकर्ताओं	-9.71678
पात	-9.71695
ंडी	-9.71714
▁अति	-9.71739
▁वार्ड	-9.71779
लाई	-9.71896
ब्	-9.72054
▁बजाय	-9.7208
▁इंतजार	-9.72095
▁लगने	-9.72107
▁कक्षा	-9.72115
▁सत	-9.72122
▁माहौल	-9.72132
▁उसको	-9.72246
▁प्लान	-9.72394
ियम	-9.72398
▁मुख	-9.72429
▁हवाई	-9.72476
▁मानते	-9.72516
▁आकार	-9.72559
बो	-9.72563
▁फ्र	-9.72615
▁प्राकृतिक	-9.72692
ताओं	-9.72702
▁किमी	-9.7271
▁मौजूदा	-9.72745
▁हिंसा	-9.72915
li	-9.72928
▁हिन्दू	-9.7294
ग्रह	-9.72952
▁आइ	-9.72982
नर	-9.73002
▁१०	-9.7302
▁१८	-9.73137
वै	-9.73146
▁गोली	-9.73161
ेय	-9.73343
▁कस	-9.7337
▁चेहरे	-9.73456
▁पटना	-9.73498
▁आपूर्ति	-9.73505
▁पुरानी	-9.73541
▁ख़	-9.73631
▁इंटर	-9.73654
्री	-9.73675
▁मोहम्मद	-9.73685
▁पहुंचने	-9.73701
▁हाउस	-9.73716
ब्र	-9.73732
▁अर्	-9.73767
शहर	-9.73774
▁दौड़	-9.73855
▁जिनके	-9.73872
▁आयु	-9.73946
▁तार	-9.73947
▁लॉन्च	-9.73965
▁खतरा	-9.73983
▁बंध	-9.74016
्ल	-9.74093
जात	-9.74107
बन्ध	-9.74258
▁अशोक	-9.74263
कृति	-9.74275
मैं	-9.74285
▁अवस्था	-9.74315
पुरा	-9.74325
▁आईपीएल	-9.74413
▁फायदा	-9.74419
▁चु	-9.7444
▁बीज	-9.74459
▁एजेंसी	-9.74607
▁क़	-9.74652
▁अंग्रेजी	-9.74687
्‍	-9.74707
ंडे	-9.74743
फी	-9.7476
▁पर्यावरण	-9.74922
▁सख्त	-9.74973
ांत	-9.74975
▁संचालन	-9.75033
▁छोटा	-9.7508
▁जमकर	-9.75113
▁फाइनल	-9.75127
▁श्र	-9.75173
▁समस्त	-9.75215
▁गेंद	-9.7528
लाइन	-9.75333
▁दू	-9.75471
▁कमल	-9.75483
▁नील	-9.75543
शास्त्र	-9.75573
▁कू	-9.756
▁यूक्रेन	-9.75618
▁ग्र	-9.75739
▁ब्रिटिश	-9.75824
▁ताल	-9.75917
▁खाद्य	-9.75923
▁किनारे	-9.75961
▁पूर्वी	-9.76103
▁पदों	-9.76174
▁फो	-9.76411
▁लिस्ट	-9.76447
▁वाहनों	-9.76453
झा	-9.76622
▁वित्तीय	-9.7665
लू	-9.76678
▁बोली	-9.76757
▁सूत्रों	-9.76775
▁आचार्य	-9.76928
▁सका	-9.76968
▁तत्काल	-9.76982
डल	-9.76999
ज्ज	-9.77206
▁आसानी	-9.77225
पू	-9.77365
▁ट्विटर	-9.77459
प्त	-9.77496
ङ्ग	-9.77497
▁तमाम	-9.77558
▁साम	-9.77573
▁झारखंड	-9.77653
▁भेद	-9.77774
▁लु	-9.77906
▁मिट्टी	-9.77913
▁सेवन	-9.77958
▁चुन	-9.77961
▁७	-9.78036
▁सफाई	-9.78042
▁व्यक्तिगत	-9.78044
▁संदेश	-9.78126
▁रूसी	-9.78141
▁बोले	-9.78144
▁''	-9.78148
▁नेटवर्क	-9.78157
▁आर्य	-9.78299
▁मैचों	-9.78335
▁सेक्टर	-9.78356
▁मंच	-9.78368
▁टॉ	-9.78462
▁अजय	-9.78498
▁तथ्य	-9.78581
▁कितने	-9.78598
पोर्ट	-9.78603
▁जिंदगी	-9.7863
▁तारीख	-9.78652
▁स्वागत	-9.78724
ध्य	-9.78743
िला	-9.78745
▁यात्रियों	-9.78745
क्शन	-9.78754
▁ग्रुप	-9.78761
जित	-9.78766
्रै	-9.78809
श्र	-9.78837
ठी	-9.78849
▁हिस्से	-9.78856
द्व	-9.78873
▁सपा	-9.78926
वर्त	-9.78971
▁श्रा	-9.79181
pur	-9.79184
▁संबंधी	-9.79211
x	-9.79228
▁डिजाइन	-9.7927
▁रक्त	-9.79338
▁भो	-9.79343
▁आबादी	-9.79369
▁संभाल	-9.79375
▁कहने	-9.79396
▁चेक	-9.794
ीम	-9.79527
कै	-9.7958
▁परंपरा	-9.79585
▁रज	-9.79586
▁कोहली	-9.79589
ाब	-9.79677
▁बर्	-9.79694
▁स्कूलों	-9.7976
hi	-9.79847
▁शोध	-9.79886
▁घरों	-9.79905
▁लीग	-9.79919
▁सम्मानित	-9.79929
▁गेंदबाज	-9.7995
▁यूरोप	-9.80018
्ज	-9.80138
▁लुक	-9.80154
▁सारा	-9.80164
▁सीमित	-9.80187
पिता	-9.80205
▁मल	-9.80208
▁रानी	-9.80211
द्य	-9.8024
▁विराट	-9.80314
▁शताब्दी	-9.80362
ैल	-9.80372
▁स्टाइल	-9.80374
▁नै	-9.80406
▁दिये	-9.80407
भूत	-9.80441
▁ग्रन्थ	-9.80445
टिक	-9.80461
▁कॉल	-9.80468
▁नवीन	-9.80497
▁धो	-9.8065
ंव	-9.80714
▁=	-9.8074
क्षण	-9.80743
पूर्व	-9.80759
▁मनो	-9.80787
▁हिमाचल	-9.80895
▁पार्क	-9.80935
ाइज	-9.80943
न्ह	-9.81158
▁चैनल	-9.81168
युक्त	-9.81242
▁दास	-9.81287
फो	-9.81339
▁गुणवत्ता	-9.81365
▁मौ	-9.81371
▁सूत्र	-9.81417
▁साधन	-9.81442
▁व्रत	-9.81478
शु	-9.81527
▁पत्थर	-9.81634
▁कृत	-9.81701
वीर	-9.81715
▁अधिनियम	-9.81771
ंदा	-9.81775
▁आकाश	-9.81891
▁ग्रंथ	-9.81974
▁खाते	-9.82022
▁परीक्षण	-9.82145
W	-9.82159
▁टि	-9.82259
▁प्रकट	-9.82266
▁किरदार	-9.82386
un	-9.824
मंडल	-9.824
▁बौद्ध	-9.82412
▁साझा	-9.82419
▁पटेल	-9.82424
▁वार	-9.82435
ेर	-9.82455
▁संत	-9.82523
▁खुशी	-9.82533
▁रोहित	-9.82573
फ्	-9.82615
▁अग्नि	-9.82711
▁विशिष्ट	-9.82807
पूर्वक	-9.82858
्टी	-9.82911
▁तकनीक	-9.82912
▁निरीक्षण	-9.83008
▁सिटी	-9.83065
▁बांग्लादेश	-9.83094
▁चुनौती	-9.83179
▁निकट	-9.83187
क्षित	-9.83201
▁अफ्रीका	-9.83299
▁ग्रह	-9.83333
ियत	-9.83333
क्की	-9.83391
▁लंबी	-9.8346
लोक	-9.83584
▁रोजगार	-9.83669
▁शीर्ष	-9.83676
▁विद्युत	-9.83746
ीं	-9.83819
▁कठिन	-9.83891
▁भले	-9.839
▁स्थिर	-9.8397
▁थोड़ी	-9.84033
▁उक्त	-9.84046
ॉय	-9.8411
ia	-9.8412
▁मिश्र	-9.84181
▁टॉप	-9.84194
▁जड़	-9.84213
▁कितनी	-9.84248
▁मरीज	-9.84452
▁आशा	-9.84476
▁छत्तीसगढ़	-9.84506
▁उद्	-9.84543
▁रोज	-9.84555
मैन	-9.84568
▁मुद्दे	-9.84593
▁साहब	-9.84636
▁खेती	-9.84651
वृत्ति	-9.84749
▁व्यवसाय	-9.84749
▁लगाकर	-9.84755
▁सम्मेलन	-9.84801
▁सकें	-9.84806
्रे	-9.84826
ांग	-9.84895
▁वैश्विक	-9.84906
राव	-9.84915
ड्ड	-9.8496
▁फैला	-9.84985
▁होनी	-9.85012
▁बचाने	-9.85018
यु	-9.85049
▁कपड़े	-9.85068
▁भि	-9.85103
▁निर्भर	-9.85201
पाद	-9.85238
हरा	-9.85243
▁भक्ति	-9.85295
▁दिखाया	-9.85326
▁खूबसूरत	-9.85412
▁वनडे	-9.85416
वाली	-9.85485
सल	-9.85531
ation	-9.8556
▁तिवारी	-9.85609
परि	-9.85657
▁रहें	-9.85664
▁दर्शकों	-9.85688
स्था	-9.85696
धीरे	-9.85715
▁नियुक्त	-9.85729
▁श्रीलंका	-9.8578
▁व्य	-9.85834
▁द्वितीय	-9.8585
▁नष्ट	-9.85855
▁चढ़	-9.85999
story	-9.86007
▁अभिनेत्री	-9.86061
ानु	-9.86072
▁बुला	-9.8609
स्स	-9.86204
▁खाली	-9.86216
▁समा	-9.86224
लिन	-9.86228
▁in	-9.8623
॰	-9.86308
पल	-9.8633
▁लगाई	-9.86406
▁बराबर	-9.86503
▁प्रतीक	-9.86505
▁लूट	-9.86537
धर्म	-9.86604
▁निर्माता	-9.86612
▁मालूम	-9.8668
भव	-9.86754
▁आदर्श	-9.86787
कालीन	-9.8689
▁संग्रह	-9.86892
▁निधन	-9.87011
▁बनाना	-9.87013
▁सदा	-9.87046
▁सरल	-9.87078
▁निकाला	-9.8709
भाषा	-9.87095
्रो	-9.87117
धन	-9.8717
▁चेतावनी	-9.87177
▁सालों	-9.87183
▁मस	-9.87267
▁कर्नाटक	-9.87284
▁निदेशक	-9.87588
शो	-9.87701
िज	-9.87712
रियल	-9.87715
लु	-9.87744
▁खुलासा	-9.87748
▁गि	-9.87807
ैया	-9.87903
▁pm	-9.88016
▁योजनाओं	-9.88182
ंगल	-9.88188
la	-9.88194
▁टूर्नामेंट	-9.88198
क्षा	-9.8822
▁औसत	-9.88325
▁शाखा	-9.88421
वॉ	-9.88498
बोध	-9.88543
▁प्रतिनिधि	-9.88568
▁लगती	-9.88573
▁भरा	-9.88575
▁विरुद्ध	-9.88588
िव	-9.88598
▁फेंक	-9.88614
पास	-9.88633
▁विष्णु	-9.88648
▁न्यूज	-9.88664
▁उत्पाद	-9.88708
▁गाने	-9.88747
▁दस्तावेज	-9.88775
▁भय	-9.88781
▁गठन	-9.88814
▁उर्फ	-9.88857
▁बिल्कुल	-9.88902
▁इक	-9.88912
नाम	-9.88939
▁सीटों	-9.88987
▁बोला	-9.89058
▁उधर	-9.89072
▁साधारण	-9.89083
▁कल्पना	-9.89144
▁पशु	-9.89149
▁खेला	-9.89154
▁लहर	-9.89195
▁असम	-9.892
▁प्रोजेक्ट	-9.89265
▁मिशन	-9.89322
▁पवित्र	-9.89338
▁श्रृंखला	-9.89356
्क	-9.89604
▁ट्रक	-9.89664
ul	-9.89672
▁एक्सप्रेस	-9.89684
ध्या	-9.89764
▁खुल	-9.89811
▁परिवहन	-9.89849
▁तिथि	-9.89865
▁इंडियन	-9.89922
▁किताब	-9.89929
▁मुख्यालय	-9.89943
▁उठाया	-9.89964
▁ज्यादातर	-9.9
ृत	-9.90053
▁मोहन	-9.90075
▁अल्	-9.90207
▁पुनर्	-9.90276
ख़	-9.90364
▁इधर	-9.90379
▁अर्जुन	-9.90454
▁रणनीति	-9.90528
▁वैक्सीन	-9.90528
el	-9.9054
डीए	-9.90567
▁१६	-9.90633
ज्ञा	-9.90751
ूं	-9.90758
▁सन	-9.90889
▁कमाई	-9.90897
▁फंड	-9.90897
▁जला	-9.90947
▁जुड़ा	-9.90953
▁मुह	-9.9101
्वे	-9.91053
▁गोल्ड	-9.91152
▁संबोधित	-9.91193
▁मानक	-9.91198
टि	-9.91213
▁प्रतिभा	-9.91256
▁खड़ी	-9.91338
▁शेष	-9.91373
▁प्रताप	-9.9143
▁जयपुर	-9.91478
▁देगा	-9.91546
▁मच	-9.91589
स्थान	-9.91596
▁जताई	-9.91697
कुमार	-9.91712
▁सार	-9.91732
ून	-9.91754
▁बिक्री	-9.91792
▁संस्करण	-9.91825
▁एफ	-9.91857
▁सांस्कृतिक	-9.91919
शाला	-9.91943
▁अधिकतम	-9.91951
▁दुर्घटना	-9.92049
▁खेले	-9.92051
▁सिद्धांत	-9.9206
ँग	-9.92124
वाले	-9.92197
कॉम	-9.92243
▁वजन	-9.92251
▁मनाया	-9.92338
▁{"	-9.92417
ेगी	-9.92434
▁सिं	-9.9244
कला	-9.92529
बाज	-9.92554
▁डाला	-9.92561
▁लेता	-9.92589
कड़	-9.92608
▁महामारी	-9.92613
ne	-9.92622
▁निशान	-9.92635
▁जगत	-9.92676
रोध	-9.92679
type	-9.92685
▁Updated	-9.92692
ce	-9.92707
्रि	-9.92737
▁पाँच	-9.9276
▁संविधान	-9.9281
▁खु	-9.92835
▁रेखा	-9.9284
▁अहमद	-9.92842
▁एच	-9.92925
ग्न	-9.92982
▁८	-9.93022
▁केरल	-9.93113
▁साम्राज्य	-9.93121
▁संरक्षण	-9.93197
▁लव	-9.93235
▁हफ्ते	-9.93291
▁रास्ता	-9.93308
status	-9.93384
▁बढ़ावा	-9.93406
▁विवरण	-9.9352
कल्प	-9.93526
▁कीमतों	-9.93649
▁संग	-9.93658
▁बां	-9.93791
▁धमकी	-9.93841
▁दृश्य	-9.93875
▁भट्ट	-9.93903
publish	-9.93917
▁बुरा	-9.93943
रात	-9.93979
▁गौ	-9.9402
▁वापसी	-9.94032
▁संस्कार	-9.94062
▁माने	-9.94226
फ्ट	-9.94231
▁कोलकाता	-9.94243
▁हिसाब	-9.943
▁s	-9.94366
▁कार्यकर्ता	-9.94389
हान	-9.94391
▁तकनीकी	-9.94423
यें	-9.94424
▁दीवार	-9.9448
▁शिक्षकों	-9.94487
▁पथ	-9.94491
▁दीपक	-9.946
▁कमेटी	-9.94667
▁उत्	-9.94671
दर्शन	-9.94681
▁मारपीट	-9.9476
▁प्रगति	-9.94809
टिंग	-9.94884
▁अंतर्राष्ट्रीय	-9.94914
▁ढंग	-9.94959
▁आलोचना	-9.94997
▁“	-9.95013
ख्	-9.95044
खी	-9.95067
▁बांध	-9.9508
▁स्वतंत्र	-9.95101
▁शंकर	-9.95135
▁वंश	-9.95232
▁अग्रवाल	-9.95233
▁उत्तरी	-9.95259
▁ट्रा	-9.953
▁फरार	-9.95314
▁अनिल	-9.95358
▁शैली	-9.95376
▁प्रभु	-9.95393
ॉक	-9.95395
▁वेतन	-9.95444
▁अंदाज	-9.95475
▁झूठ	-9.95476
हीन	-9.95547
▁पाठक	-9.956
▁जहाज	-9.95619
▁हालात	-9.95626
▁शांत	-9.95657
▁एसपी	-9.95751
ोड	-9.95758
पट	-9.95827
मिट	-9.95919
▁दाखिल	-9.95959
िकल	-9.95971
▁मेहनत	-9.95979
▁नोटिस	-9.95981
▁आशंका	-9.95997
▁प्रिय	-9.96059
▁इंजन	-9.9613
ay	-9.96196
टक	-9.96252
▁जिम्मेदार	-9.96377
▁घेर	-9.96388
▁नारायण	-9.96457
▁शे	-9.96461
▁द्वीप	-9.96499
▁वर्	-9.96504
▁उत्तराखंड	-9.96504
▁सोना	-9.96549
▁पहल	-9.96573
▁स्टे	-9.96576
▁मिलाकर	-9.96579
ab	-9.96695
▁भगवान्	-9.96704
▁विद्यार्थियों	-9.96759
”	-9.96837
▁मारे	-9.96932
▁मजदूर	-9.9696
ावली	-9.96975
▁विशेषज्ञ	-9.96976
▁जनरल	-9.96979
▁दौरे	-9.97006
▁एक्सपर्ट	-9.97014
भारत	-9.97085
बाजी	-9.97114
▁गतिविधियों	-9.97182
▁पड़ेगा	-9.9719
▁स्कोर	-9.97192
▁गौरतलब	-9.97368
▁सक्षम	-9.97369
सूर	-9.97414
▁कोच	-9.97421
▁इंडस्ट्री	-9.97447
्ता	-9.97626
▁निगरानी	-9.97645
▁जवान	-9.97686
di	-9.97691
▁खेत	-9.97718
ाचार्य	-9.97739
बाद	-9.97759
▁कानूनी	-9.97762
क्टर	-9.97805
▁अवश्य	-9.97854
▁हिस्सों	-9.97883
▁बाबू	-9.97893
▁अनिवार्य	-9.97922
▁स्रोत	-9.97945
▁विस्तृत	-9.98002
▁पहाड़	-9.98024
▁त्वचा	-9.98102
टू	-9.98116
भूषण	-9.98156
▁बातों	-9.98184
▁तीर्थ	-9.98224
▁चन्द्र	-9.98244
ज्	-9.98247
▁खींच	-9.98261
har	-9.9827
गण	-9.98335
▁चीज	-9.98341
कारों	-9.98489
फर	-9.98518
▁कुं	-9.98564
▁चिकित्सक	-9.98679
▁बढ़ोतरी	-9.98719
ठे	-9.98721
श्री	-9.98721
ॉप	-9.98725
ल्फ	-9.98742
▁यूनिवर्सिटी	-9.9894
ख्या	-9.98954
▁द्वार	-9.99013
▁परम	-9.99056
▁मंगल	-9.99072
▁परंतु	-9.99084
▁तहसील	-9.99115
चित्र	-9.99192
ल्क	-9.99195
▁कौ	-9.99252
▁चमक	-9.99311
▁ग्ल	-9.99437
▁अर्थव्यवस्था	-9.99468
{"	-9.99511
▁क्लब	-9.99585
देह	-9.99619
▁सड़कों	-9.99655
▁कहता	-9.99769
▁भोग	-9.99851
▁सुन्दर	-9.99868
कभी	-9.99927
▁शासक	-10.0001
ज़ी	-10.0002
धान	-10.0003
▁बढ़ते	-10.0004
▁विष	-10.0009
▁शारीरिक	-10.0013
▁अपेक्षा	-10.0014
▁चौहान	-10.0016
▁पंडित	-10.0017
वो	-10.003
":	-10.0035
▁देखना	-10.0038
स्ती	-10.004
▁p	-10.0043
ut	-10.0046
▁उड़	-10.0047
na	-10.005
ंडर	-10.0053
र्जन	-10.0058
इंग	-10.0067
चन	-10.008
▁जाम	-10.0082
▁घूम	-10.0083
▁युक्त	-10.0084
▁लै	-10.0086
▁अक्षय	-10.0086
▁बचाव	-10.0087
▁यश	-10.0089
▁व्यक्तियों	-10.01
ta	-10.0102
▁स्टेट	-10.0103
city	-10.0104
▁वकील	-10.0105
▁हथियार	-10.0109
वृत्त	-10.011
▁रच	-10.0116
category	-10.0117
▁महिलाएं	-10.0118
▁तुम्हारे	-10.0119
▁विधान	-10.0121
▁मुकाबला	-10.0125
▁श्रद्धा	-10.0125
"}}	-10.0133
▁वितरण	-10.0133
▁खुले	-10.0141
▁अकाउंट	-10.0149
▁मजबूर	-10.015
▁लक्ष्मी	-10.015
▁एक्टर	-10.0153
णि	-10.0155
▁लगते	-10.0161
▁ठंड	-10.0163
ज़र	-10.0164
▁राव	-10.0169
▁ब्लॉक	-10.0176
▁टू	-10.0179
▁वर्षा	-10.018
▁रोल	-10.018
▁डेटा	-10.0182
▁उम्मीदवारों	-10.0182
▁इत्यादि	-10.0182
▁खेलने	-10.0189
▁समानता	-10.019
▁तत्व	-10.0201
धे	-10.0204
▁नागरिकों	-10.0205
▁आर्	-10.0207
▁आगामी	-10.0209
▁पीठ	-10.0213
▁ऐलान	-10.0226
City	-10.0226
▁सुनकर	-10.023
खंड	-10.0234
▁दुःख	-10.0234
वेश	-10.0243
ांश	-10.0244
▁विशेषता	-10.0247
ल्ली	-10.0251
▁देखी	-10.0251
▁विरोधी	-10.0252
▁मुकदमा	-10.0253
▁यूजर्स	-10.0255
▁प्रसन्न	-10.0267
▁घटनाओं	-10.0278
डब्ल्यू	-10.028
▁कहाँ	-10.029
▁धारण	-10.0295
▁कलाकार	-10.0296
▁घुस	-10.031
▁चाय	-10.0312
▁अभ्यास	-10.0317
▁चरित्र	-10.0317
▁ऑटो	-10.032
▁कौशल	-10.0324
ऑ	-10.0325
ृष्ट	-10.0333
▁घो	-10.0336
▁मैन	-10.0337
ेयर	-10.0348
states	-10.0348
▁टक्कर	-10.0349
ाऊ	-10.0353
▁चेन्नई	-10.0374
डिया	-10.0376
▁पावर	-10.0386
▁व्याख्या	-10.0387
भु	-10.039
▁श्रम	-10.039
▁गौरव	-10.0394
▁खून	-10.0395
जु	-10.0408
श्त	-10.0412
▁संचालित	-10.0414
मोह	-10.0416
▁लाखों	-10.0419
▁प्रभावी	-10.0427
मै	-10.0427
▁निशाना	-10.0433
▁फर	-10.0436
▁हंस	-10.0438
▁प्रतिमा	-10.0442
भार	-10.0445
यल	-10.0453
ا	-10.0454
▁लाया	-10.0455
म्भ	-10.0482
▁U	-10.0484
▁बाढ़	-10.0485
वासियों	-10.0487
▁सिनेमा	-10.0488
▁बैठा	-10.0488
बंध	-10.0488
▁आना	-10.0493
▁भरोसा	-10.0497
▁गिल	-10.0512
▁शुरुआती	-10.052
▁मंजूरी	-10.0528
तों	-10.053
▁छत	-10.0531
▁उपन्यास	-10.0543
▁इंटरनेट	-10.0544
सम	-10.0544
▁ऋषि	-10.0551
▁उड़ान	-10.056
▁जाएं	-10.0562
▁हट	-10.0571
▁हजारों	-10.0571
▁स्वभाव	-10.0571
ak	-10.0579
▁ताकत	-10.058
▁सीख	-10.058
▁डूब	-10.0584
▁भोपाल	-10.0589
▁तस्वीरें	-10.0589
गांव	-10.0591
▁स्वा	-10.0598
▁ट्रेड	-10.0613
▁जितना	-10.0615
▁अध	-10.0617
▁प्रतिबंध	-10.0617
▁राजकुमार	-10.0618
▁इम	-10.062
सीबी	-10.062
▁ज़्यादा	-10.0621
▁बल्लेबाजी	-10.0622
▁मंत्र	-10.0623
पद	-10.0625
▁संक्रमित	-10.0625
▁This	-10.0638
▁बॉक्स	-10.0639
▁राजेश	-10.064
▁विवेक	-10.0645
थे	-10.0646
▁प्ले	-10.0647
▁गौतम	-10.065
▁स्टेडियम	-10.0658
▁कंट्रोल	-10.0662
▁निफ्टी	-10.0662
यह	-10.0664
▁स्वर	-10.0664
▁बिग	-10.0674
▁स्वस्थ	-10.0678
▁जुड़	-10.0682
वती	-10.0686
▁क्ष	-10.0689
▁विपरीत	-10.0694
▁हैदराबाद	-10.0707
पान	-10.0709
▁states	-10.0715
▁उपस्थिति	-10.0715
हत	-10.0723
ूंगा	-10.0727
क्ख	-10.0736
▁संरचना	-10.0739
▁दोबारा	-10.074
▁क्षेत्रीय	-10.0744
विक	-10.0757
▁मुद्दों	-10.0758
▁महीनों	-10.076
▁निर्मित	-10.0765
▁तप	-10.077
v	-10.0771
्द	-10.0775
▁यात्री	-10.0794
▁आमतौर	-10.0795
प्ट	-10.0804
भ्य	-10.0807
▁जिनका	-10.0809
▁दलों	-10.0815
्च	-10.0819
ुम	-10.0821
▁तर्क	-10.0838
▁रेट	-10.0838
▁सुनील	-10.0839
▁फॉर्म	-10.0841
ट्ठ	-10.0842
▁द्रव्य	-10.085
▁शर्त	-10.085
▁गुप्त	-10.085
▁website	-10.0854
▁हनुमान	-10.0854
▁अपडेट	-10.0868
▁यद्यपि	-10.0872
▁सफेद	-10.0872
न्या	-10.0872
ारी	-10.0872
▁हिरासत	-10.0876
▁लिमिटेड	-10.0883
ौली	-10.0883
ारा	-10.0884
▁गांवों	-10.0885
—	-10.0887
▁अनुसंधान	-10.0892
जीव	-10.0894
▁सीता	-10.0895
र्ष	-10.0896
▁पोल	-10.09
▁पोस्टमार्टम	-10.0901
▁गेम	-10.0901
▁मनोज	-10.091
▁मचा	-10.0916
▁मिलियन	-10.0919
▁राजीव	-10.0921
▁प्राप्ति	-10.093
▁संवाददाता	-10.0932
▁रहीं	-10.0934
▁युवती	-10.0936
एंगे	-10.0941
▁जनसंख्या	-10.0943
▁स्ल	-10.095
▁जीता	-10.0956
▁ट्रंप	-10.0963
वेल	-10.0965
▁प्रियंका	-10.0965
▁दिलचस्प	-10.0967
▁प्रेरित	-10.0969
▁स्टॉक	-10.0976
▁पर्यटन	-10.0978
▁रेड	-10.0983
▁झु	-10.099
▁इसको	-10.0991
▁जुट	-10.1001
▁मृत	-10.1001
▁ऐप	-10.1002
ानंद	-10.1008
▁इंस्टाग्राम	-10.101
▁अधि	-10.101
▁लिखी	-10.1013
गुण	-10.1015
▁तीसरी	-10.1022
▁टिक	-10.1027
▁शूटिंग	-10.1029
han	-10.103
▁उपकरण	-10.1031
▁अध्यक्षता	-10.1032
▁बालक	-10.1034
▁संसाधन	-10.1037
▁प्रार्थना	-10.1037
▁धम	-10.1042
▁अज	-10.1042
▁संकल्प	-10.1049
▁नीतीश	-10.105
▁बिजनेस	-10.1055
▁विपक्ष	-10.107
▁बेटा	-10.1077
▁पुन	-10.108
पीएस	-10.1081
▁संतोष	-10.1082
▁स्मृति	-10.1082
▁सिद्धान्त	-10.1083
▁निर्वाचन	-10.1084
▁ढा	-10.1088
▁लिखे	-10.1089
यान	-10.1091
▁गेट	-10.1096
▁कानपुर	-10.1096
▁रखता	-10.1096
नीय	-10.1105
▁पुनः	-10.1107
▁बेहतरीन	-10.1107
▁c	-10.1111
▁आराम	-10.1117
वंत	-10.1117
ोव	-10.1118
▁भरी	-10.1122
▁सकेंगे	-10.1122
▁न्यूनतम	-10.1122
बै	-10.1126
▁खर	-10.1128
▁ज्ञात	-10.1129
▁हरा	-10.113
▁प्रशासनिक	-10.1132
हाल	-10.1133
▁जॉन	-10.1143
▁दौरा	-10.1152
▁किलो	-10.1154
हरी	-10.1156
▁गठबंधन	-10.1168
▁कोतवाली	-10.117
▁किंतु	-10.1175
▁परिचय	-10.1177
▁अनुकूल	-10.1178
धू	-10.1178
▁छात्रा	-10.1184
▁कहे	-10.1189
दन	-10.1205
ष्ण	-10.1216
छा	-10.1216
▁बहा	-10.1218
▁अखिलेश	-10.1218
किन	-10.1221
▁शहीद	-10.1223
वानी	-10.1224
▁सेवाओं	-10.123
▁शेयरों	-10.123
▁ओम	-10.1231
▁जोखिम	-10.1232
▁चुना	-10.1232
चक	-10.1236
अर	-10.1237
com	-10.1238
▁नये	-10.1239
वत्	-10.1241
▁विषयों	-10.1254
me	-10.1261
ेटर	-10.1261
▁इंसान	-10.1268
ag	-10.1279
▁नज़र	-10.1286
▁फार्म	-10.1288
▁ममता	-10.1288
▁जानने	-10.1292
▁परमाणु	-10.1294
▁निकाय	-10.1297
▁पढ़ने	-10.1301
▁तल	-10.1303
▁स्क्रीन	-10.1308
▁बेस	-10.1309
▁शुल्क	-10.131
▁खबरों	-10.1311
▁खरीदने	-10.1312
▁डांस	-10.1315
▁टेक	-10.1318
▁लोन	-10.1328
▁देह	-10.1329
▁प्रकाशन	-10.133
▁ग्रे	-10.1344
त्या	-10.1344
▁मुद्रा	-10.1345
▁Re	-10.1352
▁इंडेक्स	-10.1358
▁शिविर	-10.136
टेल	-10.1364
▁कहां	-10.1364
▁तंत्र	-10.1368
▁परिवारों	-10.1376
▁प्रवक्ता	-10.1377
▁देवता	-10.1381
▁भौतिक	-10.1382
▁साउथ	-10.1384
▁धा	-10.1391
२००	-10.1394
▁पदक	-10.1396
ाउंड	-10.1396
▁रफ्तार	-10.1403
▁सर्वश्रेष्ठ	-10.1403
▁क्लास	-10.1407
▁अपर	-10.1408
ंठ	-10.1409
▁हद	-10.1409
▁अनुवाद	-10.1409
ौल	-10.1413
▁बच्ची	-10.1419
▁पेंशन	-10.1424
▁नियुक्ति	-10.1427
▁धार	-10.1432
▁यथा	-10.1435
▁वातावरण	-10.1438
▁डीएम	-10.144
▁चलाने	-10.1445
▁बू	-10.1456
▁बाहरी	-10.1457
sh	-10.1458
▁मनीष	-10.1458
▁मधु	-10.1468
घा	-10.147
▁पढ़ें	-10.147
▁वर्क	-10.1471
▁बजा	-10.1473
दूसरे	-10.1479
टिन	-10.1481
▁रद्द	-10.1481
▁सिविल	-10.1484
मूल	-10.1499
ोस	-10.1503
▁मशहूर	-10.1503
हिं	-10.1508
▁अभिषेक	-10.1517
▁हाईकोर्ट	-10.1532
▁पीट	-10.1536
▁दया	-10.1538
म्बर	-10.1543
▁जिनकी	-10.1543
▁जायेगा	-10.1547
▁अमृत	-10.1556
ढ़ी	-10.1557
जान	-10.1557
▁जाये	-10.156
प्ल	-10.1562
▁प्रेरणा	-10.1562
▁शक	-10.1566
▁शेख	-10.1566
▁मेल	-10.1567
▁तुम्हें	-10.1569
▁बुरी	-10.1572
▁May	-10.1574
▁इंटरनेशनल	-10.1576
▁रैली	-10.158
▁सकारात्मक	-10.1581
▁अधीन	-10.1582
▁बदलने	-10.1583
▁अन्तर	-10.1588
▁बताई	-10.1597
ंद्र	-10.1597
ti	-10.1599
▁फ्रांस	-10.16
▁ब्रा	-10.1601
▁धर	-10.1601
▁ब्रिटेन	-10.1603
▁पं	-10.1605
▁गिरफ्तारी	-10.1611
▁राह	-10.1611
▁उदय	-10.1612
▁शीघ्र	-10.1617
ैं	-10.1617
योजन	-10.1622
▁अभिनय	-10.1631
▁जगहों	-10.1638
▁मन्दिर	-10.1645
▁कन्या	-10.1651
शिप	-10.1653
▁ऋण	-10.1657
यंत्र	-10.1662
▁ब्याज	-10.1662
▁विचारों	-10.1664
▁मुनि	-10.1664
▁Code	-10.1665
▁प्रत्याशी	-10.1665
ot	-10.1667
▁सफर	-10.1668
▁रनों	-10.1668
▁पाते	-10.1682
▁आइए	-10.1688
▁हटाने	-10.169
▁मार्क	-10.1692
▁यु	-10.1694
|	-10.1694
▁साध	-10.1697
▁मर्	-10.1706
णे	-10.1709
▁कैंसर	-10.1717
▁टीमों	-10.1718
▁प्रांत	-10.172
▁लड़के	-10.1721
▁पेपर	-10.1724
▁जीतने	-10.1728
▁जै	-10.1729
▁ऑपरेशन	-10.1734
▁अं	-10.1734
▁फीस	-10.1737
▁भरत	-10.1742
▁फंस	-10.1751
थि	-10.1751
▁बिगड़	-10.1752
▁प्रौद्योगिकी	-10.1754
▁बुल	-10.1759
▁चक्र	-10.1765
भूमि	-10.1771
वर्ष	-10.1774
▁वृक्ष	-10.1774
▁लड़कियों	-10.1775
▁सां	-10.1776
प्ला	-10.1781
ेक्स	-10.1782
▁प्रदूषण	-10.1782
▁अभाव	-10.1787
ढ़ा	-10.1787
▁अंश	-10.1789
▁भरे	-10.1795
▁मिस	-10.1802
▁नृत्य	-10.1809
▁पीने	-10.1823
▁पड़ती	-10.1841
▁अज्ञात	-10.1842
जय	-10.1842
▁गिरा	-10.1843
▁टन	-10.1843
शाली	-10.1847
वर्ती	-10.1851
▁सकी	-10.1859
▁भूख	-10.186
▁फ्री	-10.1865
▁श्याम	-10.1866
▁सदी	-10.1866
▁नींद	-10.1867
▁जानी	-10.187
त्मक	-10.1874
क्ल	-10.1879
▁प्रारम्भ	-10.188
▁१२	-10.1882
▁अधीक्षक	-10.1882
▁मारने	-10.1882
▁सुझाव	-10.1885
▁चीजों	-10.1888
▁Ethics	-10.1889
ss	-10.1891
ter	-10.1897
▁राज्यपाल	-10.1897
भद्र	-10.1899
▁पुष्प	-10.1904
▁कवर	-10.1907
▁अदा	-10.191
▁क्वा	-10.191
▁हां	-10.1913
▁वाराणसी	-10.1914
▁मुक्ति	-10.1915
▁DNPA	-10.1919
▁follows	-10.1921
▁बालों	-10.1923
▁नमक	-10.1923
▁फॉर	-10.1925
तुल	-10.1935
▁उल्लेखनीय	-10.1939
▁भंडार	-10.194
▁मुंह	-10.1944
स्को	-10.1944
▁and	-10.1959
▁अना	-10.196
वाज	-10.1961
▁पत्रिका	-10.1964
▁समझने	-10.1966
▁बदले	-10.1971
▁बचने	-10.1972
बंदी	-10.1973
▁स्वर्ग	-10.1974
▁प्रारंभिक	-10.1976
शक्ति	-10.198
यं	-10.1984
▁तिर	-10.1986
▁सदन	-10.1987
▁गौर	-10.1989
▁फर्जी	-10.199
▁पत्रकार	-10.1998
्ब	-10.2003
▁हरी	-10.2008
▁चावल	-10.2013
om	-10.2015
▁सूरज	-10.2015
▁भक्त	-10.2019
▁रत्न	-10.2023
▁जनपद	-10.2025
▁प्रतीत	-10.2025
▁लगाते	-10.2035
▁पाता	-10.2038
▁मानी	-10.2041
सिस	-10.2041
सान	-10.2043
▁निकले	-10.2044
▁लीटर	-10.2049
▁कब्जे	-10.205
▁विजेता	-10.205
▁उद्घाटन	-10.2055
▁पॉ	-10.2055
▁कैद	-10.2062
▁इमारत	-10.2065
▁चांदी	-10.207
▁सहज	-10.2075
▁पौ	-10.2084
▁चढ़ा	-10.2087
▁ब्लैक	-10.2087
श्य	-10.2089
▁भ्रष्टाचार	-10.2095
▁एंटी	-10.2095
▁निकलने	-10.2095
se	-10.2096
▁जाल	-10.2096
lo	-10.2097
▁इसलिये	-10.2102
सम्	-10.2105
▁बढ़त	-10.2105
▁वार्ता	-10.2113
▁१५	-10.2116
▁In	-10.2116
▁अंजाम	-10.2125
र्ब	-10.2128
रेट	-10.2132
ानुसार	-10.2134
▁उन्होने	-10.2135
▁शत्रु	-10.2145
▁हेड	-10.2156
▁तिमाही	-10.2157
▁दृष्टिकोण	-10.216
▁शतक	-10.2163
▁क्रांति	-10.2165
किंग	-10.2165
त्री	-10.2168
▁मोटर	-10.2175
घात	-10.2181
िस्तान	-10.2187
▁बच्चा	-10.2192
▁छु	-10.2194
▁सैनिकों	-10.2197
▁सदर	-10.2201
▁प्लेटफॉर्म	-10.2203
▁तीसरा	-10.2204
▁प्रखंड	-10.2205
▁बुद्ध	-10.2211
▁गुना	-10.2212
भू	-10.2215
▁ज्योतिष	-10.2219
▁कहती	-10.222
▁एयरपोर्ट	-10.2221
मिक	-10.2222
▁इन्होंने	-10.2223
▁गणेश	-10.2228
▁प्राय	-10.2236
र्च	-10.2239
▁वृ	-10.2242
▁बनकर	-10.2245
▁सपना	-10.2246
फू	-10.2253
ma	-10.2253
फि	-10.2263
▁वर्ण	-10.227
त्थ	-10.2278
ाधिकारी	-10.2279
वाइ	-10.2284
▁ब्रेक	-10.2284
रानी	-10.2287
▁स्पेशल	-10.2289
ग्राम	-10.229
▁पर्व	-10.229
▁गर्भ	-10.2296
खर	-10.2297
▁संशोधन	-10.2299
▁हर्ष	-10.2301
▁दूसरों	-10.2304
▁पदाधिकारी	-10.2306
▁अतिथि	-10.2312
ل	-10.2319
▁प्रावधान	-10.2327
▁स्थायी	-10.2332
यत	-10.2333
शिया	-10.2344
▁रखकर	-10.2347
ow	-10.2351
ात्	-10.2357
▁केजरीवाल	-10.236
▁विश्लेषण	-10.2363
▁टिप्पणी	-10.2365
▁सर्वे	-10.2366
▁निवास	-10.2367
▁मंडी	-10.2367
de	-10.2372
▁न्यूजीलैंड	-10.2373
▁तमिलनाडु	-10.2376
▁शख्स	-10.2376
▁बीमार	-10.2381
▁स्नान	-10.2384
▁छाया	-10.2385
▁रुचि	-10.2391
▁न्यायाधीश	-10.2391
▁पुरुषों	-10.2393
▁ऑफ़	-10.2394
▁कृपा	-10.2397
▁आयुक्त	-10.2397
▁मण्डल	-10.2401
▁फेसबुक	-10.2404
▁रवाना	-10.2407
पट्ट	-10.2407
▁भाषण	-10.2408
▁चर्च	-10.2413
▁कारणों	-10.2423
▁असली	-10.2425
इंड	-10.2429
▁प्रत्यक्ष	-10.2432
▁निवेशकों	-10.2437
▁–	-10.2439
▁गुल	-10.2447
ig	-10.2456
क्ति	-10.2457
▁मार्	-10.2457
▁वारदात	-10.2458
माल	-10.246
▁प्रे	-10.2461
▁तुलसी	-10.2469
▁उल्लंघन	-10.2471
▁संदिग्ध	-10.2471
▁बनाते	-10.2473
▁पदार्थों	-10.2474
▁वाद	-10.2475
▁उत्कृष्ट	-10.2476
▁यूरोपीय	-10.2481
▁रहस्य	-10.2483
िंद	-10.2484
क्षेत्र	-10.2495
एससी	-10.2497
त्स	-10.2506
J	-10.2507
▁सपोर्ट	-10.251
▁डॉक्टरों	-10.2522
प्रति	-10.2522
▁खुला	-10.2524
▁जम	-10.2525
▁मस्जिद	-10.2526
▁कालेज	-10.2527
▁बम	-10.2528
▁यज्ञ	-10.2531
▁परिस्थितियों	-10.2533
▁आंकड़ों	-10.2533
▁भाषाओं	-10.2537
▁उठाने	-10.254
विज्ञान	-10.2545
▁संवाद	-10.2547
▁मास	-10.2551
िग	-10.2556
▁राकेश	-10.2562
▁पवन	-10.2565
मिन	-10.2565
▁महज	-10.2567
▁साधु	-10.2574
ट्री	-10.2576
▁ताजा	-10.2582
▁ग्राहकों	-10.2584
▁नंद	-10.2588
▁चीजें	-10.2591
ाधिकार	-10.2594
दर्श	-10.2599
दल	-10.2602
▁झील	-10.2603
▁महात्मा	-10.2603
▁दैनिक	-10.2607
▁निश्चय	-10.262
षित	-10.2621
▁बुलाया	-10.2637
▁धातु	-10.264
▁Ch	-10.2643
दू	-10.2647
प्रकाश	-10.2649
ग़	-10.2649
▁गेहूं	-10.2659
▁देखे	-10.2661
मह	-10.2664
▁अकेले	-10.2665
▁यूनिट	-10.2666
उन	-10.2669
▁हस्त	-10.2671
▁होंगी	-10.2675
ate	-10.2678
▁तरीका	-10.2678
▁लिखित	-10.2686
▁कर्मियों	-10.2686
▁प्रतिष्ठा	-10.2691
▁पारंपरिक	-10.2691
▁दिक्कत	-10.2699
▁नामांकन	-10.2699
पक्ष	-10.2702
▁अन्न	-10.2704
द्वार	-10.2705
▁सुनाई	-10.2706
▁स्वर्ण	-10.2709
▁जानता	-10.2711
ड़िया	-10.2714
▁प्रयत्न	-10.2715
▁धूप	-10.2716
▁ओपन	-10.272
▁प्री	-10.2725
▁लॉकडाउन	-10.2726
▁दायर	-10.2728
▁बढ़ता	-10.273
▁रिश्ते	-10.2733
▁दिव्य	-10.2739
▁ब्रह्मा	-10.2742
कथा	-10.2747
▁क्षण	-10.275
लंब	-10.2752
काय	-10.2754
▁करण	-10.2755
um	-10.2757
▁जबरदस्त	-10.276
▁राग	-10.2762
▁चित्त	-10.2765
▁सीबीआई	-10.2768
▁Jul	-10.2769
▁आंखों	-10.2773
▁एसोसिएशन	-10.2774
▁वस्तुओं	-10.2776
▁उत्तम	-10.2776
▁निकालने	-10.2777
▁ग्रीन	-10.2781
▁रुख	-10.2792
▁गले	-10.2793
▁प्रत्य	-10.2794
▁औद्योगिक	-10.2795
▁उत्पादों	-10.2795
▁लोगो	-10.2796
तल	-10.2797
▁संगठनों	-10.2805
▁प्रवृत्ति	-10.2818
▁मील	-10.2819
▁बढ	-10.2831
▁प्राइवेट	-10.2833
पूर	-10.2833
▁सप्लाई	-10.2835
▁निर्देशक	-10.2837
▁सैनिक	-10.284
ीकृत	-10.2843
▁निम्न	-10.2844
▁अत	-10.2857
▁सूक्ष्म	-10.2862
▁विक्रम	-10.2867
▁टीका	-10.2869
▁किस्म	-10.2873
▁कब्जा	-10.2873
मणि	-10.2874
▁समाजवादी	-10.2875
▁छि	-10.2883
कोट	-10.2884
क्षी	-10.2885
▁अंध	-10.2888
▁ट्रैक	-10.2893
काम	-10.2893
▁खिल	-10.2895
कूल	-10.2896
▁जाया	-10.2896
▁उभर	-10.2897
▁उपाध्यक्ष	-10.2899
▁टकरा	-10.2903
िशन	-10.2906
ऊँ	-10.2907
▁सव	-10.2909
शंकर	-10.291
▁सर्वाधिक	-10.2913
▁इनकार	-10.2916
▁अक्षर	-10.292
हट	-10.292
▁शेर	-10.2922
स्तु	-10.2926
ष्य	-10.2927
▁छठ	-10.2928
ov	-10.293
▁जुटा	-10.2931
▁धरती	-10.2932
▁कर्ज	-10.2938
▁उठाए	-10.2941
▁बधाई	-10.2946
▁पाकिस्तानी	-10.2953
▁मध्यम	-10.2957
▁*	-10.2963
आप	-10.2965
▁करवाया	-10.2967
▁१७	-10.2967
ऐ	-10.2978
▁फिल्में	-10.298
▁बॉस	-10.2981
▁गोपाल	-10.2985
▁पृष्ठ	-10.2986
▁स्टाफ	-10.2988
▁सीधा	-10.299
▁हिल	-10.2991
डिंग	-10.2991
▁पड़ने	-10.2997
▁पुराण	-10.3001
नेट	-10.3005
ent	-10.3005
स्ते	-10.3006
ैक	-10.3009
▁हुये	-10.301
▁गुर	-10.3025
Y	-10.3025
▁ब्रांड	-10.3026
▁डीजल	-10.3026
▁राजपूत	-10.3031
▁बहस	-10.3031
▁छाप	-10.3034
▁रिसर्च	-10.3036
शंस	-10.3037
ध्व	-10.3039
▁यातायात	-10.3039
▁गज	-10.304
▁भार	-10.3041
ग्री	-10.3044
▁पढ़ा	-10.3046
सेन	-10.3046
▁सुविधाओं	-10.3058
▁एकमात्र	-10.306
▁पड	-10.3061
▁ची	-10.3068
▁St	-10.3069
▁पुराना	-10.307
▁लिंक	-10.3071
▁जज	-10.3071
टिया	-10.3074
▁आनन्द	-10.3075
▁राजस्व	-10.308
चु	-10.3081
फ़ी	-10.3081
▁टाइम	-10.3089
▁जन्मे	-10.3093
▁दिला	-10.3099
▁प्रायः	-10.3099
▁दिग्गज	-10.3102
▁एक्ट	-10.3119
▁आहार	-10.3122
▁अफगानिस्तान	-10.3122
▁प्रण	-10.3125
न्द्र	-10.313
▁चलाया	-10.3131
▁गहन	-10.3141
पै	-10.3144
▁दर्जन	-10.3146
▁मास्टर	-10.3147
▁विल	-10.3147
▁फुट	-10.3154
▁खिला	-10.3157
▁आरंभ	-10.3159
▁अलर्ट	-10.3168
धारी	-10.3168
बीएस	-10.3171
▁समीप	-10.3174
क्के	-10.3176
▁परम्परा	-10.3178
▁अस्तित्व	-10.3183
▁चुनावों	-10.3188
रोह	-10.3188
te	-10.3192
▁लेवल	-10.3195
डेंट	-10.3208
▁गार्ड	-10.3213
▁घंटों	-10.3216
▁दिमाग	-10.3222
▁बिता	-10.3223
▁अयोध्या	-10.3225
▁संभावित	-10.3227
▁हँस	-10.3229
▁आत्महत्या	-10.323
शाह	-10.3231
▁भूत	-10.3233
▁स्वाद	-10.3244
ुद्दीन	-10.3244
इयों	-10.3246
▁छवि	-10.3255
▁सहमति	-10.3256
▁बन्द	-10.3257
वाड़ा	-10.3261
▁बं	-10.3263
▁मांस	-10.3263
wa	-10.3269
माण	-10.3277
▁श्रद्धालुओं	-10.3279
फ़ा	-10.328
ात्म	-10.328
▁दुर्	-10.3283
▁बुजुर्ग	-10.3286
टिल	-10.3291
▁चार्ज	-10.3292
▁वेब	-10.3296
▁तारीफ	-10.3298
ni	-10.3299
▁वचन	-10.33
▁दक्षिणी	-10.33
▁बच्चन	-10.3303
▁दशा	-10.3305
▁आश्चर्य	-10.3306
▁मैनेजमेंट	-10.3309
▁बेल	-10.3313
▁शाहरुख	-10.3315
ल्ले	-10.3328
▁कार्यवाही	-10.3331
▁महंगाई	-10.3338
▁खतरनाक	-10.3343
थी	-10.3346
▁पीड़िता	-10.3347
ेक्शन	-10.3354
▁बनर्जी	-10.3365
▁इलेक्ट्रिक	-10.3366
▁रूम	-10.3366
▁भरने	-10.3367
▁शास्त्री	-10.3369
▁पश्चात्	-10.337
▁वाह	-10.3371
▁रकम	-10.3372
▁अधिकतर	-10.3375
▁डायरेक्टर	-10.3378
▁खतरे	-10.3382
सिक	-10.3383
▁इकाई	-10.3384
▁लेखन	-10.3389
▁इंटरव्यू	-10.3391
▁कैंप	-10.3394
▁कोरिया	-10.3398
▁प्ल	-10.3399
▁पेज	-10.3399
▁तत्कालीन	-10.3402
▁अत्यधिक	-10.3414
एसएस	-10.3418
X	-10.3421
▁दोषी	-10.3421
▁जोशी	-10.3423
ग्राफ	-10.3426
▁Ra	-10.343
ल्लू	-10.3431
▁प्रतिनिधित्व	-10.3439
▁अमीर	-10.3442
▁ब्ल	-10.3442
प्रा	-10.3444
▁इसीलिए	-10.3445
▁कॉन्	-10.3446
▁इंदौर	-10.3454
▁इन्द्र	-10.3454
▁मानसून	-10.3459
▁बचपन	-10.346
रक्षक	-10.3461
हिर	-10.3461
▁दोनो	-10.3461
▁बाधा	-10.3466
भ्र	-10.3467
▁अनुरोध	-10.347
▁समझौते	-10.3471
▁पैमाने	-10.3471
▁काशी	-10.3472
▁जर्मनी	-10.3473
▁दत्त	-10.3476
▁निर्यात	-10.348
▁रॉ	-10.3482
▁एक्शन	-10.3489
▁गहरा	-10.3491
▁कामयाब	-10.3492
क्ट	-10.3497
▁जोड़ी	-10.3501
▁पह	-10.3501
▁सूख	-10.3503
▁अरविंद	-10.3505
▁तीव्र	-10.3514
कांत	-10.3516
▁शिखर	-10.3518
टेक	-10.3521
▁शरण	-10.3526
▁भव्य	-10.3526
▁बहादुर	-10.3533
▁आजादी	-10.3534
▁प्राथमिकता	-10.354
▁टै	-10.3543
▁संबंधों	-10.3543
▁प्रवाह	-10.3548
दारी	-10.3548
▁सकेगा	-10.3548
▁लू	-10.3552
▁दबा	-10.3553
):	-10.3557
▁सिम	-10.3559
▁मन्त्र	-10.356
▁चौथे	-10.3564
▁बढ़ी	-10.3575
▁अगली	-10.3575
▁चाल	-10.3582
▁अत्यन्त	-10.3583
▁अंतरिक्ष	-10.3592
▁ई०	-10.3599
▁हाँ	-10.3602
▁छोड़ने	-10.3619
जन्म	-10.362
▁निम्नलिखित	-10.3621
▁आगरा	-10.3624
▁चुनावी	-10.3625
▁चर	-10.3626
घाट	-10.3629
▁निरा	-10.3631
ho	-10.3632
▁कंप्यूटर	-10.3635
▁आधा	-10.3647
विध	-10.3652
▁दोस्तों	-10.3656
up	-10.3657
▁११	-10.3659
▁अध्याय	-10.3662
▁बनवा	-10.3663
छात्राओं	-10.3664
▁थो	-10.3665
▁रायपुर	-10.3669
▁साइ	-10.367
चन्द्र	-10.3672
▁जमानत	-10.3676
▁जैक	-10.3676
▁आदित्यनाथ	-10.3678
▁स्नातक	-10.3685
▁मुँह	-10.3685
▁यहीं	-10.3686
▁सचिन	-10.3686
▁नायक	-10.3691
▁९	-10.3692
▁ख़बर	-10.3699
एसआई	-10.37
▁सर्विस	-10.3709
ात्मा	-10.3709
चंद	-10.3713
▁लेती	-10.3713
▁अपमान	-10.3714
▁वाक्य	-10.373
▁पॉल	-10.3738
▁कपिल	-10.374
▁आग्रह	-10.3749
▁इल	-10.3749
▁मास्क	-10.3751
?'	-10.3752
▁विशेषज्ञों	-10.3755
▁संस्थानों	-10.3763
▁हेल्थ	-10.3764
नियम	-10.3767
▁विधायकों	-10.3771
▁स्टोरी	-10.3772
▁निकला	-10.3772
▁भव	-10.3775
▁जिलाधिकारी	-10.3779
▁कन्	-10.3781
▁सांस	-10.3784
▁दिनेश	-10.3786
▁खासकर	-10.3788
प्रे	-10.379
▁हक	-10.3791
▁सुनने	-10.3791
▁भाग्य	-10.3792
ट्रिक	-10.3793
फाइ	-10.3795
िंदर	-10.3796
▁कर्तव्य	-10.3797
▁डालकर	-10.3799
▁नोएडा	-10.38
▁पद्म	-10.3801
▁अरुण	-10.3806
▁अवि	-10.3812
▁संचार	-10.3813
▁मोड़	-10.3821
जीवन	-10.3822
▁हिन्दुस्तान	-10.3822
▁परिजन	-10.3823
हरे	-10.3826
▁क्व	-10.3832
▁सेहत	-10.3837
▁उपयुक्त	-10.3843
▁तुम्हारी	-10.3848
▁जिक्र	-10.3851
▁महासचिव	-10.3853
▁प्रकरण	-10.3854
▁to	-10.3855
भाष	-10.3856
नेवाले	-10.3857
▁दस्त	-10.3867
▁कथन	-10.3868
▁१४	-10.3869
▁गेंदबाजी	-10.3869
▁उल्	-10.3873
▁हिम	-10.3877
▁गलती	-10.3879
▁रमेश	-10.3881
▁माया	-10.3882
▁भीषण	-10.3884
▁हाइ	-10.3888
▁सिख	-10.3889
▁लेंगे	-10.3904
▁पलट	-10.3904
्ज़	-10.3907
एनए	-10.3909
▁रॉयल	-10.3909
▁जस	-10.3913
▁सम्राट	-10.3913
▁फट	-10.3913
▁धोनी	-10.3916
▁विस्फोट	-10.3922
▁उतना	-10.3925
फल	-10.3928
पूर्ति	-10.393
▁उद्यम	-10.3933
▁पक्षों	-10.3934
▁त्योहार	-10.3934
▁तस्कर	-10.3939
▁धाम	-10.3943
▁उन्हीं	-10.3946
बन	-10.3949
▁उत्सव	-10.395
▁हैरान	-10.3951
▁जीवित	-10.3955
▁पहुंचकर	-10.3955
▁निर	-10.3956
....	-10.3958
▁इस्तीफा	-10.3958
▁कागज	-10.3961
▁डेट	-10.3962
▁बैंकों	-10.3962
▁आंख	-10.398
▁m	-10.3981
▁लापरवाही	-10.3982
▁नौकर	-10.3982
▁बनता	-10.3986
▁नाराज	-10.3992
चंद्र	-10.3993
चाल	-10.3994
▁ग़	-10.4
▁मोर	-10.4001
▁मारा	-10.4003
ुअल	-10.4004
एसए	-10.4019
▁मिसाइल	-10.4025
▁लंदन	-10.4028
और	-10.4032
▁सतह	-10.4033
▁समझौता	-10.404
्टर	-10.4043
▁ज्योति	-10.4057
▁वस्त्र	-10.4057
▁जाहिर	-10.4063
▁सम्पूर्ण	-10.4063
▁श्रमिक	-10.4067
▁समर्पित	-10.4076
▁नाश	-10.4078
os	-10.4084
र्ध	-10.4086
▁जब्त	-10.4089
राय	-10.4095
▁शपथ	-10.4095
साई	-10.4095
▁कच्चे	-10.4097
▁कार्तिक	-10.4098
od	-10.4098
ेंसी	-10.4101
ka	-10.4109
डू	-10.4114
▁दुर्ग	-10.4125
▁लटक	-10.4127
▁प्रारंभ	-10.4127
▁शु	-10.4128
म्य	-10.4129
▁विनोद	-10.4132
र्पण	-10.4134
▁बनाये	-10.4137
▁तत्त्व	-10.4147
▁आश्वासन	-10.4149
▁सैकड़ों	-10.4149
ोत्तर	-10.4151
▁स्मार्टफोन	-10.4159
▁गुलाब	-10.4159
▁सबको	-10.416
▁रांची	-10.4165
कश्मीर	-10.4165
श्व	-10.4172
▁हस्ताक्षर	-10.4177
▁शनि	-10.4179
▁विद्रोह	-10.4186
▁फु	-10.4192
▁तालाब	-10.4192
िणी	-10.4192
▁पब्लिक	-10.4195
स्या	-10.4198
▁गिरने	-10.4201
▁आजकल	-10.4201
im	-10.4209
मिया	-10.4209
▁लाइट	-10.4215
▁सोचा	-10.4219
▁पहुंचाने	-10.4222
▁ग्राहक	-10.4223
▁विपक्षी	-10.4224
सिद्ध	-10.4225
▁ट्रे	-10.4225
▁कार्यकाल	-10.4229
▁गीता	-10.423
▁छुट्टी	-10.4232
तरा	-10.4233
ालय	-10.4238
▁बताने	-10.4239
▁असल	-10.4243
▁खारिज	-10.4245
▁बदला	-10.4251
▁पहाड़ी	-10.4251
ड्स	-10.4254
क्या	-10.4254
▁शहरी	-10.4255
▁पांडेय	-10.4261
▁चंडीगढ़	-10.4263
▁अंडर	-10.4264
▁आएंगे	-10.4265
▁+	-10.4271
▁कराए	-10.4274
ya	-10.4275
▁जलवायु	-10.4276
▁भरपूर	-10.4278
ञ्च	-10.4279
▁श्रेय	-10.4288
▁अखबार	-10.4291
▁पुण्य	-10.4291
▁चौकी	-10.4295
▁पांडे	-10.4299
▁गंभीरता	-10.4299
▁सर्वोच्च	-10.4307
समय	-10.4307
▁सेल्सियस	-10.431
▁जितनी	-10.432
▁मात	-10.4322
▁१३	-10.4329
▁शिल्प	-10.4333
वारी	-10.4333
▁केंद्रों	-10.4339
▁ध्वनि	-10.4339
▁श्रीवास्तव	-10.4341
▁ड्यूटी	-10.4341
▁श्रेष्ठ	-10.4341
ies	-10.4352
▁बुनियादी	-10.4354
कृष्ण	-10.4354
▁कुमारी	-10.4357
▁आरम्भ	-10.4359
ap	-10.4364
▁साइबर	-10.4364
▁समक्ष	-10.4367
▁लड़ने	-10.4367
▁देखभाल	-10.4369
▁टाटा	-10.4373
▁उपदेश	-10.4374
पन्न	-10.4375
▁फॉलो	-10.4385
–	-10.4386
▁राधा	-10.4386
▁टैंक	-10.4387
▁व्यक्तित्व	-10.4392
र्प	-10.44
हाँ	-10.4406
न्ति	-10.4407
▁घाटी	-10.441
▁Ma	-10.441
बिल	-10.4412
▁प्रोफेसर	-10.4417
ंघ	-10.4418
इंट	-10.4425
▁मछली	-10.4426
▁यूजर	-10.4436
पथ	-10.4438
▁पहुँचा	-10.4439
▁विटामिन	-10.4445
▁गेंदों	-10.4449
पंथ	-10.4452
▁पक	-10.4458
ुत	-10.4459
▁बैक	-10.4462
▁एक्टिव	-10.4464
▁तहरीर	-10.4473
▁कार्यक्रमों	-10.4476
▁जोड़ा	-10.4477
▁रिजल्ट	-10.448
op	-10.4491
▁कटौती	-10.4492
▁बुक	-10.4493
▁आकर्षित	-10.4496
▁आँ	-10.4497
▁साहस	-10.4499
▁आतंकी	-10.4501
ऽ	-10.4501
nd	-10.4509
▁व्या	-10.451
▁पालिका	-10.451
▁आदत	-10.4512
स्ति	-10.4512
▁डालने	-10.4512
▁कैबिनेट	-10.4515
▁प्रदर्शित	-10.4515
▁दुर्गा	-10.4516
▁रघु	-10.4517
▁निक	-10.4519
▁स्टोर	-10.452
▁सीटें	-10.4522
▁बिंदु	-10.4527
▁शुक्ला	-10.453
▁क्यू	-10.4533
▁बोर	-10.4535
▁चपेट	-10.4537
▁बड़	-10.4537
▁प्रतिदिन	-10.4544
▁कहकर	-10.455
▁चक्कर	-10.455
प्रीत	-10.4551
▁लघु	-10.4553
▁अत्यंत	-10.4556
▁भेजे	-10.456
▁जंग	-10.4561
▁नक्सल	-10.4561
दाद	-10.4564
▁छिपा	-10.4565
▁प्राधिकरण	-10.4566
▁आक्रमण	-10.4566
age	-10.4572
▁मध्यप्रदेश	-10.4575
▁प्रतिष्ठित	-10.4575
▁हल्की	-10.4575
▁दिवसीय	-10.4578
Q	-10.4588
▁मेट्रो	-10.459
▁छू	-10.4592
▁जटिल	-10.4592
▁मोर्चा	-10.4596
▁तारा	-10.4601
त्ती	-10.4602
क्षु	-10.4618
न्यास	-10.4618
▁]	-10.4621
▁महादेव	-10.4623
▁आरोपित	-10.4623
▁साह	-10.4624
पुरुष	-10.4626
▁गहरी	-10.4628
ळ	-10.463
▁भड़क	-10.463
▁बीमा	-10.464
▁Sh	-10.4646
▁आँखों	-10.4649
▁हादसा	-10.4649
▁विविध	-10.4651
▁मुकेश	-10.4652
प्रभा	-10.4655
▁कठोर	-10.4656
▁सोनी	-10.4657
है	-10.4658
▁मांगी	-10.466
est	-10.4661
▁दलित	-10.4662
बर्ग	-10.4662
▁प्रान्त	-10.4663
▁सॉ	-10.4669
▁गुट	-10.4671
वालों	-10.4671
▁सेवाएं	-10.4672
our	-10.4674
▁सत्	-10.4679
▁मुझ	-10.4681
▁सिन्हा	-10.4681
▁लिहाज	-10.4682
▁होली	-10.4682
▁ग्लोबल	-10.4694
▁सहारा	-10.4694
सिया	-10.4697
तिया	-10.4697
▁फी	-10.4697
▁बॉ	-10.47
▁X	-10.4703
▁रुप	-10.4703
▁शोर	-10.4705
▁निर्मल	-10.4713
▁योग्यता	-10.4714
▁समझते	-10.4716
बंद	-10.4718
▁वैज्ञानिकों	-10.472
ाशय	-10.4724
▁भ्रम	-10.4725
em	-10.473
Z	-10.4733
▁हालाँकि	-10.4733
▁साढ़े	-10.4737
▁निभाई	-10.4745
हां	-10.4748
▁स्किन	-10.475
ंबर	-10.4751
▁नाइट	-10.476
▁प्रेमी	-10.4762
▁कमेंट	-10.4766
▁स्टैंड	-10.4767
ल्हा	-10.4768
▁जोड़ने	-10.477
▁बांट	-10.4774
▁सबके	-10.4776
▁निरंतर	-10.4782
▁चिप	-10.4783
▁अनुरूप	-10.4796
▁गायब	-10.4805
▁ज्ञापन	-10.4805
▁क्रोध	-10.4806
▁धन्यवाद	-10.4808
▁इमरान	-10.4808
महा	-10.481
ॉक्स	-10.4817
▁कैसा	-10.4818
स्थल	-10.4821
▁शह	-10.4821
▁तमिल	-10.4823
▁पद्धति	-10.4828
ok	-10.4829
टेन	-10.4836
▁विभागों	-10.4838
रंजन	-10.4838
द्रा	-10.4841
▁शै	-10.4841
्ह	-10.4844
▁निर्देशन	-10.4848
▁रूट	-10.4857
▁खरीदा	-10.4861
▁पकड़ा	-10.4863
▁प्रजा	-10.4865
he	-10.4868
▁अंकित	-10.487
▁ग्रा	-10.487
मंत्री	-10.4874
▁परिस्थिति	-10.4879
▁महल	-10.4883
II	-10.4884
BI	-10.489
▁कनाडा	-10.4891
▁पार्षद	-10.4894
▁राज्यसभा	-10.4894
▁शिष्य	-10.4895
वारा	-10.4908
▁खेलों	-10.4916
▁शुक्र	-10.4926
▁केन्द्रीय	-10.4931
▁सीनियर	-10.4934
ेटेड	-10.4936
▁तै	-10.494
▁सिफारिश	-10.495
▁घटा	-10.4951
न्दा	-10.4953
अपने	-10.4958
▁मुझसे	-10.4964
▁फाइल	-10.4964
▁आफ	-10.4967
▁गोद	-10.4968
▁ब्रे	-10.4969
▁करार	-10.4973
▁पिछली	-10.4973
▁जरा	-10.4987
बुल	-10.4993
▁स्मार्ट	-10.4993
ल्प	-10.4995
▁मजदूरों	-10.4996
बीर	-10.4997
co	-10.4998
▁डेढ़	-10.4998
▁तुर्की	-10.5
बिन	-10.5002
▁बीत	-10.5003
▁बीस	-10.5003
ट्टा	-10.5011
▁बीमारियों	-10.5015
▁रीति	-10.5016
▁राणा	-10.5019
▁खेली	-10.5022
वासी	-10.5027
चन्द	-10.5028
ण्ट	-10.5036
▁विद्यार्थी	-10.5037
▁नशे	-10.5038
ai	-10.504
▁पॉजिटिव	-10.504
▁समुद्री	-10.5042
▁नजदीक	-10.5044
▁देगी	-10.5046
▁यूनियन	-10.5047
▁सोम	-10.5047
▁निर्देशित	-10.5053
▁गणना	-10.5055
▁आश्रम	-10.5057
▁नियंत्रित	-10.5064
▁प्लांट	-10.5064
▁चलती	-10.5066
▁नित्य	-10.5066
▁संवेदनशील	-10.5067
▁फर्	-10.5067
▁उत्पत्ति	-10.5068
▁रौ	-10.507
▁चेहरा	-10.5072
▁पोर्टल	-10.5074
▁बरस	-10.5074
ब्ल	-10.5075
▁गणित	-10.5077
▁ड्राइवर	-10.5078
▁साइट	-10.5081
▁हिंदुस्तान	-10.5084
▁सुरेश	-10.5089
वाय	-10.5089
▁पुणे	-10.5089
००	-10.5107
▁लाइसेंस	-10.5108
▁चोर	-10.5113
▁रिटर्न	-10.5124
▁तस्वीरों	-10.5126
▁पार्टनर	-10.5129
फिल	-10.513
▁वेस्ट	-10.5132
▁जहर	-10.514
▁बदमाशों	-10.5141
▁चुने	-10.5142
ment	-10.5149
▁तृतीय	-10.5151
▁अनि	-10.5162
▁स्वाभाविक	-10.5168
मिल	-10.5169
सीसी	-10.5178
▁गोरखपुर	-10.5189
▁कायम	-10.5189
▁रोजाना	-10.5191
वर्धन	-10.5197
▁मुद्दा	-10.5205
▁समन्वय	-10.5206
▁बोलने	-10.5209
▁अमिताभ	-10.5209
▁नारी	-10.5213
▁नयी	-10.5214
▁शैल	-10.5217
▁स्वच्छ	-10.5221
▁उपयोगी	-10.5228
फाई	-10.5229
▁बलों	-10.5231
▁इन्हीं	-10.5233
एगा	-10.5242
▁मुसलमान	-10.5247
▁खां	-10.5249
▁मेला	-10.5254
▁ऊंचाई	-10.5255
▁कैमरा	-10.5257
▁अर्पित	-10.5258
▁बताए	-10.5262
▁गुणों	-10.5264
▁पायलट	-10.5264
▁इंद्र	-10.5265
▁दिखाने	-10.5266
vi	-10.5267
१९	-10.5267
▁आएगा	-10.527
▁वार्षिक	-10.5274
▁अवतार	-10.5286
▁PM	-10.5287
लिस	-10.5288
ट्यू	-10.5288
▁मुहम्मद	-10.5291
निर्	-10.5299
ाणु	-10.5299
▁मेले	-10.5301
ानन्द	-10.5304
▁हिट	-10.5309
▁तत्वों	-10.5314
▁आपदा	-10.5326
▁गायक	-10.5328
▁आध्यात्मिक	-10.5329
रिस	-10.5332
ik	-10.5335
▁लगाना	-10.5344
फील्ड	-10.5345
▁गूगल	-10.5347
▁कौर	-10.5347
▁रेस	-10.5354
▁आयात	-10.5356
▁शुक्ल	-10.5358
▁फीट	-10.5358
▁भेजने	-10.536
दौ	-10.536
▁ज़िले	-10.5362
▁मुफ्त	-10.5371
▁बिक	-10.5372
▁डाक	-10.5372
▁बारह	-10.5373
▁दाल	-10.5375
▁De	-10.5379
▁साँ	-10.5381
▁रिपोर्ट्स	-10.5384
▁सरस्वती	-10.5385
▁पौधे	-10.5385
स्टा	-10.5387
▁जस्टिस	-10.5388
▁वैदिक	-10.5399
न्नी	-10.5409
चौ	-10.5415
गाह	-10.5416
▁साजिश	-10.5416
हेल	-10.5419
▁एंट्री	-10.542
aj	-10.5425
▁लकड़ी	-10.5426
▁खबरें	-10.5427
ers	-10.5429
▁एप	-10.543
▁धान	-10.543
वाया	-10.543
▁माप	-10.5433
▁India	-10.5434
▁दोहरा	-10.5435
▁कष्ट	-10.544
भेद	-10.5442
▁जाओ	-10.5443
ंभ	-10.5452
▁प्रचलित	-10.5458
▁रथ	-10.546
शिष्ट	-10.5461
▁प्रशंसा	-10.5469
त्रा	-10.5472
av	-10.5473
घोष	-10.5475
बाई	-10.5481
▁बतला	-10.5481
▁पहुंचाया	-10.5485
▁सीसीटीवी	-10.5486
▁घन	-10.5487
▁एसडीएम	-10.5489
▁मोक्ष	-10.5489
▁साधना	-10.5491
▁पूजन	-10.5492
▁जवानों	-10.5495
▁ऋ	-10.5496
▁ट्रस्ट	-10.5497
▁मतभेद	-10.5508
▁शोक	-10.5509
▁सिल	-10.5515
दूत	-10.5516
▁संपन्न	-10.5525
▁दिलाने	-10.5526
▁आईटी	-10.5527
ंजर	-10.553
ग्ग	-10.5531
▁युवकों	-10.5533
खण्ड	-10.5541
▁इंजीनियरिंग	-10.5542
▁कुशल	-10.5543
▁लिखने	-10.5546
वंश	-10.5547
▁बायो	-10.5548
▁डील	-10.5554
▁ब्लड	-10.5554
▁घिर	-10.5555
पुत्र	-10.5556
▁बनाता	-10.5559
ल्लाह	-10.556
▁इंजीनियर	-10.5563
▁सतर्क	-10.5566
रेशन	-10.5574
▁दीपिका	-10.5574
▁दुश्मन	-10.5577
ढा	-10.5581
▁सहयोगी	-10.5581
▁जं	-10.5585
▁संहिता	-10.5588
▁घायलों	-10.5591
▁व्यापारी	-10.5594
▁तिरंगा	-10.5596
▁डाक्टर	-10.5598
▁माँग	-10.5601
▁ट्रैफिक	-10.5606
काउंट	-10.5608
▁कैलाश	-10.5609
▁शून्य	-10.5613
▁बर्फ	-10.5614
▁हॉ	-10.5615
▁ठग	-10.5616
▁सामूहिक	-10.5616
▁संचालक	-10.5616
▁शान्ति	-10.5618
▁बढ़ाया	-10.5619
▁रिजर्व	-10.562
मुक्त	-10.5621
▁पारित	-10.5624
्लो	-10.5624
▁औषध	-10.5631
▁मुर्	-10.5635
▁लंबा	-10.5637
▁गाना	-10.5638
ine	-10.5639
▁गुस्सा	-10.5641
▁बाई	-10.5642
▁शर्म	-10.5643
दूर	-10.5643
ci	-10.5654
▁बेचने	-10.5658
▁आदित्य	-10.566
▁गरम	-10.5665
▁जयंती	-10.5666
▁बाला	-10.5668
▁सरदार	-10.5669
▁न्यूज़	-10.5672
▁सभ्यता	-10.5673
▁$	-10.5678
▁मुसलमानों	-10.568
▁सावधानी	-10.5683
प्रो	-10.5687
▁क्रेडिट	-10.5695
▁खाता	-10.5695
▁डेस्क	-10.5695
दत्त	-10.5696
ang	-10.5698
▁साइकिल	-10.5698
▁गण	-10.5704
▁आंकड़े	-10.5705
▁पाठ्यक्रम	-10.5705
▁चो	-10.5706
▁दंड	-10.5707
▁बैग	-10.5709
▁ईसाई	-10.571
▁डै	-10.5711
▁ठोस	-10.5714
▁रेडियो	-10.572
सीए	-10.5721
लेख	-10.5726
ast	-10.5735
ूरी	-10.5739
▁फर्म	-10.5743
अंग्रेज़ी	-10.5745
▁सृष्टि	-10.5752
▁पैक	-10.5755
▁छिप	-10.5756
▁प्रोग्राम	-10.5757
ah	-10.5765
०००	-10.5768
▁सिद्धार्थ	-10.577
स्की	-10.577
▁आदिवासी	-10.5775
▁सम्भव	-10.5775
▁राजमार्ग	-10.5777
▁खाद	-10.5778
▁चीज़	-10.5791
रियर	-10.5793
▁फेर	-10.5795
▁चीफ	-10.5797
▁देरी	-10.5799
IT	-10.5802
▁नैतिक	-10.581
▁गोविंद	-10.5817
▁उपज	-10.5819
▁लाइव	-10.5823
जैसे	-10.5827
ोदय	-10.5829
▁प्लेट	-10.5831
ांतर	-10.5831
आइ	-10.5832
▁रखती	-10.5832
▁ऑफर	-10.5832
ंति	-10.5846
▁रिश्तेदार	-10.5848
▁महाविद्यालय	-10.5853
षण	-10.5857
▁ऑक्सीजन	-10.5857
▁जागरूकता	-10.5857
▁कैप	-10.586
माला	-10.5861
▁जन्मदिन	-10.5861
▁श्रीराम	-10.5861
▁शुरूआत	-10.5866
▁आरक्षण	-10.5868
▁क्रिकेटर	-10.587
▁आरोपों	-10.5872
▁उर्दू	-10.5879
▁हॉस्पिटल	-10.5879
▁त्रिपाठी	-10.5901
▁शुरु	-10.5903
▁श्रीकृष्ण	-10.5912
▁पड़ोसी	-10.5919
▁ऑन	-10.5919
▁गोवा	-10.5922
चरण	-10.5945
▁लोकतंत्र	-10.595
▁रहकर	-10.5955
▁सालाना	-10.5955
▁चोपड़ा	-10.5956
▁अन्तर्गत	-10.5956
च्छा	-10.5957
▁कनेक्शन	-10.5959
▁राजकीय	-10.596
ant	-10.5961
▁ओलंपिक	-10.5963
▁सबूत	-10.5967
नायक	-10.5969
▁अस्पतालों	-10.5972
▁पार्ट	-10.5976
▁जिम	-10.5978
▁नाबालिग	-10.5978
▁कलेक्टर	-10.5982
▁चेयरमैन	-10.5985
▁रात्रि	-10.5988
▁फिट	-10.5992
आउट	-10.5992
▁पीढ़ी	-10.5994
▁कुर्	-10.5995
▁कलाकारों	-10.5996
▁आसमान	-10.5998
▁कटा	-10.6001
५०	-10.6003
▁प्रस्तावित	-10.6003
ग्रस्त	-10.6005
निर्देश	-10.6008
▁खोलने	-10.6013
▁पका	-10.6021
▁ढेर	-10.6026
कुछ	-10.6027
▁हाथी	-10.6027
▁हड़ताल	-10.6033
▁आर्ट	-10.6036
▁हंगामा	-10.6037
▁कैमरे	-10.6037
▁मानें	-10.6047
▁शिमला	-10.6056
▁यमुना	-10.6056
▁तुम्हारा	-10.6059
▁बंग	-10.6074
▁आंतरिक	-10.6074
डीपी	-10.6084
▁सुविधाएं	-10.6087
▁कलर	-10.6088
▁पाये	-10.6088
ac	-10.6089
ru	-10.6092
▁केंद्रित	-10.6094
▁श्वेत	-10.6095
▁शिवसेना	-10.6096
▁मेरठ	-10.61
+	-10.6105
ेबल	-10.6109
गुरु	-10.6109
▁विनय	-10.6111
▁मनोरंजन	-10.6116
ोऽ	-10.6123
पत्त	-10.6124
▁अद्भुत	-10.6126
▁मानने	-10.6129
▁अन्दर	-10.6132
▁खिताब	-10.6138
टिव	-10.6148
▁आएगी	-10.6155
पश्चिम	-10.6155
▁मिश्रण	-10.6162
क्रो	-10.6163
▁हुसैन	-10.6164
▁प्रोटीन	-10.6175
▁दुकानों	-10.6176
▁मरने	-10.6176
▁अधिकारों	-10.6179
▁हिमालय	-10.6183
tion	-10.6184
मार्ग	-10.6185
व्या	-10.6187
▁यौन	-10.6187
▁झेल	-10.619
▁खरीदारी	-10.6191
भोग	-10.6191
▁फूड	-10.6191
रुप	-10.6193
▁अग्र	-10.6195
▁हज़ार	-10.6198
ङ्	-10.6198
एमसी	-10.6202
▁आलिया	-10.6203
▁लिपि	-10.6206
▁महेंद्र	-10.6207
▁आजाद	-10.621
▁मंड	-10.621
▁चक	-10.6215
▁दर्शा	-10.6216
▁जिसमे	-10.6217
▁छापेमारी	-10.622
▁प्रयासों	-10.6222
▁पेंट	-10.6224
▁मानो	-10.6226
▁मस्त	-10.623
▁Y	-10.6232
ूँगा	-10.6233
▁विहार	-10.6243
▁करवाने	-10.6247
▁अनन्त	-10.6252
▁राशन	-10.6253
▁बोलते	-10.6261
डोर	-10.6264
▁खेलते	-10.6264
▁सलाम	-10.6265
▁प्रबंधक	-10.6267
▁सूचकांक	-10.6269
▁दृढ़	-10.6269
माइ	-10.6272
▁घटक	-10.6276
▁बेस्ट	-10.6276
▁बहाल	-10.6284
▁प्रबंध	-10.6285
▁ऑल	-10.6285
▁जीते	-10.6289
▁उपकरणों	-10.6291
▁हॉल	-10.6291
▁टीमें	-10.6292
▁आपत्ति	-10.6298
da	-10.6298
▁ड्रेस	-10.63
▁कार्यरत	-10.6303
ैक्ट	-10.6304
▁वाय	-10.631
▁आकर्षण	-10.6311
▁माला	-10.6311
▁पैदल	-10.6312
वर्स	-10.6317
▁इलाहाबाद	-10.6326
▁अल्लाह	-10.6329
▁देशभर	-10.6329
▁भला	-10.633
▁महाभारत	-10.633
▁बाजारों	-10.6332
▁ठहर	-10.6333
▁वास्तु	-10.6338
▁लीक	-10.6339
▁#	-10.6344
▁असं	-10.6346
▁जर्मन	-10.6346
ोत्	-10.6348
▁देखता	-10.6351
२५	-10.6352
▁डाटा	-10.6352
▁ब्लू	-10.6359
▁संस्थापक	-10.6365
क्षेप	-10.6365
ॉस	-10.6367
पत्ति	-10.6368
▁दर्शाता	-10.6368
जुल	-10.6371
▁चालू	-10.6371
▁पैरों	-10.6372
▁फैशन	-10.6374
ist	-10.6375
ja	-10.6376
pp	-10.6377
वर्ड	-10.639
▁कंपनियां	-10.6391
ज्जा	-10.6393
▁व्यस्त	-10.6394
▁नकद	-10.6399
्रू	-10.6401
▁बिर	-10.6403
▁इलेक्ट्रॉनिक	-10.6407
ैंड	-10.6408
▁रावत	-10.6415
▁information	-10.6422
▁रिहा	-10.6429
सीआई	-10.643
▁साहिब	-10.6434
▁चूंकि	-10.6437
▁व्यंजन	-10.6438
▁देखो	-10.6444
प्पा	-10.6445
▁आंध्र	-10.6445
सूत्र	-10.6447
▁ललित	-10.6448
▁किंग्स	-10.6454
▁बचे	-10.6456
ive	-10.6457
युग	-10.6466
▁कण	-10.6472
▁प्रयागराज	-10.6472
▁ईंधन	-10.6476
▁पूंजी	-10.6476
▁बॉडी	-10.6477
शुद्ध	-10.6482
्दी	-10.6483
▁अप्र	-10.6485
▁मैक	-10.6486
▁रेंज	-10.6487
▁सौंपा	-10.6493
▁लगेगा	-10.6501
▁तलाक	-10.6507
▁पीछा	-10.6508
▁प्लास्टिक	-10.6511
मात्र	-10.6513
▁व्यापारियों	-10.6513
▁मिर्च	-10.6514
▁टीकाकरण	-10.6516
▁डु	-10.6517
ve	-10.6524
▁ज़ि	-10.6524
▁प्रसार	-10.6528
पुट	-10.653
▁माध्यमिक	-10.6532
दोष	-10.6533
▁available	-10.6538
ST	-10.6543
▁चरम	-10.6544
▁तूफान	-10.6546
▁चतुर	-10.655
▁उद	-10.6558
ायत	-10.656
▁आकर्षक	-10.6561
ान्तर	-10.6564
▁जानना	-10.6565
▁भागीदारी	-10.6569
▁बतौर	-10.6569
▁पकड़ने	-10.6571
▁छीन	-10.6571
घु	-10.6573
क्यू	-10.6575
▁घटनास्थल	-10.6577
ॉन्ग	-10.658
ग्रेस	-10.6584
▁हार्दिक	-10.6585
ाध्यक्ष	-10.6589
▁झटका	-10.6589
▁Additional	-10.6593
▁परिणामस्वरूप	-10.6594
▁आमिर	-10.6596
▁पोस्टर	-10.66
▁ईसा	-10.6603
▁संदेह	-10.6619
▁पाएंगे	-10.662
▁पत्रकारों	-10.6622
▁बादशाह	-10.6626
▁अनुपम	-10.6627
▁निपटने	-10.6632
▁स्पेन	-10.6632
ग्ध	-10.6635
▁स्कीम	-10.6638
▁उड़ा	-10.6641
▁पोषण	-10.6642
IC	-10.6647
▁भूकंप	-10.6652
▁आधे	-10.6654
मित्र	-10.6656
▁हानि	-10.6657
▁यथार्थ	-10.6657
▁विवेचन	-10.6659
▁संदीप	-10.666
▁आईसीसी	-10.6664
ن	-10.6667
▁आन्दोलन	-10.6667
▁स्वतन्त्र	-10.6669
▁•	-10.6671
▁शौक	-10.6672
▁शाही	-10.6674
▁पहने	-10.6678
▁डिप्टी	-10.6679
सागर	-10.668
▁बैठकर	-10.668
▁कड़ा	-10.6682
ard	-10.6685
▁नहर	-10.6685
ेटिव	-10.6688
▁सौर	-10.6692
▁सपने	-10.6692
▁फायर	-10.6692
▁रोगी	-10.6702
▁महत्त्वपूर्ण	-10.6704
▁सिखा	-10.6705
▁विभाजन	-10.6707
बेट	-10.6709
▁भेंट	-10.671
▁महेश	-10.6711
▁पैन	-10.6713
▁द्वि	-10.6713
ट्रो	-10.6717
वर्ग	-10.6719
▁मुहैया	-10.672
▁आशीर्वाद	-10.6723
▁संजीव	-10.6725
▁समझना	-10.6728
▁चट	-10.6733
▁अहमदाबाद	-10.6736
▁वेस्टइंडीज	-10.6743
▁आज्ञा	-10.6744
▁खि	-10.6746
▁भोजपुरी	-10.6747
▁प्रशांत	-10.6747
▁मनु	-10.6747
जिन	-10.675
▁जूझ	-10.6751
▁जितने	-10.6752
▁गवाह	-10.6752
▁महासागर	-10.6757
▁ताप	-10.676
▁निकाली	-10.6761
संघ	-10.6764
▁भावनाओं	-10.6765
▁मरम्मत	-10.6766
▁नेहरू	-10.6767
▁बैटरी	-10.6768
▁खण्ड	-10.6769
▁आंकड़ा	-10.677
▁अधिवक्ता	-10.6774
▁बेड	-10.6775
▁यानि	-10.6782
▁अखिल	-10.6782
▁बिन	-10.6782
▁जताया	-10.6783
▁चांद	-10.6785
▁स्नेह	-10.6788
▁चुप	-10.6789
▁स्मरण	-10.6791
▁सराहना	-10.6798
▁नक्षत्र	-10.6798
▁सुभाष	-10.6799
ट्रि	-10.6799
▁महावीर	-10.6801
▁सावन	-10.6813
▁धरना	-10.6818
▁लालू	-10.6821
▁पदाधिकारियों	-10.6822
▁कॉलोनी	-10.6826
▁परियोजनाओं	-10.6828
▁उमर	-10.6828
▁विफल	-10.6829
एसपी	-10.6831
ind	-10.6832
▁वाणिज्य	-10.6834
▁ध्रुव	-10.6834
▁मजबूती	-10.6836
▁फायदेमंद	-10.6838
▁आस्था	-10.6844
▁अनुराग	-10.6855
▁पिछड़	-10.6855
सिल	-10.686
▁मुगल	-10.6867
▁पंख	-10.6869
▁कमान	-10.687
▁सिलेंडर	-10.6871
▁गर्व	-10.6872
▁जुर्माना	-10.6875
▁स्थलों	-10.6888
▁निकली	-10.6896
▁तेजस्वी	-10.6899
▁नाना	-10.6901
▁वृद्ध	-10.6904
पीएफ	-10.6905
▁समस्याएं	-10.6906
▁मातृ	-10.6907
▁मतदाता	-10.6908
▁दिखे	-10.6911
▁फुटबॉल	-10.6911
▁सब्जी	-10.6911
▁चम	-10.6919
▁पाकर	-10.6929
▁सम्मिलित	-10.6935
▁परिचित	-10.6941
▁फीड	-10.6941
▁पंकज	-10.6948
▁दुबे	-10.6951
▁दरवाजे	-10.6951
▁पुत्री	-10.6952
▁खेतों	-10.6954
▁गठित	-10.6964
▁चरणों	-10.6964
▁दवाओं	-10.6967
▁बोझ	-10.6967
▁उदास	-10.697
م	-10.6972
▁साझेदारी	-10.6972
▁समर्थ	-10.6972
▁सिंचाई	-10.6984
▁प्रदीप	-10.6985
▁प्रयुक्त	-10.6986
▁फायरिंग	-10.6987
मार्क	-10.6989
▁नरेन्द्र	-10.6995
प्ले	-10.6997
▁आईं	-10.6999
▁छप	-10.7007
▁टेली	-10.7007
▁फुल	-10.7012
▁स्टूडेंट्स	-10.7013
अर्चना	-10.7019
▁बचत	-10.702
▁ओडिशा	-10.7021
दायक	-10.703
@	-10.7033
गृह	-10.7037
▁स्वीकृति	-10.7039
▁कक्ष	-10.7048
▁वादा	-10.7048
डाउन	-10.7048
▁डालें	-10.7053
▁शिक्षण	-10.7055
▁शिशु	-10.7055
▁तह	-10.7056
▁ढूंढ	-10.7059
▁क्रमशः	-10.7062
▁दीर्घ	-10.7062
▁निचले	-10.7066
▁चेतना	-10.7067
▁अकादमी	-10.707
प्रिय	-10.7072
▁दरबार	-10.7079
▁एशियाई	-10.7079
▁सुल्तान	-10.7086
स्कर	-10.7087
▁कोशिका	-10.7088
▁रोशनी	-10.709
आईसी	-10.7091
▁बज	-10.7091
▁व्यावसायिक	-10.7094
▁शक्तिशाली	-10.7105
▁पहना	-10.7108
▁कृष्णा	-10.711
राज्य	-10.7116
▁अपराधियों	-10.7119
▁Mo	-10.7126
▁मौर्य	-10.7137
▁पारिवारिक	-10.714
▁पंत	-10.7141
्थ	-10.7145
▁यूट्यूब	-10.7152
▁शोभा	-10.7156
=	-10.7158
▁मुखिया	-10.7158
▁प्रीमियर	-10.7165
▁धारणा	-10.7166
▁व्यास	-10.7169
▁रहित	-10.7177
गिन	-10.7179
▁दादा	-10.7182
▁बाप	-10.7182
▁रोका	-10.7185
▁इंस्पेक्टर	-10.7185
▁गंवा	-10.7187
▁ताज	-10.7188
▁पकड़े	-10.7197
▁झलक	-10.7201
ैक्स	-10.7203
बैक	-10.7204
all	-10.7207
▁टेक्नोलॉजी	-10.721
▁रामायण	-10.721
▁चिन्ह	-10.721
▁तेज़	-10.7211
▁पत्रकारिता	-10.7212
▁सोवियत	-10.7214
▁कीमतें	-10.7216
ly	-10.7218
▁निष्	-10.7221
▁अभियंता	-10.7223
▁राजेंद्र	-10.7224
▁ऋतु	-10.7233
▁अनाज	-10.7233
°	-10.7239
ृति	-10.7241
▁स्तरीय	-10.7255
▁न्यायिक	-10.7258
▁संपादक	-10.726
▁अश्विन	-10.7261
▁अमल	-10.7262
▁विधेयक	-10.7265
▁पवार	-10.7265
▁उपभोक्ता	-10.7266
▁दुकानदार	-10.7268
▁गहराई	-10.7273
▁इंच	-10.7279
▁समूहों	-10.728
▁फ्रंट	-10.7284
▁ट्रेंड	-10.7285
▁अरे	-10.729
▁रेफर	-10.7303
▁महोत्सव	-10.7303
न्यू	-10.7303
▁औपचारिक	-10.7311
▁संसदीय	-10.7311
गीत	-10.7319
▁रुपया	-10.7321
▁ट्रैक्टर	-10.7328
▁बेरोजगार	-10.7332
▁चम्मच	-10.7332
▁विरासत	-10.7336
▁मथुरा	-10.734
▁प्रथा	-10.7341
▁हिस्सेदारी	-10.7345
ct	-10.7345
▁ट्रेलर	-10.7346
थु	-10.7357
▁रिश्ता	-10.7357
▁मस्तिष्क	-10.7366
▁घबरा	-10.7368
▁जोरदार	-10.737
▁डेब्यू	-10.7374
▁कैपिटल	-10.7374
▁हरकत	-10.7377
ज़े	-10.7382
▁आह्वान	-10.7382
गति	-10.7385
▁एकदम	-10.7387
▁जानिए	-10.7391
▁ब्यूरो	-10.7391
▁मलिक	-10.7393
▁गड़बड़	-10.7395
▁अर्थात	-10.7396
▁आखिरकार	-10.7403
▁जाएंगी	-10.7403
▁तिल	-10.7408
▁परस्पर	-10.741
о	-10.7412
▁पैरा	-10.7419
▁कबीर	-10.7428
▁कारोबारी	-10.7429
▁पेयजल	-10.7433
▁स्वप्न	-10.7433
निर्माण	-10.7436
▁भक्तों	-10.7437
▁संस्थाओं	-10.7437
▁रणवीर	-10.7438
▁अनंत	-10.7439
▁एरिया	-10.7439
▁उपभोक्ताओं	-10.7441
भक्त	-10.7445
▁उपलब्धि	-10.7447
▁एफआईआर	-10.7451
▁पंप	-10.7458
▁लक्ष्मण	-10.7459
▁टोल	-10.7465
▁हथ	-10.7467
pa	-10.7469
गू	-10.747
▁जायगा	-10.7472
▁इति	-10.7472
▁परामर्श	-10.7476
▁मूल्यांकन	-10.7476
▁श्लोक	-10.7481
▁ट्रेनिंग	-10.7488
▁पंक्ति	-10.7492
*	-10.7492
बड़े	-10.7495
▁काटने	-10.7496
▁अकबर	-10.7502
▁उदार	-10.751
▁व्ह	-10.751
▁बरेली	-10.7511
तंत्र	-10.7511
▁जिलाध्यक्ष	-10.7515
▁डिवाइस	-10.7515
▁बदमाश	-10.7515
tic	-10.752
▁अल्प	-10.752
डु	-10.7543
▁ब्रज	-10.7543
▁ईस्ट	-10.7544
मध्य	-10.7546
▁टेलीविजन	-10.7549
▁श्रीमती	-10.7549
▁शॉर्ट	-10.7552
च्य	-10.7553
IA	-10.7556
▁मधुर	-10.7559
▁कमाल	-10.7563
▁जगत्	-10.7564
▁गतिविधि	-10.7568
▁सटीक	-10.7571
ॉर्न	-10.7572
iv	-10.7573
▁लौटने	-10.7574
▁रोशन	-10.7574
▁वरुण	-10.7575
▁दीवान	-10.7576
▁बनती	-10.7577
▁जोड़े	-10.7582
▁ड्राइव	-10.7586
विद्या	-10.7587
▁वाणी	-10.7588
▁मौजूदगी	-10.759
▁बहुमत	-10.7591
▁विभाजित	-10.7592
▁संपूर्ण	-10.7596
▁महत्त्व	-10.7597
▁आभार	-10.7602
वचन	-10.7607
एसटी	-10.7617
▁कंस	-10.7617
विष	-10.7617
▁आलम	-10.7618
▁मीना	-10.7622
▁मंजिल	-10.7624
▁बाय	-10.7632
ish	-10.7635
mo	-10.7637
▁जियो	-10.764
▁कंगना	-10.764
▁वैसा	-10.7642
▁डाउनलोड	-10.7644
▁तौ	-10.7645
ver	-10.7647
▁पाइप	-10.7658
▁बाँ	-10.7658
▁मंत्रियों	-10.7663
▁धूल	-10.7664
▁प्रतिरोध	-10.7664
ियस	-10.7667
▁अध्यापक	-10.767
▁शैक्षणिक	-10.767
▁गोला	-10.768
वर्ण	-10.768
▁जिसको	-10.7681
▁लीला	-10.7682
▁ग्वालियर	-10.7684
▁मीटिंग	-10.7686
▁बिलकुल	-10.7686
▁रजिस्टर	-10.7689
▁दिखने	-10.7694
▁ठाकरे	-10.7701
▁ट्रांस	-10.7702
ub	-10.7702
▁माइक्रो	-10.7705
▁लिखते	-10.7706
▁दिसम्बर	-10.7714
▁देहरादून	-10.7714
१०	-10.7716
भिन्न	-10.7719
▁नरेश	-10.772
▁साहित्यिक	-10.7723
सर्ग	-10.7725
▁ऑयल	-10.7725
▁ख्याल	-10.7726
वंशी	-10.7728
ath	-10.7736
▁ऑर्डर	-10.7737
न्वित	-10.7739
दृश्य	-10.774
ou	-10.7741
छे	-10.7743
▁फांसी	-10.7745
ge	-10.7747
▁समृद्ध	-10.7752
ud	-10.7759
▁दफ्तर	-10.7762
▁संयोग	-10.7763
▁पूछे	-10.7763
▁टाइम्स	-10.7769
▁दुष्कर्म	-10.7771
ran	-10.7773
▁पैकेज	-10.7773
त्त्व	-10.7777
▁कराना	-10.7782
▁स्वच्छता	-10.7784
▁शरद	-10.7784
खु	-10.779
जिस	-10.7792
▁स्पोर्ट्स	-10.7793
स्टिक	-10.7796
▁मैसेज	-10.7798
▁ट्रॉफी	-10.7802
विच	-10.7803
▁अक्ष	-10.7807
▁बैठी	-10.7809
▁सुशांत	-10.7811
▁कमिश्नर	-10.782
▁आपराधिक	-10.7824
▁बस्ती	-10.7825
▁मदन	-10.7834
▁रिलीज़	-10.7834
▁मैनेजर	-10.7835
▁शत	-10.7839
▁यम	-10.7842
▁नकारात्मक	-10.7842
ाधीन	-10.7846
▁मामूली	-10.7846
▁असफल	-10.7848
▁थोड़े	-10.7853
र्द्ध	-10.786
▁बसपा	-10.7866
▁हथियारों	-10.7868
▁मेजबान	-10.7869
▁दै	-10.7869
क्रि	-10.7869
▁पश्चात	-10.787
▁फतेह	-10.7874
▁निरीक्षक	-10.7878
▁हल्के	-10.7891
▁प्रसारण	-10.7894
मृत	-10.7897
ष्टि	-10.79
▁विचारधारा	-10.79
CC	-10.7904
▁मिथ्या	-10.7904
▁नतीजे	-10.7904
यात्रा	-10.7906
▁बेंगलुरु	-10.7909
ॉर्ड	-10.7914
▁फोर्स	-10.7922
▁नदियों	-10.7928
▁खनन	-10.7929
DA	-10.7932
बाग	-10.7932
▁खैर	-10.7935
ऑक्स	-10.7935
समृद्धि	-10.7937
हाई	-10.7948
्योर	-10.7957
▁अभ्यर्थियों	-10.7958
ity	-10.7962
▁नौसेना	-10.7962
▁आतंकवादी	-10.7964
▁धूम	-10.7969
▁कार्बन	-10.7973
ep	-10.7973
▁लख	-10.7974
▁गाजियाबाद	-10.7976
▁एंट	-10.7979
निष्ठ	-10.798
▁रजिस्ट्रेशन	-10.798
▁प्रभात	-10.7982
▁पच	-10.7983
▁पाती	-10.7989
▁आधी	-10.799
▁ससुराल	-10.799
▁आयुर्वेद	-10.7994
▁जागरूक	-10.7998
▁गाइड	-10.8006
▁कुलदीप	-10.8006
▁नाराजगी	-10.8008
▁साइंस	-10.8014
▁सेंट्रल	-10.8016
▁उठाकर	-10.802
▁अनुसूचित	-10.8021
▁निष्कर्ष	-10.8021
▁अड्डे	-10.8021
पीठ	-10.8022
▁परमात्मा	-10.8027
▁स्मारक	-10.803
▁भटक	-10.8031
▁सिपाही	-10.8039
▁बंट	-10.804
▁महानगर	-10.804
▁घूमने	-10.804
▁गुरू	-10.804
स्फ	-10.8046
▁देवताओं	-10.8046
▁जोधपुर	-10.8048
▁अपराधी	-10.8055
▁बरसात	-10.8057
▁भंग	-10.806
▁ऊँचा	-10.8062
▁टाइ	-10.8063
▁दार्शनिक	-10.8066
▁पेशेवर	-10.8066
फॉर्म	-10.8066
श्वर	-10.807
▁ज़िला	-10.8073
▁गहरे	-10.8074
MC	-10.8077
सराय	-10.8077
▁अमरीका	-10.808
व्व	-10.8084
▁बाघ	-10.8086
▁हसन	-10.8087
▁एपिसोड	-10.8093
▁उछाल	-10.8094
▁कप्तानी	-10.8101
▁पौधों	-10.8103
▁धवन	-10.8103
▁लौ	-10.8105
▁उठे	-10.8106
▁प्रसारित	-10.8108
▁खुली	-10.8112
▁लिप	-10.8115
ric	-10.8119
▁मारकर	-10.8119
▁तेलंगाना	-10.8121
▁झाड़	-10.8121
art	-10.8122
गुप्त	-10.8126
▁चिकन	-10.8126
▁बढ़ाकर	-10.8129
▁कारक	-10.8133
▁स्पर्श	-10.8135
तुम	-10.8138
▁बुझ	-10.8138
▁सर्वेक्षण	-10.8145
▁चैंपियनशिप	-10.8149
▁टेबल	-10.8149
▁तुमने	-10.8149
▁मनाने	-10.8151
▁इवेंट	-10.8153
नारायण	-10.8154
▁स्पेस	-10.8157
▁भोज	-10.8159
▁ड्रग	-10.8163
▁आतंकवाद	-10.8166
व्यवस्था	-10.8167
▁शीत	-10.8167
▁जानवरों	-10.8172
▁जिंदा	-10.8173
सीएस	-10.8175
▁ईमानदार	-10.8176
▁रणबीर	-10.818
ड़ियों	-10.8189
▁सऊदी	-10.8189
▁उतनी	-10.819
▁पुकार	-10.8197
आईपी	-10.8198
▁बैंड	-10.8199
▁निपटा	-10.8204
▁रॉय	-10.8205
▁मेघ	-10.821
▁गहलोत	-10.8212
▁फ़ि	-10.8214
▁बैल	-10.8225
चरित	-10.8226
▁कैश	-10.8226
▁फ्लैट	-10.8231
▁किलोग्राम	-10.8232
▁मेहमान	-10.8236
▁मानता	-10.8236
आईएम	-10.8238
▁देखिए	-10.8239
▁राजू	-10.8247
▁साहू	-10.8253
▁रोटी	-10.8254
▁तरीकों	-10.8254
▁कार्यकारी	-10.8254
▁मेहता	-10.8255
و	-10.8259
▁हस्तक्षेप	-10.8259
▁इकट्ठा	-10.8268
▁भजन	-10.8268
▁ज़रूर	-10.8269
▁वात	-10.8269
▁रेप	-10.8276
▁कम्प	-10.8276
▁दिल्लीः	-10.8276
▁जूनियर	-10.8278
▁हमलों	-10.8279
▁बूथ	-10.8289
▁अफसरों	-10.8289
▁वैध	-10.8294
फुल	-10.8296
रुद्ध	-10.8296
▁वसूली	-10.8301
▁अभिव्यक्ति	-10.8302
▁ग्रोथ	-10.8305
▁मिलेंगे	-10.8309
AN	-10.8309
▁एजेंसियों	-10.8314
▁सलाहकार	-10.8317
▁प्रशंसक	-10.8319
स्टी	-10.8319
▁प्याज	-10.834
▁सूचित	-10.8342
▁सोनिया	-10.8344
▁समर्थकों	-10.8351
▁साड़ी	-10.8352
▁हाईवे	-10.8352
▁माफी	-10.8356
▁पशुओं	-10.8365
▁इटली	-10.8366
वाड़ी	-10.8377
स्मि	-10.8377
▁विद्वान	-10.8377
शासन	-10.8378
▁जुटी	-10.8378
▁शॉ	-10.8379
आरसी	-10.838
▁अंब	-10.8387
▁वसूल	-10.8388
▁खाड़ी	-10.8398
फ्रे	-10.8399
शियन	-10.8405
oli	-10.8406
▁सुशील	-10.8409
▁घास	-10.8409
▁प्रसंग	-10.8418
▁उन्नति	-10.8419
▁जनजाति	-10.8424
▁The	-10.8424
▁सौंदर्य	-10.8426
▁पृ०	-10.8426
▁बहू	-10.8428
▁मोड	-10.843
▁अपहरण	-10.8431
▁श्रद्धांजलि	-10.8436
▁मैने	-10.8437
मुझे	-10.8438
▁जीतकर	-10.844
▁साय	-10.844
स्वरूप	-10.8443
द्धि	-10.8443
▁शिवराज	-10.8445
विलास	-10.8454
▁करेंगी	-10.8455
ET	-10.8456
▁चढ़ाई	-10.846
▁तत्	-10.8471
▁सांप	-10.8473
▁एकजुट	-10.8478
▁सेवक	-10.8481
▁सिवा	-10.8483
▁उद्यान	-10.8485
▁स्वीकृत	-10.8489
▁प्रोसेस	-10.8489
▁रुद्र	-10.8491
▁डेविड	-10.8493
▁सच्चाई	-10.8493
▁बालिका	-10.8495
▁हमलावर	-10.8495
▁गुलाम	-10.8497
क्ता	-10.8504
▁व्यावहारिक	-10.8507
▁पंजीकरण	-10.8508
▁कैसी	-10.8511
▁अतिक्रमण	-10.8521
इंस	-10.8522
▁मल्टी	-10.8523
▁बरकरार	-10.8526
▁लगाएं	-10.8527
▁३०	-10.8532
लम्ब	-10.8532
त्ति	-10.8536
▁संग्रहालय	-10.8541
▁आमंत्रित	-10.8545
▁फूट	-10.8548
▁गुड़	-10.8548
▁छिड़	-10.8553
▁ग्रेट	-10.8555
बुद्ध	-10.8555
जै	-10.8558
▁गिरोह	-10.856
फ्ल	-10.856
▁ड्रोन	-10.8564
ञ्ज	-10.8565
चीन	-10.8569
▁जेब	-10.8578
▁मासिक	-10.8583
▁आँखें	-10.8585
▁साक्ष्य	-10.8588
▁हराया	-10.8591
▁ग्राउंड	-10.8594
▁चौथी	-10.8594
▁क्षति	-10.8597
▁अफसर	-10.8599
▁शीतल	-10.8601
वादियों	-10.8604
▁हल्का	-10.8607
आरपी	-10.8608
res	-10.861
▁भाँति	-10.8612
▁बनाती	-10.8614
▁समर्थक	-10.8616
▁गवर्नर	-10.864
▁संतुलन	-10.864
▁सीओ	-10.8641
AT	-10.8649
▁अवार्ड	-10.865
▁मासूम	-10.865
▁हवाला	-10.865
▁लड़का	-10.8656
▁महाराजा	-10.866
ill	-10.8669
▁सुपरस्टार	-10.8669
▁सूरत	-10.8674
▁दरवाजा	-10.8684
▁उग्र	-10.8687
▁रसायन	-10.8689
▁मानवीय	-10.8708
▁अल्पसंख्यक	-10.8708
▁संतान	-10.8711
▁मेयर	-10.8715
▁भाइयों	-10.8716
▁रामपुर	-10.8723
▁हवाले	-10.8724
▁गंग	-10.8725
▁एक्सचेंज	-10.8727
▁आक्रोश	-10.8727
▁ठंडा	-10.8727
▁मनोहर	-10.8738
▁उपाध्याय	-10.8742
▁प्रतिनिधियों	-10.8743
▁नीरज	-10.8746
▁टुकड़े	-10.8751
लॉग	-10.876
▁अश्व	-10.8772
▁प्रोडक्ट	-10.8776
नुसार	-10.8778
▁अटक	-10.8779
▁सावधान	-10.8783
▁उलट	-10.8783
▁हार्ट	-10.8786
▁चौथा	-10.8786
▁व्यय	-10.879
▁क्लीन	-10.8795
▁बुखार	-10.8796
▁चोरों	-10.8798
▁लायक	-10.8802
▁सुहा	-10.8811
▁नीतियों	-10.8812
▁Pro	-10.8813
▁मकसद	-10.8815
▁जिनसे	-10.8816
▁फोकस	-10.8819
▁विनाश	-10.8821
▁उपायुक्त	-10.8825
घट	-10.8827
▁संगम	-10.8831
▁फिटनेस	-10.8834
▁जरिये	-10.8835
▁ट्रांसफर	-10.8835
▁कामकाज	-10.8839
▁कॉन्फ्रेंस	-10.8839
▁पाउडर	-10.8839
▁डीसी	-10.8846
्टन	-10.8848
▁राजनैतिक	-10.8849
▁शीर्षक	-10.8854
▁जनगणना	-10.8859
▁रिटायर	-10.8859
▁उपाधि	-10.8861
▁ईडी	-10.8868
▁Ka	-10.8871
▁आदर	-10.8873
▁अनुशासन	-10.888
▁दीक्षित	-10.8881
▁लापता	-10.8894
▁शूट	-10.8902
एक्स	-10.8906
▁दायरे	-10.8908
▁इंदिरा	-10.8908
▁बेंच	-10.8909
▁साक्षात्कार	-10.8913
▁ठेकेदार	-10.8913
डीआर	-10.8919
ي	-10.8923
▁समग्र	-10.8925
पोल	-10.8925
िष्ठ	-10.8925
▁रोज़	-10.8928
▁राउंड	-10.893
▁निवासियों	-10.8942
▁बर्तन	-10.8943
ट्रॉ	-10.8944
▁मुखर्जी	-10.8948
▁एसिड	-10.8949
▁अवगत	-10.8951
▁अंग्रेजों	-10.8959
▁सतीश	-10.8959
लोग	-10.896
▁कूद	-10.8963
भाई	-10.8966
ts	-10.897
▁शेट्टी	-10.8973
▁अभिभावक	-10.8973
▁उलझ	-10.8979
▁दावे	-10.8979
▁भगत	-10.8982
▁प्रोत्साहित	-10.8982
▁हॉट	-10.8991
▁तालिबान	-10.8992
▁तिलक	-10.8993
▁गढ़वाल	-10.8994
▁अवध	-10.9001
▁दुर्लभ	-10.9002
tra	-10.9004
▁काउंसिल	-10.9007
मीटर	-10.9012
▁घटनाएं	-10.9015
फिर	-10.9017
▁मजाक	-10.9018
▁आरती	-10.902
▁मतदाताओं	-10.9021
आईएस	-10.9021
लाइट	-10.9038
▁सोनू	-10.9038
▁खोला	-10.9038
▁आशीष	-10.9042
ाधिक	-10.9043
▁अब्दुल	-10.9047
▁ज़रूरत	-10.9048
िज्म	-10.905
▁चलेगा	-10.905
▁लिखकर	-10.906
▁दांत	-10.9069
▁खन्ना	-10.9073
▁Al	-10.9075
▁पढ	-10.9077
▁गर्भवती	-10.9078
▁मौलिक	-10.908
▁एकादशी	-10.9082
रक्षा	-10.9084
ब्रि	-10.9085
▁मदर	-10.9085
▁निलंबित	-10.9092
▁हिम्मत	-10.9097
▁बैंकिंग	-10.91
▁समापन	-10.9101
वुड	-10.9102
▁विधा	-10.9105
▁रोमांच	-10.9108
▁सर्जरी	-10.9108
▁सप्त	-10.9112
२०	-10.9112
▁मनीकंट्रोल	-10.9113
▁पर्दे	-10.9114
▁प्राचार्य	-10.9118
▁साइड	-10.9119
▁शोषण	-10.912
▁करनेवाले	-10.912
▁लड़ा	-10.9124
▁फेस	-10.9124
▁हिंद	-10.9126
▁बुकिंग	-10.9127
▁अंसारी	-10.9128
▁पर्यटकों	-10.913
▁रेटिंग	-10.913
▁कवियों	-10.9135
▁अन्यथा	-10.9139
▁विद्वानों	-10.9142
▁मोती	-10.9146
▁तिब्बत	-10.9148
▁पार्टियों	-10.915
▁रसोई	-10.9153
▁ऐश्वर्य	-10.9163
चू	-10.9169
NS	-10.9178
▁अनुबंध	-10.9182
▁कुत्ते	-10.9183
▁अवधारणा	-10.9193
▁अवकाश	-10.9194
▁फाउंडेशन	-10.9199
▁बैठने	-10.9199
▁बोतल	-10.9201
▁फुटेज	-10.9201
▁द्विवेदी	-10.9204
▁पॉलिसी	-10.9204
ग्ल	-10.9205
्यूट	-10.9212
▁अटल	-10.9215
▁सितम्बर	-10.9224
▁गोयल	-10.9226
▁एलि	-10.923
SC	-10.9236
▁क्राइम	-10.9239
▁कहलाता	-10.924
▁प्रिंट	-10.9244
sion	-10.9245
▁लौटा	-10.9248
▁टीचर	-10.9252
▁उच्चतम	-10.9263
▁कृपया	-10.9265
▁अष्ट	-10.9269
▁स्त्रियों	-10.9276
▁मोटा	-10.9276
▁सशस्त्र	-10.928
▁बाधित	-10.9285
▁पड़ते	-10.9291
▁नवम्बर	-10.9293
▁विविधता	-10.93
mp	-10.9302
▁तेरे	-10.9304
au	-10.9309
▁सहमत	-10.9318
▁अजीब	-10.9323
▁विभागीय	-10.9325
▁घड़ी	-10.9326
▁गली	-10.9328
▁गैंग	-10.9331
▁श्रो	-10.9337
▁Read	-10.9338
▁आलोक	-10.9339
▁नियत	-10.934
▁सुर्खियों	-10.9342
▁आलू	-10.9344
▁फेल	-10.9347
▁सिलसिला	-10.9347
▁अजमेर	-10.9357
▁जवाहर	-10.9358
▁प्राइम	-10.9358
▁शुभारंभ	-10.9362
ावस्था	-10.9363
▁टाइगर	-10.9364
▁बर्बाद	-10.9369
▁उत्पादक	-10.937
▁स्थगित	-10.9373
▁निराशा	-10.9377
▁उपयोगकर्ता	-10.9383
▁लगवा	-10.9384
ुष	-10.9388
▁मणिपुर	-10.9388
▁वर्णित	-10.9402
▁वंचित	-10.9404
▁लंबाई	-10.9406
▁इनकम	-10.9408
▁राखी	-10.9413
▁खनिज	-10.942
स्वामी	-10.9428
▁आँख	-10.9434
▁मैक्स	-10.9434
तन्त्र	-10.9436
▁आवाज़	-10.9439
▁डबल	-10.9442
▁बूंद	-10.9442
▁एजेंट	-10.9451
▁जाँच	-10.9459
▁चाकू	-10.946
▁इंतजाम	-10.9461
मिनी	-10.9462
६०	-10.9462
ry	-10.9462
▁धीर	-10.9469
प्रसाद	-10.9479
if	-10.948
युद्ध	-10.9481
▁सामुदायिक	-10.9482
द्दा	-10.9482
▁दर्शक	-10.9483
▁फीचर	-10.9485
श्रुत	-10.949
▁तलवार	-10.9491
▁इंस्टीट्यूट	-10.9492
▁जॉर्ज	-10.9492
▁बाँध	-10.9493
▁जरुर	-10.9495
▁वैभव	-10.9496
▁निमित्त	-10.9498
ex	-10.9503
▁उदयपुर	-10.9506
ँच	-10.9508
▁फायदे	-10.9513
राष्ट्र	-10.952
…	-10.9529
▁अत्याचार	-10.9529
▁तरल	-10.9531
▁पड़ोस	-10.9534
▁एनर्जी	-10.9534
▁जश्न	-10.9545
▁राख	-10.9553
MP	-10.9555
▁सिक्योरिटी	-10.9561
ction	-10.9564
इयां	-10.9565
▁मुलायम	-10.9576
▁चतुर्थ	-10.9577
▁गणराज्य	-10.9577
▁पिच	-10.9587
▁vs	-10.9587
पाठ	-10.9592
▁धर्मेंद्र	-10.9593
qu	-10.9593
▁लाठी	-10.9593
हाइड्र	-10.9595
▁माधव	-10.96
▁कुंभ	-10.9601
▁पुलिसकर्मियों	-10.9612
▁पूर्णिमा	-10.9614
मिति	-10.9618
▁पौराणिक	-10.9619
▁सीईओ	-10.9624
▁अन्तिम	-10.9628
ect	-10.9628
BJP	-10.9629
▁स्टील	-10.9632
▁कैफ	-10.965
▁अनिश्चित	-10.9651
а	-10.9656
▁व्हाइट	-10.9657
▁बनारस	-10.9658
▁टारगेट	-10.9661
ash	-10.9661
▁तोड़ने	-10.9673
▁गिरकर	-10.9675
▁बलात्कार	-10.9677
man	-10.9681
▁निकासी	-10.9683
▁श्रद्धालु	-10.9687
▁मौन	-10.9697
▁सैलरी	-10.9699
▁क्रे	-10.97
▁दिलीप	-10.9704
▁स्तन	-10.9705
▁ढाई	-10.9705
▁शशि	-10.9706
▁सीधी	-10.9706
▁आवागमन	-10.9709
▁प्लस	-10.9713
▁सकल	-10.9715
▁सिद्धि	-10.9717
▁मुनाफा	-10.9725
PS	-10.9735
▁सियासी	-10.9736
du	-10.9739
и	-10.9741
▁टूर	-10.9746
▁स्थानांतरित	-10.9747
▁स्क्	-10.975
अनु	-10.9757
▁विलियम	-10.9759
▁किराए	-10.976
▁प्रीति	-10.9766
▁पैसों	-10.9774
▁परमेश्वर	-10.9778
RA	-10.9778
▁ठहरा	-10.9782
▁रोमन	-10.9783
चढ़ाव	-10.9786
▁टाल	-10.979
▁सूजन	-10.9791
▁धड़	-10.9794
ल्व	-10.9794
▁दायित्व	-10.9795
▁दण्ड	-10.9796
▁सर्च	-10.9799
▁मराठी	-10.9806
सहाय	-10.9815
end	-10.9818
▁मद्देनजर	-10.9833
११	-10.9833
▁घोर	-10.9836
▁लोहे	-10.9837
▁मुठभेड़	-10.9838
▁प्राइस	-10.9839
▁चाचा	-10.9843
▁साइन	-10.9848
▁फौज	-10.9854
क़ा	-10.9857
▁चेतन	-10.9865
राष्ट्रीय	-10.9868
वाच	-10.9869
▁अंग्रेज	-10.9874
▁बचें	-10.988
▁बॉल	-10.9881
▁बाह्य	-10.9882
▁गाड़ियों	-10.9884
▁स्वार्थ	-10.9886
▁परिभाषा	-10.9898
▁डिलीवरी	-10.9898
▁तथापि	-10.9898
▁न्यूयॉर्क	-10.9904
▁शासित	-10.9904
▁अवॉर्ड	-10.9911
▁सीखने	-10.9911
▁प्रभावशाली	-10.9913
दयाल	-10.9923
▁करीना	-10.9923
▁वितरित	-10.9931
▁लंबित	-10.9937
▁अनुपात	-10.9937
द्वीप	-10.9941
▁प्रजाति	-10.9946
▁गर्दन	-10.9947
▁केशव	-10.9949
▁विकार	-10.9951
▁डोनाल्ड	-10.9953
▁निष्पक्ष	-10.9953
▁दही	-10.9955
▁जगदीश	-10.9966
▁रावण	-10.9966
▁रोगियों	-10.9972
क्रिया	-10.9975
▁रासायनिक	-10.9975
▁आगमन	-10.9977
▁फ्लाइट	-10.9988
▁सर्दी	-10.9989
पॉइंट	-10.999
▁मिस्र	-10.9996
▁कर्ण	-11.0001
▁थानाध्यक्ष	-11.0002
▁पागल	-11.0005
▁फ्लोर	-11.001
▁मार्गदर्शन	-11.0012
▁हत्याकांड	-11.0019
http	-11.0024
▁सीरिया	-11.003
▁चंद्रमा	-11.0031
▁हास्य	-11.0031
▁बुध	-11.0037
१६	-11.004
२७	-11.004
▁मोटरसाइकिल	-11.0052
२८	-11.0054
पाय	-11.0065
▁जायेगी	-11.0069
CO	-11.007
▁धीमी	-11.0074
Photo	-11.0079
▁सशक्त	-11.0081
Disclaimer	-11.0091
▁उपचुनाव	-11.0091
▁जादू	-11.0094
▁एग्जाम	-11.0096
▁इन्द्रिय	-11.0099
▁परीक्षाओं	-11.0101
▁पीड़ा	-11.0102
▁इजाफा	-11.0107
ल्ह	-11.0109
▁सम्प्रदाय	-11.0118
मुद्र	-11.0119
▁बाज़ार	-11.0135
▁सर्वथा	-11.0136
लौकिक	-11.0136
▁संयम	-11.0149
▁जानवर	-11.0156
▁अस्थि	-11.0159
▁चैंपियन	-11.0163
▁अफवाह	-11.0163
▁भास्कर	-11.0166
▁क्षतिग्रस्त	-11.0169
▁सम्पन्न	-11.017
▁क्रीम	-11.0173
▁संधि	-11.0173
▁खीर	-11.0174
१८	-11.0174
▁जायसवाल	-11.0174
▁रिश्तों	-11.0174
▁जीएसटी	-11.0175
▁हिन्द	-11.0185
▁सम्म	-11.0191
▁पैनल	-11.0196
▁आत्मविश्वास	-11.0197
एनएस	-11.0207
▁सदैव	-11.0208
▁छुटकारा	-11.0214
▁मुकदमे	-11.0214
▁सेंसेक्स	-11.0225
▁मजिस्ट्रेट	-11.023
▁सुनते	-11.0232
▁धाराओं	-11.0235
▁जौहर	-11.0236
▁आतंकियों	-11.0237
▁दीक्षा	-11.0237
▁कम्पनी	-11.0252
ana	-11.0256
▁US	-11.0257
▁जायेंगे	-11.0259
▁चैलेंज	-11.0259
दृष्टि	-11.0264
▁कमांड	-11.0264
▁कीजिए	-11.0264
मंत्र	-11.0265
▁दुर्भाग्य	-11.027
▁प्रतिबंधित	-11.027
फोटो	-11.0282
न्तु	-11.0289
▁इजरायल	-11.0293
▁कुर्सी	-11.0299
▁वनस्पति	-11.031
▁इच्छुक	-11.0315
▁फंसे	-11.0316
SI	-11.0321
▁ढांचे	-11.0321
▁माफिया	-11.0321
▁भ्रमण	-11.0322
▁उमेश	-11.0327
▁उठाते	-11.0328
१४	-11.0334
▁Hindi	-11.0338
▁खुलकर	-11.0338
▁एसएसपी	-11.0341
▁राइट	-11.0342
▁अजीत	-11.0343
स्थापित	-11.0345
▁आचरण	-11.0348
▁प्रवासी	-11.0349
▁उत्पीड़न	-11.0349
▁पेशकश	-11.035
▁गुफा	-11.0351
▁लैब	-11.0357
▁उन्नत	-11.0366
▁निंदा	-11.0367
▁भिड़	-11.0371
▁ऑप्शन	-11.0372
▁विद्यमान	-11.0372
▁पर्याय	-11.0377
▁सृजन	-11.0378
▁मेडल	-11.0378
▁फ़िल्में	-11.0379
▁अर्ध	-11.038
und	-11.0382
ोलॉजी	-11.0382
▁अकेला	-11.0385
▁सिंगर	-11.0386
▁ऋषभ	-11.0389
▁संज्ञान	-11.04
▁नवाब	-11.0405
▁लैस	-11.0408
▁चिन्ता	-11.0413
कर्मियों	-11.0415
▁प्रोत्साहन	-11.0418
▁साहित्यकार	-11.0421
▁निराश	-11.0425
लैण्ड	-11.0425
विश्व	-11.0428
▁हॉलीवुड	-11.043
वेयर	-11.0432
▁UP	-11.0433
▁म्यूजिक	-11.0435
▁तहसीलदार	-11.0436
टीपी	-11.0437
▁तृणमूल	-11.0441
▁फर्क	-11.0447
▁पृष्ठभूमि	-11.0448
व्रत	-11.0448
प्रेम	-11.0449
▁नागपुर	-11.0449
▁अस्थायी	-11.0453
▁पूर्वोत्तर	-11.0461
१२	-11.0463
▁प्वाइंट	-11.0464
▁नतीजा	-11.0464
▁मूवी	-11.047
▁गंध	-11.0479
▁आश्रय	-11.0481
▁उन्ह	-11.0485
▁घुमा	-11.0489
▁कमांडर	-11.0491
con	-11.0502
▁रतन	-11.0505
▁उपासना	-11.0511
४०	-11.0521
▁Entertainment	-11.0528
विमर्श	-11.0528
▁परिवर्तित	-11.0528
▁बिखर	-11.0531
फोर्ड	-11.0537
▁महतो	-11.0542
▁भावुक	-11.0543
▁चमत्कार	-11.0545
▁नमाज	-11.0546
▁इनाम	-11.0547
▁पसंदीदा	-11.0551
▁सॉफ्टवेयर	-11.0563
▁सैफ	-11.0568
▁शिफ्ट	-11.0571
▁लड़कों	-11.058
▁निबंध	-11.0581
▁कॉमेडी	-11.0586
ाइव	-11.0595
▁श्रीनगर	-11.0598
▁अतीत	-11.06
▁प्रबल	-11.0601
▁सूखे	-11.0608
▁बारीक	-11.0608
▁टैग	-11.0609
▁शौचालय	-11.0609
▁बोल्ड	-11.0612
▁डिमांड	-11.0615
स्मा	-11.0633
▁आकलन	-11.0633
शियल	-11.0635
योजक	-11.0635
▁छक्के	-11.0637
▁गारंटी	-11.0639
ack	-11.0653
▁बॉर्डर	-11.0656
▁अनुच्छेद	-11.0657
▁अतएव	-11.0662
TV	-11.0663
▁दुल्हन	-11.0668
▁दुबई	-11.0668
▁झुका	-11.0668
▁मिमी	-11.0668
▁व्यवस्थित	-11.0674
▁अनियमित	-11.0674
▁गिनती	-11.0674
▁सिंघ	-11.0678
▁आक्रामक	-11.0686
▁कहानियों	-11.069
▁अधिसूचना	-11.0691
▁लीजिए	-11.0692
▁नाकाम	-11.0692
▁बृज	-11.0692
▁सिंगल	-11.0694
भूति	-11.07
▁कपड़ों	-11.0709
▁दाग	-11.071
▁फैक्ट्री	-11.0715
▁इशारा	-11.0715
पीएल	-11.0718
▁चिल्ला	-11.0721
▁क्षमा	-11.0722
▁जातियों	-11.0732
▁शिंदे	-11.0733
▁चित्रण	-11.074
▁डिटेल	-11.074
ग्नि	-11.0743
▁पासवान	-11.0755
▁धैर्य	-11.0757
▁प्रवीण	-11.0763
छोटे	-11.0766
विशेष	-11.0766
▁गर्मियों	-11.0769
▁शक्तियों	-11.0779
▁सेवानिवृत्त	-11.0781
▁व्याप्त	-11.0787
▁क्योकि	-11.0792
▁शैक्षिक	-11.0792
▁चौराहे	-11.0792
▁लाहौर	-11.0792
ib	-11.0793
मिनि	-11.0793
रोपण	-11.0799
aw	-11.0801
▁एमपी	-11.0805
▁संग्राम	-11.0812
ph	-11.0816
कॉन	-11.0816
е	-11.0816
▁शुभकामनाएं	-11.0816
▁सनातन	-11.0816
▁देशभक्ति	-11.0817
देख	-11.0819
▁छोर	-11.0819
▁पहलवान	-11.082
▁मिठाई	-11.0822
▁प्रतीक्षा	-11.0822
▁प्रमोद	-11.0822
▁कलेक्शन	-11.0827
▁कमीशन	-11.0827
▁चुनौतियों	-11.0828
ر	-11.0834
▁यकीन	-11.0835
ock	-11.0836
▁वेरिएंट	-11.0846
der	-11.0846
▁Su	-11.0847
▁एक्टिंग	-11.0856
▁अर्धशतक	-11.0858
▁मंत्रिमंडल	-11.0858
ary	-11.0862
▁मिटा	-11.0867
▁अंतर्	-11.0874
▁Apr	-11.0876
▁ऊंची	-11.0876
▁जबरन	-11.0877
▁जितेंद्र	-11.0882
▁बगल	-11.0886
▁प्रतिस्पर्धा	-11.0888
▁पिटाई	-11.0888
▁सहारे	-11.0889
▁चक्रवर्ती	-11.0889
▁संयंत्र	-11.089
▁जबलपुर	-11.0895
शैली	-11.0906
▁रचनात्मक	-11.0909
▁फीचर्स	-11.0911
▁प्रोडक्शन	-11.0912
▁पोषक	-11.0912
▁गृहस्थ	-11.0914
ance	-11.0917
▁गुस्से	-11.0918
▁सर्दियों	-11.0918
▁वैष्णव	-11.0918
▁ब्लाक	-11.0919
▁प्रबन्ध	-11.0923
▁निर्धारण	-11.0924
IP	-11.0926
▁संयोजक	-11.0928
▁संन्यास	-11.0931
▁पर्यटक	-11.0934
▁प्रिंस	-11.0948
▁अंततः	-11.095
▁रिक्त	-11.0951
स्कार	-11.0953
▁इलेक्ट्र	-11.0953
▁घातक	-11.0958
▁वैल्यू	-11.0962
▁सीरियल	-11.0974
▁खातों	-11.0979
▁समाधि	-11.0983
▁हड़कंप	-11.0985
▁इराक	-11.0988
▁सोसाइटी	-11.0991
्‍य	-11.0996
▁धोखा	-11.0998
एमएल	-11.1003
▁उजागर	-11.1009
▁पेमेंट	-11.1012
▁चुरा	-11.1013
▁कैप्टन	-11.1016
▁नकली	-11.1036
▁प्रीमियम	-11.1046
▁बीसीसीआई	-11.1046
▁घोटाले	-11.1052
MS	-11.1055
▁अहिंसा	-11.1064
यन्त्र	-11.1069
▁राजवंश	-11.1071
▁पुस्तकालय	-11.1078
▁सेकेंड	-11.108
▁क्षेत्रफल	-11.1084
▁जैव	-11.1095
▁संतुष्ट	-11.1101
▁देवेंद्र	-11.1102
▁क्रॉस	-11.1109
▁प्रयोजन	-11.1116
▁उन्हे	-11.112
▁शुगर	-11.1122
▁टाइप	-11.1132
▁संवैधानिक	-11.1132
▁फ़ै	-11.1134
▁फॉ	-11.1135
▁संबद्ध	-11.1154
▁व्याकरण	-11.1158
▁महान्	-11.116
▁आंधी	-11.1169
▁बकाया	-11.1175
▁उपहार	-11.1179
▁जलस्तर	-11.1181
PC	-11.1181
▁हरिद्वार	-11.1183
▁रैंकिंग	-11.1187
▁फिसल	-11.1195
▁गोस्वामी	-11.1203
▁राक्षस	-11.1206
▁सिनेमाघरों	-11.1212
३६	-11.1212
▁डाइ	-11.1213
▁विलय	-11.1217
▁असुर	-11.1218
://	-11.1224
▁साधक	-11.1228
▁जेम्स	-11.1231
▁महिमा	-11.1231
ाएगी	-11.1232
▁पर्सनल	-11.1237
▁सुमन	-11.1241
AP	-11.1243
▁अर्थशास्त्र	-11.1244
▁आर्मी	-11.1249
▁धोखाधड़ी	-11.1249
▁पैटर्न	-11.1249
▁बिलासपुर	-11.1249
डिस्क्लेमर	-11.1256
ff	-11.1257
SP	-11.126
▁बिलियन	-11.1261
ब्रोकरेज	-11.1262
॒	-11.1262
▁कैच	-11.1271
▁ऊंचा	-11.1272
▁भौ	-11.1272
ज्वल	-11.1273
▁प्रदर्शनकारियों	-11.1274
▁चयनित	-11.1275
▁बजकर	-11.1276
लोचन	-11.1277
▁व्यर्थ	-11.1284
▁बारात	-11.1287
▁त्वरित	-11.1293
▁विश्वसनीय	-11.1293
▁नींव	-11.1294
▁भयानक	-11.1299
▁खुराक	-11.13
▁संध्या	-11.13
▁बेसिक	-11.1301
▁रिकार्ड	-11.1312
शायर	-11.1319
▁Khan	-11.1321
ach	-11.1321
▁वाटर	-11.1322
▁हल्दी	-11.1326
▁मीणा	-11.1327
▁ज्वाला	-11.1331
▁न्यायमूर्ति	-11.1338
▁शीश	-11.1338
▁सेकंड	-11.1339
▁राशिफल	-11.1341
▁फैमिली	-11.1343
ण्ण	-11.1344
▁अभय	-11.1352
▁अरोड़ा	-11.1362
▁बनेगा	-11.1363
▁अनुदान	-11.1363
▁महंगा	-11.1368
▁भरोसे	-11.1369
▁टमाटर	-11.1375
▁बिस्तर	-11.1385
▁गणतंत्र	-11.1394
मण्डल	-11.14
▁हॉकी	-11.1406
▁महर्षि	-11.1414
▁बघेल	-11.1419
port	-11.142
▁जायजा	-11.142
▁मोहित	-11.1424
▁लोहा	-11.1426
▁खगोल	-11.1426
▁यूएस	-11.1428
लिख	-11.1429
VI	-11.1431
ev	-11.1431
▁धमाके	-11.1432
खेड़ा	-11.1435
▁पचास	-11.1446
▁बिल्डिंग	-11.1451
▁राघव	-11.1451
▁चार्ट	-11.1454
▁चीख	-11.1456
▁छोड	-11.1457
सीएल	-11.146
▁अधिग्रहण	-11.147
▁उच्चारण	-11.147
विधान	-11.1471
▁शिवाजी	-11.1483
▁चौंक	-11.1487
▁राजनेता	-11.149
▁शहद	-11.1492
▁मिर्जा	-11.1502
▁रेड्डी	-11.1508
पोषण	-11.1509
▁कलकत्ता	-11.1515
▁हार्ड	-11.1516
▁कोयला	-11.1518
▁ख़ान	-11.1518
टेंशन	-11.153
भक्ति	-11.1533
▁परिश्रम	-11.1534
▁महामंत्री	-11.1545
▁पंज	-11.1546
per	-11.1552
▁सर्प	-11.1556
▁उछल	-11.1556
▁पार्किंग	-11.1556
▁डिफेंस	-11.156
▁कस्बे	-11.156
▁सिद्धू	-11.1565
▁डिज़ाइन	-11.1566
▁सौरभ	-11.1568
्रेट	-11.1568
▁संक्षिप्त	-11.1574
NC	-11.1578
▁नींबू	-11.1579
▁कंटेंट	-11.1579
▁भौगोलिक	-11.1592
▁नितिन	-11.1593
▁हलचल	-11.1595
▁खपत	-11.1596
▁लड़कियां	-11.1598
▁दुनियाभर	-11.1599
▁बलिदान	-11.1605
▁ध्वज	-11.1614
▁इजाजत	-11.1624
▁सौभाग्य	-11.1624
▁कुमाऊँ	-11.1631
टीएस	-11.1632
▁सहकारी	-11.1636
▁ज़मीन	-11.1638
▁स्ट्रीट	-11.1644
▁ईयर	-11.1644
▁पार्वती	-11.165
▁छन्द	-11.1651
ङ्क	-11.1651
▁आर्टिकल	-11.1651
पीआर	-11.1652
बोर्ड	-11.1657
▁बाबर	-11.1662
▁संशोधित	-11.1663
▁पहलू	-11.1669
ाइज़	-11.1671
▁तीस	-11.1677
पत्नी	-11.1678
पुराण	-11.168
▁कैरियर	-11.1686
्रु	-11.1696
▁गाँधी	-11.1702
ॉर्ट	-11.1706
▁थिएटर	-11.1709
▁धारावाहिक	-11.1709
▁कश्यप	-11.1709
▁मिथुन	-11.1715
▁अगला	-11.1717
▁झूल	-11.1717
▁ऑर्	-11.1722
▁पहलुओं	-11.1722
▁नीच	-11.1723
po	-11.1738
▁वैद्य	-11.1741
▁सार्थक	-11.1742
▁बिछा	-11.1744
▁किराया	-11.1747
▁आवाजाही	-11.1748
▁भेदभाव	-11.1752
▁उज्जैन	-11.1755
▁रिश्वत	-11.1755
▁तैर	-11.1755
▁अटैक	-11.1755
▁ट्रायल	-11.1756
३५	-11.1759
ाभिषेक	-11.1768
▁दिलाया	-11.177
▁घटनाक्रम	-11.1775
▁कृत्रिम	-11.1781
▁प्रकोप	-11.1781
▁समावेश	-11.179
▁ग्यारह	-11.1801
▁सेमीफाइनल	-11.1801
esh	-11.1803
▁घोड़े	-11.1806
▁नारेबाजी	-11.1807
१७	-11.1808
१५	-11.1814
▁संज्ञा	-11.1815
▁हेयर	-11.1817
▁वैकल्पिक	-11.1827
▁आवासीय	-11.1827
▁तीर	-11.1833
ه	-11.1834
द्वेष	-11.184
www	-11.184
▁संयोजन	-11.1849
va	-11.1857
▁स्वामित्व	-11.1867
▁ट्रोल	-11.1868
▁असमर्थ	-11.187
▁क्रिस्ट	-11.1888
▁जुलूस	-11.1893
▁सत्यापन	-11.1893
▁यूनाइटेड	-11.1907
▁फाइबर	-11.1907
▁फर्स्ट	-11.1907
▁कठिनाई	-11.191
▁स्ट्राइक	-11.1913
▁चट्टान	-11.1914
▁बैनर	-11.1914
▁फलस्वरूप	-11.1915
▁महीना	-11.1915
▁क्षत्रिय	-11.1915
▁for	-11.1917
ED	-11.192
▁पत्ते	-11.1921
▁अनुभूति	-11.1925
▁घंटा	-11.1927
▁पतन	-11.1931
▁सच्चे	-11.1933
ग्राह	-11.1934
▁कपड़ा	-11.1937
एनसीआर	-11.1942
ाभि	-11.1943
▁मेकअप	-11.196
▁इक्विटी	-11.1967
▁अपलोड	-11.1967
▁पंजीकृत	-11.1967
▁बेशक	-11.197
▁प्रयोगशाला	-11.1973
▁लद्दाख	-11.1974
▁उपग्रह	-11.1978
▁गाथा	-11.198
▁बेटियों	-11.1981
▁सुरेंद्र	-11.1984
▁भागवत	-11.1984
▁हाय	-11.1987
▁सेंसर	-11.1989
▁प्रारूप	-11.1991
▁डाइट	-11.1999
तिथि	-11.2
▁तात्पर्य	-11.2
▁IPL	-11.2
▁साक्षी	-11.2003
▁क्रिस	-11.2009
▁भयंकर	-11.2014
३२	-11.2018
▁चालीस	-11.2024
▁रेवेन्यू	-11.2027
आरएस	-11.2033
▁इंडियंस	-11.2034
▁अश्लील	-11.2041
▁विक्रेता	-11.2041
▁सिलसिले	-11.2041
▁ठहराया	-11.2045
▁प्रमोशन	-11.2047
▁परिचालन	-11.2047
▁बंदूक	-11.2049
▁गुरुग्राम	-11.2051
साहेब	-11.2054
▁माननीय	-11.2054
▁बढ़ेगी	-11.2057
▁एटीएम	-11.2061
▁प्रशिक्षित	-11.2068
▁स्टूडियो	-11.2068
▁शस्त्र	-11.207
▁निहित	-11.2071
▁आलोचक	-11.2075
ब्रह्म	-11.2076
▁लुट	-11.208
▁संतुलित	-11.2081
▁मुआवजा	-11.2088
▁स्मिथ	-11.2095
▁दर्दनाक	-11.2095
▁सब्जियों	-11.2115
नुमा	-11.2115
▁क्रान्ति	-11.2123
▁नारियल	-11.2135
▁आयुष	-11.214
▁इमरजेंसी	-11.2142
▁खुफिया	-11.2142
▁कॉफी	-11.2146
फ्रा	-11.215
▁कट्टर	-11.2152
min	-11.2154
▁शॉट	-11.2164
GB	-11.2168
▁झटके	-11.217
▁अगुवाई	-11.2177
▁उद्धव	-11.2177
▁सैंपल	-11.2177
▁कैंट	-11.2189
▁निदेशालय	-11.219
▁दमदार	-11.2197
▁कुलपति	-11.2205
▁पीटीआई	-11.2207
रत्न	-11.2209
▁सिंगापुर	-11.2211
▁गंदगी	-11.2211
▁नतीजों	-11.2225
▁अवशेष	-11.2231
▁स्पिनर	-11.2232
▁अनुपस्थित	-11.2232
▁बैच	-11.2249
▁दिलाई	-11.225
▁अनुष्का	-11.2252
व्यापी	-11.2256
oc	-11.2257
▁इन्वेस्ट	-11.2266
▁इकाइयों	-11.2273
▁खिड़की	-11.228
▁दहेज	-11.2283
▁सम्पत्ति	-11.2295
▁अपेक्षाकृत	-11.2296
नहीं	-11.23
▁हमीरपुर	-11.2301
▁एकत्रित	-11.2322
▁वक़्त	-11.2328
▁एंबुलेंस	-11.2335
▁एजुकेशन	-11.2335
▁सचमुच	-11.2335
▁अलीगढ़	-11.2337
▁अनजान	-11.2343
▁एहसास	-11.2356
▁दिव्यांग	-11.2358
▁पाचन	-11.2358
▁प्रेशर	-11.2363
▁महोदय	-11.2366
टाइम	-11.2366
१३	-11.2367
▁हेमंत	-11.237
▁गर्ल	-11.2389
▁बीकानेर	-11.2391
▁रियासत	-11.2391
▁अर्जित	-11.2394
▁वयस्क	-11.2398
▁शिवलिंग	-11.2409
▁जलभराव	-11.2412
▁कॉपी	-11.2415
▁मुरादाबाद	-11.2419
▁पुजारी	-11.2419
▁एडवांस	-11.2428
▁रोमांटिक	-11.2433
▁सक्सेना	-11.2433
▁सरपंच	-11.2433
▁भुवनेश्वर	-11.244
▁चाँद	-11.2447
▁मर्यादा	-11.2454
▁by	-11.2455
▁पेरिस	-11.247
▁संक्षेप	-11.2474
▁रिलायंस	-11.2475
▁ईमेल	-11.2476
▁आंशिक	-11.2482
▁शान्त	-11.2483
▁उपर्युक्त	-11.2489
▁स्वादिष्ट	-11.2489
▁बेहोश	-11.249
३१	-11.2492
▁निगाह	-11.2499
▁गूंज	-11.2504
▁तबीयत	-11.2511
▁मायावती	-11.2512
▁जनप्रतिनिधि	-11.2518
▁नाट्य	-11.2518
Delhi	-11.2525
प्रधान	-11.2526
▁उत्सुक	-11.2532
▁अंबानी	-11.2533
तृप्त	-11.2534
▁उमड़	-11.2545
▁बृहस्पतिवार	-11.2547
>	-11.256
▁Today	-11.256
▁आवंटित	-11.256
ell	-11.2567
▁For	-11.2572
▁चंद्रशेखर	-11.2574
▁आतंकवादियों	-11.2575
▁दिवाली	-11.2577
▁प्रधानाचार्य	-11.2578
▁with	-11.2582
▁अनुचित	-11.2582
▁व्यायाम	-11.2589
श्लेष	-11.2593
▁अभियुक्त	-11.2594
▁छेद	-11.2596
▁निषेध	-11.2596
▁लम्बी	-11.2605
▁चौंकाने	-11.2605
ب	-11.261
▁हिंसक	-11.261
▁क्रूर	-11.2619
▁ड्रामा	-11.2632
▁कुचल	-11.2639
▁रैंक	-11.2641
▁प्रशस्त	-11.2646
▁धुन	-11.2652
▁उपरोक्त	-11.2653
▁निरन्तर	-11.2653
▁हेक्टेयर	-11.2667
▁संवेदना	-11.2667
विकेटकीपर	-11.2668
▁त्रिपुरा	-11.2679
▁धर्मशाला	-11.2688
▁चिंतित	-11.2689
tri	-11.2691
▁डिस्प्ले	-11.2696
▁वीरेंद्र	-11.2709
▁गरज	-11.271
▁छेड़	-11.2718
▁जैविक	-11.272
▁बैट	-11.2722
▁सूबे	-11.2727
▁एनडीए	-11.2737
▁Singh	-11.274
▁मेकर्स	-11.2741
▁झगड़ा	-11.2747
▁महाद्वीप	-11.275
▁अग्रणी	-11.2756
▁वस्तुतः	-11.2761
▁छानबीन	-11.2761
▁विश्राम	-11.2761
▁स्कूटर	-11.2761
स्टोन	-11.2765
`	-11.2769
िफिकेशन	-11.2775
▁दावेदार	-11.2777
н	-11.2783
▁सौन्दर्य	-11.2783
ऋ	-11.2791
प्रयाग	-11.2791
▁सर्वप्रथम	-11.2798
▁डिवीजन	-11.2798
▁जडेजा	-11.2798
मन्त्र	-11.2805
▁सेगमेंट	-11.2806
▁संगठित	-11.2819
▁पण्डित	-11.282
▁अभिलेख	-11.2822
▁श्रवण	-11.2827
▁असंभव	-11.2828
▁अब्दुल्ला	-11.2834
▁थकान	-11.2836
▁राइ	-11.284
▁चेष्टा	-11.2841
▁उपरांत	-11.2841
▁करुणा	-11.2842
क्टिव	-11.2844
▁अमृतसर	-11.2846
▁आज़ाद	-11.2852
▁श्रुति	-11.2857
▁भांति	-11.286
▁संरक्षित	-11.2863
▁स्पॉट	-11.2868
▁चालान	-11.2869
▁शाहिद	-11.2878
▁आयरलैंड	-11.2885
▁भूगोल	-11.2885
▁बढ़ेगा	-11.2887
▁लोकतांत्रिक	-11.2887
▁संभवतः	-11.2892
▁सिल्वर	-11.2893
▁गद्य	-11.2893
▁आवंटन	-11.29
▁प्रत्याशियों	-11.29
▁देहात	-11.2912
▁प्रजापति	-11.2917
▁अणु	-11.2923
च्छेद	-11.2926
रचना	-11.2928
▁अनुष्ठान	-11.293
ber	-11.2932
▁सब्सिडी	-11.2937
▁संपादित	-11.2937
▁गुर्जर	-11.2937
▁ट्रिप	-11.2946
▁उज्ज्वल	-11.2952
▁पृथक्	-11.2954
▁सफलतापूर्वक	-11.2956
▁बगैर	-11.2966
▁भिक्षु	-11.2968
▁योद्धा	-11.2974
▁रोकथाम	-11.2974
जगह	-11.2977
▁En	-11.2984
▁प्रोफाइल	-11.2989
iya	-11.3014
▁अख्तर	-11.3018
▁सर्किट	-11.3018
▁पहिले	-11.3019
▁फिरोज	-11.3027
▁टिप्पण	-11.3034
▁तपस्या	-11.3034
▁news	-11.3048
▁अभ्यर्थी	-11.3048
▁विधवा	-11.3049
▁दहशत	-11.3056
▁दीजिए	-11.3056
▁नस्ल	-11.3058
▁पनीर	-11.3065
▁प्रवर्तन	-11.3071
▁कंधे	-11.3075
▁आकांक्षा	-11.3078
▁मजेदार	-11.3078
▁हानिकारक	-11.3086
आईएएनएस	-11.3086
▁रश्मि	-11.3093
घू	-11.3094
▁बंदरगाह	-11.3101
ाइजेशन	-11.3102
▁कांवड़	-11.3106
▁सर्टिफिकेट	-11.3108
▁एनएच	-11.3111
टीआई	-11.3123
रिक्शा	-11.3131
▁सरसों	-11.3133
ऩ	-11.3138
▁महानिदेशक	-11.3138
▁तकलीफ	-11.3143
▁गम्भीर	-11.3146
▁प्लेयर	-11.3148
इये	-11.3149
▁चुपचाप	-11.3161
▁वाशिंगटन	-11.3168
▁उपेक्षा	-11.3168
▁छेड़छाड़	-11.3176
▁निवारण	-11.3176
▁Com	-11.3178
▁सज्जन	-11.3192
उत्तर	-11.3194
▁प्रोड्यूस	-11.3206
▁तकरीबन	-11.3214
स्तरीय	-11.3221
▁क्वालिटी	-11.3221
▁अमरीकी	-11.3222
▁मनोवैज्ञानिक	-11.3222
॑	-11.3229
▁ऊंचे	-11.3237
▁बजरंग	-11.3237
▁सच्चा	-11.3243
५६	-11.3246
▁रोचक	-11.3251
▁इंडोनेशिया	-11.3252
समाज	-11.3263
‍	-11.3266
▁आरक्षित	-11.3274
▁तुझे	-11.3275
▁मूर्ख	-11.3282
▁सत्याग्रह	-11.329
с	-11.3298
▁लम्बा	-11.331
ॐ	-11.3313
▁अक्तूबर	-11.3313
▁कर्नल	-11.3314
▁ब्रांच	-11.3318
नॉम	-11.3318
▁गतिविधियां	-11.3322
▁आयुष्मान	-11.3344
PF	-11.3349
▁रिएक्शन	-11.3351
्विन	-11.3375
▁ब्रिज	-11.3381
▁पुतिन	-11.3382
▁ग्रैंड	-11.3384
▁तत्पर	-11.3384
▁इमाम	-11.3397
▁गिफ्ट	-11.34
▁सुमित	-11.3409
▁समीर	-11.3412
▁सिंधिया	-11.3413
सम्यग्	-11.3415
▁फहरा	-11.3424
▁समकालीन	-11.3428
▁बटोर	-11.3441
▁शांतिपूर्ण	-11.3443
▁मौलाना	-11.3444
▁कैप्शन	-11.3452
▁ज्यों	-11.3453
▁उपनिषद	-11.346
▁बीबीसी	-11.346
▁फ्रेंच	-11.3475
▁अनूप	-11.3476
▁ट्रांसपोर्ट	-11.3476
▁मंजूर	-11.3478
▁मलेशिया	-11.3483
▁जॉब	-11.3483
▁पौधा	-11.3489
▁पॉपुलर	-11.3499
ोत्सव	-11.35
▁उत्तराखण्ड	-11.3507
▁फिक्स	-11.3511
ence	-11.3525
▁तुम्ह	-11.3525
द्वैत	-11.3539
▁कुशवाहा	-11.3546
▁टेनिस	-11.3546
▁स्पीकर	-11.3546
▁बाध्य	-11.3549
▁आवेदक	-11.3555
▁गोदाम	-11.3556
▁आईएएस	-11.3561
▁सचिवालय	-11.3564
▁पूनम	-11.357
▁आईपीओ	-11.3577
▁निरस्त	-11.359
▁कांस्टेबल	-11.3593
▁धनराशि	-11.3593
▁पूज्य	-11.3593
▁टाउन	-11.3595
समझ	-11.3597
▁छुपा	-11.3602
▁धक्का	-11.3609
▁टीएमसी	-11.3613
▁आतंक	-11.3616
‌	-11.3624
▁गरिमा	-11.3625
▁ड्रॉ	-11.3632
▁मारुति	-11.3632
▁निर्वाचित	-11.364
▁हिंदुओं	-11.364
▁असाधारण	-11.3648
▁वंदे	-11.3649
▁नीर	-11.365
▁प्रातः	-11.3651
▁वाजपेयी	-11.3672
▁विद्वान्	-11.3677
निरपेक्ष	-11.368
ight	-11.368
▁Travel	-11.3688
▁कतार	-11.3689
▁महंगे	-11.3691
▁निस्तारण	-11.3696
▁कस्टम	-11.3698
▁सुसाइड	-11.3704
▁निःशुल्क	-11.3712
▁महाकाव्य	-11.3712
▁दूतावास	-11.372
▁मिडिल	-11.372
▁जासूस	-11.3724
▁युवराज	-11.3724
▁प्यास	-11.3737
▁ख़ुद	-11.3737
▁समुचित	-11.3744
फिन	-11.3745
▁ढील	-11.3748
▁भैंस	-11.3752
▁गुजार	-11.3754
▁सहस्र	-11.3786
▁मुसीबत	-11.3792
▁टेंडर	-11.3795
▁ध्वस्त	-11.38
▁पादुकोण	-11.3808
▁अनुसरण	-11.3808
▁सितारे	-11.3808
▁रेशम	-11.3811
▁आत्मनिर्भर	-11.3816
क्ट्र	-11.3817
▁एसयूवी	-11.3824
▁मार्जिन	-11.3825
▁प्रतिनिधिमंडल	-11.3827
▁दबोच	-11.3833
▁उपमुख्यमंत्री	-11.384
▁पार्श्व	-11.384
▁संबोधन	-11.3848
▁सजावट	-11.3851
▁ख़िलाफ़	-11.3856
▁परिभाषित	-11.3856
▁धनुष	-11.3865
▁ख़ास	-11.3877
▁पूर्वानुमान	-11.3881
▁सम्पर्क	-11.3881
▁रुझान	-11.3881
बहुत	-11.3883
▁ब्रिगेड	-11.3889
▁स्तंभ	-11.3889
▁वसंत	-11.3892
▁स्टोरेज	-11.3893
▁अय्यर	-11.3897
▁फाइनेंस	-11.3897
▁पराजित	-11.3899
▁किडनी	-11.3909
ऱ	-11.3913
▁बर्दाश्त	-11.3913
▁सुधीर	-11.3922
▁अविनाश	-11.393
▁शिक्षित	-11.3942
▁अड्डा	-11.3946
▁पितृ	-11.3946
▁सर्विसेज	-11.3948
▁डिपार्टमेंट	-11.3954
▁मानवाधिकार	-11.396
▁तेंदुलकर	-11.3962
▁प्रॉपर्टी	-11.3962
▁सिसोदिया	-11.3962
▁अनावश्यक	-11.3963
▁मोहल्ला	-11.3966
▁जगन्नाथ	-11.397
▁फाइनेंशियल	-11.397
▁कच्चा	-11.3971
▁व्यतीत	-11.3979
▁लम्बे	-11.3988
▁ठोक	-11.399
हृद	-11.3994
कप्तान	-11.3994
▁गांगुली	-11.4003
▁सितारों	-11.4003
▁अंचल	-11.4007
▁मच्छर	-11.4012
▁बॉन्ड	-11.4028
▁मृग	-11.404
▁माइकल	-11.4069
▁WWE	-11.4069
Ja	-11.407
शब्द	-11.4071
▁ऑफिशियल	-11.4077
▁निर्णायक	-11.4077
▁प्रिंसिपल	-11.4077
▁खिंच	-11.4081
▁समर्पण	-11.4082
▁नर्सिंग	-11.4086
▁Ex	-11.409
▁अद्वितीय	-11.4094
▁हज़रत	-11.4094
▁जंक्शन	-11.4095
▁सोलह	-11.4104
▁सोसायटी	-11.4111
न्द्रिय	-11.4111
अंगूठ	-11.4112
р	-11.4119
▁देखरेख	-11.4119
▁जताते	-11.4128
▁क्रिप्टो	-11.4129
बिलिटी	-11.413
४५	-11.4135
▁क्रूड	-11.4136
▁सपनों	-11.4136
▁व्हील	-11.4138
т	-11.4144
▁मद्रास	-11.4144
▁प्राकृत	-11.4145
▁प्रजातियों	-11.4164
▁अभिप्राय	-11.4169
बृह	-11.4175
▁पेट्रोलियम	-11.418
▁कुत्तों	-11.4186
▁जर्नल	-11.4186
▁प्लेटफार्म	-11.4194
▁शृंखला	-11.4194
▁अपितु	-11.4202
▁सच्ची	-11.4203
▁मलाइका	-11.4219
▁नीलामी	-11.4219
▁रिकवरी	-11.4228
▁विपणन	-11.4228
▁ठिकानों	-11.4236
▁अफरा	-11.4245
▁भागलपुर	-11.4253
▁स्ट्रीम	-11.4261
▁अभिनव	-11.4262
▁ओटीटी	-11.427
▁जनसभा	-11.4287
▁सरोज	-11.4289
▁Quick	-11.4295
▁एडमिशन	-11.4295
▁झड़प	-11.4295
▁देओल	-11.4295
▁कचरा	-11.4312
तफरी	-11.4324
▁त्रुटि	-11.4329
▁फैक्टर	-11.4334
▁झांसी	-11.4337
ांचल	-11.4342
▁इस्तीफे	-11.4346
▁मोहल्ले	-11.4348
▁अतीक	-11.4354
▁मुस्कुरा	-11.4354
▁आस्ट्रेलिया	-11.4354
▁ट्रांसफार्मर	-11.4354
BSE	-11.4355
▁कार्यकारिणी	-11.4363
▁links	-11.4371
▁भारद्वाज	-11.438
▁मांसपेशियों	-11.438
▁लहसुन	-11.438
▁मेघालय	-11.438
▁गैंगस्टर	-11.4381
▁डायबिटीज	-11.4388
▁रेस्क्यू	-11.4397
▁लेनदेन	-11.4397
▁नगरपालिका	-11.4405
▁मज़बूत	-11.4414
व्यवहार	-11.4422
▁बुमराह	-11.4431
▁नोटिफिकेशन	-11.4432
सूचक	-11.4438
▁कम्युनिस्ट	-11.444
▁लाइक	-11.4446
▁भावनात्मक	-11.4451
▁दलील	-11.4464
▁हकीकत	-11.4474
▁हेल्दी	-11.4474
▁स्वदेशी	-11.4476
▁सिकंदर	-11.4483
▁स्तुति	-11.4492
▁महिंद्रा	-11.45
▁बर्फबारी	-11.45
▁हरियाली	-11.45
▁कारावास	-11.4502
▁चैतन्य	-11.4509
▁पारदर्शी	-11.4509
▁नमस्कार	-11.4509
▁राउत	-11.4509
▁रॉकेट	-11.4509
▁सम्यक्	-11.4509
लॉजिस्ट	-11.4511
▁स्टूडेंट	-11.4516
▁परिक्रमा	-11.4517
▁तेलुगु	-11.4526
▁सैयद	-11.4526
▁डीएसपी	-11.4529
▁प्रोटोकॉल	-11.4535
▁नमः	-11.4538
▁सहानुभूति	-11.4543
▁मुजफ्फरपुर	-11.4552
▁हेलीकॉप्टर	-11.4561
▁झुलस	-11.4568
▁एंटरटेनमेंट	-11.4569
▁माउंट	-11.4569
▁सदियों	-11.457
Varanasi	-11.4578
▁शेड्यूल	-11.4578
▁रवींद्र	-11.4578
▁उपनिवेश	-11.4587
▁सिक्किम	-11.4595
▁ट्यूब	-11.4597
▁आईआईटी	-11.4613
▁अवलोकन	-11.4613
▁आमदनी	-11.4613
▁निष्ठा	-11.4616
▁मल्होत्रा	-11.4622
▁सीज़न	-11.4622
▁उतने	-11.4623
▁अरुणाचल	-11.463
▁होर्मुज	-11.463
▁खेम	-11.4631
▁बैक्टीरिया	-11.4639
▁व्यंग्य	-11.4639
▁आविष्कार	-11.4665
▁लड़ाकू	-11.4667
▁फेस्टिवल	-11.4674
▁ताइवान	-11.4683
▁गोलीबारी	-11.4683
▁अलंकार	-11.4692
~	-11.4701
▁नफरत	-11.471
▁मुम्बई	-11.4718
▁इलेवन	-11.4718
▁मुस्कान	-11.4727
▁चौदह	-11.4727
▁असिस्टेंट	-11.4736
▁आशुतोष	-11.4736
▁प्रजनन	-11.4737
▁चक्रवात	-11.4738
ङ	-11.4739
▁क्वार्टर	-11.4745
▁सद्भाव	-11.4753
समूह	-11.476
मूर्ति	-11.476
▁शोधकर्ताओं	-11.4762
▁डेवलपमेंट	-11.4763
▁Edited	-11.4771
▁हिन्दुओं	-11.4771
▁बहरहाल	-11.4771
▁श्रेणियों	-11.4771
▁दबंग	-11.4772
▁प्रतिभागियों	-11.478
▁सलीम	-11.4781
छोटी	-11.4786
▁बहिष्कार	-11.4798
▁अशुभ	-11.4798
▁बदनाम	-11.4812
▁World	-11.4816
▁गायत्री	-11.4818
[	-11.4822
▁सांप्रदायिक	-11.4825
▁लेटेस्ट	-11.4825
▁फ्रांसीसी	-11.4825
▁भविष्यवाणी	-11.4833
▁आराधना	-11.4834
▁नौजवान	-11.4834
▁द्रव	-11.4836
▁स्टीव	-11.4838
▁विख्यात	-11.4852
▁कैलेंडर	-11.4869
▁चिन्तन	-11.487
▁फ्रेम	-11.4872
▁खंगाल	-11.4872
Indian	-11.4875
▁हाइड्रोजन	-11.4887
▁इंजेक्शन	-11.4887
▁परफॉर्मेंस	-11.4887
▁काउंटर	-11.4891
उन्	-11.4902
▁पृथक	-11.4903
▁हड्डी	-11.4914
४८	-11.4915
ع	-11.4923
▁गोपनीय	-11.4923
▁कंटेस्टेंट	-11.4932
▁स्ट्रेट	-11.4944
▁स्वयंसेवक	-11.495
▁जर्जर	-11.495
▁अनुपालन	-11.4951
▁More	-11.4953
▁प्रणालियों	-11.4959
▁घृणा	-11.4968
▁रखरखाव	-11.4968
▁त्यौहार	-11.4977
▁शुष्क	-11.4977
स्थिति	-11.4985
▁चतुर्वेदी	-11.4986
▁पारदर्शिता	-11.4986
▁अब्बास	-11.4986
▁विंडो	-11.4987
भाजपा	-11.5014
▁धूमधाम	-11.5023
▁गृहमंत्री	-11.5025
▁बदौलत	-11.5032
▁इंग्लिश	-11.5041
▁अडानी	-11.5041
▁दुरुपयोग	-11.505
▁फेमस	-11.5059
▁दावों	-11.507
▁अग्रिम	-11.5071
▁अफ्रीकी	-11.5077
▁इरादा	-11.5087
▁अम्ल	-11.5092
▁केमिकल	-11.5094
▁पुर्तगाल	-11.5096
▁एल्बम	-11.5096
▁कनेक्टिविटी	-11.5114
▁वांछित	-11.5114
▁साप्ताहिक	-11.5114
▁टर्मिनल	-11.5123
▁फरीदाबाद	-11.5123
▁रिपब्लिक	-11.5123
▁अपार्टमेंट	-11.5132
▁ऑपरेटर	-11.5132
▁सुगंध	-11.5132
▁सोरेन	-11.5133
▁अनियंत्रित	-11.5142
▁महमूद	-11.5142
▁आरबीआई	-11.5151
▁भेड़	-11.5153
▁राइफल	-11.5161
▁पाण्डेय	-11.5169
▁स्टार्टअप	-11.5169
▁मसाले	-11.5179
▁ग्रीष्म	-11.5197
▁ऋग्वेद	-11.5197
▁संप्रदाय	-11.5197
▁मोर्चे	-11.5197
▁ब्राजील	-11.5206
▁वर्चुअल	-11.5216
▁बरतने	-11.5216
▁अंधेरे	-11.5225
▁उजाला	-11.5225
▁महाराणा	-11.5234
▁Price	-11.5234
▁आपत्तिजनक	-11.5245
▁मार्शल	-11.5246
▁ऑडियो	-11.5263
▁खासतौर	-11.5281
▁बैलेंस	-11.5292
▁कार्यान्वयन	-11.5299
▁आरामदायक	-11.53
▁मतगणना	-11.5318
▁रिमांड	-11.5318
▁अंबेडकर	-11.5337
प्राप्त	-11.5346
▁Market	-11.5346
▁गड्ढे	-11.5356
▁कुंडली	-11.5356
▁नवाचार	-11.5356
▁चिह्नित	-11.5365
▁दिवंगत	-11.5365
▁नामजद	-11.5366
▁वज्र	-11.5369
▁अहंकार	-11.5384
▁उत्सर्जन	-11.5384
▁हफ्तों	-11.5393
सामने	-11.5394
▁बिकवाली	-11.5395
▁शंका	-11.5395
▁कालोनी	-11.5404
}	-11.5412
▁आंसू	-11.5413
▁चॉकलेट	-11.5422
▁हाजिर	-11.5423
साहित्य	-11.543
▁महापौर	-11.5431
▁राजनयिक	-11.5441
▁सिगरेट	-11.545
▁लंका	-11.5471
▁सीएचसी	-11.5479
▁कांस्य	-11.5482
▁बॉम्बे	-11.5488
▁नमूने	-11.5488
▁पिघल	-11.5491
▁हार्मोन	-11.5507
▁जरूरतमंद	-11.5507
▁दिग्विजय	-11.5526
▁जागृत	-11.5526
▁मत्स्य	-11.5527
▁घुटने	-11.5536
▁अमरावती	-11.5536
ल्यूशन	-11.5543
▁अहसास	-11.5545
▁प्रोफेशनल	-11.5555
▁रेस्तरां	-11.5555
▁तब्दील	-11.5555
▁आजीविका	-11.5565
▁बैंगलोर	-11.5574
संस्कृत	-11.5577
▁ज्येष्ठ	-11.5584
▁कन्हैया	-11.5593
▁रिलेशनशिप	-11.5593
▁Bank	-11.5594
▁कारतूस	-11.5603
▁उर्वरक	-11.5613
▁असंख्य	-11.5616
ت	-11.6322
&	-11.653
د	-11.6627
в	-11.6702
л	-11.6854
ऍ	-11.7075
‘	-11.7634
س	-11.7757
ف	-11.7792
к	-11.7865
औ	-11.8277
\	-11.8921
ك	-11.9347
<	-11.9865
q	-11.9951
ق	-11.9998
ञ	-12.0163
●	-12.0411
м	-12.1138
ા	-12.1222
·	-12.1427
ح	-12.1427
أ	-12.1672
д	-12.1725
у	-12.1904
া	-12.2695
я	-12.2973
{	-12.317
п	-12.3342
ı	-12.3384
ة	-12.349
×	-12.4147
ج	-12.4634
$	-12.4989
ی	-12.5072
ы	-12.5122
。	-12.5477
•	-12.561
й	-12.6774
ે	-12.6922
з	-12.6952
#	-12.7452
₹	-12.9434
“	-13.3537
