<pad>	0
<unk>	0
<s>	0
</s>	0
<0x00>	0
<0x01>	0
<0x02>	0
<0x03>	0
<0x04>	0
<0x05>	0
<0x06>	0
<0x07>	0
<0x08>	0
<0x09>	0
<0x0A>	0
<0x0B>	0
<0x0C>	0
<0x0D>	0
<0x0E>	0
<0x0F>	0
<0x10>	0
<0x11>	0
<0x12>	0
<0x13>	0
<0x14>	0
<0x15>	0
<0x16>	0
<0x17>	0
<0x18>	0
<0x19>	0
<0x1A>	0
<0x1B>	0
<0x1C>	0
<0x1D>	0
<0x1E>	0
<0x1F>	0
<0x20>	0
<0x21>	0
<0x22>	0
<0x23>	0
<0x24>	0
<0x25>	0
<0x26>	0
<0x27>	0
<0x28>	0
<0x29>	0
<0x2A>	0
<0x2B>	0
<0x2C>	0
<0x2D>	0
<0x2E>	0
<0x2F>	0
<0x30>	0
<0x31>	0
<0x32>	0
<0x33>	0
<0x34>	0
<0x35>	0
<0x36>	0
<0x37>	0
<0x38>	0
<0x39>	0
<0x3A>	0
<0x3B>	0
<0x3C>	0
<0x3D>	0
<0x3E>	0
<0x3F>	0
<0x40>	0
<0x41>	0
<0x42>	0
<0x43>	0
<0x44>	0
<0x45>	0
<0x46>	0
<0x47>	0
<0x48>	0
<0x49>	0
<0x4A>	0
<0x4B>	0
<0x4C>	0
<0x4D>	0
<0x4E>	0
<0x4F>	0
<0x50>	0
<0x51>	0
<0x52>	0
<0x53>	0
<0x54>	0
<0x55>	0
<0x56>	0
<0x57>	0
<0x58>	0
<0x59>	0
<0x5A>	0
<0x5B>	0
<0x5C>	0
<0x5D>	0
<0x5E>	0
<0x5F>	0
<0x60>	0
<0x61>	0
<0x62>	0
<0x63>	0
<0x64>	0
<0x65>	0
<0x66>	0
<0x67>	0
<0x68>	0
<0x69>	0
<0x6A>	0
<0x6B>	0
<0x6C>	0
<0x6D>	0
<0x6E>	0
<0x6F>	0
<0x70>	0
<0x71>	0
<0x72>	0
<0x73>	0
<0x74>	0
<0x75>	0
<0x76>	0
<0x77>	0
<0x78>	0
<0x79>	0
<0x7A>	0
<0x7B>	0
<0x7C>	0
<0x7D>	0
<0x7E>	0
<0x7F>	0
<0x80>	0
<0x81>	0
<0x82>	0
<0x83>	0
<0x84>	0
<0x85>	0
<0x86>	0
<0x87>	0
<0x88>	0
<0x89>	0
<0x8A>	0
<0x8B>	0
<0x8C>	0
<0x8D>	0
<0x8E>	0
<0x8F>	0
<0x90>	0
<0x91>	0
<0x92>	0
<0x93>	0
<0x94>	0
<0x95>	0
<0x96>	0
<0x97>	0
<0x98>	0
<0x99>	0
<0x9A>	0
<0x9B>	0
<0x9C>	0
<0x9D>	0
<0x9E>	0
<0x9F>	0
<0xA0>	0
<0xA1>	0
<0xA2>	0
<0xA3>	0
<0xA4>	0
<0xA5>	0
<0xA6>	0
<0xA7>	0
<0xA8>	0
<0xA9>	0
<0xAA>	0
<0xAB>	0
<0xAC>	0
<0xAD>	0
<0xAE>	0
<0xAF>	0
<0xB0>	0
<0xB1>	0
<0xB2>	0
<0xB3>	0
<0xB4>	0
<0xB5>	0
<0xB6>	0
<0xB7>	0
<0xB8>	0
<0xB9>	0
<0xBA>	0
<0xBB>	0
<0xBC>	0
<0xBD>	0
<0xBE>	0
<0xBF>	0
<0xC0>	0
<0xC1>	0
<0xC2>	0
<0xC3>	0
<0xC4>	0
<0xC5>	0
<0xC6>	0
<0xC7>	0
<0xC8>	0
<0xC9>	0
<0xCA>	0
<0xCB>	0
<0xCC>	0
<0xCD>	0
<0xCE>	0
<0xCF>	0
<0xD0>	0
<0xD1>	0
<0xD2>	0
<0xD3>	0
<0xD4>	0
<0xD5>	0
<0xD6>	0
<0xD7>	0
<0xD8>	0
<0xD9>	0
<0xDA>	0
<0xDB>	0
<0xDC>	0
<0xDD>	0
<0xDE>	0
<0xDF>	0
<0xE0>	0
<0xE1>	0
<0xE2>	0
<0xE3>	0
<0xE4>	0
<0xE5>	0
<0xE6>	0
<0xE7>	0
<0xE8>	0
<0xE9>	0
<0xEA>	0
<0xEB>	0
<0xEC>	0
<0xED>	0
<0xEE>	0
<0xEF>	0
<0xF0>	0
<0xF1>	0
<0xF2>	0
<0xF3>	0
<0xF4>	0
<0xF5>	0
<0xF6>	0
<0xF7>	0
<0xF8>	0
<0xF9>	0
<0xFA>	0
<0xFB>	0
<0xFC>	0
<0xFD>	0
<0xFE>	0
<0xFF>	0
।	-3.30463
को	-3.66647
मा	-3.77039
ले	-4.14151
,	-4.16684
का	-4.27867
▁छ	-4.40477
▁र	-4.42656
न	-4.85309
लाई	-4.92827
र	-5.01636
▁	-5.03989
ल	-5.04967
ी	-5.16648
क	-5.20754
▁पनि	-5.2843
स	-5.38518
▁भएको	-5.49751
▁छन्	-5.4988
ा	-5.56304
म	-5.57104
बाट	-5.61682
▁हो	-5.69837
▁लागि	-5.70502
▁गरेको	-5.71307
े	-5.71723
ु	-5.73052
▁गर्न	-5.73169
त	-5.76095
▁भने	-5.79136
▁एक	-5.90669
▁गर्ने	-5.91268
प	-5.92211
ट	-5.93196
ै	-5.94144
▁थियो	-5.99066
ि	-5.99863
▁तथा	-6.00894
▁'	-6.07798
ता	-6.08881
▁यो	-6.10162
-	-6.13968
▁मा	-6.1637
▁अ	-6.17352
ज	-6.21945
▁न	-6.22589
ँ	-6.25145
ग	-6.26405
▁प	-6.26435
ड	-6.26541
हरू	-6.27448
▁रहेको	-6.27536
ो	-6.27636
▁स	-6.27679
▁हुने	-6.31001
व	-6.31355
द	-6.32177
▁नेपाल	-6.33418
ना	-6.33448
ला	-6.33492
य	-6.33742
▁उनले	-6.34557
रा	-6.34781
▁को	-6.34887
हरु	-6.36078
▁थिए	-6.38992
▁म	-6.42003
▁नै	-6.42864
▁दिन	-6.43247
▁ब	-6.43432
.	-6.4389
)	-6.43937
▁गरेका	-6.44636
ह	-6.44954
सँग	-6.45223
▁तर	-6.45461
ब	-6.46675
्	-6.48983
▁हजार	-6.49288
▁काम	-6.5185
▁(	-6.52123
ित	-6.54258
▁बताए	-6.54405
▁गरिएको	-6.55423
▁त	-6.56929
्य	-6.58199
'	-6.60965
री	-6.61703
ेर	-6.62322
▁आ	-6.62759
िक	-6.65042
▁वा	-6.66627
▁क	-6.68894
्ने	-6.71606
▁काठमाडौं	-6.71851
▁प्र	-6.7201
▁गर्दै	-6.72442
्न	-6.72662
ाइ	-6.73089
▁गरी	-6.74872
▁ग	-6.74994
▁वर्ष	-6.7582
▁यस	-6.76956
न्	-6.77403
सम्म	-6.77732
र्	-6.78113
की	-6.78227
▁लाख	-6.78747
श	-6.78874
ं	-6.78996
च	-6.79382
ली	-6.80433
▁सबै	-6.81229
छ	-6.81549
▁भएका	-6.8187
▁नेपाली	-6.81947
पछि	-6.83035
▁हुन	-6.84072
्या	-6.84495
ख	-6.84578
▁वि	-6.85377
▁सय	-6.86558
▁कारण	-6.86629
फ	-6.8691
▁दुई	-6.87644
▁१	-6.88206
▁जना	-6.88453
ू	-6.89071
भ	-6.90143
ौ	-6.90837
▁बि	-6.9103
▁प्रदेश	-6.91338
▁छैन	-6.93553
▁भन्ने	-6.94621
▁अध्यक्ष	-6.94922
▁उ	-6.95171
वि	-6.9622
▁गरे	-6.96565
▁आफ्नो	-6.96614
▁निर्माण	-6.97184
▁जिल्ला	-6.9753
▁केही	-6.98083
कै	-6.98193
▁कि	-6.98375
ण	-6.98653
िएको	-6.98966
▁जानकारी	-6.99174
▁हुन्	-7.00491
▁धेरै	-7.00806
▁अनुसार	-7.02031
वा	-7.04247
▁-	-7.04574
▁६	-7.05307
▁२	-7.05395
ेको	-7.06307
स्	-7.06364
▁के	-7.06474
ध	-7.06804
इ	-7.06863
▁भए	-7.07047
▁बा	-7.07215
▁ए	-7.07422
▁हुन्छ	-7.07833
▁ज	-7.08489
▁सु	-7.0871
▁विकास	-7.08854
▁अहिले	-7.08891
नी	-7.09058
▁प्रहरी	-7.09538
▁२०	-7.09696
▁ह	-7.10042
देखि	-7.1086
▁समेत	-7.10995
▁रुपैयाँ	-7.11348
▁प्रमुख	-7.11886
ए	-7.12227
▁करोड	-7.12946
सी	-7.13252
▁नि	-7.1326
▁मात्र	-7.13421
▁सरकारले	-7.1349
▁सो	-7.13595
१	-7.14525
पा	-7.1481
▁का	-7.15042
▁कुरा	-7.15309
▁कुनै	-7.15518
▁भ	-7.15905
▁सि	-7.17556
या	-7.17765
ाई	-7.17851
▁स्थानीय	-7.18257
▁द	-7.18702
ने	-7.19
▁कार्यालय	-7.19993
रो	-7.20087
थ	-7.20409
▁समय	-7.20726
िन	-7.21247
▁घर	-7.22677
लि	-7.22993
▁रहेका	-7.23511
▁बढी	-7.23796
▁आएको	-7.23902
ई	-7.24089
▁कम	-7.24237
ौं	-7.24272
▁?	-7.24319
▁सरकार	-7.24683
७	-7.24984
▁फ	-7.25099
▁गरेर	-7.25305
▁सा	-7.25398
▁नयाँ	-7.2553
उ	-7.25645
िङ	-7.2586
▁प्रधानमन्त्री	-7.25952
▁आज	-7.27111
▁५	-7.27137
नि	-7.27364
▁पार्टी	-7.27407
▁व	-7.27585
▁प्रतिशत	-7.27619
▁रुपमा	-7.28668
▁३	-7.29062
२	-7.2924
▁सेवा	-7.29413
▁कार्यक्रम	-7.30098
▁८	-7.31044
▁ख	-7.31139
▁दिए	-7.31523
▁१०	-7.31941
▁कोरोना	-7.32317
▁इ	-7.32425
मै	-7.32522
▁अन्य	-7.32627
▁भन्दै	-7.3316
३	-7.33679
▁समस्या	-7.34178
सा	-7.3449
६	-7.35069
▁तीन	-7.35211
▁ल	-7.35215
जा	-7.35358
ाउन	-7.35486
▁थप	-7.3557
▁खेल	-7.35703
▁उनको	-7.35716
▁९	-7.3594
ंग	-7.36421
हि	-7.3703
▁पहिलो	-7.37047
५	-7.37308
▁निर्णय	-7.37387
अ	-7.37883
▁क्षेत्र	-7.38403
▁विभिन्न	-7.38636
▁जनाएको	-7.3913
▁आर्थिक	-7.40242
ेका	-7.40698
▁व्यवस्था	-7.40717
▁सदस्य	-7.41412
▁महिला	-7.41552
०	-7.41734
हा	-7.41779
▁७	-7.41936
ाउने	-7.42065
▁उनी	-7.42295
लो	-7.42359
▁सुरु	-7.43315
▁च	-7.43407
▁आयोजना	-7.43849
▁प्रति	-7.43923
▁स्वास्थ्य	-7.44797
▁प्रयोग	-7.44892
▁गते	-7.45028
▁रूपमा	-7.45103
▁उक्त	-7.45621
म्	-7.45815
▁कार्य	-7.45935
ृ	-7.45983
४	-7.46023
▁नेता	-7.46476
भन्दा	-7.46535
्दा	-7.46651
ति	-7.46745
सहित	-7.46761
▁राष्ट्रिय	-7.47055
▁गर्दा	-7.47484
▁केन्द्र	-7.47534
ल्	-7.47939
▁भारत	-7.47943
स्ट	-7.48645
ीय	-7.49416
ष्ट	-7.49666
▁"	-7.49678
▁माग	-7.49981
हरुले	-7.5004
डा	-7.50079
८	-7.5011
▁नगरपालिका	-7.50239
▁सहयोग	-7.50376
िया	-7.50681
सँगै	-7.50691
▁त्यस	-7.50729
ष	-7.51078
ती	-7.51724
▁‘	-7.51878
▁श	-7.5195
्दै	-7.52187
जी	-7.52302
▁४	-7.52363
यो	-7.53383
▁मन	-7.53614
▁अब	-7.53946
▁संस्था	-7.54603
ण्ड	-7.55098
रि	-7.55141
▁बैंक	-7.55855
बा	-7.55958
ङ	-7.55966
▁निर्वाचन	-7.5604
▁दिने	-7.56257
प्र	-7.5726
▁दिएको	-7.57461
▁बढ	-7.5779
▁सडक	-7.57825
न्त	-7.57888
दा	-7.57904
९	-7.58364
टा	-7.58617
▁त्यो	-7.5869
▁डा	-7.58926
▁देखि	-7.5956
सि	-7.59879
n	-7.60336
हरुको	-7.60798
▁भयो	-7.61236
िय	-7.61258
▁भन्दा	-7.61445
क्ष	-7.61652
▁व्यक्ति	-7.61748
▁क्षेत्रमा	-7.61902
▁महिना	-7.61997
रे	-7.62328
टी	-7.63287
स्त	-7.63732
▁ता	-7.63749
पी	-7.64126
▁पूर्व	-7.64546
राज	-7.64771
▁एमाले	-7.64837
▁सार्वजनिक	-7.65414
मि	-7.65989
▁गाउँपालिका	-7.66074
▁जोड	-7.66537
▁उत्पादन	-7.66593
▁अवस्था	-7.66699
बारे	-7.67132
कार	-7.68
▁गत	-7.68218
▁सुन	-7.6823
▁सं	-7.68503
रण	-7.68554
क्स	-7.68699
▁अर्ब	-7.69479
रु	-7.69572
▁सन्	-7.69599
▁हामी	-7.69803
▁प्राप्त	-7.69821
हरूको	-7.69937
▁आवश्यक	-7.7019
▁योजना	-7.70218
▁वटा	-7.70429
सु	-7.70759
▁झ	-7.70808
▁कम्पनी	-7.70808
ाउ	-7.71561
िने	-7.71751
क्	-7.7185
▁बनाउन	-7.72724
▁अघि	-7.73233
–	-7.73358
▁दल	-7.73426
▁दि	-7.7346
▁पाँच	-7.73812
▁मृत्यु	-7.73936
तर्फ	-7.74358
िएका	-7.75064
बीच	-7.75699
▁समूह	-7.75823
▁साथ	-7.76096
्रा	-7.76156
▁उप	-7.76224
▁जारी	-7.76321
हरूले	-7.76566
▁पर्ने	-7.76854
र्स	-7.77115
▁हाल	-7.77186
▁उल्लेख	-7.77264
▁उद्योग	-7.77312
▁नेकपा	-7.77539
घ	-7.77794
द्ध	-7.78409
▁मात्रै	-7.78436
्छ	-7.78492
▁अस्पताल	-7.78601
ङ्ग	-7.78647
▁पटक	-7.78889
▁सञ्चालन	-7.78895
▁नाम	-7.78932
▁मन्त्री	-7.79059
▁ना	-7.79171
बहादुर	-7.79239
▁राज	-7.79312
स्थित	-7.79499
▁छलफल	-7.7953
▁एउटा	-7.79576
’	-7.79758
▁मूल्य	-7.80004
▁ओ	-7.80032
▁कांग्रेस	-7.80548
▁देश	-7.80616
▁जित	-7.80631
▁गर्नु	-7.80761
ही	-7.81041
भित्र	-7.81425
▁गर	-7.81452
▁भनेर	-7.81581
▁गोल	-7.81817
डी	-7.8191
▁रकम	-7.82001
ः	-7.82003
▁१५	-7.82069
▁गरि	-7.82138
▁चार	-7.82143
▁आएका	-7.82349
▁लगानी	-7.82392
माथि	-7.82394
▁उपचार	-7.82418
समेत	-7.82479
झ	-7.82864
▁ध	-7.82916
ठ	-7.8314
ाय	-7.83582
▁रु	-7.84077
▁मत	-7.84604
बि	-7.84685
ियो	-7.84819
ेट	-7.85058
▁१२	-7.85136
▁वडा	-7.85175
▁मु	-7.85296
▁मे	-7.85726
त्र	-7.85773
▁कर्मचारी	-7.85776
्र	-7.86162
▁बे	-7.86252
गा	-7.86326
▁पा	-7.86486
▁विश्व	-7.86528
हरुलाई	-7.86668
्यो	-7.87038
▁ठूलो	-7.87275
▁राम्रो	-7.8774
▁बजेट	-7.87964
से	-7.88106
▁लेख	-7.88554
▁ती	-7.88907
/	-7.88943
▁१९	-7.89167
▁पद	-7.89396
▁कु	-7.89495
▁खर्च	-7.89506
▁जान	-7.89542
▁बताएका	-7.8983
जि	-7.89959
▁नागरिक	-7.89971
ाउँदै	-7.90049
शा	-7.90503
चा	-7.90753
▁यस्तो	-7.90945
▁११	-7.90979
▁तपाईं	-7.91043
▁संघ	-7.9127
गत	-7.91394
▁भइरहेको	-7.91732
▁राष्ट्र	-7.91816
▁तह	-7.91999
▁मुलुक	-7.92131
▁लि	-7.9219
▁दोस्रो	-7.92409
▁भा	-7.92602
▁क्रममा	-7.92986
▁परि	-7.93382
ाएको	-7.93546
▁जन	-7.93779
ुवा	-7.93943
▁जो	-7.94083
▁स्व	-7.9411
▁बेला	-7.94283
पुर	-7.94647
▁साथै	-7.95008
▁विशेष	-7.95023
▁विषयमा	-7.95177
▁अवस्थामा	-7.95226
ेश	-7.95321
र्ज	-7.95917
▁गु	-7.96339
र्क	-7.96424
▁हुँदा	-7.96548
आ	-7.96622
▁पुगेको	-7.96715
धि	-7.96995
ुपर्ने	-7.9722
▁बन्द	-7.97374
▁तयारी	-7.97701
▁हुनेछ	-7.97913
अनुसार	-7.97917
▁अर्को	-7.97929
▁संक्रमण	-7.97961
ढ	-7.98021
▁हा	-7.98169
▁व्यवस्थापन	-7.98381
ान	-7.98572
पर	-7.98614
▁प्रहरीले	-7.98852
"	-7.98979
▁संख्या	-7.99078
▁विषय	-7.99262
▁थ	-7.99267
▁परेको	-7.99415
ीकरण	-7.99699
▁बन	-7.99811
खा	-7.9989
▁लागेको	-7.9992
▁बजार	-8.00074
▁समिति	-8.00221
▁महा	-8.00413
▁लिन	-8.00432
▁गर्नुपर्ने	-8.00535
▁जीवन	-8.00576
▁घटना	-8.00916
▁जनता	-8.00937
प्रसाद	-8.00979
▁कर	-8.0098
▁५०	-8.00984
▁होइन	-8.01199
▁नेपालमा	-8.01206
▁पानी	-8.01323
▁गो	-8.01328
▁पछि	-8.01397
▁सक्छ	-8.014
▁चल	-8.01403
▁राजनीतिक	-8.01535
▁अधिकारी	-8.01612
कुमार	-8.01867
त्त	-8.02126
▁मिल	-8.02472
ौँ	-8.03195
▁सामाजिक	-8.03249
▁सक्ने	-8.03311
▁ड	-8.03441
▁खा	-8.03474
▁सम्पन्न	-8.03541
▁देखिएको	-8.03714
▁विद्यालय	-8.03784
▁सुरक्षा	-8.03894
▁यी	-8.04193
▁नीति	-8.04273
के	-8.04389
ाएर	-8.04425
नु	-8.04501
▁भएपछि	-8.04503
मध्ये	-8.04742
र्म	-8.04772
▁फिल्म	-8.04843
▁पो	-8.04886
▁बैठक	-8.05306
▁परिवार	-8.05894
पत्र	-8.05901
्स	-8.05912
मी	-8.06127
▁जुन	-8.062
▁अनुसन्धान	-8.06284
▁आउने	-8.06395
▁दु	-8.06709
▁से	-8.06799
▁यसको	-8.07106
▁सांसद	-8.07245
▁चीन	-8.07379
▁खोज	-8.07431
▁कार्यक्रममा	-8.07454
जन	-8.075
▁राज्य	-8.07692
▁मो	-8.0783
▁दिएका	-8.07877
▁बाहिर	-8.08037
▁उच्च	-8.08236
▁भनाइ	-8.0838
▁ओली	-8.0888
▁नगर	-8.08881
▁पक्ष	-8.0899
▁उपलब्ध	-8.09045
▁समयमा	-8.09047
▁सबैभन्दा	-8.09292
▁अगाडि	-8.09423
▁यस्तै	-8.09451
▁गएको	-8.09538
▁भेट	-8.09604
▁बस	-8.09647
▁डि	-8.09669
▁ट	-8.09838
,'	-8.09853
ओ	-8.09921
▁पक्राउ	-8.10558
▁दा	-8.10574
▁प्रस्ताव	-8.10635
▁२५	-8.10669
▁घोषणा	-8.10771
▁संविधान	-8.10805
▁राष्ट्रपति	-8.11028
▁नम्बर	-8.11069
▁पार	-8.11128
▁जाने	-8.11138
▁माओवादी	-8.11184
▁लग	-8.11191
न्ट	-8.1138
?	-8.11423
्यु	-8.11434
▁नेपालको	-8.11537
▁सभा	-8.11574
▁मन्त्रालय	-8.11658
▁काठमाडौँ	-8.11672
▁समाज	-8.11693
▁पु	-8.11868
▁बनाउने	-8.11911
्व	-8.11955
i	-8.12179
▁शिक्षा	-8.12264
▁त्यस्तै	-8.12476
कु	-8.1257
▁विद्यार्थी	-8.12625
0	-8.12903
▁मह	-8.1311
▁गर्छ	-8.13125
e	-8.13155
▁केन्द्रीय	-8.13222
न्ड	-8.13344
▁यहाँ	-8.13503
त्	-8.136
ाव	-8.13707
▁गाउँ	-8.13936
▁भएर	-8.14016
▁मुख्य	-8.14108
▁अप	-8.14308
बी	-8.14512
▁तयार	-8.14782
सं	-8.14794
s	-8.14841
▁ले	-8.14991
▁हाम्रो	-8.15051
▁बो	-8.15252
▁स्ट	-8.15447
▁भएकाले	-8.15609
▁पछिल्लो	-8.15743
▁किन	-8.16249
▁अध्ययन	-8.16349
▁रो	-8.16506
न्द	-8.1656
एस	-8.16807
▁कृषि	-8.16841
मार्फत	-8.16943
▁त्यहाँ	-8.16993
ेल	-8.17125
▁ढ	-8.17652
▁गीत	-8.17714
▁भाग	-8.17826
▁१३	-8.17838
▁भित्र	-8.18032
▁सम्झौता	-8.18617
▁प्रदान	-8.1876
▁१४	-8.19076
्नु	-8.19334
▁चि	-8.19606
▁हुँदै	-8.19761
▁गर्दछ	-8.19818
▁युवा	-8.20014
▁राम	-8.20262
▁कारोबार	-8.20283
▁व्यापार	-8.20384
▁३०	-8.20387
▁अमेरिका	-8.20467
टर	-8.20674
▁हि	-8.20963
▁स्थानमा	-8.21089
िट	-8.21267
टो	-8.2149
▁बैंकले	-8.21496
▁घट	-8.21524
▁आरोप	-8.21549
▁आइ	-8.21656
▁बढेको	-8.21939
▁पैसा	-8.2204
ार	-8.22163
▁व्यवसायी	-8.22175
▁प्रक्रिया	-8.22195
▁पर	-8.22233
▁हामीले	-8.22375
▁भारतीय	-8.22614
प्रति	-8.22745
हरूलाई	-8.22782
▁हात	-8.22862
▁चा	-8.22981
पनि	-8.23012
▁सेयर	-8.23442
पि	-8.2345
▁चाह	-8.23545
▁घ	-8.23654
▁आफू	-8.23769
▁निर्देशन	-8.24098
▁मि	-8.24687
दिन	-8.24849
o	-8.24937
▁जा	-8.2573
▁बाल	-8.25745
▁सम्म	-8.25777
▁टोली	-8.25796
दै	-8.25836
जु	-8.25991
▁दुवै	-8.26049
▁उठ	-8.2613
a	-8.2629
र्ट	-8.26588
▁मुद्दा	-8.26779
▁क्या	-8.27059
1	-8.27189
कि	-8.27366
▁सकिन्छ	-8.27438
▁आग्रह	-8.2751
▁बु	-8.27526
▁करिब	-8.27643
▁खेलमा	-8.27684
ञ्ज	-8.27725
▁स्थान	-8.2774
हु	-8.2784
▁डे	-8.27843
▁य	-8.28148
▁यसअघि	-8.28315
भर	-8.28404
िस	-8.28558
▁परीक्षण	-8.28571
र्ड	-8.28588
▁लामो	-8.28672
▁आगामी	-8.28938
▁१६	-8.28964
▁यु	-8.28982
▁उम्मेदवार	-8.29101
ेन्द्र	-8.29255
▁गा	-8.29393
▁अनि	-8.29533
िर	-8.29595
▁मान	-8.29828
▁संक्रमित	-8.29968
ग्	-8.2998
▁बजे	-8.30072
दर	-8.30153
▁शर्मा	-8.302
छन्	-8.30212
▁कसरी	-8.30419
▁वर्षको	-8.30566
▁खेलाडी	-8.30608
▁:	-8.3072
▁नभएको	-8.30851
▁पूर्ण	-8.30853
▁विश्वास	-8.3097
▁सरकारी	-8.31196
िल	-8.31393
िए	-8.31417
दि	-8.31552
▁सहभागी	-8.31638
▁विभाग	-8.31664
▁१८	-8.31723
▁गरिने	-8.3179
▁आधारमा	-8.31814
हर	-8.31863
▁सरकारको	-8.31996
▁प्रदर्शन	-8.32154
▁सहज	-8.32452
न्स	-8.32512
▁ठ	-8.32684
▁अदालत	-8.32687
▁होला	-8.32822
▁सहमति	-8.3297
▁परेका	-8.33058
▁सूचना	-8.33149
▁बिहान	-8.33288
▁अव	-8.33654
▁श्रेष्ठ	-8.33671
▁भर	-8.33693
▁अन्तिम	-8.33845
लगायत	-8.33871
ेन	-8.33914
▁प्रतियोगिता	-8.33915
▁पत्रकार	-8.3394
▁पाउने	-8.34195
▁अंक	-8.34272
▁रि	-8.34409
▁लिएर	-8.34484
t	-8.34524
▁बोल	-8.34556
िन्	-8.34568
▁अन्तर्राष्ट्रिय	-8.34665
हो	-8.34719
ाइएको	-8.34761
डि	-8.34804
▁उनलाई	-8.35012
▁कार्यान्वयन	-8.35203
मे	-8.35222
▁उहाँ	-8.35229
▁दर्ता	-8.35498
▁देखिन्छ	-8.3557
▁बल	-8.35581
▁निकै	-8.35681
मो	-8.358
म्प	-8.3583
मन्त्री	-8.35952
▁वितरण	-8.36026
▁रा	-8.36125
▁अभियान	-8.3619
▁बाँकी	-8.36264
न्न	-8.3639
▁परिवर्तन	-8.36479
▁अन्तर	-8.36541
▁आउन	-8.36646
श्	-8.36879
वी	-8.36981
▁आयोग	-8.37009
भि	-8.37109
▁कम्पनीले	-8.37174
ङ्	-8.37363
ेड	-8.37664
्वा	-8.3769
▁त्यसपछि	-8.37755
▁पूरा	-8.37863
▁सात	-8.3804
मान	-8.38301
▁स्थापना	-8.38342
ंक	-8.38591
▁बनेको	-8.38594
▁खरिद	-8.38762
▁सफल	-8.38926
राम	-8.39172
मु	-8.39203
▁सचिव	-8.39223
▁२४	-8.39262
ञ्च	-8.39298
▁पि	-8.39329
नन्	-8.39375
▁पोखरा	-8.39543
▁अनु	-8.39544
▁सी	-8.39583
▁\	-8.39734
ेपछि	-8.39886
▁कायम	-8.40088
▁दर	-8.40209
्रे	-8.40221
िम	-8.40274
▁बिक्री	-8.40408
▁निकाय	-8.4045
▁सक	-8.40931
विरुद्ध	-8.41077
▁अधिकार	-8.41094
▁यही	-8.41257
▁गरिरहेको	-8.41473
▁थापा	-8.41581
▁अझै	-8.41661
▁या	-8.41741
▁अर्थ	-8.4184
न्छ	-8.41943
▁सोमबार	-8.41972
तिर	-8.41996
नो	-8.42206
▁१७	-8.42309
भा	-8.42463
▁हेर	-8.42562
▁जि	-8.42634
▁राख्न	-8.4266
▁रोग	-8.43023
▁अफ	-8.43049
▁सम्बन्ध	-8.43084
ोल	-8.43273
▁स्रोत	-8.43349
▁आइतबार	-8.43392
म्ब	-8.43459
▁चलचित्र	-8.43561
हरुमा	-8.4363
▁स्	-8.43649
▁पर्यटन	-8.43682
ेज	-8.43732
▁दाबी	-8.43754
▁चुनाव	-8.43823
▁मेरो	-8.441
▁दाहाल	-8.44249
▁सामग्री	-8.44368
▁एवं	-8.44368
▁जग्गा	-8.44377
गर	-8.44435
पु	-8.44488
▁भाइरस	-8.44511
▁रोक	-8.44516
▁देख	-8.44567
नै	-8.446
▁चौ	-8.44619
▁उहाँले	-8.44676
▁त्यसैले	-8.44774
▁प्रश्न	-8.44815
▁बारेमा	-8.44942
▁मानिस	-8.45091
लु	-8.45336
▁आन्दोलन	-8.45373
हरूमा	-8.45525
दार	-8.45578
ल्ड	-8.45676
▁मैले	-8.45703
▁चु	-8.45794
्रि	-8.46167
▁कुल	-8.4659
वर	-8.46628
गो	-8.46637
▁नेतृत्व	-8.4676
▁ला	-8.4683
▁व्यवसाय	-8.46852
दी	-8.46876
▁हुनु	-8.46999
▁वृद्धि	-8.47051
▁गठबन्धन	-8.47404
▁नेपालले	-8.47431
▁उनका	-8.47872
▁बुधबार	-8.47964
▁राख	-8.48118
m	-8.48177
पाल	-8.4819
िज	-8.48264
▁दैनिक	-8.4839
र्न	-8.48503
शि	-8.48506
▁ट्र	-8.48532
▁पढ	-8.48564
▁म्या	-8.48637
▁ने	-8.48646
▁सुधार	-8.48676
टि	-8.48805
▁सुविधा	-8.48818
▁सोही	-8.48887
▁विवाद	-8.48998
▁प्रवेश	-8.49007
▁बजारमा	-8.49148
▁सामान्य	-8.49328
▁फर्क	-8.49348
▁हरेक	-8.49505
▁जनाको	-8.49632
▁अधिकृत	-8.49782
▁विस्तार	-8.49844
र्थ	-8.49989
▁ऐन	-8.50073
▁बुझ	-8.50167
▁नव	-8.50252
था	-8.50302
▁सेना	-8.50325
▁शाखा	-8.50339
▁प्रणाली	-8.50365
▁प्रयास	-8.50385
▁प्रशासन	-8.50396
्छन्	-8.50592
क्र	-8.50715
▁शुक्रबार	-8.509
▁आफ्ना	-8.50947
▁ओलीले	-8.51861
▁फि	-8.52015
▁लक्ष्य	-8.52048
▁त्यसको	-8.52083
▁सम	-8.52129
▁ध्यान	-8.5244
▁प्रा	-8.52506
l	-8.52812
अघि	-8.52921
▁यसले	-8.52948
▁क्लब	-8.5322
्रो	-8.53227
धा	-8.53277
चार	-8.53378
िरहेको	-8.53715
▁ऋण	-8.53732
▁विदेश	-8.53864
▁पुनः	-8.53865
▁पुरुष	-8.53914
▁तत्काल	-8.5392
▁वर्षीय	-8.54003
नाथ	-8.54191
वार	-8.54312
हार	-8.54333
▁प्रस्तुत	-8.54404
▁गराउन	-8.54533
▁जे	-8.5463
▁प्रतिनिधि	-8.54656
▁अमेरिकी	-8.54712
यु	-8.54857
रू	-8.54922
▁लिएको	-8.54932
▁गठन	-8.54973
u	-8.55054
▁किसान	-8.55117
▁टे	-8.55119
▁बैठकमा	-8.5519
▁जन्म	-8.55224
▁भ्रमण	-8.55379
▁२१	-8.5542
2	-8.55713
र्ण	-8.55735
▁यादव	-8.5608
▁क्षमता	-8.56173
एम	-8.56456
▁अस	-8.56457
▁शुरु	-8.56489
▁नहुने	-8.56501
▁गरेपछि	-8.56504
▁बाटो	-8.56527
▁वित्तीय	-8.56685
▁एस	-8.56749
▁संग	-8.56875
▁जब	-8.56886
ल्ट	-8.56922
बु	-8.5695
्ला	-8.57298
▁तपाई	-8.57337
▁फा	-8.57407
▁छैनन्	-8.57729
▁संघीय	-8.57801
▁भूमिका	-8.5794
पन	-8.58026
ियन	-8.5827
वाद	-8.58443
▁मंगलबार	-8.58517
▁बताउँछन्	-8.58733
▁कस	-8.58778
▁नं	-8.58812
▁प्रविधि	-8.58861
▁संसद	-8.58891
▁जस्तो	-8.58997
▁भन्न	-8.59016
▁अरु	-8.59049
▁रन	-8.59059
▁निजी	-8.59064
▁सभापति	-8.59092
▁प्रभाव	-8.5938
ाएका	-8.59546
सन	-8.59627
▁प्रचण्ड	-8.59628
▁तेस्रो	-8.59716
रहे	-8.59959
टे	-8.60165
▁भवन	-8.60201
▁बर्ष	-8.60273
▁यसलाई	-8.60403
▁मानव	-8.60547
▁४०	-8.60588
स्ता	-8.60682
▁त्यही	-8.60752
▁सीमा	-8.60863
ुपर्छ	-8.61067
▁समाधान	-8.61192
▁मन्त्रालयले	-8.61403
▁इन्	-8.61452
▁२२	-8.61455
शी	-8.61467
ाउँदा	-8.61564
▁बैंकको	-8.61573
देश	-8.61615
▁वन	-8.61638
▁पे	-8.61677
▁जोखिम	-8.61722
▁’	-8.61784
▁गुरुङ	-8.61841
धी	-8.6188
▁खान	-8.61913
▁सम्भावना	-8.61966
▁पर्छ	-8.62089
▁शेयर	-8.62115
▁ति	-8.62214
सो	-8.62268
ाउँछ	-8.62301
▁पहिले	-8.62414
▁विरोध	-8.62546
▁लगायत	-8.62568
▁प्रतिवेदन	-8.62749
▁बताउनुभयो	-8.62813
▁नियन्त्रण	-8.62815
ुभएको	-8.62837
▁बस्ने	-8.6294
▁मध्य	-8.63038
▁निर्देशक	-8.63066
▁रहे	-8.63103
▁कानुन	-8.6341
स्थ	-8.63438
▁कर्जा	-8.63468
▁प्राधिकरण	-8.63502
क्क	-8.6354
दे	-8.63546
▁नभए	-8.63797
▁कति	-8.63797
▁सवारी	-8.63907
▁शि	-8.63955
दु	-8.64028
▁अन	-8.64077
▁संयुक्त	-8.6417
▁सकिने	-8.64179
▁भु	-8.64221
▁बीमा	-8.64235
▁सम्	-8.64505
▁छुट	-8.64602
▁चितवन	-8.64745
▁आव	-8.64834
▁सम्मान	-8.64963
▁केपी	-8.65056
१९	-8.65123
▁प्रकाश	-8.65387
▁वातावरण	-8.65562
▁गरिरहेका	-8.65619
▁भि	-8.65923
▁०	-8.66144
चन	-8.66183
▁बनाएको	-8.66215
ेस	-8.66263
▁सम्मेलन	-8.66355
▁दुर्घटना	-8.66416
▁प्या	-8.66419
▁व्यक्त	-8.6642
▁समाचार	-8.66738
▁आफ्नै	-8.66745
▁भई	-8.66745
▁सोच	-8.66893
▁प्रवक्ता	-8.66959
न्त्र	-8.67015
ेश्वर	-8.67064
▁हुँदैन	-8.67096
▁कोष	-8.67112
▁टि	-8.67582
▁था	-8.67785
▁शनिबार	-8.67961
▁उत्तर	-8.67994
▁कोभिड	-8.68079
▁कम्पनीको	-8.68088
▁दक्षिण	-8.68134
▁थाहा	-8.68169
बर	-8.68255
▁बैठकले	-8.68279
▁उपाध्यक्ष	-8.68301
▁निर्	-8.68533
▁असार	-8.68589
▁यदि	-8.68639
त्य	-8.68745
▁समुदाय	-8.69073
\	-8.69115
्ती	-8.69119
▁प्रेम	-8.69208
▁सहित	-8.69242
▁बिहीबार	-8.69273
ँदै	-8.69376
▁चैत	-8.69394
▁ठाउँमा	-8.69458
▁बीच	-8.69569
्यू	-8.69608
▁होटल	-8.69731
▁जु	-8.69843
▁न्याय	-8.69859
पूर्ण	-8.69868
▁साता	-8.69899
▁फरक	-8.70173
▁टिम	-8.70215
▁घण्टा	-8.70463
ाए	-8.70495
▁पर्यटक	-8.7059
▁लिने	-8.70766
▁ग्राहक	-8.70926
त्व	-8.71033
▁स्पष्ट	-8.71064
िरहेका	-8.7117
▁रहने	-8.71234
▁विदेशी	-8.71254
▁बिरामी	-8.71284
ङ्क	-8.71299
▁अहिलेसम्म	-8.71369
▁फेरि	-8.71485
स्क	-8.71493
▁छौं	-8.7153
ेन्ट	-8.71535
कृत	-8.71632
▁खोप	-8.72084
प्त	-8.72131
▁पत्र	-8.72146
▁हु	-8.72513
▁पौडेल	-8.72643
▁पुरा	-8.72845
चो	-8.7286
▁लिग	-8.72888
▁सर	-8.72909
▁जिल्लामा	-8.73017
▁आई	-8.73039
आई	-8.7328
▁बोर्ड	-8.73303
वे	-8.73386
गु	-8.73415
न्ज	-8.73797
▁सम्बन्धित	-8.73849
पटक	-8.73912
▁मलाई	-8.7398
▁२३	-8.74086
▁बत	-8.74177
▁विगत	-8.7421
बल	-8.74274
च्छ	-8.74316
▁भे	-8.74374
र्त	-8.74403
▁चे	-8.74409
▁ई	-8.74419
ल्ला	-8.74435
▁उपत्यका	-8.74477
▁कार्की	-8.74534
▁सर्वोच्च	-8.74846
▁सह	-8.74864
▁साल	-8.74901
▁ल्याउन	-8.75019
कर	-8.75022
▁केसी	-8.75154
▁जेठ	-8.7525
▁टु	-8.75294
सम्बन्धी	-8.75319
ेन्स	-8.75352
▁अभाव	-8.75413
फा	-8.75426
▁तिनीहरू	-8.7544
▁ब्या	-8.75551
क्त	-8.75732
▁सिंह	-8.75907
वन	-8.75968
▁रोजगारी	-8.75991
कल	-8.76007
▁राजनीति	-8.76203
▁बसेको	-8.76289
▁२७	-8.76311
▁आठ	-8.76344
▁राजधानी	-8.76427
▁बन्न	-8.7649
ेसन	-8.76552
▁समितिले	-8.76672
▁भइ	-8.76674
▁थालेको	-8.76818
वास	-8.76941
▁हत्या	-8.76961
ष्ठ	-8.77213
▁सकेको	-8.77358
p	-8.77488
▁हे	-8.77607
कारी	-8.7775
▁२८	-8.7779
▁औं	-8.77799
डे	-8.7781
▁राई	-8.77873
▁अन्तर्गत	-8.7795
▁जिम्मेवारी	-8.78001
▁लगायतका	-8.78066
▁यात्रा	-8.78198
▁जस्तै	-8.78332
▁विवरण	-8.7839
▁माथि	-8.78445
▁आयात	-8.78524
▁ठाउँ	-8.7858
▁गाडी	-8.78687
▁पाइ	-8.78722
▁भिडियो	-8.78733
स्था	-8.78834
क्रम	-8.79052
▁ब्र	-8.79191
▁उनीहरू	-8.7926
हान	-8.79406
▁कृष्ण	-8.79437
▁२६	-8.79438
▁जसले	-8.79478
▁शक्ति	-8.796
▁सत्ता	-8.79634
▁एन	-8.79679
▁संरक्षण	-8.7968
▁लाग्ने	-8.79711
▁यस्ता	-8.79722
▁पुन	-8.79785
▁गर्छन्	-8.79791
▁उत्	-8.79827
▁गराउने	-8.79865
▁मान्छे	-8.79877
▁नदी	-8.79892
▁विमानस्थल	-8.79954
तो	-8.79995
▁विधेयक	-8.80125
ष्	-8.8017
▁पाउन	-8.80221
▁फे	-8.80387
▁शा	-8.80489
▁स्वतन्त्र	-8.8065
▁नियम	-8.80674
▁आन्तरिक	-8.8084
धन	-8.8088
▁आदेश	-8.80945
▁खु	-8.80985
▁वे	-8.81022
▁आए	-8.8108
▁घाइते	-8.81255
षण	-8.81266
▁पुष्टि	-8.8148
▁महासंघ	-8.81502
▁टो	-8.81563
▁दशमलव	-8.81601
▁अस्पतालमा	-8.81769
▁सके	-8.81793
▁डो	-8.81996
▁अभि	-8.82093
लाइ	-8.82253
▁लाग	-8.82416
भी	-8.82592
▁संकलन	-8.82634
▁पुग्ने	-8.82694
▁सुझाव	-8.82877
▁देव	-8.82988
▁थिइन्	-8.83114
▁टा	-8.83143
▁पराजित	-8.83259
▁न्यू	-8.83515
▁फिर्ता	-8.83547
▁प्रतिनिधिसभा	-8.83549
▁पाए	-8.83574
▁गम्भीर	-8.83589
▁जस्ता	-8.83643
c	-8.83661
▁आवश्यकता	-8.83821
▁पुल	-8.83897
▁कार्यकारी	-8.83942
द्	-8.8406
िता	-8.84066
▁बालबालिका	-8.84256
▁भइसकेको	-8.84409
▁आमा	-8.8443
ालय	-8.8455
▁क्रिकेट	-8.84697
▁सहकारी	-8.84803
h	-8.84904
▁छु	-8.85086
चि	-8.85201
▁रे	-8.85262
▁अवसर	-8.85322
▁श्रेष्ठले	-8.85424
▁राख्ने	-8.85477
वादी	-8.85479
▁विकेट	-8.85511
▁संगठन	-8.85619
द्वारा	-8.85648
▁क्षति	-8.85767
▁थिएन	-8.8588
ुहुन्छ	-8.85968
क्षा	-8.86022
▁मन्दिर	-8.86039
▁मुख्यमन्त्री	-8.86065
▁ज्यान	-8.86174
▁प्रभावित	-8.86249
▁आम	-8.86262
▁नेपालका	-8.86264
▁कारबाही	-8.86328
▁६०	-8.86337
▁समाजवादी	-8.86627
▁महामारी	-8.86752
▁पूर्वाधार	-8.86887
▁बढाउन	-8.86972
▁हुन्छन्	-8.87005
▁उनीहरु	-8.87025
▁बताइएको	-8.87064
▁ग्र	-8.87154
▁धर्म	-8.87234
नगर	-8.87274
▁गरिन्छ	-8.87293
▁कमजोर	-8.87354
संग	-8.87425
▁लो	-8.87436
▁उद्देश्य	-8.87455
▁स्वा	-8.87485
▁गुनासो	-8.87523
र्च	-8.8756
▁विचार	-8.87574
▁भाषा	-8.87649
▁कतिपय	-8.87742
बे	-8.87758
▁उडान	-8.87799
▁एकता	-8.87835
d	-8.87871
▁फुटबल	-8.87938
▁प्रत्येक	-8.88135
हे	-8.88204
▁दिइ	-8.88212
▁देउवा	-8.88217
▁बाट	-8.88338
पति	-8.8845
▁पोखरेल	-8.88467
▁संरचना	-8.88542
जे	-8.88549
▁चौधरी	-8.88778
पो	-8.8878
▁सम्बोधन	-8.88793
▁संशोधन	-8.88816
▁उमेर	-8.88904
न्ध	-8.88958
▁शीर्ष	-8.8903
▁राखिएको	-8.89085
▁थाल	-8.8909
व्य	-8.89187
▁निर्वाचित	-8.89281
्री	-8.89636
रहन	-8.89732
▁असर	-8.89875
रहेको	-8.89913
▁क्षेत्रको	-8.89938
▁आय	-8.89969
▁अनुमति	-8.89972
▁पुगेका	-8.89997
िलो	-8.90046
▁नाममा	-8.90085
आर	-8.90112
▁पेश	-8.90159
सार	-8.90218
▁अन्त्य	-8.90329
र्ग	-8.90391
▁यसरी	-8.90458
▁हिमाल	-8.90462
ायो	-8.90689
▁२९	-8.90753
▁यसै	-8.90996
▁यातायात	-8.91017
▁आधार	-8.91085
▁साउन	-8.91101
्नुपर्ने	-8.91158
▁वस्तु	-8.9122
बार	-8.91226
ंगा	-8.91253
▁डलर	-8.91394
▁नसकेको	-8.91482
▁घरमा	-8.9159
▁उत्कृष्ट	-8.91665
कर्ता	-8.91717
ैं	-8.91823
▁सिर्जना	-8.92136
पे	-8.92187
▁गर्नुपर्छ	-8.924
िन्छ	-8.92462
▁सर्	-8.92528
▁स्क	-8.92629
▁मतदान	-8.92677
▁समन्वय	-8.9268
यता	-8.92683
▁सिक	-8.9274
▁बनाएर	-8.92779
▁सक्रिय	-8.92792
चित	-8.92841
▁साधन	-8.92871
ानी	-8.92916
¥	-8.92933
▁खबर	-8.92965
▁पाएको	-8.92986
▁महत्वपूर्ण	-8.93015
निक	-8.93198
▁हेर्न	-8.93546
▁लगाउन	-8.9357
▁भुक्तानी	-8.93602
▁सिफारिस	-8.93707
▁पश्चिम	-8.93739
▁वैशाख	-8.93857
▁कमिटी	-8.93937
▁हालसम्म	-8.9405
▁आयोगले	-8.94059
▁गृह	-8.94168
▁सम्पूर्ण	-8.94209
▁राति	-8.94268
▁कलेज	-8.94397
▁कानून	-8.94452
▁कोइराला	-8.94476
शन	-8.9461
▁क्ल	-8.94755
▁३५	-8.94798
▁आफूले	-8.94866
डो	-8.94898
▁शान्ति	-8.95009
▁अनुमान	-8.9501
खे	-8.95032
▁लु	-8.95105
▁निर्वाचनमा	-8.95118
ेशन	-8.95228
िका	-8.95347
ाइन	-8.95354
▁धन	-8.95394
▁गए	-8.95503
मन	-8.95574
सकेको	-8.95614
▁राखेर	-8.95728
ण्डा	-8.95786
▁पुग	-8.959
▁छोरा	-8.96025
ात्मक	-8.96037
लाल	-8.9615
▁चर्चा	-8.96157
▁समावेश	-8.9619
▁वर्षा	-8.96214
▁ल्याएको	-8.96252
तु	-8.96272
▁बच्चा	-8.96496
▁जात	-8.96525
रिया	-8.96564
▁फागुन	-8.96633
▁हुनुपर्ने	-8.96751
▁श्री	-8.96779
▁जी	-8.96998
▁महानगरपालिका	-8.97051
अन्तर्गत	-8.97114
मुख	-8.97146
▁माघ	-8.97158
▁आदि	-8.97161
२०	-8.97286
ँदा	-8.97296
▁आफै	-8.97316
▁यति	-8.97325
▁संलग्न	-8.97352
▁खड्का	-8.97435
ठा	-8.97725
▁आर	-8.97742
▁हरि	-8.97761
▁भो	-8.97776
▁लकडाउन	-8.97808
▁बी	-8.97814
युक्त	-8.97898
▁साह	-8.97924
गरी	-8.98178
▁दिइएको	-8.98186
▁थापाले	-8.9832
▁तर्फबाट	-8.98409
ुहोस्	-8.98455
▁नेताहरु	-8.98679
▁कलाकार	-8.98679
▁समितिको	-8.98976
▁अवधिमा	-8.9901
▁लोक	-8.99092
योग	-8.99118
▁परे	-8.99198
▁गौतम	-8.99243
▁गरेकी	-8.99552
▁शरीर	-8.99594
▁वरिष्ठ	-8.99607
पक्ष	-8.9964
▁भू	-8.99708
द्र	-8.99747
▁साइ	-9.00123
▁कर्णाली	-9.00185
▁हट	-9.00207
ाउँ	-9.0021
बो	-9.00238
▁लागू	-9.00293
▁आफूलाई	-9.00377
▁वर्षमा	-9.00379
▁रू	-9.00467
▁परीक्षा	-9.00587
▁शुल्क	-9.00596
बन्दी	-9.00618
शील	-9.00643
ोप	-9.00651
▁लड	-9.00675
▁जम्मा	-9.00736
▁गति	-9.00787
भाव	-9.00803
▁पीडित	-9.00835
▁मध्ये	-9.0085
▁नारायण	-9.00883
ग्रह	-9.00963
▁त्रि	-9.01037
▁फोन	-9.01056
्थे	-9.01163
▁बस्न	-9.01255
▁कुमार	-9.01284
▁चिन	-9.01309
▁!	-9.01322
जना	-9.01344
खु	-9.01345
▁कन्	-9.01516
▁शाह	-9.0181
ट्ट	-9.01851
दो	-9.01884
त्ति	-9.02018
वटा	-9.02032
▁वाणिज्य	-9.02096
क्का	-9.02198
▁राखेको	-9.02247
▁अधिकांश	-9.02479
▁महाधिवेशन	-9.02514
▁देशको	-9.02531
▁लगानीकर्ता	-9.02559
▁फु	-9.02572
▁भदौ	-9.02649
एल	-9.02659
▁कार्यकर्ता	-9.02779
▁ल्याए	-9.0285
▁शिक्षक	-9.02903
▁मिटर	-9.03127
न्द्र	-9.03164
▁यसमा	-9.03178
▁संयोजक	-9.03205
▁मनो	-9.03245
▁क्षेत्रका	-9.0325
▁अवसरमा	-9.03251
▁प्राथमिकता	-9.03303
▁जवाफ	-9.03409
्म	-9.0359
▁खुला	-9.03603
▁नौ	-9.03624
▁बन्ने	-9.03673
्लो	-9.03724
▁पौडेलले	-9.03908
▁केहि	-9.03912
▁छोड	-9.03937
▁सानो	-9.04137
▁साथी	-9.04214
▁पक्षमा	-9.04217
▁पहल	-9.04241
▁अनुभव	-9.04267
▁जनताको	-9.04387
▁कथा	-9.04389
▁बताउँदै	-9.04425
स्प	-9.04483
▁गर्नेछ	-9.0454
▁पार्टीका	-9.04593
यन	-9.04743
हाल	-9.04748
▁पुस	-9.04821
▁फो	-9.05001
▁खट	-9.05067
▁सञ्चालनमा	-9.05084
▁अर्का	-9.05136
▁समितिका	-9.05139
▁सूची	-9.05186
▁जापान	-9.05307
त्ता	-9.05341
▁विवाह	-9.05366
▁पार्टीको	-9.05393
▁सकिए	-9.05439
▁प्रतिस्पर्धा	-9.05452
▁पाण्डे	-9.05461
▁खुल	-9.05585
▁हर	-9.05665
पूर्व	-9.05702
लगायतका	-9.05875
▁वार्षिक	-9.05905
भे	-9.05981
▁समान	-9.06026
▁कस्तो	-9.06096
श्व	-9.06126
▁नियमित	-9.06234
▁चरण	-9.06288
▁अर्थतन्त्र	-9.06294
▁आम्दानी	-9.06303
▁चिनियाँ	-9.06303
▁एकै	-9.0636
▁बर्	-9.06381
बद्ध	-9.06388
▁उपभोक्ता	-9.06521
▁तिमी	-9.06532
▁छिन्	-9.06553
▁शिव	-9.06596
▁सञ्चालक	-9.06666
म्भ	-9.06684
▁प्रमाण	-9.06706
▁असोज	-9.06941
▁भूकम्प	-9.07004
००	-9.07065
ज्ञा	-9.07079
णी	-9.07113
▁अघिल्लो	-9.07214
▁मार्फत	-9.07253
▁संसदीय	-9.07259
▁३१	-9.07329
▁प्रकाशित	-9.07385
▁ठूला	-9.07489
ाउनु	-9.07605
▁पुस्तक	-9.07647
▁सञ्चार	-9.07731
मेन्ट	-9.07757
शु	-9.07781
▁राहत	-9.0782
▁पहिचान	-9.07837
▁प्रदेशसभा	-9.07866
▁भनिएको	-9.08157
▁संसद्	-9.08199
▁अनुगमन	-9.08299
धान	-9.08341
▁“	-9.08461
▁परियोजना	-9.08614
▁यसका	-9.08719
▁सामान	-9.08728
बाहेक	-9.08787
▁आचार्य	-9.08837
ाइने	-9.08978
▁शो	-9.08985
प्प	-9.09052
▁बढ्न	-9.09091
▁प्राविधिक	-9.09107
▁कक्षा	-9.09137
▁नप	-9.09173
▁पारित	-9.09246
▁भारतको	-9.09445
▁शब्द	-9.09509
र्ष	-9.09623
र्ने	-9.09627
च्च	-9.09637
▁सञ्जाल	-9.09733
▁बताइन्	-9.09768
▁दश	-9.09819
▁टोलीले	-9.0987
▁कहिले	-9.09876
▁विद्युत्	-9.09937
यर	-9.09984
▁सार	-9.10224
▁चरणमा	-9.10262
▁छोरी	-9.10279
▁खाना	-9.10336
ची	-9.10476
बाटै	-9.10565
▁सुरक्षित	-9.10705
▁२००	-9.10729
▁उनीहरुले	-9.10854
िएर	-9.10953
▁आक्रमण	-9.11093
▁संस्कृति	-9.1113
कर्मी	-9.11197
▁औषधि	-9.11369
▁खण्ड	-9.11531
▁कुन	-9.11535
5	-9.11541
▁देशमा	-9.11601
▁मौसम	-9.11637
▁देशभर	-9.11682
▁वर्ग	-9.11698
▁प्रभावकारी	-9.11743
याँ	-9.11766
ल्स	-9.11849
▁रहन	-9.11995
▁सङ्घ	-9.12087
▁जति	-9.12116
▁खेती	-9.1213
लम्ब	-9.12156
तः	-9.12241
▁रूप	-9.12286
▁एम	-9.1232
▁विराटनगर	-9.12337
▁तामाङ	-9.12338
▁३२	-9.12501
▁७०	-9.12519
▁गरिएका	-9.12595
▁शहर	-9.12644
▁कडा	-9.12665
y	-9.12665
▁तत्कालीन	-9.12674
▁सरकारलाई	-9.1272
▁तिन	-9.12781
ाँच	-9.12798
▁बनेका	-9.1285
▁धान	-9.12869
▁विकल्प	-9.12907
ियर	-9.12918
▁पदार्थ	-9.12942
▁भन्छन्	-9.13075
▁नजिक	-9.13295
▁सम्झ	-9.1341
▁आयोजित	-9.13412
▁इतिहास	-9.13416
▁पुरस्कार	-9.13422
▁बढ्ने	-9.13438
▁अवधि	-9.13475
▁साँझ	-9.13556
▁खेलकुद	-9.13607
▁मन्त्रालयका	-9.13631
▁राजा	-9.13723
▁पुँजी	-9.13757
▁पास	-9.1376
क्षण	-9.1388
▁योगदान	-9.13936
▁क्र	-9.13968
वाह	-9.13975
▁दिँदै	-9.14012
▁पारे	-9.14031
▁देखाए	-9.14036
;	-9.14056
▁भौतिक	-9.14105
▁धा	-9.14143
ुभयो	-9.14203
▁प्रतिशतले	-9.14218
▁कल	-9.14395
▁लाग्छ	-9.14449
थि	-9.14732
▁लागे	-9.14793
▁अनुदान	-9.14834
▁जल	-9.14861
▁सहकार्य	-9.14873
जो	-9.14894
वान	-9.14927
इट	-9.15147
▁धारणा	-9.15209
▁स्थायी	-9.15308
▁स्प	-9.15322
▁दिवस	-9.15391
धु	-9.15433
▁ल्याउने	-9.15557
▁पठाउनु	-9.15764
▁लगाउने	-9.15962
▁८०	-9.16172
▁विश्वविद्यालय	-9.16175
▁श्रम	-9.1622
▁नसक्ने	-9.1623
▁यात्रु	-9.16255
▁निगम	-9.16267
▁बढ्दै	-9.16338
▁आफु	-9.1647
श्र	-9.16518
▁औ	-9.16591
▁झा	-9.16673
▁पदाधिकारी	-9.16676
▁त्यसलाई	-9.16721
▁विरुद्ध	-9.16732
▁स्तर	-9.1679
▁सम्बन्धी	-9.16842
▁सहर	-9.16924
▁अग्र	-9.16975
▁वै	-9.17031
▁सहभागिता	-9.17425
▁सर्व	-9.17456
▁गर्नुहोस्	-9.17497
▁मंसिर	-9.17565
▁चिकित्सक	-9.17596
▁निस्क	-9.17687
प्ल	-9.17687
▁सम्पर्क	-9.17789
▁भण्डारी	-9.17816
▁टी	-9.17867
▁गएका	-9.17928
▁पुर्	-9.17962
▁पाएका	-9.17989
ल्याण्ड	-9.17999
▁नगद	-9.18065
▁बुद्ध	-9.18079
▁कार्यालयले	-9.18113
▁सचिवालय	-9.18116
▁अधिकारीले	-9.18119
▁तपाईंको	-9.1813
▁मापदण्ड	-9.18166
▁यू	-9.18186
▁छनोट	-9.18245
▁गर्यो	-9.18302
▁बित	-9.18317
▁नियन्त्रणमा	-9.18376
▁स्थिति	-9.18437
▁गि	-9.18467
▁तरिका	-9.18473
चर	-9.18476
▁मेयर	-9.18527
▁मिनेटमा	-9.18583
▁मोबाइल	-9.18585
एफ	-9.18594
▁कोरिया	-9.1876
▁निरन्तर	-9.18819
g	-9.18916
ाइड	-9.18973
िच	-9.19024
▁राजस्व	-9.19036
▁बै	-9.19101
▁सकेन	-9.1915
▁रुप	-9.19197
ाइज	-9.1922
▁अपराध	-9.19299
कृति	-9.19378
▁कित्ता	-9.19497
▁अर्	-9.19674
▁धु	-9.19688
▁गर्नुभएको	-9.19784
▁खनाल	-9.19847
▁त्यस्तो	-9.19885
▁निकाल	-9.19984
▁मल	-9.20046
▁पठाए	-9.2016
मार्ग	-9.20245
(	-9.20269
▁प्रो	-9.20271
▁कांग्रेसका	-9.20342
▁पुग्न	-9.20433
मात्र	-9.20462
▁गतिविधि	-9.20489
▁भएपनि	-9.20539
▁बाढी	-9.20721
▁सर्वसाधारण	-9.20761
▁नाका	-9.20774
▁आँ	-9.20788
वासी	-9.20861
▁चन्द्र	-9.20869
▁सचेत	-9.20929
▁देशका	-9.20934
▁बेलायत	-9.20967
▁जसमा	-9.21078
▁प्रत्यक्ष	-9.21191
क्ति	-9.2122
▁बग	-9.21273
▁झापा	-9.21299
▁पाकिस्तान	-9.21328
▁भै	-9.21422
▁जग	-9.21533
▁मूल	-9.21629
:	-9.21641
▁नाफा	-9.21727
स्व	-9.21774
▁काँग्रेस	-9.21814
▁वैदेशिक	-9.21877
▁दिनुभयो	-9.21978
▁साना	-9.22074
▁फेला	-9.2217
▁लिमिटेड	-9.22238
▁खाता	-9.22245
▁लाभ	-9.22367
▁विजयी	-9.22382
▁बलियो	-9.225
▁त्यसैगरी	-9.22621
▁अझ	-9.22708
फी	-9.22752
▁सभामुख	-9.22778
एन	-9.22779
▁चयन	-9.22801
▁मिति	-9.22917
▁उद्घाटन	-9.23017
▁यता	-9.23043
▁लागी	-9.23118
▁नियुक्त	-9.23148
▁किलोमिटर	-9.23232
▁अनलाइन	-9.23275
b	-9.23296
र्व	-9.23363
▁रोक्न	-9.23454
फि	-9.23472
कुल	-9.23486
▁४५	-9.23505
घर	-9.23583
▁फैल	-9.23677
3	-9.23748
▁हिँड	-9.23805
▁जुट	-9.23829
्याउन	-9.23838
▁लिएका	-9.23876
▁तुल	-9.24182
▁रिपोर्ट	-9.24259
▁चालक	-9.24266
▁ढकाल	-9.24409
▁सुन्दर	-9.24451
ट्टा	-9.24473
▁सम्भव	-9.24541
▁वार्ता	-9.24685
▁बेच	-9.24731
▁यसैगरी	-9.24918
▁आँखा	-9.24947
▁गैर	-9.25016
घा	-9.2504
▁व्यवहार	-9.25238
धार	-9.25338
▁हुनुपर्छ	-9.25378
▁त्यति	-9.25408
▁ओभर	-9.25479
▁चुनौती	-9.25545
देव	-9.25813
▁माधव	-9.2587
▁बने	-9.25933
▁तुलनामा	-9.25968
्थ्यो	-9.26087
▁तालिम	-9.26092
▁बहु	-9.26137
▁त्यसका	-9.26138
▁रहेछ	-9.26161
नेपाल	-9.26239
▁जहाँ	-9.26341
▁भूमि	-9.26549
▁घिमिरे	-9.26584
▁विज्ञप्ति	-9.26584
▁दो	-9.26608
▁समर्थन	-9.26751
▁हप्ता	-9.2694
▁साम	-9.26966
▁साहित्य	-9.26985
▁विभागले	-9.27071
▁लामा	-9.27082
▁३३	-9.2719
▁तथ्यांक	-9.27207
▁प्रधान	-9.27336
▁गण्डकी	-9.27387
पू	-9.27433
रुपमा	-9.27486
▁नेतृत्वको	-9.27517
▁रात	-9.27519
▁भ्रष्टाचार	-9.27532
▁गराएको	-9.27536
▁व्या	-9.27573
▁ट्या	-9.279
▁दायर	-9.27918
▁सम्पत्ति	-9.28026
▁पार्न	-9.28031
निया	-9.2806
▁निवास	-9.28101
▁लाइन	-9.28401
▁उसले	-9.28451
▁दिउँसो	-9.28455
▁एकीकृत	-9.28481
▁जनालाई	-9.28583
▁ललितपुर	-9.28659
ज्ञ	-9.28812
▁पहिरो	-9.29035
▁सकारात्मक	-9.29102
▁लगाएको	-9.29167
▁भक्तपुर	-9.29182
▁लागेका	-9.29273
▁सन्दर्भ	-9.29296
▁पसल	-9.29331
ठो	-9.29368
▁महानगर	-9.29461
▁सालमा	-9.29491
▁तिर	-9.29607
▁हल	-9.29642
फे	-9.29744
▁अरू	-9.29806
▁प्रतिष्ठान	-9.29856
▁माध्यम	-9.29895
▁खर्ब	-9.2995
▁बैंकका	-9.30093
आइ	-9.30129
▁मतदाता	-9.30172
r	-9.30197
▁हक	-9.30255
द्व	-9.30284
चे	-9.30291
▁सूर्य	-9.30329
▁उपकरण	-9.30341
▁उनीहरुको	-9.30348
▁विश्वकप	-9.30354
▁शव	-9.3038
▁विज्ञ	-9.30446
▁स्थित	-9.30455
▁गुम	-9.30468
▁रोजगार	-9.30547
▁पारेको	-9.30577
िएपछि	-9.30612
▁दुःख	-9.30652
▁तहमा	-9.30652
▁स्वदेश	-9.30689
▁मिनेट	-9.30704
▁एक्स	-9.30767
ट्र	-9.30774
▁काट	-9.30922
ग्राम	-9.30951
▁भाडा	-9.30988
▁सक्दैन	-9.31031
▁विद्युत	-9.31098
▁घटेको	-9.31164
▁ज्ञान	-9.31367
▁तरकारी	-9.31578
▁एसिया	-9.31597
▁तय	-9.31598
▁दलका	-9.31651
▁निश्चित	-9.31674
▁अर्थमन्त्री	-9.31685
दान	-9.31749
÷	-9.31756
▁सफा	-9.31765
▁ऊर्जा	-9.3185
▁थालेका	-9.31994
▁सम्बन्धमा	-9.32004
▁गलत	-9.32228
▁उजुरी	-9.32249
▁खानेपानी	-9.32314
▁अर्थात्	-9.32369
▁भट्टराई	-9.32508
▁हामीलाई	-9.32632
▁भविष्य	-9.32708
▁खोला	-9.32727
▁विधि	-9.3273
ब्ल	-9.32784
▁प्रेस	-9.32867
▁भएन	-9.32868
▁संकट	-9.32951
▁जनाएका	-9.33021
▁विज्ञान	-9.33033
▁उपाधि	-9.3304
▁संगीत	-9.33062
▁आवेदन	-9.33134
▁कट	-9.33144
er	-9.33329
▁कसैले	-9.33332
स्ती	-9.3336
▁ट्रे	-9.33374
▁उनीहरूको	-9.33416
▁संसार	-9.33432
▁तल	-9.3344
▁शेरबहादुर	-9.33478
▁हटाउन	-9.33499
▁लुम्बिनी	-9.33525
िँदै	-9.33584
घाट	-9.33606
पर्ने	-9.33658
र्प	-9.33673
▁७५	-9.33727
▁भनाई	-9.33758
▁आशा	-9.3377
औं	-9.33927
▁हस्ताक्षर	-9.33931
▁शाही	-9.34225
▁नहुँदा	-9.3429
9	-9.34362
▁लागत	-9.34434
▁कप	-9.34443
▁उनीहरूले	-9.34452
▁बस्नेत	-9.34474
▁निर्धारण	-9.34578
▁आत्म	-9.34628
ध्या	-9.34969
▁मन्त्रिपरिषद्	-9.35029
▁न्यु	-9.35069
▁प्रहार	-9.35091
▁तेल	-9.35123
▁लिए	-9.35147
▁बराबरको	-9.35169
▁देखिए	-9.35179
▁गर्नुभयो	-9.35183
▁छौँ	-9.35209
▁उद	-9.35306
▁एउटै	-9.35315
▁भन्सार	-9.35363
▁शर्माले	-9.35379
▁कोही	-9.35412
▁उम्मेदवारी	-9.35522
मेल	-9.35542
▁परिणाम	-9.35545
▁चालु	-9.35595
▁फ्र	-9.3564
▁बढाउने	-9.3565
साथ	-9.3566
▁उपस्थिति	-9.35666
▁नेतृत्वमा	-9.35739
▁पुगे	-9.35936
▁गएर	-9.3596
▁क्रम	-9.35982
▁चिन्ता	-9.35988
▁तोक	-9.3599
▁महासचिव	-9.36108
▁भर्ना	-9.36147
▁अन्त	-9.36155
पानी	-9.36162
▁प्रवाह	-9.36247
ण्ट	-9.36268
▁मधेस	-9.36436
▁कार्यरत	-9.36446
स्ट्र	-9.36473
बन्ध	-9.36556
▁उदाहरण	-9.36705
▁अदालतले	-9.36706
▁हुनुहुन्छ	-9.36822
▁स्वीकार	-9.36905
▁अन्	-9.36933
▁पाल	-9.36993
▁समेट	-9.37026
▁उपयोग	-9.37084
▁पुरानो	-9.37194
त्री	-9.37211
▁अल्	-9.37234
▁संचालन	-9.37322
▁पूजा	-9.37348
▁नागरिकता	-9.37438
▁मान्यता	-9.37533
पोर्ट	-9.37627
▁अपेक्षा	-9.37631
▁दिएर	-9.37647
▁खोजी	-9.37765
▁भनि	-9.37849
ुङ	-9.3787
▁निर्यात	-9.38303
▁बाध्य	-9.38386
▁पशु	-9.38448
▁पाठ	-9.38451
▁कार	-9.38475
चु	-9.38604
जस्तो	-9.38621
▁मुक्त	-9.38695
▁च्या	-9.38769
▁आपूर्ति	-9.38917
▁कोठा	-9.39001
▁सपना	-9.39055
▁महत्व	-9.39118
▁पाइन्छ	-9.39209
▁स्थल	-9.39239
▁खोल	-9.39258
स्थान	-9.39376
▁डाक्टर	-9.39485
हामी	-9.39585
▁व्य	-9.39629
म्बा	-9.39676
▁दबाब	-9.39686
▁स्थापित	-9.39711
▁नगर्ने	-9.39752
▁गरिसकेको	-9.39824
▁कालो	-9.39851
▁झु	-9.3988
▁९०	-9.3989
▁न्यायाधीश	-9.39939
▁वर्तमान	-9.40015
जस्ता	-9.40054
▁पहुँच	-9.40066
▁दर्शक	-9.40068
▁कामदार	-9.40078
▁आउँछ	-9.40219
▁अधिवेशन	-9.40333
नीय	-9.40409
k	-9.40486
▁मिडिया	-9.40602
स्य	-9.40622
▁भन्नुभयो	-9.40625
▁बाहेक	-9.4065
▁पुष्पकमल	-9.40652
ग्र	-9.40728
▁राजीनामा	-9.40755
▁गर्	-9.40838
▁भ्या	-9.41088
▁घुम	-9.41093
▁मेडिकल	-9.41152
4	-9.41203
▁महसुस	-9.41204
▁तोकिएको	-9.41211
▁हस्तान्तरण	-9.41216
▁३६	-9.41229
▁प्रतिक्रिया	-9.41242
▁फैसला	-9.4128
▁सफलता	-9.41298
▁माया	-9.41304
▁सिट	-9.41551
▁चासो	-9.41576
िटी	-9.41597
▁चलाउन	-9.41699
▁गराए	-9.41713
▁प्रतिबद्धता	-9.41926
ल्यान्ड	-9.41942
▁स्या	-9.42083
ाउँछन्	-9.42153
▁उद्धार	-9.42198
▁सक्छन्	-9.42207
िंग	-9.42218
▁आयो	-9.42435
▁उपयुक्त	-9.42563
▁अभ्यास	-9.42588
स्तर	-9.42638
▁जनाइएको	-9.42721
सके	-9.42724
▁हार	-9.42808
▁जनसंख्या	-9.4281
▁विजय	-9.42844
▁सामुदायिक	-9.42888
▁भनी	-9.42961
▁डर	-9.43101
▁गुमाए	-9.43158
केट	-9.43166
▁यद्यपि	-9.43189
▁युद्ध	-9.43281
▁अख्तियार	-9.43307
▁व्यक्तिगत	-9.43333
▁वर्षीया	-9.43357
▁आयोजक	-9.43401
▁खुसी	-9.4341
▁साढे	-9.43413
्दछ	-9.43505
▁लाग्न	-9.43553
▁शैक्षिक	-9.43557
!	-9.43602
▁पर्व	-9.43612
▁फाइदा	-9.43637
▁खो	-9.43703
▁बसेर	-9.43716
स्थल	-9.43752
िङ्ग	-9.43756
▁घरेलु	-9.44033
▁जाँदा	-9.44034
▁बदल	-9.44135
▁महाशाखा	-9.44138
▁सत्य	-9.44274
▁टिकट	-9.44275
▁५५	-9.44278
S	-9.44296
▁भनिन्	-9.44387
▁गौर	-9.44388
देवी	-9.44429
▁बनाए	-9.44433
▁जरुरी	-9.44443
सिंह	-9.44468
▁ड्र	-9.44521
▁हिसाब	-9.44607
बाबु	-9.44998
▁–	-9.45044
ब्र	-9.45045
▁लगाए	-9.45055
ठी	-9.45067
▁रेल	-9.45081
वेद	-9.45192
▁बनाइ	-9.45292
▁फर्किए	-9.45355
▁आफैं	-9.45371
▁बस्ती	-9.45376
पालिका	-9.45404
▁कहाँ	-9.45485
राष्ट्र	-9.45502
▁पाइएको	-9.4551
▁विमान	-9.45541
▁त्यसै	-9.45543
▁गुणस्तर	-9.45554
▁छाड	-9.45591
▁पुर	-9.4563
▁योग	-9.45693
▁दिन्छ	-9.45712
▁फोटो	-9.45834
▁नतिजा	-9.45874
▁हासिल	-9.45929
▁देखिएका	-9.45967
स्थापन	-9.46045
्याउने	-9.46245
▁बुझ्न	-9.46369
▁राखेका	-9.46375
▁दुख	-9.46395
▁नेताहरू	-9.4643
▁सशस्त्र	-9.46508
▁कात्तिक	-9.46686
ान्तर	-9.46705
▁मार्ग	-9.46737
▁मिस	-9.46801
▁सक्नुहुन्छ	-9.46888
▁चढ	-9.46952
▁पठ	-9.47036
▁भट्ट	-9.47078
▁भाइ	-9.47124
▁सङ्क्रमण	-9.47611
▁साधारण	-9.47618
बेला	-9.47682
▁रक्षा	-9.47735
▁धार्मिक	-9.47735
▁वर्षदेखि	-9.47779
▁गुण	-9.47802
भाग	-9.47977
▁कम्युनिष्ट	-9.48065
द्द	-9.48122
▁एयर	-9.48132
▁हेर्दा	-9.48159
▁चित्र	-9.48273
▁मोटरसाइकल	-9.48326
▁बुटवल	-9.48354
▁३४	-9.4843
▁अनुरोध	-9.48451
▁सही	-9.48474
▁गतेसम्म	-9.48481
▁सन्देश	-9.48513
▁कमी	-9.48518
▁छाप	-9.48606
▁जाँच	-9.48659
▁बनाएका	-9.48705
in	-9.49177
▁सब	-9.49198
▁देउवाले	-9.49244
सकेपछि	-9.49266
कृष्ण	-9.4934
▁स्कुल	-9.49372
िँदा	-9.49379
▁समृद्धि	-9.49476
▁मेला	-9.49481
▁तिर्न	-9.49494
▁लगातार	-9.49576
▁पर्याप्त	-9.49688
▁उपस्थित	-9.49699
▁जोशी	-9.49771
्नुहोस्	-9.49782
▁बैंकिङ	-9.49829
ङ्गा	-9.49916
▁बिना	-9.50102
▁समग्र	-9.50306
िसकेको	-9.50311
मण्डल	-9.50369
▁सिम	-9.50494
▁नपाए	-9.50687
र्श	-9.50736
▁दशक	-9.50782
▁तीव्र	-9.50984
▁पेस	-9.5121
▁जहाज	-9.51212
क्रान्ति	-9.51239
▁साँ	-9.51283
▁दोहोर	-9.51302
▁कला	-9.51308
सभा	-9.51429
▁संवैधानिक	-9.51438
on	-9.51654
▁परिषद्	-9.51697
क्षक	-9.5172
▁बहस	-9.51766
▁पालिका	-9.51788
न्च	-9.51847
▁आइपुग	-9.51895
ज्ज	-9.51968
▁देखे	-9.52152
▁कदम	-9.52189
▁दाङ	-9.52346
▁प्रशिक्षक	-9.52583
▁नेप्से	-9.52656
▁दुबै	-9.52672
▁विजेता	-9.52728
▁विष्णु	-9.52814
्नुपर्छ	-9.52905
▁सुरुवात	-9.5298
▁चौथो	-9.52988
▁२०७४	-9.52988
▁कार्ड	-9.53071
▁मानिसहरू	-9.5312
▁३७	-9.53123
▁आधुनिक	-9.53262
▁मुख	-9.53455
क्षित	-9.53492
▁अति	-9.5353
▁चाहन्छ	-9.53555
▁पुगेर	-9.53563
▁सुदूरपश्चिम	-9.53786
▁पार्ने	-9.53801
▁काठ	-9.53801
▁गरियो	-9.53829
▁नभएका	-9.53833
▁अनिवार्य	-9.54048
्दो	-9.54106
▁भोग	-9.54139
▁डी	-9.54219
▁बमोजिम	-9.54231
▁मल्ल	-9.54254
▁गराएका	-9.54279
▁तर्क	-9.54309
▁पार्क	-9.54365
▁फाइनल	-9.54375
v	-9.54385
▁व्यावसायिक	-9.54419
▁खाने	-9.54433
▁रणनीति	-9.54532
▁निकट	-9.54534
▁सुख	-9.54662
▁६५	-9.54672
▁हिजो	-9.54679
▁प्राकृतिक	-9.54723
▁केन्द्रित	-9.54811
▁आधारित	-9.54818
▁जान्छ	-9.54935
an	-9.54946
A	-9.54988
▁निक्षेप	-9.55032
▁बसेका	-9.55082
▁छिटो	-9.55111
क्ता	-9.55145
▁चाहे	-9.55169
▁ल्या	-9.55184
▁तपाइँ	-9.55343
न्थ	-9.5536
ेयर	-9.55489
▁ह्या	-9.55496
▁आएपछि	-9.55513
▁खेल्ने	-9.55651
▁ब्ल	-9.5566
▁अभिनय	-9.55687
टिभ	-9.55871
▁सङ्ख्या	-9.55907
▁कठिन	-9.55997
▁नभई	-9.56013
▁लामिछाने	-9.5616
▁भरतपुर	-9.56205
▁मोरङ	-9.5625
▁देख्न	-9.56406
▁चुनावी	-9.56505
ध्य	-9.56641
भो	-9.56713
▁प्रसारण	-9.56775
विद्	-9.56797
▁परिचालन	-9.56879
▁जनप्रतिनिधि	-9.56909
▁अधिक	-9.56931
▁उपाय	-9.5711
नारायण	-9.57132
▁श्रीमती	-9.57135
▁उनीहरुलाई	-9.57188
▁औपचारिक	-9.57195
▁प्रबन्ध	-9.57226
▁गतेदेखि	-9.57277
▁निवेदन	-9.57362
▁ट्रम्प	-9.57372
▁मैदानमा	-9.5738
▁बहुमत	-9.57393
▁नगरी	-9.57414
▁थु	-9.57626
▁कप्तान	-9.5765
▁कुराकानी	-9.57663
पोखरी	-9.57689
▁राजदूत	-9.57755
▁आएर	-9.57771
▁पर्न	-9.57855
▁ट्राफिक	-9.57922
▁सजिलो	-9.57923
सेवा	-9.57932
▁निरन्तरता	-9.57955
▁पुनर्	-9.57955
सचिव	-9.58007
▁जम	-9.58124
▁स्वागत	-9.58196
▁शैली	-9.58198
▁फुट	-9.58237
▁मामिला	-9.58246
▁खारेज	-9.58262
▁प्रचार	-9.58273
▁आधा	-9.58279
▁नारा	-9.58286
▁प्रतिबन्ध	-9.58346
▁४२	-9.58373
ार्थ	-9.5838
▁भण्डारीले	-9.58582
▁मद्दत	-9.58596
▁लगाएका	-9.58793
ाइरहेका	-9.58852
▁सहायक	-9.58853
▁३८	-9.58938
बजार	-9.59022
▁प्रगति	-9.59071
▁मगर	-9.59122
▁गिरी	-9.59179
िकरण	-9.59204
▁आवाज	-9.59288
▁त्यसो	-9.5946
▁साझा	-9.59485
▁आफूहरु	-9.59494
▁चन्द	-9.59588
▁डिजाइन	-9.59622
्याङ	-9.59802
▁कानुनी	-9.59822
▁भेला	-9.59863
▁आफन्त	-9.59933
▁मोदी	-9.59969
▁बढेर	-9.59991
कार्य	-9.60198
▁दिल्ली	-9.60233
▁भट्टराईले	-9.60304
▁भावना	-9.60387
न्डर	-9.60434
▁लाल	-9.60438
▁तथ्य	-9.60502
▁बनाइएको	-9.60517
▁हित	-9.60556
▁लोकतान्त्रिक	-9.60585
▁केवल	-9.60646
▁सेट	-9.60738
जनक	-9.6079
▁नरहेको	-9.60811
▁नसके	-9.60821
▁निःशुल्क	-9.6085
▁क्रि	-9.60872
▁दावी	-9.60917
▁राखे	-9.61029
▁कार्यकाल	-9.61041
▁ठेक्का	-9.61054
▁ज्या	-9.61055
▁उचित	-9.61075
▁महोत्सव	-9.61116
१०	-9.614
जन्य	-9.61412
▁किलो	-9.61634
▁दिनुपर्ने	-9.61693
▁छानबिन	-9.61809
▁जमिन	-9.61824
▁विनियोजन	-9.61888
▁यौन	-9.61899
▁पहिला	-9.61908
▁अग्रता	-9.61963
▁धारा	-9.61991
▁माइ	-9.62046
▁कारवाही	-9.62109
▁”	-9.62177
▁भत्क	-9.62243
▁मिश्र	-9.62248
▁फूल	-9.62351
▁अवार्ड	-9.6238
▁२०७५	-9.62523
▁हिंसा	-9.62523
▁सापकोटा	-9.62538
8	-9.62586
▁सुर्खेत	-9.62633
▁बहादुर	-9.62685
▁ब्याज	-9.62806
▁प्रशिक्षण	-9.6292
लगत्तै	-9.62931
▁लगाएर	-9.62954
▁किनभने	-9.63017
शास्त्र	-9.6328
यू	-9.63318
▁आलोचना	-9.63417
▁न्यौपाने	-9.63545
▁धनगढी	-9.63606
▁माध्यमबाट	-9.63671
▁प्ले	-9.63691
▁भीम	-9.63726
▁पृथ्वी	-9.63738
▁खतिवडा	-9.63754
▁छिमेकी	-9.63802
▁चेतावनी	-9.63931
▁निधन	-9.63979
▁परिस्थिति	-9.6411
▁लोकप्रिय	-9.6419
▁उपमहानगरपालिका	-9.64305
▁बचत	-9.64329
▁हेर्ने	-9.64399
भित्रै	-9.64412
▁गरिन्	-9.64429
▁जिम्मा	-9.64454
▁संघर्ष	-9.64562
▁तराई	-9.64593
▁हाम्रा	-9.64613
र्ति	-9.64684
▁एवम्	-9.6471
भार	-9.64733
▁संकेत	-9.64775
▁राजमार्ग	-9.64792
दाता	-9.6495
6	-9.65002
▁बंगलादेश	-9.651
▁उद्यम	-9.65106
▁हवाई	-9.65168
w	-9.65213
▁प्रावधान	-9.65247
▁सुवेदी	-9.65493
▁छाडे	-9.65734
▁पढ्न	-9.65766
टेल	-9.6579
▁बन्दै	-9.6586
▁खाद्य	-9.65905
▁स्थगित	-9.66018
वर्ष	-9.6603
▁प्रकृति	-9.66048
▁थोरै	-9.66067
▁विघटन	-9.66067
▁कैलाली	-9.66183
▁उसको	-9.66227
▁टिप्पणी	-9.66232
▁सिजन	-9.66319
▁आह्वान	-9.66364
▁नगरेको	-9.66387
▁बालेन	-9.66429
क्टर	-9.66498
पश्चात	-9.66601
▁विधान	-9.66626
जसो	-9.66645
▁कविता	-9.66651
▁त्रिभुवन	-9.66695
▁थान	-9.66738
▁बैङ्क	-9.6674
▁निम्ति	-9.66767
▁उत्साह	-9.66829
▁महत्त्वपूर्ण	-9.67017
▁लागिएको	-9.67191
▁सदरमुकाम	-9.67194
▁बिदा	-9.67202
▁लघुवित्त	-9.67211
▁लिइ	-9.67217
C	-9.67327
्टि	-9.67389
▁सैनिक	-9.67479
मणि	-9.67555
▁राप्रपा	-9.67595
▁त्यस्ता	-9.67632
मोहन	-9.6778
▁सेन्टर	-9.6786
▁टेक	-9.67873
▁पाइने	-9.67926
▁अर्याल	-9.6805
▁लेखा	-9.68213
▁दलित	-9.68465
7	-9.68469
▁बलात्कार	-9.68469
▁क्याम्पस	-9.68497
खेल	-9.68572
f	-9.68637
▁३९	-9.68827
▁जेल	-9.68835
▁नियुक्ति	-9.68867
▁सजाय	-9.68892
▁राणा	-9.6891
बारी	-9.68919
▁५१	-9.68922
▁बोल्दै	-9.68964
प्रधानमन्त्री	-9.68977
कालीन	-9.68986
▁दर्जन	-9.69
▁भोट	-9.69028
▁झण्डै	-9.69147
▁थालेपछि	-9.69186
फ्ट	-9.69197
▁फेसबुक	-9.69231
▁म्याद	-9.69424
▁पछाडि	-9.69555
▁४४	-9.69687
▁मेगावाट	-9.69708
▁फ्रान्स	-9.69709
▁गोरखा	-9.69829
▁जय	-9.69973
▁४८	-9.69979
▁लुक	-9.70074
्वे	-9.70197
ar	-9.7022
es	-9.70234
▁गुरु	-9.70318
▁हुँ	-9.70327
▁देखा	-9.70375
▁सीमित	-9.70399
▁लोकतन्त्र	-9.70412
▁जनशक्ति	-9.70446
▁उठाउन	-9.70447
▁मानिन्छ	-9.70449
▁खोल्न	-9.70477
▁कृषक	-9.70498
▁समारोह	-9.7067
मैत्री	-9.70674
प्ट	-9.70759
▁बुझाए	-9.70959
▁आकार	-9.71004
विपरीत	-9.71036
▁वास्तविक	-9.71189
▁गणेश	-9.71279
▁शासन	-9.71299
सीसी	-9.71299
▁मिलेर	-9.71308
▁परिसर	-9.71312
▁कैद	-9.71388
▁श्रमिक	-9.71407
▁लक्ष्मी	-9.71439
▁व्यवस्थित	-9.71484
▁रोज	-9.7154
▁इजलास	-9.71589
▁बराबरी	-9.71659
▁नजिकै	-9.71748
▁राजेन्द्र	-9.7204
▁जडान	-9.72207
सक्ने	-9.7222
▁जीव	-9.72229
▁४३	-9.72335
▁लक्षित	-9.72355
▁झन्	-9.72365
सक्नु	-9.72442
▁ब्याजदर	-9.72756
▁पर्यटकीय	-9.72795
▁नगर्न	-9.72803
▁सुपर	-9.72989
▁४१	-9.73032
▁फोहोर	-9.73046
▁रुस	-9.7312
▁एजेन्सी	-9.7331
▁इन्टरनेट	-9.73417
▁पालना	-9.73438
▁घो	-9.73453
गढी	-9.73461
▁वर्षअघि	-9.73518
▁उपरीक्षक	-9.73559
▁पत्ता	-9.73587
्दी	-9.7364
▁प्रथम	-9.74
▁पहाडी	-9.74029
▁भएकी	-9.74086
▁चिया	-9.74088
गाउँ	-9.74216
P	-9.74343
▁उड	-9.74471
▁पर्दछ	-9.7458
▁मानिसहरु	-9.74588
▁बढाएको	-9.74621
▁आधिकारिक	-9.74684
भरि	-9.74695
क्षेत्र	-9.74742
▁कार्	-9.74754
मुक्त	-9.74774
▁देखाउन	-9.74907
▁उत्पन्न	-9.7499
▁सिटी	-9.7508
▁बिजुली	-9.7508
▁कतार	-9.75202
▁पूँजी	-9.7526
▁भनिन्छ	-9.75267
▁लगभग	-9.7546
▁औँ	-9.75528
जस्तै	-9.75563
खोला	-9.75571
▁चालू	-9.75661
भाष	-9.75746
%	-9.75803
▁५२	-9.75814
▁शाक्य	-9.75842
▁माछा	-9.75874
▁अत्यन्त	-9.75913
▁कम्तीमा	-9.75935
▁खेल्न	-9.75946
▁अभिभावक	-9.75952
▁भोलि	-9.76004
▁विविध	-9.76079
▁महेन्द्र	-9.76132
▁भन्छ	-9.76184
▁ज्ञवाली	-9.76186
▁निर्माता	-9.76311
▁वडाध्यक्ष	-9.76329
▁योग्य	-9.76346
▁टाइ	-9.76375
▁ऐतिहासिक	-9.76386
ल्ली	-9.76397
▁तलब	-9.76448
▁देखिने	-9.76604
at	-9.76614
▁डुब	-9.76712
▁समयदेखि	-9.76803
घात	-9.76869
▁स्वीकृति	-9.76948
▁कपडा	-9.77028
▁गरिनेछ	-9.77123
▁हुन्थ्यो	-9.77139
▁मर्मत	-9.77234
▁सेलिब्रिटी	-9.77359
▁सुनिश्चित	-9.77378
प्स	-9.77385
▁सुनाए	-9.77401
धारा	-9.77486
▁द्वारा	-9.77488
▁निकास	-9.7751
▁रेकर्ड	-9.77637
al	-9.77638
▁पुर्याए	-9.77775
▁प्रायः	-9.77841
▁गाह्रो	-9.78026
त्स	-9.78046
▁यि	-9.78056
▁मानसिक	-9.78148
▁खतरा	-9.782
▁अतिरिक्त	-9.78491
▁बाँड	-9.78564
▁इन्ड	-9.7857
▁जितेको	-9.78609
▁हावा	-9.78788
▁क्षेत्रीय	-9.78852
ाइरहेको	-9.78882
▁सांस्कृतिक	-9.78977
▁नदिने	-9.7904
▁प्रारम्भिक	-9.79168
▁दीप	-9.79235
माओवादी	-9.79274
▁जनाए	-9.79281
”	-9.7948
ऊ	-9.79613
▁निष्कर्ष	-9.79636
▁कहिल्यै	-9.79693
▁मधेश	-9.79693
▁५६	-9.79725
▁समीक्षा	-9.79788
भए	-9.79797
▁प्रकारका	-9.79804
▁२०७६	-9.79825
▁अर्थात	-9.79826
▁प्रयोगकर्ता	-9.79985
▁४६	-9.8019
र्भ	-9.80233
▁एकदम	-9.80239
ुपरेको	-9.80249
▁दूध	-9.80338
▁फ्ल	-9.80339
▁थुप्रै	-9.80356
▁मुद्रा	-9.80357
▁कम्युनिस्ट	-9.80413
▁संस्करण	-9.80413
▁न्यूनतम	-9.80508
▁एण्ड	-9.80508
▁श्रीमान	-9.80728
▁परम्परा	-9.80737
▁मिल्ने	-9.80827
▁कास्की	-9.81276
▁हराए	-9.8129
▁डिभिजन	-9.81291
▁बासिन्दा	-9.81349
त्मक	-9.81399
▁गन्तव्य	-9.81426
▁अलग	-9.81432
▁महानगरः	-9.81455
▁नसक्दा	-9.81464
ाइएका	-9.81484
▁ऊ	-9.81564
▁सामना	-9.81573
▁कालि	-9.81716
▁समयमै	-9.81739
▁रातो	-9.81753
▁सिद्धान्त	-9.8183
▁परामर्श	-9.8183
▁२०७७	-9.8185
▁पठाउने	-9.82
▁गायक	-9.82022
गढ	-9.82246
▁बाँके	-9.82393
▁दृश्य	-9.82411
▁अवरोध	-9.82469
▁डिजिटल	-9.82488
▁चिसो	-9.8259
▁४७	-9.82639
▁स्टार	-9.82778
▁बुझाउन	-9.82931
▁मजदुर	-9.82956
▁कतै	-9.83131
▁४९	-9.83157
▁नदिए	-9.83204
▁लाग्यो	-9.83214
▁युरोप	-9.83238
▁असन्तुष्ट	-9.83307
▁लगाइएको	-9.8348
▁मास्क	-9.83665
▁चुक्ता	-9.8369
▁श्र	-9.83941
परिषद	-9.84023
M	-9.84093
...	-9.84114
११	-9.84295
en	-9.8431
▁नोट	-9.84346
▁१००	-9.84382
▁टाढा	-9.8449
▁दीपक	-9.84647
▁स्वास्थ्यकर्मी	-9.84908
▁५३	-9.8493
▁सरोकारवाला	-9.84947
▁प्रकरण	-9.85011
▁आवास	-9.85043
▁भइरहेका	-9.85066
▁दर्शन	-9.85283
▁स्वीकृत	-9.85332
▁औद्योगिक	-9.85405
▁विभाजन	-9.85445
▁क्यान्सर	-9.85445
▁एमसीसी	-9.85458
▁संस्थागत	-9.85551
▁रमेश	-9.85601
▁खराब	-9.8562
▁ठहर	-9.85701
▁ध्यानाकर्षण	-9.85745
▁५४	-9.85788
िसकेका	-9.8591
▁सर्वाधिक	-9.85916
र्ती	-9.85954
▁गृहमन्त्री	-9.86005
▁वैज्ञानिक	-9.86067
▁विष्ट	-9.86082
▁चर्चित	-9.86127
▁शून्य	-9.86147
८०	-9.86171
▁मलेसिया	-9.86208
▁बढ्दो	-9.86236
▁बालुवाटार	-9.86429
▁सक्षम	-9.86456
▁एकजना	-9.86489
▁७६	-9.86547
▁क्वारेन्टाइन	-9.86713
▁भिड	-9.86924
▁पुर्याउने	-9.87054
▁प्रधानन्यायाधीश	-9.87119
▁प्रवृत्ति	-9.87119
▁मौका	-9.87224
▁जटिल	-9.87305
▁आउट	-9.87329
▁पुर्याउन	-9.87561
▁सदस्यहरु	-9.87618
▁हुनेछन्	-9.87638
▁गणतन्त्र	-9.8769
▁गाविस	-9.87979
▁मृतक	-9.88038
▁लैजान	-9.88222
▁विपक्षी	-9.88266
▁मञ्च	-9.88416
▁सङ्क्रमित	-9.88491
▁कार्यदल	-9.88502
▁२०७८	-9.88533
▁दुरुपयोग	-9.88635
▁विश्वभर	-9.88799
▁व्यापक	-9.88803
▁साझेदारी	-9.8883
▁खुलेको	-9.8885
▁परिचय	-9.88864
▁बोलाए	-9.88892
▁ग्यास	-9.89006
T	-9.89049
▁लाभांश	-9.89153
▁घाटा	-9.89254
▁शेर्पा	-9.89298
▁खुद	-9.89317
▁प्रतिनिधित्व	-9.89466
▁यसपटक	-9.89705
▁विश्लेषण	-9.89715
▁इन्स्योरेन्स	-9.89736
▁भत्ता	-9.89757
▁खुशी	-9.89772
ध्यक्ष	-9.8984
सरकार	-9.89853
▁सल्लाह	-9.89872
▁छोटो	-9.89894
▁क्वा	-9.90226
ाउदै	-9.90249
▁अभिव्यक्ति	-9.90259
डाँडा	-9.9029
▁इच्छा	-9.90341
▁आगो	-9.90356
▁मैदान	-9.90529
कल्प	-9.90588
▁अनुहार	-9.9079
▁पर्वत	-9.90925
▁अध्यादेश	-9.90996
थ्यो	-9.91003
▁विद्युतीय	-9.91035
▁८५	-9.9104
▁किनार	-9.91138
▁हुँदैछ	-9.91145
मात्रै	-9.9115
▁सदस्यीय	-9.91191
▁इन्जिनियर	-9.91208
▁दलहरु	-9.91216
▁राख्दै	-9.91372
▁ढंगले	-9.91447
भारत	-9.91477
▁रेग्मी	-9.91484
▁पठाउन	-9.91492
▁अवैध	-9.91681
▁६४	-9.91743
▁७२	-9.91831
▁सहायता	-9.91846
▁पीडा	-9.91883
▁रहनेछ	-9.9192
▁दूरी	-9.92019
▁असफल	-9.92127
▁जसपा	-9.92173
▁सन्तोष	-9.92188
▁पर्सा	-9.9219
▁पशुपति	-9.9219
▁एन्ड	-9.92209
▁नपुग	-9.92215
▁रुपियाँ	-9.92231
▁उपप्रमुख	-9.92273
▁५८	-9.92307
D	-9.92359
▁७७	-9.92436
▁रुपन्देही	-9.92445
▁बाध्यता	-9.92477
▁मेसिन	-9.92523
▁५७	-9.92576
▁कूल	-9.92585
▁नाटक	-9.9275
▁बालिका	-9.929
▁तोकेको	-9.92932
▁पुस्ता	-9.92978
▁रूपैयाँ	-9.93004
▁सेवन	-9.93097
▁नियमावली	-9.93177
▁अगाडी	-9.93221
▁टेलिभिजन	-9.93263
मूलक	-9.93369
▁चोरी	-9.93399
▁प्रवद्र्धन	-9.9348
▁डेढ	-9.93508
▁थालिएको	-9.93533
▁जनकपुर	-9.93655
भक्त	-9.93682
▁दायित्व	-9.93697
▁गरिसकेका	-9.9372
▁रियल	-9.93802
▁कम्प	-9.93871
▁काठमाण्डौ	-9.9398
▁फोरम	-9.94096
▁फैलिएको	-9.94167
वृत्त	-9.94174
▁मोर्चा	-9.9422
▁जुम्ला	-9.94264
▁ल्याइएको	-9.94265
▁बस्दै	-9.94269
▁मकवानपुर	-9.94285
▁खाली	-9.94431
▁लक्षण	-9.94441
▁ढुंगा	-9.94723
▁जोगाउन	-9.94756
▁स्पेन	-9.94806
▁जंगल	-9.94917
▁स्वर्ण	-9.94977
▁च्याम्पियन	-9.95068
▁तथ्याङ्क	-9.95207
▁प्रजातन्त्र	-9.95251
▁बाँध	-9.95267
▁२०२०	-9.95296
▁पुनर्निर्माण	-9.95516
समक्ष	-9.95541
▁चोट	-9.95785
▁तनाव	-9.95799
▁समुह	-9.95984
▁सुरू	-9.9605
▁जलविद्युत्	-9.96063
▁ऐ	-9.96097
▁दफा	-9.96253
▁नदेख	-9.96435
▁पुलिस	-9.9651
▁आधारभूत	-9.96618
▁माथिल्लो	-9.96629
▁खेत	-9.96645
▁जरिवाना	-9.96651
▁धरान	-9.96669
▁शुभकामना	-9.96673
▁समाप्त	-9.96756
▁बजेसम्म	-9.96761
▁सुनसरी	-9.96881
▁सञ्चालित	-9.96919
▁सरुवा	-9.96944
▁दौड	-9.97007
▁सत्तारुढ	-9.97099
▁बौद्ध	-9.97101
▁कञ्चनपुर	-9.97144
or	-9.97168
▁टाउको	-9.97383
▁अर्जुन	-9.97415
▁खरीद	-9.97421
▁सुरक्षाकर्मी	-9.97694
▁परिसूचक	-9.9773
▁ठाकुर	-9.97866
स्वरुप	-9.97912
▁भगवान	-9.98049
▁निर्वाह	-9.98088
▁सधैं	-9.98116
▁नक्सा	-9.98125
▁कार्यविधि	-9.98184
▁फाइनान्स	-9.98207
▁सामाग्री	-9.98275
▁सकिन	-9.98366
▁रोकथाम	-9.9839
▁बागलुङ	-9.9848
▁आनन्द	-9.98494
▁खाद्यान्न	-9.98662
▁रावल	-9.98807
▁रासस	-9.98812
▁हिउँ	-9.98869
▁पात्र	-9.98871
▁अवरुद्ध	-9.98891
▁शुरू	-9.9896
िक्स	-9.99083
▁छनौट	-9.99143
▁समानुपातिक	-9.99165
▁दोषी	-9.99212
▁अक्सिजन	-9.99372
▁सल्लाहकार	-9.99458
▁एशिया	-9.99512
▁गरिए	-9.99594
▁सन्तान	-9.99624
▁मासिक	-10.0001
▁छाला	-10.0015
▁बार्सिलोना	-10.002
▁पोस्ट	-10.0027
▁द्वन्द्व	-10.0027
▁ठीक	-10.0028
नियम	-10.0037
▁टेलिकम	-10.0046
st	-10.005
▁प्रालि	-10.0065
▁खुट्टा	-10.0075
▁मित्र	-10.0084
▁बसोबास	-10.0092
▁लैजाने	-10.0095
▁जसरी	-10.0096
I	-10.0109
▁सकिनेछ	-10.0114
▁निकुञ्ज	-10.0118
▁युनियन	-10.0132
▁आउँदा	-10.0135
▁ल्याइ	-10.014
▁तालिका	-10.0143
▁९९	-10.0146
▁संस्थापक	-10.015
▁बागमती	-10.0153
▁टुंगो	-10.0153
▁बैंकहरु	-10.0155
▁दूतावास	-10.0172
▁वीर	-10.0177
▁बुढा	-10.0181
▁स्थानीयवासी	-10.0185
योग्य	-10.0192
▁भुसाल	-10.0196
▁गरिदिन	-10.0202
▁किनकि	-10.0202
▁गोविन्द	-10.021
▁विशेषज्ञ	-10.0221
▁दिशा	-10.0226
▁गणना	-10.0227
▁म्याग्दी	-10.0229
स्तरीय	-10.0231
▁नपाउने	-10.0233
▁आकर्षक	-10.0234
▁विज्ञापन	-10.0234
चन्द्र	-10.0248
▁ठेकेदार	-10.0248
▁असुल	-10.0255
▁विधा	-10.0258
▁समायोजन	-10.0267
▁हुनसक्ने	-10.0272
▁युवती	-10.0279
E	-10.0283
▁अनेक	-10.0288
▁स्थिर	-10.0303
▁व्यस्त	-10.0304
▁अवलोकन	-10.0305
▁चाप	-10.0307
▁रेडियो	-10.031
▁आउँदै	-10.0314
▁प्रमाणपत्र	-10.0342
▁परराष्ट्र	-10.0349
▁रिलिज	-10.0358
▁आर्मी	-10.0377
▁शंका	-10.0381
▁पछिल्ला	-10.0382
▁कसैलाई	-10.0394
▁ढोका	-10.0398
▁कार्यसमिति	-10.0427
पाटी	-10.043
▁विक्री	-10.043
▁हुनाले	-10.046
▁धितोपत्र	-10.0461
बापत	-10.047
▁बताउनु	-10.0481
▁बेपत्ता	-10.0495
▁अभिनेता	-10.0495
▁पहाड	-10.0496
▁संवाद	-10.0507
▁मोटर	-10.0522
▁पहिलोपटक	-10.0526
▁खासै	-10.0528
▁छुट्टै	-10.0533
▁धन्यवाद	-10.0537
▁सिमेन्ट	-10.0538
औँ	-10.0544
▁आकर्षण	-10.0546
▁सङ्कलन	-10.0549
▁अधिकतम	-10.055
▁विशाल	-10.0559
▁सामान्यतया	-10.0563
▁इलाका	-10.0577
▁अपनाउन	-10.0588
एमाले	-10.0589
ed	-10.0617
▁दिइने	-10.0618
▁क्रमशः	-10.062
▁प्याकेज	-10.0632
▁नेपालगञ्ज	-10.0637
ुपर्दछ	-10.0639
▁स्वयं	-10.0662
▁रहन्छ	-10.0677
▁ग्रहण	-10.0684
▁बोकेर	-10.0685
▁बरामद	-10.0697
▁रामचन्द्र	-10.0709
▁सुनुवाइ	-10.0716
it	-10.0723
▁स्वस्थ	-10.0737
▁तनहुँ	-10.0739
▁प्रयोगशाला	-10.0789
▁संविधानसभा	-10.0789
▁नआए	-10.0791
▁स्वार्थ	-10.0791
▁शुभ	-10.0795
▁चक्र	-10.0805
▁दरबार	-10.0808
▁अभिनेत्री	-10.0811
▁२०७२	-10.0814
▁चलाए	-10.0825
भूत	-10.0838
▁बोनस	-10.0839
▁मौलिक	-10.0846
▁आइरहेको	-10.0856
▁आकाश	-10.0858
▁सजिलै	-10.0869
▁हतियार	-10.0874
▁गर्भ	-10.0878
▁भइसकेका	-10.0892
▁दीर्घकालीन	-10.09
▁ठान	-10.0913
▁आगलागी	-10.0917
▁खाए	-10.0929
▁इलाम	-10.0934
▁नक्कली	-10.0943
▁प्रिमियर	-10.0948
▁यतिबेला	-10.096
अहिले	-10.0963
▁चिकित्सा	-10.0963
▁पत्रिका	-10.098
ड्ड	-10.0982
▁करीब	-10.0985
▁प्रोत्साहन	-10.0986
▁निकालेको	-10.099
▁त्यतिबेला	-10.0993
▁प्रदीप	-10.0998
▁खत्री	-10.1003
▁हैन	-10.1008
▁सगरमाथा	-10.1009
▁उपभोग	-10.1011
▁रेखा	-10.1012
▁शिक्षण	-10.1031
▁प्रतिपक्षी	-10.1037
▁सवारीसाधन	-10.1042
▁नलाग	-10.1043
▁महर्जन	-10.1053
▁सस्तो	-10.1053
▁निषेधाज्ञा	-10.1055
विहीन	-10.1056
▁ढुवानी	-10.1073
▁झन्डै	-10.1073
▁श्रीलंका	-10.1076
▁इन्द्र	-10.1079
▁आकर्षित	-10.1083
▁राउत	-10.1091
▁ठुलो	-10.1094
▁खिच	-10.1108
▁ब्याटिङ	-10.1108
▁मुल्य	-10.1124
पश्चिम	-10.1124
B	-10.1127
▁पर्दा	-10.1133
▁हल्का	-10.1143
▁रौतहट	-10.1143
▁विश्वव्यापी	-10.1143
▁पृष्ठ	-10.1158
▁लाइफ	-10.1161
▁कागज	-10.1169
▁मसान्तसम्म	-10.1171
▁निकाल्न	-10.1199
▁सेतो	-10.121
▁मनाङ	-10.1215
▁शिविर	-10.1218
▁चामल	-10.1228
▁पर्यो	-10.1239
▁ईश्वर	-10.1245
▁सिनेमा	-10.125
▁भिसा	-10.1255
▁धनुषा	-10.1284
▁ग्रामीण	-10.1289
▁पर्दैन	-10.1295
▁किसिमको	-10.1297
▁महतो	-10.1298
▁क्रियाकलाप	-10.13
▁बलिउड	-10.13
▁इन्धन	-10.1302
▁सप्तरी	-10.1302
▁चलिरहेको	-10.1308
▁अध्यक्षतामा	-10.131
▁आइसोलेसन	-10.131
▁मुटु	-10.1314
▁साउदी	-10.1345
▁कारागार	-10.1366
▁पठाइएको	-10.1378
▁नकारात्मक	-10.1382
▁पुग्छ	-10.1396
▁भेटघाट	-10.1397
re	-10.1398
▁मालिक	-10.1407
▁सम्पदा	-10.1411
▁२०७९	-10.1422
▁स्मरण	-10.1427
▁एनआरएन	-10.1427
▁सक्नेछन्	-10.1431
▁जलविद्युत	-10.1436
▁मतगणना	-10.1438
▁औसत	-10.1446
▁महामन्त्री	-10.1458
ाईएको	-10.1458
▁रह्यो	-10.1482
▁परम्परागत	-10.1486
▁स्वामित्व	-10.1486
▁सदन	-10.1493
▁विस्तृत	-10.1497
▁दृष्टिकोण	-10.1516
▁अस्थायी	-10.1521
▁आशंका	-10.1523
▁चाँडै	-10.1526
▁जागिर	-10.1542
▁बिग्र	-10.1548
▁युवराज	-10.155
▁शेख	-10.1551
▁रंगशाला	-10.1567
▁अत्यधिक	-10.1572
▁निर्धारित	-10.1572
▁रिजाल	-10.1573
▁ज्ञानेन्द्र	-10.1575
▁रत्न	-10.1591
▁गल्ती	-10.1597
▁तिहार	-10.1598
▁हेटौंडा	-10.1599
▁नहुन	-10.1601
एनए	-10.1608
▁हुदै	-10.1611
▁बिषय	-10.1615
सूची	-10.1616
▁नसकिने	-10.1621
▁अलपत्र	-10.1625
▁गुणस्तरीय	-10.1625
▁बैशाख	-10.1629
▁निरीक्षक	-10.1632
ुपर्यो	-10.1633
▁पावर	-10.164
▁बचाउन	-10.1646
▁यसैबीच	-10.1647
▁बाबुराम	-10.1648
▁नमुना	-10.1657
▁सुशासन	-10.1665
ra	-10.1678
L	-10.1678
▁गभर्नर	-10.1684
▁अतिथि	-10.1689
▁युक्रेन	-10.1692
▁तोड	-10.1695
▁अफगानिस्तान	-10.1714
▁खालको	-10.1719
▁कटौती	-10.1722
ब्ब	-10.1725
▁सामूहिक	-10.1741
▁सन्दीप	-10.1758
R	-10.1772
▁जाँदै	-10.1781
स्वरूप	-10.1788
▁अवधारणा	-10.1791
ha	-10.1797
▁सेवाग्राही	-10.1816
▁अथवा	-10.183
▁अरब	-10.1839
▁दृष्टि	-10.1841
▁लिखित	-10.1852
▁No	-10.1852
▁बयान	-10.1855
▁सतह	-10.1857
▁उसलाई	-10.1872
▁जिम्मेवार	-10.1874
▁नरेन्द्र	-10.1892
▁अस्वीकार	-10.1897
▁अष्ट्रेलिया	-10.1902
▁अत्यावश्यक	-10.1908
▁राष्ट्रियसभा	-10.1914
▁महानगरीय	-10.1933
▁दुर्गा	-10.1933
▁प्रभु	-10.1937
▁सर्लाही	-10.1939
▁शारीरिक	-10.1947
▁नायब	-10.1959
▁अभियोग	-10.1966
▁सेमिफाइनल	-10.197
ro	-10.1974
ic	-10.1987
▁for	-10.199
▁बनाउँछ	-10.2012
▁वीरगञ्ज	-10.2012
▁पुग्यो	-10.2028
le	-10.2033
▁अडान	-10.2034
▁सिन्धुपाल्चोक	-10.2046
▁तल्लो	-10.2058
▁गर्मी	-10.2075
▁पत्रकारिता	-10.2085
▁ग्लोबल	-10.2087
▁अस्ट्रेलिया	-10.2117
प्रकाश	-10.2123
▁रहँदा	-10.2129
▁देउ	-10.2135
▁उत्पादक	-10.2143
▁सम्पादन	-10.2146
▁नवलपरासी	-10.2157
▁समझदारी	-10.216
▁अफिस	-10.2163
▁उच्चस्तरीय	-10.217
▁मदन	-10.2171
▁२०१८	-10.2175
सक्यो	-10.218
ग्रस्त	-10.2181
नेकपा	-10.2182
ुभएका	-10.2192
▁सूचक	-10.2201
▁सिँचाइ	-10.2206
▁खुल्ला	-10.2208
▁मौद्रिक	-10.2209
▁इरान	-10.2211
▁धादिङ	-10.2255
▁२०७३	-10.2259
▁अनुपात	-10.2259
▁खपत	-10.226
▁विद्यमान	-10.2261
▁निराश	-10.2266
▁समुद्र	-10.2273
फाँट	-10.2285
▁विकसित	-10.2287
▁मनोनयन	-10.2288
▁एयरलाइन्स	-10.2296
▁संयन्त्र	-10.2296
▁हाराहारी	-10.2337
▁फर्किन	-10.2339
‘	-10.2342
▁विशिष्ट	-10.2352
▁हुनसक्छ	-10.2363
N	-10.2369
▁पेट्रोलियम	-10.2372
▁ग्रुप	-10.2379
▁फरार	-10.2379
▁गरिदिए	-10.2382
▁अगुवा	-10.2396
O	-10.2399
▁बाह्य	-10.2417
आफ्नो	-10.2424
▁this	-10.2443
▁भुटान	-10.2457
▁बराल	-10.2462
▁उत्तम	-10.2462
▁काठमाडौ	-10.2468
▁आसपास	-10.2481
▁नुवाकोट	-10.2496
▁हस्तक्षेप	-10.2514
ाइदिए	-10.2523
▁हाउस	-10.2558
िदिए	-10.2559
▁पुष्प	-10.2565
▁तस्बिर	-10.2568
▁पत्नी	-10.2568
▁हैसियत	-10.2577
▁मूल्यांकन	-10.2586
▁निगरानी	-10.2598
▁क्यापिटल	-10.2613
▁प्रयोजन	-10.2622
▁विद्या	-10.263
▁छेउ	-10.2633
▁छोराछोरी	-10.264
▁इन्टर	-10.2654
▁भैरहवा	-10.2664
▁आपत्ति	-10.2664
▁त्रैमास	-10.2667
▁नबन	-10.2669
▁हङकङ	-10.267
▁ट्रान्स	-10.2673
▁सहसचिव	-10.2676
▁सञ्चारमाध्यम	-10.2693
▁पराजुली	-10.2718
ाधिकार	-10.272
▁युनाइटेड	-10.2721
▁हिस्सा	-10.2727
▁काभ्रे	-10.2734
▁विनोद	-10.2746
ुहोला	-10.2748
▁वास्तवमा	-10.2758
▁साधारणसभा	-10.2766
▁मर्जर	-10.2768
▁ब्राजिल	-10.2779
▁पाल्पा	-10.2779
▁संस्कार	-10.2792
▁घटनास्थल	-10.2793
▁लिइएको	-10.2801
▁क्षेत्रफल	-10.2802
▁स्मार्ट	-10.2816
▁हाँस	-10.282
▁किताब	-10.2833
▁सहुलियत	-10.2834
▁आत्महत्या	-10.2844
▁शक्तिशाली	-10.2847
▁कल्पना	-10.285
▁कम्प्युटर	-10.2862
▁सिरिज	-10.2863
▁found	-10.2865
▁position	-10.2884
▁ads	-10.2887
▁बिन्दु	-10.289
मूल्य	-10.2896
▁कागजात	-10.2899
▁छुट्ट	-10.2938
▁तौल	-10.2942
▁रोपनी	-10.2956
▁घन्टा	-10.2967
▁पेट्रोल	-10.297
▁अन्नपूर्ण	-10.2971
▁गुल्मी	-10.2983
शुल्क	-10.2989
▁शुद्ध	-10.3005
▁बताउनुभएको	-10.3027
▁प्रकट	-10.3038
▁दिलाए	-10.3052
▁मस्यौदा	-10.3064
▁चाहिन्छ	-10.3094
▁व्याख्या	-10.3112
▁रुकुम	-10.3112
▁हृदय	-10.3121
▁हिन्दु	-10.3124
▁विमल	-10.3144
▁बिरुवा	-10.3144
▁डिग्री	-10.315
▁ठगी	-10.316
▁दशैं	-10.317
▁सहमत	-10.3192
▁कूटनीति	-10.3216
▁बच्न	-10.3219
▁देवकोटा	-10.3226
▁चर्को	-10.3235
▁प्रशंसा	-10.3239
द्वार	-10.3242
▁विद्रोह	-10.3251
▁तुरुन्त	-10.3268
▁मातहत	-10.3271
▁भूभाग	-10.3274
▁एक्लै	-10.3274
पन्थी	-10.3278
▁प्राथमिक	-10.328
▁महानिर्देशक	-10.329
▁जुनसुकै	-10.3296
़	-10.33
▁डिसेम्बर	-10.3309
▁भेटवार्ता	-10.3322
▁त्रास	-10.3323
▁बिभिन्न	-10.3329
▁अनुमोदन	-10.3335
▁फलफूल	-10.3342
▁मूर्ति	-10.3355
▁स्टोर	-10.3359
▁उड्डयन	-10.3367
▁वीरेन्द्र	-10.3403
▁स्नातक	-10.3412
▁पारिश्रमिक	-10.3413
▁वेबसाइट	-10.3413
▁प्रतिवद्धता	-10.3439
H	-10.3452
▁त्याग	-10.3482
▁भ्रम	-10.3484
▁प्रतिस्पर्धी	-10.3488
▁जनमत	-10.3503
▁मेलम्ची	-10.3521
▁विभेद	-10.3528
▁२०१७	-10.3544
▁ब्रान्ड	-10.3551
▁छिट्टै	-10.3564
▁निर्देशिका	-10.3567
▁जलवायु	-10.3577
बाहिर	-10.3578
▁महोत्तरी	-10.3587
▁हेक्टर	-10.3593
▁वृद्ध	-10.3599
▁रोनाल्डो	-10.3607
▁शिखर	-10.3617
▁सम्भावित	-10.362
▁उपाध्याय	-10.3623
▁उचाइ	-10.3624
ऋ	-10.3637
▁चाँदी	-10.3643
▁कल्याण	-10.365
G	-10.3653
्याक्ट	-10.3656
▁एनसेल	-10.3674
▁विपन्न	-10.3684
▁आंशिक	-10.369
▁जनसङ्ख्या	-10.369
▁विप्लव	-10.3694
▁स्मृति	-10.3704
▁एम्बुलेन्स	-10.3707
▁निम्न	-10.371
▁मदिरा	-10.3714
▁विवेक	-10.3719
▁अनुकूल	-10.374
ing	-10.375
▁सिंहदरबार	-10.3754
▁अधिवक्ता	-10.3761
▁निर्णायक	-10.3761
▁सवै	-10.3767
▁जनवरी	-10.3778
▁अर्घाखाँची	-10.3798
▁सशक्त	-10.3801
▁हकप्रद	-10.3805
बमोजिम	-10.3823
▁सिस्टम	-10.3824
▁वैकल्पिक	-10.3825
▁ज्योति	-10.3842
▁प्रादेशिक	-10.3852
▁संयोजकत्वमा	-10.3852
बित्तिकै	-10.3855
▁लाइसेन्स	-10.3859
▁कुकुर	-10.391
▁अभिवृद्धि	-10.3911
▁सुरेन्द्र	-10.3914
▁निष्कासन	-10.392
▁रहँदै	-10.3928
▁उदयपुर	-10.3941
प्रचण्ड	-10.3943
▁पूरै	-10.3944
▁उत्रिए	-10.3948
▁पीसीआर	-10.3951
▁बुँदे	-10.3951
▁क्रियाशील	-10.3986
▁सैन्य	-10.401
▁च्यानल	-10.402
▁ढिलाइ	-10.402
▁कोषाध्यक्ष	-10.4027
▁मुम्बई	-10.4027
▁मन्त्रिपरिषद	-10.4036
▁तापक्रम	-10.4055
▁विन्दु	-10.4055
▁मोडेल	-10.4065
▁जिकिर	-10.4076
▁ऋषि	-10.4103
▁विपद्	-10.4107
F	-10.4578
K	-10.4993
V	-10.5489
x	-10.565
U	-10.6255
z	-10.6598
W	-10.754
«	-10.7957
ॉ	-10.9027
j	-10.97
ञ	-10.9869
_	-11.0567
‍	-11.0707
औ	-11.4854
“	-11.5927
ऐ	-12.0048
